{
  "vocab_size": 4000,
  "special_tokens": [
    "<pad>",
    "<bos>",
    "<eos>",
    "<unk>"
  ],
  "split_pattern": null,
  "merges": [
    [
      "ĩ",
      "Ű"
    ],
    [
      "ŕ",
      "Ē"
    ],
    [
      "Ĥ",
      "Ů"
    ],
    [
      "ŗ",
      "Ė"
    ],
    [
      "ŗ",
      "Đ"
    ],
    [
      "ī",
      "Ŭ"
    ],
    [
      "ĵ",
      "Ē"
    ],
    [
      "œ",
      "š"
    ],
    [
      "Ē",
      "ń"
    ],
    [
      "Ē",
      "ł"
    ],
    [
      "Ł",
      "Ė"
    ],
    [
      "Ŀ",
      "Ű"
    ],
    [
      "Ľ",
      "Ŭ"
    ],
    [
      "Ĳ",
      "Ů"
    ],
    [
      "Ł",
      "Đ"
    ],
    [
      "š",
      "ĺ"
    ],
    [
      "Ĥ",
      "Ś"
    ],
    [
      "ņ",
      "Ş"
    ],
    [
      "ņ",
      "Ř"
    ],
    [
      "ĸ",
      "ĸ"
    ],
    [
      "ĵ",
      "Ħ"
    ],
    [
      "Ī",
      "Ŭ"
    ],
    [
      "Ĩ",
      "Ű"
    ],
    [
      "Ŗ",
      "Ė"
    ],
    [
      "ĥ",
      "Ů"
    ],
    [
      "Ŗ",
      "Đ"
    ],
    [
      "ģ",
      "Ē"
    ],
    [
      "Ń",
      "Ē"
    ],
    [
      "Ġ",
      "Ŭ"
    ],
    [
      "Ģ",
      "Ű"
    ],
    [
      "Ņ",
      "š"
    ],
    [
      "Ŝ",
      "Ė"
    ],
    [
      "į",
      "Ů"
    ],
    [
      "œ",
      "ł"
    ],
    [
      "Ŝ",
      "Đ"
    ],
    [
      "ŗ",
      "ń"
    ],
    [
      "ĥ",
      "ľ"
    ],
    [
      "ś",
      "Ř"
    ],
    [
      "œ",
      "ń"
    ],
    [
      "ŗ",
      "ł"
    ],
    [
      "ś",
      "Ş"
    ],
    [
      "Ŕ",
      "Ē"
    ],
    [
      "Ĵ",
      "Ē"
    ],
    [
      "Ēń",
      "Ś"
    ],
    [
      "šĺ",
      "Ĥ"
    ],
    [
      "ī",
      "ľ"
    ],
    [
      "œ",
      "Ş"
    ],
    [
      "ĭ",
      "ľ"
    ],
    [
      "ĩ",
      "Ģ"
    ],
    [
      "ĵ",
      "ŀ"
    ],
    [
      "ĩ",
      "īŬ"
    ],
    [
      "ņ",
      "ř"
    ],
    [
      "ŕ",
      "ŀ"
    ],
    [
      "Ĥ",
      "ļ"
    ],
    [
      "ņ",
      "ş"
    ],
    [
      "Œ",
      "š"
    ],
    [
      "œ",
      "Ř"
    ],
    [
      "ĺ",
      "Ŭ"
    ],
    [
      "ņ",
      "Ė"
    ],
    [
      "ĵ",
      "Ů"
    ],
    [
      "ĸ",
      "Ű"
    ],
    [
      "ņ",
      "Đ"
    ],
    [
      "ĤŚ",
      "ŕĒ"
    ],
    [
      "Ŝ",
      "ŗ"
    ],
    [
      "ņŘ",
      "ŗĖ"
    ],
    [
      "œ",
      "ĳ"
    ],
    [
      "ĵĦ",
      "ĩŰ"
    ],
    [
      "ŝ",
      "Ş"
    ],
    [
      "ĸĸ",
      "ŗĐ"
    ],
    [
      "į",
      "Ģ"
    ],
    [
      "ĭ",
      "Ĥ"
    ],
    [
      "ģ",
      "ľ"
    ],
    [
      "ħ",
      "Ģ"
    ],
    [
      "ŝ",
      "ł"
    ],
    [
      "Ĩ",
      "Ġ"
    ],
    [
      "Ġ",
      "ļ"
    ],
    [
      "ŝ",
      "Ř"
    ],
    [
      "šĺĤ",
      "ĵĒ"
    ],
    [
      "Ġ",
      "Ġ"
    ],
    [
      "ő",
      "Ŝ"
    ],
    [
      "ĭ",
      "Ģ"
    ],
    [
      "ņŞ",
      "ĤŮ"
    ],
    [
      "œ",
      "Ś"
    ],
    [
      "ő",
      "Ş"
    ],
    [
      "Ē",
      "ŗ"
    ],
    [
      "ı",
      "Ŝ"
    ],
    [
      "ĒńŚ",
      "œš"
    ],
    [
      "Ē",
      "ř"
    ],
    [
      "Ēł",
      "ĩīŬ"
    ],
    [
      "ŝ",
      "ń"
    ],
    [
      "į",
      "ĸ"
    ],
    [
      "Ē",
      "ş"
    ],
    [
      "Ĥ",
      "ĪŬ"
    ],
    [
      "ŀ",
      "ř"
    ],
    [
      "ŀ",
      "ş"
    ],
    [
      "Į",
      "ļ"
    ],
    [
      "ĵ",
      "Ű"
    ],
    [
      "ĩ",
      "ľ"
    ],
    [
      "ī",
      "ĨŰ"
    ],
    [
      "ĵ",
      "ŖĐ"
    ],
    [
      "ŕ",
      "ŖĖ"
    ],
    [
      "ķ",
      "Ŭ"
    ],
    [
      "ŋ",
      "Ė"
    ],
    [
      "ģ",
      "Ģ"
    ],
    [
      "ĸ",
      "Ů"
    ],
    [
      "ś",
      "ł"
    ],
    [
      "ś",
      "ń"
    ],
    [
      "ŋ",
      "Đ"
    ],
    [
      "ŀ",
      "œ"
    ],
    [
      "ő",
      "ş"
    ],
    [
      "ġ",
      "ľ"
    ],
    [
      "ŗ",
      "Ş"
    ],
    [
      "ř",
      "Ŝ"
    ],
    [
      "ŗ",
      "Ř"
    ],
    [
      "Ŀ",
      "ŀ"
    ],
    [
      "Ġ",
      "Ģ"
    ],
    [
      "į",
      "ľ"
    ],
    [
      "œ",
      "ĥŮ"
    ],
    [
      "ş",
      "ŀ"
    ],
    [
      "Ł",
      "ń"
    ],
    [
      "Ł",
      "ł"
    ],
    [
      "œ",
      "Ŝ"
    ],
    [
      "į",
      "ĩ"
    ],
    [
      "ŏ",
      "š"
    ],
    [
      "ŗ",
      "ŔĒ"
    ],
    [
      "ŝ",
      "Ő"
    ],
    [
      "ŀ",
      "ŕ"
    ],
    [
      "ġ",
      "Ŭ"
    ],
    [
      "ģ",
      "Ű"
    ],
    [
      "Ŀ",
      "Ĥ"
    ],
    [
      "ĳ",
      "ī"
    ],
    [
      "Į",
      "Ů"
    ],
    [
      "ŝ",
      "Ņ"
    ],
    [
      "į",
      "ĪŬ"
    ],
    [
      "ĭ",
      "ļ"
    ],
    [
      "Ē",
      "ő"
    ],
    [
      "ŝ",
      "Đ"
    ],
    [
      "ŝ",
      "Ń"
    ],
    [
      "ĩ",
      "ĴĒ"
    ],
    [
      "ı",
      "Ş"
    ],
    [
      "ŝ",
      "Ė"
    ],
    [
      "ı",
      "ŀ"
    ],
    [
      "Ĩ",
      "Ŭ"
    ],
    [
      "ġ",
      "Ĺ"
    ],
    [
      "ī",
      "Ģ"
    ],
    [
      "ŝ",
      "Ŗ"
    ],
    [
      "ġ",
      "Ī"
    ],
    [
      "ħ",
      "Ů"
    ],
    [
      "Ŀ",
      "Ŕ"
    ],
    [
      "ő",
      "ř"
    ],
    [
      "ģ",
      "Ķ"
    ],
    [
      "ĵ",
      "Ŝ"
    ],
    [
      "Ŕ",
      "Ė"
    ],
    [
      "Į",
      "ĨŬ"
    ],
    [
      "Ġ",
      "ĺ"
    ],
    [
      "ĭ",
      "ģ"
    ],
    [
      "ġ",
      "Ģ"
    ],
    [
      "į",
      "Ġ"
    ],
    [
      "ĩ",
      "Ē"
    ],
    [
      "ĸ",
      "Ŀ"
    ],
    [
      "ŕ",
      "Ŝ"
    ],
    [
      "Ł",
      "ş"
    ],
    [
      "Ĥ",
      "Ġ"
    ],
    [
      "Į",
      "Ġ"
    ],
    [
      "į",
      "Ŀ"
    ],
    [
      "ġĪ",
      "Ű"
    ],
    [
      "Ĺ",
      "Ŝ"
    ],
    [
      "ŗ",
      "Œš"
    ],
    [
      "ŗ",
      "ĳ"
    ],
    [
      "Ň",
      "ń"
    ],
    [
      "ő",
      "ŀ"
    ],
    [
      "ĵ",
      "ħ"
    ],
    [
      "ĿŔ",
      "Đ"
    ],
    [
      "ĭ",
      "Ű"
    ],
    [
      "į",
      "ĺ"
    ],
    [
      "Ġ",
      "Ů"
    ],
    [
      "Ħ",
      "Ů"
    ],
    [
      "œ",
      "Ė"
    ],
    [
      "œ",
      "Đ"
    ],
    [
      "ŕ",
      "Đ"
    ],
    [
      "ĭľ",
      "ŖĐ"
    ],
    [
      "Ś",
      "ř"
    ],
    [
      "Ş",
      "ş"
    ],
    [
      "Ň",
      "ł"
    ],
    [
      "ĠĠ",
      "ĨŰ"
    ],
    [
      "Ħ",
      "ĩŰ"
    ],
    [
      "ģ",
      "ĥ"
    ],
    [
      "ļ",
      "ĩ"
    ],
    [
      "į",
      "Ŭ"
    ],
    [
      "ĵŀ",
      "Đ"
    ],
    [
      "œŞ",
      "ŖĖ"
    ],
    [
      "Ĩ",
      "ĺ"
    ],
    [
      "ī",
      "Ű"
    ],
    [
      "ġ",
      "ĢŰ"
    ],
    [
      "ś",
      "ŕ"
    ],
    [
      "ř",
      "ĳ"
    ],
    [
      "ŕ",
      "Ė"
    ],
    [
      "ŉ",
      "Ē"
    ],
    [
      "Ĥļ",
      "Ŭ"
    ],
    [
      "ľ",
      "ĵ"
    ],
    [
      "ś",
      "œ"
    ],
    [
      "ŕŀ",
      "Ė"
    ],
    [
      "įĩ",
      "Ŭ"
    ],
    [
      "ĭ",
      "Ů"
    ],
    [
      "īľ",
      "Ű"
    ],
    [
      "Ś",
      "ş"
    ],
    [
      "ħĢ",
      "ķ"
    ],
    [
      "Ĺ",
      "Ŝŗ"
    ],
    [
      "Ł",
      "ř"
    ],
    [
      "Ģ",
      "ŗ"
    ],
    [
      "Į",
      "ĠŬ"
    ],
    [
      "Ŀ",
      "ŜĐ"
    ],
    [
      "Į",
      "Ļ"
    ],
    [
      "Ĩ",
      "ĠŬ"
    ],
    [
      "ĩ",
      "Ů"
    ],
    [
      "ĭ",
      "ħ"
    ],
    [
      "œŘ",
      "ĥŮ"
    ],
    [
      "š",
      "Ĺ"
    ],
    [
      "ĩ",
      "ħ"
    ],
    [
      "Ē",
      "Ņ"
    ],
    [
      "ŗ",
      "Ņ"
    ],
    [
      "ĥľ",
      "ŕĐ"
    ],
    [
      "ŗ",
      "Ś"
    ],
    [
      "ħ",
      "ĢŰ"
    ],
    [
      "Ş",
      "ř"
    ],
    [
      "Ĺ",
      "ŜĐ"
    ],
    [
      "ıŜ",
      "ŔĒ"
    ],
    [
      "ĕ",
      "ĦĩŰ"
    ],
    [
      "ś",
      "ş"
    ],
    [
      "Ē",
      "Ŕ"
    ],
    [
      "ĨĠ",
      "īŰ"
    ],
    [
      "ĥ",
      "Ĥ"
    ],
    [
      "Ē",
      "Œ"
    ],
    [
      "œĳ",
      "Ů"
    ],
    [
      "įĢ",
      "ĴĒ"
    ],
    [
      "ņ",
      "ń"
    ],
    [
      "śŞ",
      "ŕĖ"
    ],
    [
      "ő",
      "ń"
    ],
    [
      "Ē",
      "Ń"
    ],
    [
      "ŝ",
      "ś"
    ],
    [
      "Ĳ",
      "ĺ"
    ],
    [
      "ĵ",
      "ġŬ"
    ],
    [
      "Ĥ",
      "Ĺ"
    ],
    [
      "ņ",
      "ł"
    ],
    [
      "Ē",
      "Ł"
    ],
    [
      "š",
      "Ľ"
    ],
    [
      "ő",
      "ł"
    ],
    [
      "ś",
      "ř"
    ],
    [
      "ŕ",
      "Ş"
    ],
    [
      "Ĥ",
      "ŝĐ"
    ],
    [
      "ŗ",
      "œ"
    ],
    [
      "śŘ",
      "ĦŮ"
    ],
    [
      "ŗ",
      "ŗ"
    ],
    [
      "ı",
      "ŁĐ"
    ],
    [
      "Ġ",
      "ĽŬ"
    ],
    [
      "Ē",
      "œ"
    ],
    [
      "ľ",
      "Ŀ"
    ],
    [
      "Ē",
      "Ň"
    ],
    [
      "œ",
      "Ņ"
    ],
    [
      "ŀ",
      "ŗ"
    ],
    [
      "œ",
      "Ń"
    ],
    [
      "į",
      "ĿŰ"
    ],
    [
      "řŜ",
      "ő"
    ],
    [
      "ĸ",
      "Ĺ"
    ],
    [
      "őŜ",
      "Œš"
    ],
    [
      "Ē",
      "ŕ"
    ],
    [
      "Ē",
      "Ş"
    ],
    [
      "ģ",
      "ļ"
    ],
    [
      "ş",
      "ş"
    ],
    [
      "į",
      "ġ"
    ],
    [
      "ī",
      "ĿŰ"
    ],
    [
      "Ĥ",
      "ĽŬ"
    ],
    [
      "ś",
      "Ń"
    ],
    [
      "ĩ",
      "ģ"
    ],
    [
      "ĥ",
      "ĳ"
    ],
    [
      "Ĥ",
      "Ľ"
    ],
    [
      "ĵ",
      "ŁĐ"
    ],
    [
      "Ŀ",
      "Ĺ"
    ],
    [
      "Ē",
      "Ř"
    ],
    [
      "ś",
      "Ņ"
    ],
    [
      "ŗ",
      "ŕ"
    ],
    [
      "ő",
      "Ř"
    ],
    [
      "ŗ",
      "Ń"
    ],
    [
      "ņ",
      "œ"
    ],
    [
      "ŗ",
      "Œ"
    ],
    [
      "Ņ",
      "ş"
    ],
    [
      "Ĩ",
      "Ľ"
    ],
    [
      "Ĥ",
      "Ű"
    ],
    [
      "ŗń",
      "š"
    ],
    [
      "Ŗ",
      "ş"
    ],
    [
      "šĺ",
      "ģŰ"
    ],
    [
      "Ĩ",
      "Ģ"
    ],
    [
      "ĳ",
      "ġ"
    ],
    [
      "Ł",
      "œ"
    ],
    [
      "ŝ",
      "ŝ"
    ],
    [
      "ĥ",
      "ģ"
    ],
    [
      "œ",
      "ŃĒ"
    ],
    [
      "Ĵ",
      "ļ"
    ],
    [
      "Ş",
      "ŗ"
    ],
    [
      "œ",
      "ś"
    ],
    [
      "ņ",
      "ŗ"
    ],
    [
      "ő",
      "ŁĖ"
    ],
    [
      "Ŀ",
      "Ŝ"
    ],
    [
      "ŝŘ",
      "š"
    ],
    [
      "Ēń",
      "ŝĖ"
    ],
    [
      "ĭ",
      "ģĒ"
    ],
    [
      "Ĩ",
      "ĭ"
    ],
    [
      "Ŗ",
      "œ"
    ],
    [
      "Ł",
      "Ņ"
    ],
    [
      "Ġ",
      "ģ"
    ],
    [
      "ĩ",
      "ģĒ"
    ],
    [
      "Ņ",
      "ŗ"
    ],
    [
      "ś",
      "Ŝ"
    ],
    [
      "ĥ",
      "ļ"
    ],
    [
      "Ĥ",
      "Ģ"
    ],
    [
      "Ĳ",
      "ħ"
    ],
    [
      "ş",
      "ř"
    ],
    [
      "Ļ",
      "ľ"
    ],
    [
      "Ś",
      "Ė"
    ],
    [
      "ŗ",
      "ő"
    ],
    [
      "ļ",
      "ģ"
    ],
    [
      "Ģ",
      "Ħ"
    ],
    [
      "ŗ",
      "ŃĒ"
    ],
    [
      "Ēş",
      "ŔĖ"
    ],
    [
      "ĸ",
      "Ģ"
    ],
    [
      "ĩ",
      "ļ"
    ],
    [
      "Ł",
      "Ń"
    ],
    [
      "ś",
      "ŗ"
    ],
    [
      "Ņ",
      "Ş"
    ],
    [
      "ĳ",
      "ħ"
    ],
    [
      "Ġ",
      "Ĺ"
    ],
    [
      "ş",
      "Đ"
    ],
    [
      "Ĥ",
      "ĵĒ"
    ],
    [
      "ŕ",
      "ş"
    ],
    [
      "ŕ",
      "ŁĖ"
    ],
    [
      "œ",
      "Ņš"
    ],
    [
      "ś",
      "ő"
    ],
    [
      "ś",
      "Ś"
    ],
    [
      "Ĭ",
      "Ů"
    ],
    [
      "Į",
      "ģ"
    ],
    [
      "Ē",
      "ņ"
    ],
    [
      "Ēł",
      "ĮŮ"
    ],
    [
      "œ",
      "Œ"
    ],
    [
      "Ē",
      "ŀ"
    ],
    [
      "Ŝ",
      "ő"
    ],
    [
      "Ŗ",
      "ř"
    ],
    [
      "ŗ",
      "Ŕ"
    ],
    [
      "ĵŜ",
      "ń"
    ],
    [
      "į",
      "ĢŰ"
    ],
    [
      "ĩ",
      "ı"
    ],
    [
      "Ŕ",
      "ř"
    ],
    [
      "Ġ",
      "ĩ"
    ],
    [
      "œ",
      "ŝ"
    ],
    [
      "į",
      "Ī"
    ],
    [
      "ĭ",
      "Ľ"
    ],
    [
      "ľ",
      "Ĺ"
    ],
    [
      "ł",
      "š"
    ],
    [
      "Ŝ",
      "œ"
    ],
    [
      "Ĵ",
      "Ġ"
    ],
    [
      "Ġ",
      "Ľ"
    ],
    [
      "Ň",
      "Ş"
    ],
    [
      "Ň",
      "Ř"
    ],
    [
      "Ē",
      "Ő"
    ],
    [
      "ĵ",
      "ļ"
    ],
    [
      "ř",
      "ŜĖ"
    ],
    [
      "ĭ",
      "ĳ"
    ],
    [
      "ņř",
      "š"
    ],
    [
      "ŝŐ",
      "š"
    ],
    [
      "œ",
      "Ŕ"
    ],
    [
      "Ġ",
      "ĠŬ"
    ],
    [
      "őŞ",
      "Ė"
    ],
    [
      "ő",
      "ŗ"
    ],
    [
      "Į",
      "Ģ"
    ],
    [
      "ĠĢ",
      "Ŭ"
    ],
    [
      "Ēř",
      "ħŮ"
    ],
    [
      "Ĩ",
      "ġĢŰ"
    ],
    [
      "ĩ",
      "ī"
    ],
    [
      "į",
      "ħ"
    ],
    [
      "Ş",
      "ő"
    ],
    [
      "Ŝ",
      "ş"
    ],
    [
      "Ŕ",
      "ş"
    ],
    [
      "ĩ",
      "Ĥ"
    ],
    [
      "Ś",
      "Đ"
    ],
    [
      "į",
      "į"
    ],
    [
      "Ņ",
      "ř"
    ],
    [
      "Ġ",
      "ĺŬ"
    ],
    [
      "ī",
      "ĸ"
    ],
    [
      "ĤŚ",
      "Đ"
    ],
    [
      "śş",
      "ŜĖ"
    ],
    [
      "Ś",
      "œš"
    ],
    [
      "īĢ",
      "Ĥ"
    ],
    [
      "ŝ",
      "ņ"
    ],
    [
      "ĵħ",
      "ģľ"
    ],
    [
      "ł",
      "ş"
    ],
    [
      "śŘ",
      "š"
    ],
    [
      "Ĩ",
      "ĸ"
    ],
    [
      "ġ",
      "Ű"
    ],
    [
      "ı",
      "ŜĐ"
    ],
    [
      "įĠ",
      "Ű"
    ],
    [
      "œ",
      "ņ"
    ],
    [
      "ś",
      "ŀ"
    ],
    [
      "ı",
      "ņ"
    ],
    [
      "ĩ",
      "Ĵ"
    ],
    [
      "Ĩ",
      "ĽŬ"
    ],
    [
      "Ēŗ",
      "įĪŬ"
    ],
    [
      "ł",
      "ř"
    ],
    [
      "ġ",
      "Ġ"
    ],
    [
      "į",
      "ī"
    ],
    [
      "ś",
      "ņ"
    ],
    [
      "Ĩ",
      "Ī"
    ],
    [
      "Ē",
      "Ť"
    ],
    [
      "ĥ",
      "ĿŜĐ"
    ],
    [
      "Ē",
      "Ŗ"
    ],
    [
      "ŗ",
      "Ŝ"
    ],
    [
      "ıŞ",
      "Đ"
    ],
    [
      "ŗ",
      "Ņš"
    ],
    [
      "į",
      "ĸŰ"
    ],
    [
      "Ŀŀ",
      "Đ"
    ],
    [
      "ł",
      "ł"
    ],
    [
      "Ķ",
      "ŝł"
    ],
    [
      "Ł",
      "ŕ"
    ],
    [
      "Ĺ",
      "Ģ"
    ],
    [
      "ı",
      "ņĐ"
    ],
    [
      "Ş",
      "Đ"
    ],
    [
      "ĳ",
      "Ů"
    ],
    [
      "Įļ",
      "Ŭ"
    ],
    [
      "Ĳ",
      "ĺŬ"
    ],
    [
      "Ŕ",
      "şŀ"
    ],
    [
      "Ģ",
      "ĥ"
    ],
    [
      "ĵĦ",
      "Ŭ"
    ],
    [
      "ş",
      "įŮ"
    ],
    [
      "ġľ",
      "Ű"
    ],
    [
      "ŗ",
      "ņ"
    ],
    [
      "Ś",
      "ŕĒ"
    ],
    [
      "Ś",
      "ŗ"
    ],
    [
      "ş",
      "ŔĖ"
    ],
    [
      "Ē",
      "Ţ"
    ],
    [
      "ŝ",
      "Ŝ"
    ],
    [
      "ł",
      "ń"
    ],
    [
      "ş",
      "ŗ"
    ],
    [
      "Ĥ",
      "ĭ"
    ],
    [
      "Ġ",
      "Ű"
    ],
    [
      "Ĩ",
      "Ĺ"
    ],
    [
      "š",
      "Ĭ"
    ],
    [
      "ĒńŚ",
      "œ"
    ],
    [
      "œ",
      "ŀ"
    ],
    [
      "ŝ",
      "Ň"
    ],
    [
      "ĸ",
      "ŗĐ"
    ],
    [
      "Ē",
      "ű"
    ],
    [
      "Ļ",
      "ıŁĐ"
    ],
    [
      "ĭ",
      "ķŬ"
    ],
    [
      "ŝ",
      "ŀ"
    ],
    [
      "į",
      "ļ"
    ],
    [
      "ĥ",
      "Ģ"
    ],
    [
      "ő",
      "œ"
    ],
    [
      "śř",
      "įŮ"
    ],
    [
      "Ņ",
      "őŁĖ"
    ],
    [
      "š",
      "ġĪŰ"
    ],
    [
      "ř",
      "ħŮ"
    ],
    [
      "Ł",
      "Ř"
    ],
    [
      "Ł",
      "Ş"
    ],
    [
      "Ē",
      "ś"
    ],
    [
      "Ĩ",
      "ļ"
    ],
    [
      "Į",
      "Ĺ"
    ],
    [
      "Ĩ",
      "ģĢ"
    ],
    [
      "Ņ",
      "Ř"
    ],
    [
      "œ",
      "ř"
    ],
    [
      "ģ",
      "ģ"
    ],
    [
      "ĵ",
      "īĨŰ"
    ],
    [
      "ĩ",
      "ĳ"
    ],
    [
      "į",
      "Ĺ"
    ],
    [
      "ő",
      "ő"
    ],
    [
      "ŗ",
      "ŀ"
    ],
    [
      "Ē",
      "ŷ"
    ],
    [
      "ś",
      "ŃĒ"
    ],
    [
      "Ŝ",
      "ř"
    ],
    [
      "ĭ",
      "Ġ"
    ],
    [
      "Ņŗ",
      "ĲŮ"
    ],
    [
      "ŗ",
      "ś"
    ],
    [
      "ő",
      "ņĖ"
    ],
    [
      "œ",
      "ŕ"
    ],
    [
      "Ē",
      "ť"
    ],
    [
      "Ş",
      "œ"
    ],
    [
      "Ŧ",
      "Ř"
    ],
    [
      "ŗ",
      "įĪŬ"
    ],
    [
      "Ķ",
      "įĿŰ"
    ],
    [
      "Ś",
      "œ"
    ],
    [
      "Ĵ",
      "Ľ"
    ],
    [
      "Ŗ",
      "ŕ"
    ],
    [
      "ś",
      "Œ"
    ],
    [
      "ĩ",
      "Ľ"
    ],
    [
      "ŕ",
      "Ř"
    ],
    [
      "œŘ",
      "š"
    ],
    [
      "Ē",
      "ţ"
    ],
    [
      "Ħ",
      "ĥ"
    ],
    [
      "ŝ",
      "Ś"
    ],
    [
      "ś",
      "ś"
    ],
    [
      "Ŧ",
      "Ş"
    ],
    [
      "ĵĒ",
      "ń"
    ],
    [
      "Ş",
      "Ė"
    ],
    [
      "Ŕ",
      "řĳ"
    ],
    [
      "Ĩ",
      "ĵ"
    ],
    [
      "Ģ",
      "ĺ"
    ],
    [
      "Ŕ",
      "ń"
    ],
    [
      "ş",
      "Ė"
    ],
    [
      "őŜ",
      "Œ"
    ],
    [
      "ĥ",
      "ī"
    ],
    [
      "ŝ",
      "Ł"
    ],
    [
      "ĥ",
      "ŀ"
    ],
    [
      "ŕĒ",
      "ł"
    ],
    [
      "ŕŜ",
      "ł"
    ],
    [
      "Ē",
      "ŝ"
    ],
    [
      "Ŀ",
      "ĵ"
    ],
    [
      "ĮĨŬ",
      "ĤŚŕĒ"
    ],
    [
      "řŜő",
      "š"
    ],
    [
      "Ň",
      "Ń"
    ],
    [
      "œŚ",
      "š"
    ],
    [
      "ĥ",
      "ħ"
    ],
    [
      "Ş",
      "ŕ"
    ],
    [
      "Ļ",
      "ĸ"
    ],
    [
      "ń",
      "œ"
    ],
    [
      "Ĥ",
      "ĺ"
    ],
    [
      "ń",
      "ş"
    ],
    [
      "į",
      "Ĥ"
    ],
    [
      "Ē",
      "Ų"
    ],
    [
      "ş",
      "ő"
    ],
    [
      "ś",
      "Ŕ"
    ],
    [
      "Ī",
      "Ĺ"
    ],
    [
      "ħ",
      "ħ"
    ],
    [
      "Ő",
      "œ"
    ],
    [
      "Ĥ",
      "ģ"
    ],
    [
      "ĵ",
      "ŜĐ"
    ],
    [
      "ħ",
      "œŃĒ"
    ],
    [
      "ĭ",
      "ġ"
    ],
    [
      "Ň",
      "Ś"
    ],
    [
      "Ň",
      "Ņ"
    ],
    [
      "ĭ",
      "Ĵ"
    ],
    [
      "Ēř",
      "ŜĖ"
    ],
    [
      "ĵ",
      "ī"
    ],
    [
      "Ĵ",
      "Ģ"
    ],
    [
      "Ē",
      "Ŵ"
    ],
    [
      "Ļ",
      "Ģ"
    ],
    [
      "ģ",
      "ħ"
    ],
    [
      "Ĩ",
      "ģ"
    ],
    [
      "ś",
      "Ņš"
    ],
    [
      "ĵ",
      "ĽŬ"
    ],
    [
      "Ĺ",
      "ŝŞ"
    ],
    [
      "ŀ",
      "ő"
    ],
    [
      "Ġ",
      "Ŀ"
    ],
    [
      "į",
      "Ļ"
    ],
    [
      "Ē",
      "ŵ"
    ],
    [
      "ı",
      "ņř"
    ],
    [
      "Ŝ",
      "ł"
    ],
    [
      "Į",
      "Ľ"
    ],
    [
      "Ş",
      "Ŝ"
    ],
    [
      "Ŝ",
      "ŕ"
    ],
    [
      "Ġ",
      "ĵ"
    ],
    [
      "į",
      "ĺŬ"
    ],
    [
      "Ē",
      "őŜŒš"
    ],
    [
      "ń",
      "ř"
    ],
    [
      "Ŕ",
      "ł"
    ],
    [
      "Ġ",
      "Ī"
    ],
    [
      "Ĥ",
      "ĠŬ"
    ],
    [
      "Į",
      "ĵ"
    ],
    [
      "Ē",
      "Ÿ"
    ],
    [
      "š",
      "ľ"
    ],
    [
      "ĭ",
      "ī"
    ],
    [
      "Ň",
      "Ŝ"
    ],
    [
      "Ĳ",
      "ī"
    ],
    [
      "Ġ",
      "ĭ"
    ],
    [
      "ř",
      "Đ"
    ],
    [
      "ĭ",
      "īŬ"
    ],
    [
      "ĥ",
      "Ħ"
    ],
    [
      "ś",
      "ŝ"
    ],
    [
      "Ŀ",
      "ĸ"
    ],
    [
      "ľ",
      "ı"
    ],
    [
      "Ē",
      "ų"
    ],
    [
      "ņ",
      "Ņ"
    ],
    [
      "Ļ",
      "Ĺ"
    ],
    [
      "Ē",
      "Ž"
    ],
    [
      "Ĳ",
      "Ľ"
    ],
    [
      "Ī",
      "Ů"
    ],
    [
      "ŝŖ",
      "ĒłĩīŬ"
    ],
    [
      "Ķ",
      "Ħ"
    ],
    [
      "Ő",
      "ŕ"
    ],
    [
      "ĿŔĐ",
      "ņŞĤŮ"
    ],
    [
      "Ĥ",
      "Ŀ"
    ],
    [
      "Ě",
      "ĤĵĒ"
    ],
    [
      "œš",
      "ĺ"
    ],
    [
      "ġ",
      "Ŀ"
    ],
    [
      "Ēş",
      "įŮ"
    ],
    [
      "ņ",
      "œĥŮ"
    ],
    [
      "Ĥ",
      "ĸ"
    ],
    [
      "Ġ",
      "ı"
    ],
    [
      "Ķ",
      "ħ"
    ],
    [
      "Ē",
      "Ż"
    ],
    [
      "ş",
      "œ"
    ],
    [
      "Ĭ",
      "ľ"
    ],
    [
      "ŗ",
      "ĵŮ"
    ],
    [
      "Ń",
      "ĳ"
    ],
    [
      "į",
      "ĭ"
    ],
    [
      "ĸ",
      "ģĒ"
    ],
    [
      "Ē",
      "ž"
    ],
    [
      "į",
      "Ľ"
    ],
    [
      "Ģ",
      "ġ"
    ],
    [
      "ı",
      "Ģ"
    ],
    [
      "ŝŐ",
      "šĺĤĵĒ"
    ],
    [
      "ŦŘ",
      "ŗĖ"
    ],
    [
      "ņ",
      "ő"
    ],
    [
      "ģĶ",
      "ĒńŚœš"
    ],
    [
      "Ĺ",
      "ľ"
    ],
    [
      "Ļ",
      "Ŀ"
    ],
    [
      "ıŜ",
      "Ŕ"
    ],
    [
      "ĥ",
      "ķ"
    ],
    [
      "őŞ",
      "Ś"
    ],
    [
      "ķ",
      "ħ"
    ],
    [
      "Į",
      "ĺ"
    ],
    [
      "Ŝ",
      "ŋĖ"
    ],
    [
      "Ēł",
      "ĩ"
    ],
    [
      "ņ",
      "ŕŖĖ"
    ],
    [
      "ĥ",
      "Ľ"
    ],
    [
      "š",
      "įĢĴĒ"
    ],
    [
      "š",
      "Ī"
    ],
    [
      "Ŗ",
      "ŝń"
    ],
    [
      "Ş",
      "Ś"
    ],
    [
      "ł",
      "œ"
    ],
    [
      "ņ",
      "ŃĒ"
    ],
    [
      "Ŀ",
      "Ŀ"
    ],
    [
      "Ą",
      "ŚŕĒ"
    ],
    [
      "ģ",
      "ī"
    ],
    [
      "į",
      "ĵ"
    ],
    [
      "Ĵ",
      "ĺ"
    ],
    [
      "Ħ",
      "Ħ"
    ],
    [
      "įĢ",
      "Ĵ"
    ],
    [
      "Ģ",
      "ġĢ"
    ],
    [
      "ĭ",
      "ķ"
    ],
    [
      "ŕ",
      "ŗ"
    ],
    [
      "ħ",
      "śń"
    ],
    [
      "Ĺ",
      "ŁĐ"
    ],
    [
      "Ē",
      "Ź"
    ],
    [
      "Ģ",
      "īŬ"
    ],
    [
      "ĩĢ",
      "ŗĐ"
    ],
    [
      "Ş",
      "ŏš"
    ],
    [
      "ĸ",
      "ĵ"
    ],
    [
      "Ĳ",
      "Ħ"
    ],
    [
      "į",
      "Ĩ"
    ],
    [
      "ĭ",
      "Ļ"
    ],
    [
      "ņ",
      "ŕ"
    ],
    [
      "ĥ",
      "Ĵ"
    ],
    [
      "Ņř",
      "ņŞ"
    ],
    [
      "ģ",
      "Ľ"
    ],
    [
      "ļ",
      "Ģ"
    ],
    [
      "ĸ",
      "ı"
    ],
    [
      "œŚ",
      "Ė"
    ],
    [
      "Ş",
      "ŕĒ"
    ],
    [
      "ņş",
      "ĮĠŬ"
    ],
    [
      "Į",
      "ľ"
    ],
    [
      "Ĥ",
      "ı"
    ],
    [
      "įĸ",
      "ĹŝŞ"
    ],
    [
      "ĭĤ",
      "Ű"
    ],
    [
      "œ",
      "ő"
    ],
    [
      "ĢĦ",
      "Ŭ"
    ],
    [
      "įĿ",
      "Ŝ"
    ],
    [
      "ŝ",
      "ş"
    ],
    [
      "Ĉ",
      "ĠŬ"
    ],
    [
      "ŗ",
      "ş"
    ],
    [
      "į",
      "ĽŬ"
    ],
    [
      "Ę",
      "ĸŗĐ"
    ],
    [
      "Ĺ",
      "ģ"
    ],
    [
      "ņ",
      "Ņš"
    ],
    [
      "œł",
      "š"
    ],
    [
      "ŀ",
      "Ė"
    ],
    [
      "Į",
      "ĥ"
    ],
    [
      "ĸ",
      "ĵŖĐ"
    ],
    [
      "Ŝ",
      "Œ"
    ],
    [
      "ĤŚ",
      "őņĖ"
    ],
    [
      "ĻĹ",
      "ņŘ"
    ],
    [
      "š",
      "ħĢŰ"
    ],
    [
      "Ĥ",
      "ī"
    ],
    [
      "œ",
      "œ"
    ],
    [
      "Ī",
      "Ģ"
    ],
    [
      "Ē",
      "Ś"
    ],
    [
      "Ĥ",
      "ŗł"
    ],
    [
      "ŗŞ",
      "ņĖ"
    ],
    [
      "Ň",
      "œ"
    ],
    [
      "ŝ",
      "ř"
    ],
    [
      "Ħ",
      "ŗł"
    ],
    [
      "ŦŞ",
      "ĤŮ"
    ],
    [
      "Ģ",
      "ħ"
    ],
    [
      "Ē",
      "ź"
    ],
    [
      "ő",
      "ŕĒ"
    ],
    [
      "ĳ",
      "ŝŞ"
    ],
    [
      "Ĩ",
      "ĥ"
    ],
    [
      "ĥ",
      "ĤŚĐ"
    ],
    [
      "Ĳ",
      "īŬ"
    ],
    [
      "š",
      "Ħ"
    ],
    [
      "Ġ",
      "ĩĒ"
    ],
    [
      "Ķħ",
      "ĸĸ"
    ],
    [
      "ĵ",
      "ĺ"
    ],
    [
      "ŀ",
      "Ņ"
    ],
    [
      "ı",
      "ş"
    ],
    [
      "Ĳ",
      "Ļ"
    ],
    [
      "ŗł",
      "ŗĖ"
    ],
    [
      "ĭ",
      "Ĺ"
    ],
    [
      "Ŕşŀ",
      "Ė"
    ],
    [
      "Ē",
      "ſ"
    ],
    [
      "Ĭ",
      "īŬ"
    ],
    [
      "Ĩĺ",
      "ĤŰ"
    ],
    [
      "ĺ",
      "Ĺ"
    ],
    [
      "Ĥļ",
      "ĩŰ"
    ],
    [
      "ĭĢ",
      "Ŭ"
    ],
    [
      "Ġ",
      "ħ"
    ],
    [
      "ĵ",
      "īŬ"
    ],
    [
      "ĸĸ",
      "œń"
    ],
    [
      "Į",
      "ĸ"
    ],
    [
      "ĵ",
      "īľŰ"
    ],
    [
      "ħśń",
      "ŚĖ"
    ],
    [
      "Ő",
      "ř"
    ],
    [
      "ĸĹ",
      "ŝŞ"
    ],
    [
      "ģ",
      "Ļ"
    ],
    [
      "ĤĠ",
      "ĸŰ"
    ],
    [
      "ĵ",
      "īľ"
    ],
    [
      "ĩľ",
      "ņĐ"
    ],
    [
      "ĩħ",
      "ĿŰ"
    ],
    [
      "ŀ",
      "Ń"
    ],
    [
      "ħ",
      "ġľŰ"
    ],
    [
      "į",
      "īŬ"
    ],
    [
      "Ŀŀ",
      "ń"
    ],
    [
      "ŝ",
      "Œ"
    ],
    [
      "ņ",
      "ŕŀ"
    ],
    [
      "Ġ",
      "ĸ"
    ],
    [
      "Ġ",
      "ĵĒ"
    ],
    [
      "į",
      "ĥľ"
    ],
    [
      "ģ",
      "ķŬ"
    ],
    [
      "Ī",
      "ĿŀĐ"
    ],
    [
      "ł",
      "ŗ"
    ],
    [
      "ł",
      "Ś"
    ],
    [
      "ĵĦ",
      "ĭĤ"
    ],
    [
      "į",
      "Ġļ"
    ],
    [
      "Ĥ",
      "ľ"
    ],
    [
      "ő",
      "ŕ"
    ],
    [
      "ŝ",
      "Ŕ"
    ],
    [
      "ĒŁ",
      "ĠĽŬ"
    ],
    [
      "ĭ",
      "ģľ"
    ],
    [
      "Łł",
      "š"
    ],
    [
      "Ş",
      "ŉĒ"
    ],
    [
      "ĨĠŬ",
      "ĤŚŕĒ"
    ],
    [
      "Ĥ",
      "ĵ"
    ],
    [
      "Ĩ",
      "ĩ"
    ],
    [
      "Ē",
      "ż"
    ],
    [
      "Ĭ",
      "ħ"
    ],
    [
      "ő",
      "ś"
    ],
    [
      "ķ",
      "īŬ"
    ],
    [
      "ŕ",
      "ř"
    ],
    [
      "šĹ",
      "ĭģĒ"
    ],
    [
      "ĥ",
      "ģĒ"
    ],
    [
      "Ņ",
      "Ė"
    ],
    [
      "ŗń",
      "ĤŮ"
    ],
    [
      "Ġ",
      "ľ"
    ],
    [
      "ĵŀ",
      "ŕĒ"
    ],
    [
      "ī",
      "Ŀ"
    ],
    [
      "Ĭ",
      "Ĭ"
    ],
    [
      "Ŝ",
      "Ņ"
    ],
    [
      "Ĳ",
      "ŋĐ"
    ],
    [
      "ņŞ",
      "ĠĺŬ"
    ],
    [
      "Ņ",
      "œ"
    ],
    [
      "Ň",
      "ő"
    ],
    [
      "ĥ",
      "ĿŜ"
    ],
    [
      "Ő",
      "ş"
    ],
    [
      "Ē",
      "Ŝ"
    ],
    [
      "ņ",
      "œĳŮ"
    ],
    [
      "Ś",
      "ő"
    ],
    [
      "œĳ",
      "īŬ"
    ],
    [
      "ŗ",
      "ŝ"
    ],
    [
      "Ŀ",
      "ĥ"
    ],
    [
      "Ŕřĳ",
      "Ů"
    ],
    [
      "Ş",
      "œš"
    ],
    [
      "īľ",
      "ĵĒ"
    ],
    [
      "ıŀ",
      "Đ"
    ],
    [
      "ġĪŰ",
      "ņŘŗĖ"
    ],
    [
      "ĲŮ",
      "ĭľŖĐ"
    ],
    [
      "Ő",
      "Ņ"
    ],
    [
      "œ",
      "ş"
    ],
    [
      "ĳ",
      "ŗĐ"
    ],
    [
      "ĭ",
      "ĩ"
    ],
    [
      "Ĩ",
      "ġĢ"
    ],
    [
      "Ġ",
      "ĥ"
    ],
    [
      "š",
      "ģ"
    ],
    [
      "š",
      "Ĩ"
    ],
    [
      "į",
      "ĨŰ"
    ],
    [
      "Ś",
      "ŕ"
    ],
    [
      "ŗ",
      "ř"
    ],
    [
      "šĺĤ",
      "ıņĐ"
    ],
    [
      "Ņ",
      "Đ"
    ],
    [
      "ļ",
      "ļ"
    ],
    [
      "Ň",
      "Œ"
    ],
    [
      "ŕ",
      "ń"
    ],
    [
      "ŗ",
      "Ň"
    ],
    [
      "ģ",
      "Ġ"
    ],
    [
      "śŘ",
      "šĺĤĵĒ"
    ],
    [
      "Ő",
      "Ń"
    ],
    [
      "ŕ",
      "ő"
    ],
    [
      "ķ",
      "īľ"
    ],
    [
      "ĩ",
      "Ĺ"
    ],
    [
      "ņ",
      "œĳ"
    ],
    [
      "Ĳ",
      "ľ"
    ],
    [
      "Ł",
      "ņ"
    ],
    [
      "ļģ",
      "Ľ"
    ],
    [
      "ı",
      "Ŗ"
    ],
    [
      "ĭ",
      "ĥ"
    ],
    [
      "Ł",
      "ŕĒ"
    ],
    [
      "ĭ",
      "ĴĒ"
    ],
    [
      "Ĵ",
      "ĺŬ"
    ],
    [
      "ĒŇ",
      "œŅš"
    ],
    [
      "ő",
      "Ś"
    ],
    [
      "Ŝ",
      "ŗĖ"
    ],
    [
      "Ň",
      "Ŕ"
    ],
    [
      "ĥľ",
      "ĒńŚœš"
    ],
    [
      "ļ",
      "ŋĐ"
    ],
    [
      "Ĺ",
      "Ĥ"
    ],
    [
      "Ġ",
      "ĪŬ"
    ],
    [
      "ń",
      "ŕŀ"
    ],
    [
      "ġĹ",
      "ľ"
    ],
    [
      "ń",
      "ŕĒ"
    ],
    [
      "Ġļ",
      "Ŭ"
    ],
    [
      "ħ",
      "ġľ"
    ],
    [
      "ņ",
      "ŕŀĖ"
    ],
    [
      "ĒńŚ",
      "ŗĵŮ"
    ],
    [
      "Ŗ",
      "ŗ"
    ],
    [
      "ļ",
      "Ŀ"
    ],
    [
      "Ĥ",
      "įľ"
    ],
    [
      "į",
      "ĥ"
    ],
    [
      "ĩ",
      "ġ"
    ],
    [
      "ĵ",
      "ķŬ"
    ],
    [
      "őş",
      "ş"
    ],
    [
      "őŀ",
      "Ė"
    ],
    [
      "ľ",
      "Ű"
    ],
    [
      "į",
      "ĵĒ"
    ],
    [
      "ŕŀ",
      "œš"
    ],
    [
      "śŞ",
      "ĒłĩīŬ"
    ],
    [
      "śł",
      "ĩŮ"
    ],
    [
      "Ŗ",
      "Ņ"
    ],
    [
      "ņ",
      "Ń"
    ],
    [
      "ĹŜ",
      "ń"
    ],
    [
      "Ņş",
      "ĵĦŬ"
    ],
    [
      "ġ",
      "ĵ"
    ],
    [
      "ħ",
      "ĿŰ"
    ],
    [
      "ļ",
      "ĥ"
    ],
    [
      "ĩĢ",
      "ŁĐ"
    ],
    [
      "Ĭ",
      "ģ"
    ],
    [
      "ĺ",
      "ĵŀ"
    ],
    [
      "ŀ",
      "Đ"
    ],
    [
      "Ł",
      "ŗ"
    ],
    [
      "įŮ",
      "ĸĸŗĐ"
    ],
    [
      "Ķ",
      "ŀş"
    ],
    [
      "ĥ",
      "Ŝ"
    ],
    [
      "ŗŘ",
      "ĵŮ"
    ],
    [
      "Ģ",
      "Ģ"
    ],
    [
      "š",
      "įŬ"
    ],
    [
      "œ",
      "ŔĒ"
    ],
    [
      "ĭģ",
      "Ľ"
    ],
    [
      "ĭĤ",
      "śşŜĖ"
    ],
    [
      "šĺĤ",
      "ĵ"
    ],
    [
      "Įģ",
      "Ŭ"
    ],
    [
      "Ģŗ",
      "Ń"
    ],
    [
      "Į",
      "ĩ"
    ],
    [
      "Ň",
      "ŕ"
    ],
    [
      "ĤŚ",
      "ŕ"
    ],
    [
      "Ē",
      "Š"
    ],
    [
      "į",
      "ı"
    ],
    [
      "ĮĻ",
      "Ģ"
    ],
    [
      "ņ",
      "œš"
    ],
    [
      "Ĥ",
      "ĵŀĐ"
    ],
    [
      "Ĭ",
      "īĢĤ"
    ],
    [
      "Ēłĩ",
      "įĸŰ"
    ],
    [
      "Ķ",
      "ī"
    ],
    [
      "ĵ",
      "Ģ"
    ],
    [
      "ő",
      "œš"
    ],
    [
      "ĹŜĐ",
      "ņŞĤŮ"
    ],
    [
      "ŕ",
      "ł"
    ],
    [
      "ş",
      "įĩŬ"
    ],
    [
      "œ",
      "ŉ"
    ],
    [
      "š",
      "ĝ"
    ],
    [
      "ş",
      "ŕ"
    ],
    [
      "Śř",
      "ŁĖ"
    ],
    [
      "Į",
      "Ŀ"
    ],
    [
      "Ļ",
      "ĵ"
    ],
    [
      "ŝ",
      "ő"
    ],
    [
      "Ł",
      "œš"
    ],
    [
      "ģ",
      "ņĐ"
    ],
    [
      "ŝ",
      "ŗ"
    ],
    [
      "š",
      "ď"
    ],
    [
      "Ś",
      "ĸŮ"
    ],
    [
      "ĳġ",
      "ġŰ"
    ],
    [
      "Ķ",
      "Ů"
    ],
    [
      "ł",
      "ŕ"
    ],
    [
      "ł",
      "Đ"
    ],
    [
      "Ļ",
      "Ű"
    ],
    [
      "ĤŚŕĒ",
      "Ņ"
    ],
    [
      "ĭ",
      "Ĳ"
    ],
    [
      "Ĥļ",
      "ĿŰ"
    ],
    [
      "Ň",
      "ŗ"
    ],
    [
      "ş",
      "Œ"
    ],
    [
      "Ş",
      "ŉ"
    ],
    [
      "Ĥ",
      "ħ"
    ],
    [
      "Ŕ",
      "ĸŮ"
    ],
    [
      "ħ",
      "ļģĽ"
    ],
    [
      "ı",
      "ī"
    ],
    [
      "Ħ",
      "īŬ"
    ],
    [
      "Ē",
      "ŃĒ"
    ],
    [
      "ıŀ",
      "ń"
    ],
    [
      "ś",
      "ŗŚ"
    ],
    [
      "ĤĪŬ",
      "ĤŝĐ"
    ],
    [
      "Ň",
      "ś"
    ],
    [
      "ŝ",
      "ŕ"
    ],
    [
      "ļ",
      "Ĺ"
    ],
    [
      "Ŕ",
      "œ"
    ],
    [
      "ĭ",
      "ĪŬ"
    ],
    [
      "šĺĤĵĒ",
      "Ń"
    ],
    [
      "Ī",
      "Ŀ"
    ],
    [
      "ħ",
      "Ű"
    ],
    [
      "ĸ",
      "ĵŀ"
    ],
    [
      "Ĭ",
      "ĵŰ"
    ],
    [
      "ı",
      "ġ"
    ],
    [
      "ĤĹ",
      "ŁĐ"
    ],
    [
      "Ġ",
      "Ĭ"
    ],
    [
      "š",
      "ļĩ"
    ],
    [
      "Ēł",
      "ĩī"
    ],
    [
      "Ŀ",
      "ģ"
    ],
    [
      "ı",
      "Ů"
    ],
    [
      "ġ",
      "ı"
    ],
    [
      "Ś",
      "ń"
    ],
    [
      "ġ",
      "Ĳ"
    ],
    [
      "Œ",
      "ŋĖ"
    ],
    [
      "ŗŔĒ",
      "ŗ"
    ],
    [
      "ŕ",
      "Ņ"
    ],
    [
      "Ő",
      "ŗ"
    ],
    [
      "ŕ",
      "ŕĒ"
    ],
    [
      "Ő",
      "ŏš"
    ],
    [
      "ľĿ",
      "şĐ"
    ],
    [
      "ġ",
      "ĵŜń"
    ],
    [
      "Ē",
      "Ŧ"
    ],
    [
      "ĪĢ",
      "ŝŝ"
    ],
    [
      "ĭ",
      "ĺ"
    ],
    [
      "į",
      "Ű"
    ],
    [
      "Ő",
      "Ś"
    ],
    [
      "Ķŀş",
      "şĖ"
    ],
    [
      "Ī",
      "ĥ"
    ],
    [
      "œ",
      "ŗĖ"
    ],
    [
      "ħ",
      "ŗłŗĖ"
    ],
    [
      "Ģ",
      "Ŀ"
    ],
    [
      "š",
      "Ģ"
    ],
    [
      "ń",
      "œĳ"
    ],
    [
      "š",
      "č"
    ],
    [
      "ĳ",
      "Ś"
    ],
    [
      "Ĩ",
      "ľ"
    ],
    [
      "Ġ",
      "ŀş"
    ],
    [
      "ņ",
      "ŏš"
    ],
    [
      "ıŞ",
      "Ŝ"
    ],
    [
      "ł",
      "ő"
    ],
    [
      "ŕ",
      "ĤŮ"
    ],
    [
      "ĒşŔĖ",
      "ĵĦĩŰ"
    ],
    [
      "ĒřħŮ",
      "ĸĸŗĐ"
    ],
    [
      "ĵĒ",
      "şŔĖ"
    ],
    [
      "ĵ",
      "ġ"
    ],
    [
      "ı",
      "ħ"
    ],
    [
      "Ġ",
      "ķŬ"
    ],
    [
      "ŕ",
      "œ"
    ],
    [
      "ŗł",
      "ŁĖ"
    ],
    [
      "į",
      "ĵŰ"
    ],
    [
      "ķ",
      "ī"
    ],
    [
      "ĭ",
      "Ħ"
    ],
    [
      "Ĩ",
      "ĺŬ"
    ],
    [
      "ĩ",
      "Ġ"
    ],
    [
      "Ĥ",
      "Ķ"
    ],
    [
      "ş",
      "ŜĖ"
    ],
    [
      "Ŕ",
      "ŗ"
    ],
    [
      "œ",
      "ŗ"
    ],
    [
      "ģĒ",
      "Ň"
    ],
    [
      "ŝ",
      "œ"
    ],
    [
      "Ģ",
      "ĵ"
    ],
    [
      "Ĩ",
      "īĿŰ"
    ],
    [
      "ĸ",
      "śŃĒ"
    ],
    [
      "ŗń",
      "ĲŮ"
    ],
    [
      "ł",
      "ŕŀ"
    ],
    [
      "ĩ",
      "īľŰ"
    ],
    [
      "ı",
      "ļģ"
    ],
    [
      "įĭ",
      "ĩŰ"
    ],
    [
      "Ķ",
      "īľĵĒ"
    ],
    [
      "ı",
      "ľ"
    ],
    [
      "Ļ",
      "ĵŀŕĒ"
    ],
    [
      "ő",
      "Đ"
    ],
    [
      "Śş",
      "ĲŮ"
    ],
    [
      "Ŕł",
      "ŝś"
    ],
    [
      "Į",
      "ġ"
    ],
    [
      "Ŕ",
      "Ő"
    ],
    [
      "ĳ",
      "īŬ"
    ],
    [
      "ı",
      "īľ"
    ],
    [
      "Ĵ",
      "ģ"
    ],
    [
      "œń",
      "śřįŮ"
    ],
    [
      "Ŀ",
      "Ġ"
    ],
    [
      "Ē",
      "Ņš"
    ],
    [
      "įľ",
      "Ĥ"
    ],
    [
      "ŗ",
      "Ŏ"
    ],
    [
      "ű",
      "ř"
    ],
    [
      "œ",
      "Œš"
    ],
    [
      "ĩ",
      "Ħ"
    ],
    [
      "Ŗ",
      "Ń"
    ],
    [
      "ĮĠ",
      "ĿŰ"
    ],
    [
      "ŗĳ",
      "Ů"
    ],
    [
      "œł",
      "ĨġĢŰ"
    ],
    [
      "Ģ",
      "Ů"
    ],
    [
      "Į",
      "ı"
    ],
    [
      "ĵ",
      "ħĢķ"
    ],
    [
      "ŕŜ",
      "łš"
    ],
    [
      "Ĳ",
      "īĨŰ"
    ],
    [
      "ļ",
      "Ű"
    ],
    [
      "Ň",
      "ņ"
    ],
    [
      "ĸĸ",
      "ŗł"
    ],
    [
      "őŞ",
      "ş"
    ],
    [
      "şŀ",
      "ł"
    ],
    [
      "ĸĿ",
      "ĒńŚœš"
    ],
    [
      "Ĭ",
      "ī"
    ],
    [
      "ĩ",
      "Ĩ"
    ],
    [
      "ġĹ",
      "Ĥ"
    ],
    [
      "Ő",
      "ŉĒ"
    ],
    [
      "ļ",
      "ĵ"
    ],
    [
      "ł",
      "Ė"
    ],
    [
      "ħĢŰ",
      "ņŘŗĖ"
    ],
    [
      "ħ",
      "ĺ"
    ],
    [
      "ŗ",
      "ň"
    ],
    [
      "Ş",
      "ŔĒ"
    ],
    [
      "Ĥ",
      "ĩ"
    ],
    [
      "Ł",
      "ŕŖĖ"
    ],
    [
      "Ł",
      "ĠĽŬ"
    ],
    [
      "Ŝ",
      "Ņš"
    ],
    [
      "Ēő",
      "ŁĖ"
    ],
    [
      "ĭ",
      "ĹŜ"
    ],
    [
      "Ŕń",
      "ĮģŬ"
    ],
    [
      "ř",
      "Ė"
    ],
    [
      "ŀř",
      "ĬŮ"
    ],
    [
      "Ň",
      "ŗŚ"
    ],
    [
      "Ē",
      "ĺ"
    ],
    [
      "Ġ",
      "ħĢ"
    ],
    [
      "ĵ",
      "Łń"
    ],
    [
      "ĤŮ",
      "ģĶ"
    ],
    [
      "řħŮ",
      "ĸĸŗĐ"
    ],
    [
      "Ġĺ",
      "ĥĿŜĐ"
    ],
    [
      "Ņ",
      "ŕŀœš"
    ],
    [
      "ŗ",
      "Ł"
    ],
    [
      "Ĵ",
      "ľ"
    ],
    [
      "ĵĦ",
      "ĩĢ"
    ],
    [
      "ħ",
      "Śř"
    ],
    [
      "ģĥ",
      "Ŝ"
    ],
    [
      "šġĪŰ",
      "ņŘŗĖ"
    ],
    [
      "ś",
      "Ő"
    ],
    [
      "ĥ",
      "Ļ"
    ],
    [
      "ļ",
      "ĵŀ"
    ],
    [
      "ś",
      "Ŗ"
    ],
    [
      "Ņ",
      "œĳīŬ"
    ],
    [
      "ő",
      "Ė"
    ],
    [
      "ű",
      "ş"
    ],
    [
      "ĲŮ",
      "ĥľ"
    ],
    [
      "Ħĥ",
      "ģĒ"
    ],
    [
      "šĹ",
      "ĥĤŚĐ"
    ],
    [
      "ņş",
      "ĒłĩīŬ"
    ],
    [
      "ĒŖ",
      "ŝń"
    ],
    [
      "Ĥ",
      "ŗ"
    ],
    [
      "ņř",
      "ŝŘ"
    ],
    [
      "Ł",
      "œĥŮ"
    ],
    [
      "Ň",
      "ŀ"
    ],
    [
      "ģ",
      "ĳ"
    ],
    [
      "Ł",
      "ŀ"
    ],
    [
      "ĳ",
      "ķŬ"
    ],
    [
      "ŝŅ",
      "ŕŞ"
    ],
    [
      "ĩĴ",
      "ĒńŝĖ"
    ],
    [
      "Ľ",
      "ĥ"
    ],
    [
      "ł",
      "ŀ"
    ],
    [
      "Ń",
      "Ń"
    ],
    [
      "ĵŀ",
      "ŃĒ"
    ],
    [
      "Ī",
      "Ŀŀ"
    ],
    [
      "Ĩĺ",
      "ĵŰ"
    ],
    [
      "ŗŒ",
      "šĺģŰ"
    ],
    [
      "Š",
      "ř"
    ],
    [
      "Ņ",
      "ŕ"
    ],
    [
      "ŗŘ",
      "š"
    ],
    [
      "ĩŰ",
      "ŝŖ"
    ],
    [
      "Į",
      "ĩĒ"
    ],
    [
      "ļĩ",
      "ģ"
    ],
    [
      "Ē",
      "ŧ"
    ],
    [
      "Ġ",
      "ĴĒ"
    ],
    [
      "Ā",
      "Ů"
    ],
    [
      "Ő",
      "ĮļŬ"
    ],
    [
      "ħ",
      "Ĩ"
    ],
    [
      "Ē",
      "Ű"
    ],
    [
      "Ŀ",
      "ĳ"
    ],
    [
      "įĸ",
      "ĵŖĐ"
    ],
    [
      "Ń",
      "Ņ"
    ],
    [
      "ņ",
      "ŉ"
    ],
    [
      "ą",
      "ľ"
    ],
    [
      "ř",
      "ŁĖ"
    ],
    [
      "Ĵ",
      "ĽŬ"
    ],
    [
      "Ő",
      "Įļ"
    ],
    [
      "ĥ",
      "īĨŰ"
    ],
    [
      "ĲŮ",
      "ģĶ"
    ],
    [
      "Ŗ",
      "ő"
    ],
    [
      "ģ",
      "Ŀ"
    ],
    [
      "Ş",
      "Ņ"
    ],
    [
      "ĵ",
      "Ļľ"
    ],
    [
      "Ġ",
      "ķ"
    ],
    [
      "š",
      "ī"
    ],
    [
      "İ",
      "Ļ"
    ],
    [
      "ĥ",
      "ĽŬ"
    ],
    [
      "į",
      "ĿĤ"
    ],
    [
      "ıņř",
      "ŝŘ"
    ],
    [
      "ĲŮ",
      "ĸĸŗĐ"
    ],
    [
      "Ē",
      "Ŷ"
    ],
    [
      "š",
      "ă"
    ],
    [
      "ĳ",
      "Ļ"
    ],
    [
      "ņř",
      "šĺĤĵĒ"
    ],
    [
      "į",
      "īĨŰ"
    ],
    [
      "ġĢ",
      "ķ"
    ],
    [
      "ŕĒ",
      "ŗ"
    ],
    [
      "Ś",
      "œĳŮ"
    ],
    [
      "Śő",
      "ŖĖ"
    ],
    [
      "ħ",
      "ĸŰ"
    ],
    [
      "įį",
      "Ļ"
    ],
    [
      "Ĭ",
      "ĩ"
    ],
    [
      "Ĭ",
      "ġ"
    ],
    [
      "ő",
      "ŜĖ"
    ],
    [
      "Ľ",
      "œŞ"
    ],
    [
      "Ĥ",
      "ķŬ"
    ],
    [
      "Ĩĭ",
      "Ŭ"
    ],
    [
      "ĵĒń",
      "Śœš"
    ],
    [
      "ģ",
      "Ĥ"
    ],
    [
      "ő",
      "Ņ"
    ],
    [
      "ĥ",
      "īŬ"
    ],
    [
      "œ",
      "řŜ"
    ],
    [
      "ķ",
      "īľŰ"
    ],
    [
      "ĥ",
      "ħĢķ"
    ],
    [
      "ŗŔ",
      "ĒłĮŮ"
    ],
    [
      "Ģĥ",
      "Ŭ"
    ],
    [
      "ħ",
      "ī"
    ],
    [
      "Ă",
      "Ħ"
    ],
    [
      "ĵ",
      "Ĺ"
    ],
    [
      "Ĳ",
      "ĽŬ"
    ],
    [
      "Ň",
      "ŃĒ"
    ],
    [
      "şŀ",
      "Ė"
    ],
    [
      "ĤŚ",
      "ŕŀĖ"
    ],
    [
      "ĹŜŗ",
      "ĒłĩīŬ"
    ],
    [
      "Ē",
      "őŜŒ"
    ],
    [
      "ŗŔĒ",
      "ŔĸŮ"
    ],
    [
      "Ż",
      "Ř"
    ],
    [
      "š",
      "ĭ"
    ],
    [
      "Ň",
      "œŅš"
    ],
    [
      "Ĩ",
      "ĩĤ"
    ],
    [
      "ĳ",
      "ŚĐ"
    ],
    [
      "ſ",
      "ş"
    ],
    [
      "ĵĒ",
      "Ń"
    ],
    [
      "œ",
      "œř"
    ],
    [
      "Ĺ",
      "ļ"
    ],
    [
      "Ŝ",
      "œš"
    ],
    [
      "œń",
      "ŗĖ"
    ],
    [
      "įľ",
      "Ű"
    ],
    [
      "Ŗ",
      "œĥŮ"
    ],
    [
      "ġĹ",
      "Ģ"
    ],
    [
      "ĨĠīŰ",
      "ņŘŗĖ"
    ],
    [
      "Ż",
      "Ş"
    ],
    [
      "ıŜ",
      "ń"
    ],
    [
      "ĒńŚœš",
      "Ľ"
    ],
    [
      "Ēş",
      "ŜĖ"
    ],
    [
      "ĤĪŬ",
      "ĤŚŕĒ"
    ],
    [
      "ĿĹ",
      "ŝŞ"
    ],
    [
      "Ĺ",
      "ĭģĒ"
    ],
    [
      "ņŘ",
      "œłš"
    ],
    [
      "ł",
      "Ņ"
    ],
    [
      "śń",
      "ŋĖ"
    ],
    [
      "śŕ",
      "ŁĖ"
    ],
    [
      "ĸ",
      "ĩ"
    ],
    [
      "Ď",
      "ĠŬ"
    ],
    [
      "Ġ",
      "ŗł"
    ],
    [
      "ĵġŬ",
      "ĤŚŕĒ"
    ],
    [
      "Ĳħ",
      "ģľ"
    ],
    [
      "ĩ",
      "įĨŰ"
    ],
    [
      "ĸ",
      "ĥ"
    ],
    [
      "Ő",
      "ł"
    ],
    [
      "ņŘ",
      "œł"
    ],
    [
      "œĳ",
      "ĽŬ"
    ],
    [
      "ł",
      "Ŝœ"
    ],
    [
      "řŜĖ",
      "ĵĦĩŰ"
    ],
    [
      "Ĩ",
      "ľĿşĐ"
    ],
    [
      "ł",
      "ņ"
    ],
    [
      "Ő",
      "ń"
    ],
    [
      "Ţ",
      "ĩīŬ"
    ],
    [
      "ĵ",
      "ġľ"
    ],
    [
      "řĳ",
      "Ů"
    ],
    [
      "ĥľŕĐ",
      "ņŞĤŮ"
    ],
    [
      "Ĩļ",
      "Ŭ"
    ],
    [
      "Ň",
      "ŝ"
    ],
    [
      "ď",
      "Ŀ"
    ],
    [
      "Ē",
      "š"
    ],
    [
      "Ĺ",
      "ņĐ"
    ],
    [
      "Ő",
      "ő"
    ],
    [
      "ĭ",
      "ĩĒ"
    ],
    [
      "ŗŔ",
      "ĒłĩīŬ"
    ],
    [
      "Ĵ",
      "ĭ"
    ],
    [
      "Ĵ",
      "ħ"
    ],
    [
      "ő",
      "ŝ"
    ],
    [
      "š",
      "ĽŬ"
    ],
    [
      "Ļ",
      "ĿĤ"
    ],
    [
      "Ġ",
      "ĭħ"
    ],
    [
      "ņř",
      "Ŝő"
    ],
    [
      "Ł",
      "ő"
    ],
    [
      "ĭĤ",
      "ŗĐ"
    ],
    [
      "ĿŰ",
      "œŞŖĖ"
    ],
    [
      "ĩĴĒ",
      "ŒŋĖ"
    ],
    [
      "Ġ",
      "Ĥ"
    ],
    [
      "Ĵ",
      "ŗł"
    ],
    [
      "řĳ",
      "ĺ"
    ],
    [
      "ŗœ",
      "įŮ"
    ],
    [
      "ĒŤ",
      "Śœš"
    ],
    [
      "ű",
      "Ř"
    ],
    [
      "ĵ",
      "Ŋ"
    ],
    [
      "ŀ",
      "œš"
    ],
    [
      "őŀ",
      "ł"
    ],
    [
      "ıņř",
      "ŝŘš"
    ],
    [
      "š",
      "ĚĤĵĒ"
    ],
    [
      "š",
      "ń"
    ],
    [
      "ş",
      "ŝ"
    ],
    [
      "ś",
      "Đ"
    ],
    [
      "Ň",
      "ş"
    ],
    [
      "ş",
      "ŕĒ"
    ],
    [
      "ĩŰ",
      "ņŘŗĖ"
    ],
    [
      "įĢ",
      "Ĥ"
    ],
    [
      "śŘĦŮ",
      "ĸĸŗĐ"
    ],
    [
      "ĵ",
      "Ļ"
    ],
    [
      "œĳ",
      "ħ"
    ],
    [
      "Ĥ",
      "Ī"
    ],
    [
      "š",
      "ł"
    ],
    [
      "ſ",
      "ŗ"
    ],
    [
      "ď",
      "ĸ"
    ],
    [
      "Ĩ",
      "įĢŰ"
    ],
    [
      "ś",
      "œŚĖ"
    ],
    [
      "ĤĪŬ",
      "ĲŋĐ"
    ],
    [
      "š",
      "Č"
    ],
    [
      "š",
      "Ě"
    ],
    [
      "œ",
      "Ŗ"
    ],
    [
      "Ő",
      "ŕŀĖ"
    ],
    [
      "ĤĹ",
      "Ŭ"
    ],
    [
      "ģ",
      "ġ"
    ],
    [
      "Ĵ",
      "ĩ"
    ],
    [
      "ŗĐ",
      "ņŞĤŮ"
    ],
    [
      "Ŗ",
      "ŕŖĖ"
    ],
    [
      "ıŞ",
      "ř"
    ],
    [
      "ĩ",
      "ıŀ"
    ],
    [
      "ĒŢ",
      "ĩīŬ"
    ],
    [
      "Ň",
      "ř"
    ],
    [
      "ĤŮ",
      "ĸĸŗĐ"
    ],
    [
      "œ",
      "ŝŘ"
    ],
    [
      "ı",
      "ŋĐ"
    ],
    [
      "ņŞ",
      "ĤļŬ"
    ],
    [
      "ģ",
      "īľŰ"
    ],
    [
      "ŀř",
      "Ŝő"
    ],
    [
      "į",
      "įĸ"
    ],
    [
      "ņş",
      "įĩŬ"
    ],
    [
      "ĩħ",
      "įĸ"
    ],
    [
      "ĥĤ",
      "ŋĐ"
    ],
    [
      "Ş",
      "ń"
    ],
    [
      "ī",
      "ļ"
    ],
    [
      "ĵ",
      "œł"
    ],
    [
      "ĵŀ",
      "ř"
    ],
    [
      "ĲŮ",
      "ĭŰ"
    ],
    [
      "Ť",
      "Śœš"
    ],
    [
      "ıņ",
      "ŕŖĖ"
    ],
    [
      "š",
      "ć"
    ],
    [
      "Ő",
      "ŉ"
    ],
    [
      "ĭ",
      "Ķ"
    ],
    [
      "śł",
      "ĸŮ"
    ],
    [
      "ĸ",
      "ĵŀĐ"
    ],
    [
      "ŗŔĒ",
      "şįŮ"
    ],
    [
      "ŕĒł",
      "ĩīŬ"
    ],
    [
      "Įĸ",
      "ĩĢ"
    ],
    [
      "Ŗ",
      "ń"
    ],
    [
      "ņ",
      "Ň"
    ],
    [
      "Ş",
      "Œš"
    ],
    [
      "Ēř",
      "ŁĖ"
    ],
    [
      "Ĩ",
      "ĵŖĐ"
    ],
    [
      "œń",
      "śř"
    ],
    [
      "Ġ",
      "Şő"
    ],
    [
      "ş",
      "Ń"
    ],
    [
      "ŁĖ",
      "ĠĠĨŰ"
    ],
    [
      "ŗŕ",
      "ŜĖ"
    ],
    [
      "Ĩĸ",
      "ĵŀĐ"
    ],
    [
      "ġ",
      "ġ"
    ],
    [
      "Ŕ",
      "ŕ"
    ],
    [
      "ĭ",
      "ĽŬ"
    ],
    [
      "Ŝ",
      "Œš"
    ],
    [
      "ĮĻ",
      "īĸ"
    ],
    [
      "į",
      "įĠŰ"
    ],
    [
      "ĥĦ",
      "ŗĐ"
    ],
    [
      "Ł",
      "ĨĺĤŰ"
    ],
    [
      "ņ",
      "Ł"
    ],
    [
      "ĕ",
      "Ħ"
    ],
    [
      "ĩ",
      "Ķ"
    ],
    [
      "ŀ",
      "ŏš"
    ],
    [
      "ĸ",
      "ļ"
    ],
    [
      "Ş",
      "Œ"
    ],
    [
      "ġľ",
      "Ĥ"
    ],
    [
      "ĥ",
      "ĵŁĐ"
    ],
    [
      "ĥĳ",
      "ŚĐ"
    ],
    [
      "ļ",
      "ŖĐ"
    ],
    [
      "Į",
      "ĺŬ"
    ],
    [
      "Ēœ",
      "ŝŘ"
    ],
    [
      "ıņ",
      "ŕĒ"
    ],
    [
      "Śŗ",
      "ĥŮ"
    ],
    [
      "œšĺ",
      "ĤĵĒ"
    ],
    [
      "Ļĸ",
      "śœŚĖ"
    ],
    [
      "ŗ",
      "įŮ"
    ],
    [
      "īľ",
      "Ĺ"
    ],
    [
      "Ĩ",
      "ĹŜŗ"
    ],
    [
      "ņ",
      "Ńĳ"
    ],
    [
      "Ł",
      "ĤļĩŰ"
    ],
    [
      "Ġ",
      "Ĵ"
    ],
    [
      "Ĩ",
      "Ŀ"
    ],
    [
      "Ş",
      "ŏ"
    ],
    [
      "ŗĖ",
      "ĵĦĩŰ"
    ],
    [
      "įĠ",
      "Ĺ"
    ],
    [
      "ĬĬ",
      "ĩĢ"
    ],
    [
      "Į",
      "Ī"
    ],
    [
      "Ŝ",
      "Ń"
    ],
    [
      "ņ",
      "Ś"
    ],
    [
      "Ň",
      "Ņš"
    ],
    [
      "īľ",
      "ģĒ"
    ],
    [
      "ĤŚŕĒ",
      "ł"
    ],
    [
      "ġĹ",
      "ķ"
    ],
    [
      "Ġĺ",
      "ĩŰ"
    ],
    [
      "ģľ",
      "ŕĐ"
    ],
    [
      "ń",
      "ŕŀĖ"
    ],
    [
      "ŗŅ",
      "ĵŮ"
    ],
    [
      "œ",
      "ŝś"
    ],
    [
      "ĸ",
      "ĥŀ"
    ],
    [
      "Ĺ",
      "ĩĢŗĐ"
    ],
    [
      "ŕ",
      "Ń"
    ],
    [
      "ı",
      "ĺ"
    ],
    [
      "Ēń",
      "Ĥ"
    ],
    [
      "Ġļ",
      "ĵŰ"
    ],
    [
      "ĠĢ",
      "ĠŰ"
    ],
    [
      "ģĥ",
      "ŕŘ"
    ],
    [
      "ĵĒń",
      "ŝĖ"
    ],
    [
      "Ĥī",
      "ĢŰ"
    ],
    [
      "ĺ",
      "ĵĒ"
    ],
    [
      "ĤŮ",
      "ĥľ"
    ],
    [
      "ŕŀ",
      "ş"
    ],
    [
      "ŕŀ",
      "Ņš"
    ],
    [
      "ĩ",
      "ĺŬ"
    ],
    [
      "įĸ",
      "Ĥ"
    ],
    [
      "řŜ",
      "ł"
    ],
    [
      "ĸ",
      "ĩĒ"
    ],
    [
      "įĿ",
      "ģ"
    ],
    [
      "ĮĻ",
      "ĸŰ"
    ],
    [
      "ń",
      "œš"
    ],
    [
      "ĵŮ",
      "ĸĸŗĐ"
    ],
    [
      "ŝ",
      "ŝł"
    ],
    [
      "ĭĢ",
      "ĵŰ"
    ],
    [
      "Ĳ",
      "Ňń"
    ],
    [
      "ŗ",
      "ĭŮ"
    ],
    [
      "Ĩĸ",
      "ĩŰ"
    ],
    [
      "œŜ",
      "ŞĖ"
    ],
    [
      "ſ",
      "ř"
    ],
    [
      "Ĺ",
      "Ľ"
    ],
    [
      "ŗ",
      "Ŗ"
    ],
    [
      "ŕ",
      "œš"
    ],
    [
      "Ŗ",
      "œš"
    ],
    [
      "ĤŮ",
      "ĭľŖĐ"
    ],
    [
      "œŚ",
      "ĭŮ"
    ],
    [
      "ŅŘ",
      "śŕ"
    ],
    [
      "ĦĦ",
      "ĸŰ"
    ],
    [
      "ĶĦ",
      "ĥĳŚĐ"
    ],
    [
      "ğ",
      "Ĥ"
    ],
    [
      "Ĩ",
      "ī"
    ],
    [
      "Ķ",
      "śł"
    ],
    [
      "ŕ",
      "ĮĠ"
    ],
    [
      "ĮĠ",
      "īŰ"
    ],
    [
      "ņř",
      "ŝŘš"
    ],
    [
      "Ŀ",
      "ĵĒ"
    ],
    [
      "ĸ",
      "ĹŜŗ"
    ],
    [
      "Ĥı",
      "ŖĐ"
    ],
    [
      "Ŗ",
      "Ņš"
    ],
    [
      "śń",
      "ŁĖ"
    ],
    [
      "ŝŞ",
      "ŕĖ"
    ],
    [
      "ģ",
      "ņł"
    ],
    [
      "śő",
      "ŜĖ"
    ],
    [
      "ĸ",
      "œŔĒ"
    ],
    [
      "Š",
      "ş"
    ],
    [
      "Ĩ",
      "Ů"
    ],
    [
      "ű",
      "Ş"
    ],
    [
      "Ŗ",
      "ŃĒ"
    ],
    [
      "ŝŞ",
      "ŗĖ"
    ],
    [
      "ņ",
      "ŉĒ"
    ],
    [
      "ő",
      "őł"
    ],
    [
      "ĳ",
      "Ľ"
    ],
    [
      "ĩ",
      "ķ"
    ],
    [
      "ī",
      "ĥ"
    ],
    [
      "įĢ",
      "Ĺ"
    ],
    [
      "Ġ",
      "ĵŖĐ"
    ],
    [
      "œł",
      "ŋĖ"
    ],
    [
      "ĵŜ",
      "Ŕ"
    ],
    [
      "įį",
      "Ĥ"
    ],
    [
      "őő",
      "ŝ"
    ],
    [
      "ļ",
      "Ŀŀń"
    ],
    [
      "ĥĿŜ",
      "ŃĒ"
    ],
    [
      "œ",
      "Ő"
    ],
    [
      "Ĵ",
      "Ĭ"
    ],
    [
      "ŁĐ",
      "œŘĥŮ"
    ],
    [
      "š",
      "įĿŰ"
    ],
    [
      "śŗ",
      "įŮ"
    ],
    [
      "śņ",
      "ŗĖ"
    ],
    [
      "Ĺ",
      "ĥĤŚĐ"
    ],
    [
      "ħŚř",
      "őŞ"
    ],
    [
      "ĥ",
      "ı"
    ],
    [
      "ŗŒš",
      "ĬĵŰ"
    ],
    [
      "ŗ",
      "Ő"
    ],
    [
      "œł",
      "ĤĪŬ"
    ],
    [
      "ŝŅ",
      "ņĖ"
    ],
    [
      "ŗ",
      "ŉĒ"
    ],
    [
      "Ĳĺ",
      "ľ"
    ],
    [
      "œŝ",
      "ŗĖ"
    ],
    [
      "ĩĴ",
      "ĒńŚœš"
    ],
    [
      "Ĩ",
      "ĭĤŰ"
    ],
    [
      "ł",
      "Ř"
    ],
    [
      "Ģ",
      "Ĺ"
    ],
    [
      "Ħ",
      "ļ"
    ],
    [
      "Ĥ",
      "ĺŬ"
    ],
    [
      "Ŀ",
      "Ňń"
    ],
    [
      "Ķ",
      "śœ"
    ],
    [
      "ĤŝĐ",
      "ņŞĤŮ"
    ],
    [
      "Ĥĸ",
      "ĩĢ"
    ],
    [
      "ĥ",
      "Ŭ"
    ],
    [
      "ń",
      "ŕ"
    ],
    [
      "Ŕşŀ",
      "ś"
    ],
    [
      "ł",
      "Ŝ"
    ],
    [
      "ĺ",
      "ĵ"
    ],
    [
      "ł",
      "Ń"
    ],
    [
      "š",
      "ħĢ"
    ],
    [
      "őŞ",
      "Ņ"
    ],
    [
      "ģ",
      "ŝĐ"
    ],
    [
      "ĭļ",
      "ŞĐ"
    ],
    [
      "ĥ",
      "Ī"
    ],
    [
      "š",
      "Ć"
    ],
    [
      "ų",
      "Ń"
    ],
    [
      "Ĩ",
      "ģĒ"
    ],
    [
      "őŜ",
      "ł"
    ],
    [
      "ı",
      "ĒŃ"
    ],
    [
      "ĨĩĤ",
      "Ĥ"
    ],
    [
      "š",
      "Ĝ"
    ],
    [
      "Ī",
      "ĵ"
    ],
    [
      "Ş",
      "Ń"
    ],
    [
      "őş",
      "Ė"
    ],
    [
      "ĒŁ",
      "ĨĺĤŰ"
    ],
    [
      "śŘ",
      "Ħ"
    ],
    [
      "ĭĤ",
      "ņ"
    ],
    [
      "Ġ",
      "ŀŕ"
    ],
    [
      "įġ",
      "ĸŰ"
    ],
    [
      "ĤĽ",
      "ĸŰ"
    ],
    [
      "ĒŞ",
      "ĨĽŬ"
    ],
    [
      "ĒřŜĖ",
      "ĵĦĩŰ"
    ],
    [
      "š",
      "œ"
    ],
    [
      "Į",
      "ĭ"
    ],
    [
      "Ēŗ",
      "š"
    ],
    [
      "ŕŜ",
      "Œ"
    ],
    [
      "ĠĠĨŰ",
      "ņŘŗĖ"
    ],
    [
      "ĺ",
      "ĵŀĐ"
    ],
    [
      "ĩŰ",
      "œŞŖĖ"
    ],
    [
      "Į",
      "ģļ"
    ],
    [
      "ŝņ",
      "ŗń"
    ],
    [
      "ĥ",
      "ıŜĐ"
    ],
    [
      "ħħ",
      "ľ"
    ],
    [
      "ĳ",
      "ģ"
    ],
    [
      "Ű",
      "ş"
    ],
    [
      "ĩŰ",
      "śŞ"
    ],
    [
      "ļ",
      "Ġ"
    ],
    [
      "ř",
      "įŮ"
    ],
    [
      "ĭ",
      "īĨŰ"
    ],
    [
      "ŀœ",
      "ĥŮ"
    ],
    [
      "ģĥ",
      "ņĐ"
    ],
    [
      "Ŗş",
      "įĩŬ"
    ],
    [
      "Ġģ",
      "Ĥ"
    ],
    [
      "ş",
      "ŕŜł"
    ],
    [
      "Ş",
      "Ŕ"
    ],
    [
      "ĭ",
      "Ī"
    ],
    [
      "ş",
      "ĲŮ"
    ],
    [
      "œ",
      "ĲŮ"
    ],
    [
      "ģľ",
      "ŗĐ"
    ],
    [
      "śŞŕĖ",
      "ĵĦĩŰ"
    ],
    [
      "š",
      "ĨģĢ"
    ],
    [
      "š",
      "Ă"
    ],
    [
      "Ņ",
      "ő"
    ],
    [
      "Ģ",
      "ī"
    ],
    [
      "Ő",
      "ŏ"
    ],
    [
      "ő",
      "Ń"
    ],
    [
      "ŀ",
      "ś"
    ],
    [
      "Ġ",
      "œł"
    ],
    [
      "ĩĴĒ",
      "ő"
    ],
    [
      "įġ",
      "ĵĒ"
    ],
    [
      "ĳ",
      "ŝŝ"
    ],
    [
      "ļ",
      "ı"
    ],
    [
      "Ĺ",
      "Ĵ"
    ],
    [
      "ĤĪŬ",
      "ĹŜĐ"
    ],
    [
      "ŕş",
      "Ŕ"
    ],
    [
      "œ",
      "įĺŬ"
    ],
    [
      "ĦĦ",
      "Ŭ"
    ],
    [
      "ſ",
      "ő"
    ],
    [
      "Ł",
      "ś"
    ],
    [
      "ī",
      "Ĺ"
    ],
    [
      "Ŗ",
      "ŕĒ"
    ],
    [
      "Ş",
      "ŕŖĖ"
    ],
    [
      "ĸ",
      "Ŀŀ"
    ],
    [
      "ŗ",
      "őŀ"
    ],
    [
      "Ĩ",
      "ĵŀĐ"
    ],
    [
      "šĺģŰ",
      "ņŘŗĖ"
    ],
    [
      "Ŗ",
      "ŀřĬŮ"
    ],
    [
      "Ħ",
      "ħ"
    ],
    [
      "ľ",
      "ŝń"
    ],
    [
      "Ĩĺ",
      "ĿŰ"
    ],
    [
      "ļ",
      "ĥĤ"
    ],
    [
      "įġ",
      "Ű"
    ],
    [
      "Ġģ",
      "Ŭ"
    ],
    [
      "ĳ",
      "į"
    ],
    [
      "ł",
      "œĳ"
    ],
    [
      "ĭĢ",
      "ŋĐ"
    ],
    [
      "Ēő",
      "ņĖ"
    ],
    [
      "ŗĳ",
      "ĺ"
    ],
    [
      "šĹ",
      "ĤĹ"
    ],
    [
      "śŀ",
      "ĤŮ"
    ],
    [
      "œł",
      "ĨġĢ"
    ],
    [
      "Ŕ",
      "Ś"
    ],
    [
      "Ł",
      "Ņš"
    ],
    [
      "ī",
      "ĭĢ"
    ],
    [
      "ŀ",
      "ń"
    ],
    [
      "ų",
      "Ņ"
    ],
    [
      "œł",
      "ĤŮ"
    ],
    [
      "Ş",
      "ŝł"
    ],
    [
      "ľ",
      "ľĿ"
    ],
    [
      "ĭĽ",
      "ŗĐ"
    ],
    [
      "ŀŅ",
      "ĵŮ"
    ],
    [
      "ĥ",
      "Ŀ"
    ],
    [
      "Ġļ",
      "ĩŰ"
    ],
    [
      "ŇŞ",
      "ŖĖ"
    ],
    [
      "Ĺ",
      "Ġ"
    ],
    [
      "ĒłĩīŬ",
      "ģ"
    ],
    [
      "ń",
      "œĥŮ"
    ],
    [
      "Ĳ",
      "ġŬ"
    ],
    [
      "Į",
      "ĵŀĐ"
    ],
    [
      "ŕĒł",
      "ĮŮ"
    ],
    [
      "ĲĦ",
      "Ŭ"
    ],
    [
      "Ŕ",
      "Đ"
    ],
    [
      "ş",
      "Ņ"
    ],
    [
      "ĥ",
      "ġ"
    ],
    [
      "Ġ",
      "Ļ"
    ],
    [
      "ķ",
      "ŗĐ"
    ],
    [
      "ŀş",
      "įĩŬ"
    ],
    [
      "ń",
      "œĳŮ"
    ],
    [
      "ĩģ",
      "ņĐ"
    ],
    [
      "ŀ",
      "Şŗ"
    ],
    [
      "Ň",
      "śłĩŮ"
    ],
    [
      "Ő",
      "ĳġġŰ"
    ],
    [
      "śş",
      "ŜŅš"
    ],
    [
      "Ŀ",
      "ı"
    ],
    [
      "Ł",
      "ŝ"
    ],
    [
      "Ĳ",
      "ŗĐ"
    ],
    [
      "Ķ",
      "ĠŬ"
    ],
    [
      "īĢ",
      "Ĵ"
    ],
    [
      "Ĥ",
      "įĿ"
    ],
    [
      "į",
      "ħĢķ"
    ],
    [
      "ĒŐ",
      "ĮļŬ"
    ],
    [
      "ĮĹ",
      "ĢŰ"
    ],
    [
      "ŐŅ",
      "ņĖ"
    ],
    [
      "ř",
      "ş"
    ],
    [
      "ģ",
      "īŬ"
    ],
    [
      "Ĩ",
      "ĵŀ"
    ],
    [
      "Ēŗ",
      "ĲŮ"
    ],
    [
      "ıŞ",
      "Ń"
    ],
    [
      "ĤŮ",
      "ĸĿ"
    ],
    [
      "įĺ",
      "ĩĢ"
    ],
    [
      "ŗŒ",
      "šĺĤĵĒ"
    ],
    [
      "ĵħģľ",
      "ŁĐ"
    ],
    [
      "ģĻ",
      "ĸŰ"
    ],
    [
      "Ġĸ",
      "ĩŰ"
    ],
    [
      "Ő",
      "ŜŗĖ"
    ],
    [
      "ŅŘśŕ",
      "ĩŮ"
    ],
    [
      "ń",
      "ŗ"
    ],
    [
      "Ŕ",
      "Ŗ"
    ],
    [
      "ā",
      "ı"
    ],
    [
      "ņ",
      "ŕĒ"
    ],
    [
      "Ĩ",
      "ĪŬ"
    ],
    [
      "ģľ",
      "ĒńŚœš"
    ],
    [
      "įĸ",
      "ĵĒ"
    ],
    [
      "ĺ",
      "ĵŖĐ"
    ],
    [
      "Ŝŗ",
      "ĭŮ"
    ],
    [
      "ĥĳ",
      "œŜ"
    ],
    [
      "ĩĴĒ",
      "řŜĖ"
    ],
    [
      "Ģ",
      "Ļ"
    ],
    [
      "ı",
      "ļ"
    ],
    [
      "ĥľ",
      "ŗĐ"
    ],
    [
      "ŕ",
      "œń"
    ],
    [
      "ĥ",
      "īľ"
    ],
    [
      "ń",
      "ŕŖĖ"
    ],
    [
      "Ġ",
      "ħĢŰ"
    ],
    [
      "ĥ",
      "ĵ"
    ],
    [
      "š",
      "Ĉ"
    ],
    [
      "ņ",
      "ĭ"
    ],
    [
      "Ĺ",
      "ĳ"
    ],
    [
      "Ā",
      "ģ"
    ],
    [
      "į",
      "Ŀŀ"
    ],
    [
      "ġĢŰ",
      "ņŘŗĖ"
    ],
    [
      "ĒŇ",
      "Śş"
    ],
    [
      "ģĒ",
      "şŔĖ"
    ],
    [
      "œŚ",
      "ĭķŬ"
    ],
    [
      "Ĳ",
      "Ħĥ"
    ],
    [
      "œšĺ",
      "ģŰ"
    ],
    [
      "įĿŜ",
      "Ń"
    ],
    [
      "š",
      "ř"
    ],
    [
      "ģ",
      "Ĵ"
    ],
    [
      "ĩŰ",
      "ņş"
    ],
    [
      "ĭĢ",
      "ŗĐ"
    ],
    [
      "Łł",
      "ĳ"
    ],
    [
      "ŁĖ",
      "ĮĨŬ"
    ],
    [
      "įĺ",
      "ĿŰ"
    ],
    [
      "ĿŜ",
      "ŕĒ"
    ],
    [
      "ő",
      "őŞĖ"
    ],
    [
      "şįŮ",
      "ĸĸŗĐ"
    ],
    [
      "ģ",
      "ņ"
    ],
    [
      "ń",
      "Ĥ"
    ],
    [
      "Ī",
      "ı"
    ],
    [
      "Ű",
      "ř"
    ],
    [
      "Ĵ",
      "Ů"
    ],
    [
      "Ł",
      "ŃĒ"
    ],
    [
      "Ŗ",
      "ŕŀ"
    ],
    [
      "Ģ",
      "ĺŬ"
    ],
    [
      "Ġ",
      "ĭĤ"
    ],
    [
      "ħĢ",
      "Ĥ"
    ],
    [
      "őş",
      "œš"
    ],
    [
      "Ş",
      "œĥŮ"
    ],
    [
      "ŀŃ",
      "ņĖ"
    ],
    [
      "ġĲ",
      "ŗł"
    ],
    [
      "ņş",
      "ĮĠĿŰ"
    ],
    [
      "Ĵ",
      "Ī"
    ],
    [
      "ġ",
      "ĥ"
    ],
    [
      "ġ",
      "ıŜ"
    ],
    [
      "ĵħ",
      "ġ"
    ],
    [
      "ļĩ",
      "ĳ"
    ],
    [
      "Ĳ",
      "ġĢŰ"
    ],
    [
      "ĥ",
      "īľŰ"
    ],
    [
      "ŕŞ",
      "Ś"
    ],
    [
      "Ēŕ",
      "ĮĠ"
    ],
    [
      "ĒłĮŮ",
      "ĸĸŗĐ"
    ],
    [
      "ĒşįŮ",
      "ĸĸŗĐ"
    ],
    [
      "Ģġ",
      "ġ"
    ],
    [
      "Ŕř",
      "ŀŅĵŮ"
    ],
    [
      "ĸ",
      "ħ"
    ],
    [
      "ı",
      "Ħ"
    ],
    [
      "Ā",
      "Ģ"
    ],
    [
      "ź",
      "ř"
    ],
    [
      "ž",
      "ş"
    ],
    [
      "Ĩ",
      "ĵĒ"
    ],
    [
      "Ĩ",
      "ĩĢ"
    ],
    [
      "ŝŘ",
      "ĤŮ"
    ],
    [
      "œń",
      "ĸŮ"
    ],
    [
      "ĮĠ",
      "ĩŰ"
    ],
    [
      "œń",
      "ŗŒš"
    ],
    [
      "ŝŘ",
      "ĦŮ"
    ],
    [
      "ı",
      "ņń"
    ],
    [
      "ħ",
      "œŃ"
    ],
    [
      "őş",
      "Ŝł"
    ],
    [
      "ģ",
      "ņő"
    ],
    [
      "őŞŚ",
      "ĸŮ"
    ],
    [
      "ŅŞ",
      "ĨĭĤŰ"
    ],
    [
      "Ÿ",
      "ŗ"
    ],
    [
      "ģ",
      "ķ"
    ],
    [
      "ĸ",
      "ģ"
    ],
    [
      "š",
      "ŕ"
    ],
    [
      "ĩ",
      "ĵ"
    ],
    [
      "ų",
      "Đ"
    ],
    [
      "ŀ",
      "ŀř"
    ],
    [
      "ŗ",
      "ŗĳ"
    ],
    [
      "Ĩ",
      "įŬ"
    ],
    [
      "śœ",
      "ĲŮ"
    ],
    [
      "Ŗ",
      "ŕŀĖ"
    ],
    [
      "Ĩ",
      "įĠŰ"
    ],
    [
      "ĩ",
      "Ļ"
    ],
    [
      "Į",
      "ĵĒ"
    ],
    [
      "œł",
      "ŗĖ"
    ],
    [
      "ĭĢ",
      "ŖĐ"
    ],
    [
      "Įļ",
      "ŗĐ"
    ],
    [
      "ŗŃ",
      "ņĖ"
    ],
    [
      "Ġģ",
      "ĩŰ"
    ],
    [
      "ĠĽ",
      "ĸŰ"
    ],
    [
      "ś",
      "őŞĖ"
    ],
    [
      "Ēř",
      "Ŝł"
    ],
    [
      "ś",
      "ĤĠĸŰ"
    ],
    [
      "ŗř",
      "ŀĖ"
    ],
    [
      "ĪĿŀ",
      "ŝ"
    ],
    [
      "œ",
      "Ł"
    ],
    [
      "Ĩ",
      "Ĭ"
    ],
    [
      "įľ",
      "ĵĒ"
    ],
    [
      "ŗ",
      "ŏš"
    ],
    [
      "Ĵļ",
      "Ŭ"
    ],
    [
      "ĒŇ",
      "śłĩŮ"
    ],
    [
      "Ĥħ",
      "ľŰ"
    ],
    [
      "ġĹ",
      "ļŖĐ"
    ],
    [
      "č",
      "ĥ"
    ],
    [
      "ı",
      "ĽŬ"
    ],
    [
      "ĭģ",
      "ņĐ"
    ],
    [
      "įĿ",
      "şŀ"
    ],
    [
      "őŀ",
      "Œ"
    ],
    [
      "œ",
      "ŉĒ"
    ],
    [
      "Łş",
      "ĮĠŬ"
    ],
    [
      "Ēœ",
      "ŝś"
    ],
    [
      "Ģġ",
      "ġĠ"
    ],
    [
      "ıŞ",
      "ŜŋĖ"
    ],
    [
      "ĢġĢ",
      "Ĥ"
    ],
    [
      "ĩĹ",
      "ŀĐ"
    ],
    [
      "ş",
      "ŕŜłš"
    ],
    [
      "ś",
      "Ė"
    ],
    [
      "ĳ",
      "ĺ"
    ],
    [
      "Ű",
      "ń"
    ],
    [
      "ş",
      "œš"
    ],
    [
      "ģĢ",
      "ŗĐ"
    ],
    [
      "įľ",
      "Ģ"
    ],
    [
      "ĩ",
      "ĩĒ"
    ],
    [
      "ĩ",
      "įĸŰ"
    ],
    [
      "ĒŘ",
      "śŅš"
    ],
    [
      "ıŜŔ",
      "ĒłĩīŬ"
    ],
    [
      "Ĩ",
      "Ĵ"
    ],
    [
      "Ş",
      "ś"
    ],
    [
      "œ",
      "Ň"
    ],
    [
      "śŞ",
      "ŗĖ"
    ],
    [
      "ħ",
      "ŝł"
    ],
    [
      "Ēř",
      "įŮ"
    ],
    [
      "ł",
      "śł"
    ],
    [
      "Ķ",
      "ġľ"
    ],
    [
      "ĒŒ",
      "ŋĖ"
    ],
    [
      "ĴĠ",
      "ĨŰ"
    ],
    [
      "ŝŇ",
      "ŜĖ"
    ],
    [
      "ŁŘ",
      "śņ"
    ],
    [
      "ŕŘ",
      "ņĖ"
    ],
    [
      "Ģĺ",
      "ĥĿŜĐ"
    ],
    [
      "ĥķ",
      "Śń"
    ],
    [
      "ı",
      "ġľĤ"
    ],
    [
      "ĪĹ",
      "ŀŃņĖ"
    ],
    [
      "Į",
      "Ĭ"
    ],
    [
      "ź",
      "ş"
    ],
    [
      "ĤŚŕĒ",
      "Ő"
    ],
    [
      "őŜ",
      "ş"
    ],
    [
      "Ĳ",
      "ħĢķ"
    ],
    [
      "įĪ",
      "ĩĢ"
    ],
    [
      "š",
      "ħĿŰ"
    ],
    [
      "ŇŗŚ",
      "Ė"
    ],
    [
      "ĳ",
      "ŝŝł"
    ],
    [
      "ī",
      "ĵ"
    ],
    [
      "Ň",
      "Đ"
    ],
    [
      "ī",
      "Ĵ"
    ],
    [
      "ż",
      "ŗ"
    ],
    [
      "ĉ",
      "īŬ"
    ],
    [
      "Ĵ",
      "īŬ"
    ],
    [
      "œń",
      "ĤŮ"
    ],
    [
      "ĭĤ",
      "ŗł"
    ],
    [
      "ŝŘ",
      "šĺĤĵĒ"
    ],
    [
      "Ēş",
      "ĲŮ"
    ],
    [
      "ķ",
      "īĨŰ"
    ],
    [
      "ŗ",
      "ŝŐ"
    ],
    [
      "ĥĤ",
      "ŁĐ"
    ],
    [
      "ĭ",
      "īĿŰ"
    ],
    [
      "Ĵ",
      "śŃ"
    ],
    [
      "į",
      "ıŞĐ"
    ],
    [
      "ı",
      "Ŕń"
    ],
    [
      "ĩ",
      "Ħŗł"
    ],
    [
      "œœř",
      "Ė"
    ],
    [
      "įĠ",
      "ģŝĐ"
    ],
    [
      "ıŞŃ",
      "ŝĖ"
    ],
    [
      "ĸĸ",
      "ŗřŀĖ"
    ],
    [
      "ĥ",
      "Ű"
    ],
    [
      "š",
      "Ċ"
    ],
    [
      "ć",
      "Ģ"
    ],
    [
      "ŕ",
      "ŕ"
    ],
    [
      "Ő",
      "Ŝ"
    ],
    [
      "ĝ",
      "Ŭ"
    ],
    [
      "ĭĤ",
      "ŗŔĒ"
    ],
    [
      "ıŀ",
      "ł"
    ],
    [
      "ĩ",
      "įĺ"
    ],
    [
      "ĭ",
      "ĹŜĐ"
    ],
    [
      "Łń",
      "ŀŗ"
    ],
    [
      "ħ",
      "ĸģĒ"
    ],
    [
      "ĵĦ",
      "ĩĹŀĐ"
    ],
    [
      "š",
      "ļ"
    ],
    [
      "ĥ",
      "Ġ"
    ],
    [
      "Ď",
      "Ģ"
    ],
    [
      "ř",
      "ř"
    ],
    [
      "Ħ",
      "ī"
    ],
    [
      "ĳ",
      "įĢ"
    ],
    [
      "ħĢ",
      "ĵĒ"
    ],
    [
      "Ģ",
      "īĨŰ"
    ],
    [
      "Ņ",
      "şŀ"
    ],
    [
      "ĲŮ",
      "ĸĿ"
    ],
    [
      "ĭļ",
      "Łş"
    ],
    [
      "ģĥ",
      "ļ"
    ],
    [
      "ĿŜĐ",
      "ņŞĤŮ"
    ],
    [
      "ĮĹ",
      "Ŭ"
    ],
    [
      "Ŕřĳ",
      "ģ"
    ],
    [
      "ŇŜ",
      "ŖĖ"
    ],
    [
      "ņŘ",
      "ŗş"
    ],
    [
      "ś",
      "Ŋ"
    ],
    [
      "ŀ",
      "Ř"
    ],
    [
      "č",
      "Ű"
    ],
    [
      "ĤŚ",
      "ş"
    ],
    [
      "Ľ",
      "ŗł"
    ],
    [
      "Ŗ",
      "œĳ"
    ],
    [
      "őŜ",
      "ő"
    ],
    [
      "Ŗ",
      "śń"
    ],
    [
      "Ś",
      "őń"
    ],
    [
      "œ",
      "řŜĖ"
    ],
    [
      "ĴĽ",
      "ĸĢ"
    ],
    [
      "ĩ",
      "ĵŜĐ"
    ],
    [
      "Ĺ",
      "ņŃĒ"
    ],
    [
      "įĢĴ",
      "ĒńŚœš"
    ],
    [
      "Ľ",
      "ŗŞņĖ"
    ],
    [
      "őş",
      "ŜŅ"
    ],
    [
      "ĢĿ",
      "ņĐ"
    ],
    [
      "ı",
      "įľĤ"
    ],
    [
      "ē",
      "Ś"
    ],
    [
      "ĸ",
      "ĵĒ"
    ],
    [
      "Ēř",
      "ņĖ"
    ],
    [
      "Ķ",
      "ġŬ"
    ],
    [
      "ĿŰ",
      "ŝŖ"
    ],
    [
      "ġĢ",
      "ĵĒ"
    ],
    [
      "ĿŔĐ",
      "ņŞ"
    ],
    [
      "Ŝş",
      "ņĖ"
    ],
    [
      "Ĩļ",
      "ĿĤ"
    ],
    [
      "Įĺ",
      "ĤĵŀĐ"
    ],
    [
      "ĵĹ",
      "ģŰ"
    ],
    [
      "ř",
      "œ"
    ],
    [
      "śł",
      "ĲŮ"
    ],
    [
      "ŝŃ",
      "ĵŮ"
    ],
    [
      "ıŀ",
      "ŕĒ"
    ],
    [
      "Łş",
      "ŜĖ"
    ],
    [
      "ĮĠ",
      "ĭļ"
    ],
    [
      "ı",
      "őń"
    ],
    [
      "ĒńŝĖ",
      "ĵĦĩŰ"
    ],
    [
      "Ēŀ",
      "ŀř"
    ],
    [
      "ĠĢ",
      "ĿĿ"
    ],
    [
      "Ġĭħ",
      "Ű"
    ],
    [
      "ħ",
      "ġ"
    ],
    [
      "ıŜ",
      "ř"
    ],
    [
      "ĮĻ",
      "ľ"
    ],
    [
      "ņŘ",
      "ŗńš"
    ],
    [
      "Łř",
      "ŝŘš"
    ],
    [
      "Ĩĭ",
      "ĭľ"
    ],
    [
      "ĤŮ",
      "ĻıŁĐ"
    ],
    [
      "šħĢŰ",
      "ņŘŗĖ"
    ],
    [
      "ħġľŰ",
      "ņŘŗĖ"
    ],
    [
      "šĺĤĵ",
      "śł"
    ],
    [
      "ŝŃ",
      "ĭĪŬ"
    ],
    [
      "Ā",
      "ĻĿĤ"
    ],
    [
      "ħħľ",
      "ģņĐ"
    ],
    [
      "ĲĦĥ",
      "Ġ"
    ],
    [
      "Ħ",
      "Ļ"
    ],
    [
      "œ",
      "ŏ"
    ],
    [
      "š",
      "ġ"
    ],
    [
      "š",
      "ş"
    ],
    [
      "Ş",
      "ŝ"
    ],
    [
      "Ő",
      "œš"
    ],
    [
      "œł",
      "ŖĖ"
    ],
    [
      "ĤŚŕĒ",
      "ŕ"
    ],
    [
      "ĳ",
      "īĨŰ"
    ],
    [
      "őŀ",
      "ŏš"
    ],
    [
      "ĒŘ",
      "ŗĖ"
    ],
    [
      "Ņ",
      "ĵ"
    ],
    [
      "Ĩ",
      "Ĩ"
    ],
    [
      "ħ",
      "ľ"
    ],
    [
      "ħĢ",
      "ĳ"
    ],
    [
      "ŝł",
      "ŗĖ"
    ],
    [
      "Ġļ",
      "ĨŰ"
    ],
    [
      "į",
      "ķŬ"
    ],
    [
      "œŘĥŮ",
      "ĸĸŗĐ"
    ],
    [
      "Ĳĺ",
      "ĩĢ"
    ],
    [
      "ŕŞ",
      "ĵŮ"
    ],
    [
      "į",
      "ĵŁĐ"
    ],
    [
      "Ĵ",
      "ŗŃ"
    ],
    [
      "ĭĽ",
      "ģŰ"
    ],
    [
      "őŗ",
      "ĭŮ"
    ],
    [
      "őł",
      "ĨġĢŰ"
    ],
    [
      "Ŝř",
      "ĵŮ"
    ],
    [
      "ış",
      "ŕĒ"
    ],
    [
      "š",
      "Ğ"
    ],
    [
      "ņ",
      "ŏ"
    ],
    [
      "Ī",
      "īŬ"
    ],
    [
      "ņŘ",
      "ŗń"
    ],
    [
      "śŞ",
      "ŕ"
    ],
    [
      "Ŀ",
      "Ŝŗ"
    ],
    [
      "Ĭ",
      "įĢ"
    ],
    [
      "ĵŖĐ",
      "ņŞĤŮ"
    ],
    [
      "įľ",
      "ĩĒ"
    ],
    [
      "ĵ",
      "īĿŰ"
    ],
    [
      "śŃ",
      "ŚĖ"
    ],
    [
      "įĿŜ",
      "ń"
    ],
    [
      "ģ",
      "Ħŗł"
    ],
    [
      "ĮĻ",
      "ĠĴĒ"
    ],
    [
      "ŋ",
      "œ"
    ],
    [
      "Ű",
      "ŗ"
    ],
    [
      "ŀ",
      "Œ"
    ],
    [
      "ł",
      "ŃĒ"
    ],
    [
      "ĥľ",
      "ŕ"
    ],
    [
      "ŕŀ",
      "œ"
    ],
    [
      "ĒŅ",
      "ĵ"
    ],
    [
      "ŕŖĖ",
      "ĵġŬ"
    ],
    [
      "ŗĐ",
      "ŝŐš"
    ],
    [
      "ĴĢ",
      "ĨŰ"
    ],
    [
      "Įĥ",
      "ņĐ"
    ],
    [
      "Ň",
      "ŗńĤŮ"
    ],
    [
      "ħĺ",
      "ĩĢ"
    ],
    [
      "ġĹķ",
      "ŚĐ"
    ],
    [
      "śő",
      "ĩĺŬ"
    ],
    [
      "Ŷ",
      "ř"
    ],
    [
      "ų",
      "Ė"
    ],
    [
      "ž",
      "ř"
    ],
    [
      "ĳ",
      "ĽŬ"
    ],
    [
      "Ģ",
      "ġľ"
    ],
    [
      "Ľ",
      "ŗŞ"
    ],
    [
      "ĳ",
      "ŝŅ"
    ],
    [
      "Ēő",
      "ŜĖ"
    ],
    [
      "Ġĺ",
      "ĩĴĒ"
    ],
    [
      "œś",
      "ĤŮ"
    ],
    [
      "Ĩĭ",
      "ĭļ"
    ],
    [
      "į",
      "ĭĠ"
    ],
    [
      "ŝŁ",
      "įŮ"
    ],
    [
      "ĒŐ",
      "ĳġġŰ"
    ],
    [
      "œŗ",
      "ŗĖ"
    ],
    [
      "ĩĽ",
      "ŐŕŀĖ"
    ],
    [
      "Ĥ",
      "ŀ"
    ],
    [
      "ř",
      "ŕ"
    ],
    [
      "š",
      "Ā"
    ],
    [
      "Ŝŗ",
      "Œš"
    ],
    [
      "œ",
      "œŚ"
    ],
    [
      "Ķ",
      "įľ"
    ],
    [
      "ŗĳ",
      "īŬ"
    ],
    [
      "ŗĳ",
      "ķŬ"
    ],
    [
      "őŀ",
      "ŗ"
    ],
    [
      "ŗŒš",
      "ħĢŰ"
    ],
    [
      "ĒŔ",
      "ĸŮ"
    ],
    [
      "ĵ",
      "ļģ"
    ],
    [
      "ŇŘ",
      "ĥŮ"
    ],
    [
      "īĸ",
      "ņĐ"
    ],
    [
      "łł",
      "ŗŅ"
    ],
    [
      "š",
      "ę"
    ],
    [
      "Ĳ",
      "ġ"
    ],
    [
      "Ű",
      "ő"
    ],
    [
      "Ň",
      "Ė"
    ],
    [
      "Ī",
      "ļ"
    ],
    [
      "Ŕ",
      "Ń"
    ],
    [
      "œł",
      "ĵ"
    ],
    [
      "ś",
      "ŔĒ"
    ],
    [
      "ĨĠ",
      "ī"
    ],
    [
      "šĺĤĵĒ",
      "ń"
    ],
    [
      "ŝŞ",
      "ĒłĩīŬ"
    ],
    [
      "ĭľ",
      "ŋĐ"
    ],
    [
      "řŜ",
      "œ"
    ],
    [
      "ıŀ",
      "Ŕ"
    ],
    [
      "ĵŜ",
      "Ń"
    ],
    [
      "Łř",
      "įŮ"
    ],
    [
      "œŜ",
      "Łř"
    ],
    [
      "Ģŗ",
      "œ"
    ],
    [
      "Ģ",
      "įĠŰ"
    ],
    [
      "Łř",
      "ŕŘ"
    ],
    [
      "šĹ",
      "ĩĢŗĐ"
    ],
    [
      "ĵĢ",
      "ĵŰ"
    ],
    [
      "ģ",
      "Ĳ"
    ],
    [
      "Ż",
      "ń"
    ],
    [
      "š",
      "Ė"
    ],
    [
      "ſ",
      "œ"
    ],
    [
      "ę",
      "ŜĐ"
    ],
    [
      "ĿŰ",
      "śŞ"
    ],
    [
      "ĩ",
      "īľ"
    ],
    [
      "Ŝŗ",
      "ŗ"
    ],
    [
      "œŞ",
      "Ēŗ"
    ],
    [
      "Įļ",
      "ĩŰ"
    ],
    [
      "Ĭ",
      "īĨŰ"
    ],
    [
      "ĿŔ",
      "Ŗ"
    ],
    [
      "őř",
      "įĺ"
    ],
    [
      "įŬ",
      "ģ"
    ],
    [
      "ĮĠŬ",
      "ĤŚŕĒ"
    ],
    [
      "Ŗ",
      "řŜő"
    ],
    [
      "ĩģ",
      "ŗĐ"
    ],
    [
      "ŗŃ",
      "ŗĖ"
    ],
    [
      "ĤĢ",
      "Ŭ"
    ],
    [
      "Ş",
      "ŕŁĖ"
    ],
    [
      "ĵħģľ",
      "œŜ"
    ],
    [
      "įļ",
      "ŇŔ"
    ],
    [
      "ġĹľ",
      "ŖĐ"
    ],
    [
      "ĤŚŕ",
      "śń"
    ],
    [
      "ĲŮ",
      "ĻĵŀŕĒ"
    ],
    [
      "ĒńŚœ",
      "ĨļŬ"
    ],
    [
      "ĳĽ",
      "ĸŰ"
    ],
    [
      "ļ",
      "ĸ"
    ],
    [
      "ĸ",
      "Ĥ"
    ],
    [
      "Ħ",
      "ġ"
    ],
    [
      "Ŷ",
      "ş"
    ],
    [
      "Ş",
      "ŃĒ"
    ],
    [
      "ľ",
      "ĩĢ"
    ],
    [
      "ŕŖĖ",
      "ĵĦĩŰ"
    ],
    [
      "Ļ",
      "Ŀŀ"
    ],
    [
      "Ġ",
      "ŝŃ"
    ],
    [
      "įĺ",
      "ģŰ"
    ],
    [
      "Ēł",
      "ŗŕ"
    ],
    [
      "Ĥ",
      "Ņş"
    ],
    [
      "ņ",
      "ĳġ"
    ],
    [
      "ŗŔ",
      "Ēł"
    ],
    [
      "ĥ",
      "ıŞĐ"
    ],
    [
      "Ĥįľ",
      "Ű"
    ],
    [
      "şŒ",
      "ŗńš"
    ],
    [
      "Ĵĩ",
      "ĤŰ"
    ],
    [
      "őŞŅ",
      "ĮŮ"
    ],
    [
      "ų",
      "Ś"
    ],
    [
      "ų",
      "ń"
    ],
    [
      "ű",
      "ŗ"
    ],
    [
      "ą",
      "Ű"
    ],
    [
      "Ŗ",
      "Œ"
    ],
    [
      "ĠĠ",
      "ĵŰ"
    ],
    [
      "ŝŅ",
      "ĵŮ"
    ],
    [
      "Ŗ",
      "œĳŮ"
    ],
    [
      "œŃ",
      "ņĖ"
    ],
    [
      "įĤ",
      "śşŜĖ"
    ],
    [
      "Įĵ",
      "ŗŞ"
    ],
    [
      "ŔşŀĖ",
      "ĵĦĩŰ"
    ],
    [
      "ŀ",
      "őŞş"
    ],
    [
      "ĒŁ",
      "ĩħįĸ"
    ],
    [
      "ĭ",
      "ĸ"
    ],
    [
      "ŀ",
      "ł"
    ],
    [
      "Ř",
      "ŗĖ"
    ],
    [
      "Ĭ",
      "ħĢ"
    ],
    [
      "ħ",
      "Ġļ"
    ],
    [
      "ĤĪŬ",
      "ı"
    ],
    [
      "ł",
      "ŝŃ"
    ],
    [
      "ĵ",
      "őń"
    ],
    [
      "ŝś",
      "Ś"
    ],
    [
      "ģĒ",
      "őŜŒš"
    ],
    [
      "Ġ",
      "ģļ"
    ],
    [
      "Ģ",
      "īĿŰ"
    ],
    [
      "ĨĽ",
      "ĤŰ"
    ],
    [
      "ĮĽ",
      "ĸŰ"
    ],
    [
      "ĪĿŀĐ",
      "ņŞĤŮ"
    ],
    [
      "Ħ",
      "ĭĴĒ"
    ],
    [
      "őşş",
      "ņ"
    ],
    [
      "ŗ",
      "őŀĖ"
    ],
    [
      "Ŋ",
      "Ė"
    ],
    [
      "ı",
      "Ļ"
    ],
    [
      "ī",
      "ĵĒ"
    ],
    [
      "œń",
      "ĥŮ"
    ],
    [
      "Ĭ",
      "ġľ"
    ],
    [
      "ĭ",
      "įľ"
    ],
    [
      "ŕŞ",
      "œ"
    ],
    [
      "ŇŚ",
      "ĥŮ"
    ],
    [
      "ŐŃ",
      "ĵŮ"
    ],
    [
      "ĭľ",
      "ĵ"
    ],
    [
      "œŚ",
      "ŗ"
    ],
    [
      "įĸ",
      "Ĺ"
    ],
    [
      "ŝŅ",
      "ņŞ"
    ],
    [
      "ĹŜ",
      "Ŕ"
    ],
    [
      "Łř",
      "ŝŘ"
    ],
    [
      "Ēł",
      "ŗŅ"
    ],
    [
      "Ņš",
      "įĢĴĒ"
    ],
    [
      "ŕŞ",
      "Ė"
    ],
    [
      "Ĥ",
      "ıŁĐ"
    ],
    [
      "įġ",
      "Ġ"
    ],
    [
      "Ģ",
      "įĢŰ"
    ],
    [
      "ĠĿ",
      "Ņ"
    ],
    [
      "ĭĳ",
      "řĐ"
    ],
    [
      "š",
      "ĭģľ"
    ],
    [
      "ĮĻ",
      "ľŰ"
    ],
    [
      "ļ",
      "ıŀń"
    ],
    [
      "šĹĤĹ",
      "őŘ"
    ],
    [
      "ĨĠ",
      "įļŇŔ"
    ],
    [
      "ĵŀ",
      "ņ"
    ],
    [
      "ĒńŚœš",
      "ĺ"
    ],
    [
      "Įļ",
      "ĸĸ"
    ],
    [
      "īĢ",
      "ģ"
    ],
    [
      "Ġĺ",
      "ĩĢ"
    ],
    [
      "ļĩ",
      "ı"
    ],
    [
      "œŃĒ",
      "ŗ"
    ],
    [
      "ő",
      "ŕŁĖ"
    ],
    [
      "ĵ",
      "įĥľ"
    ],
    [
      "įĠļ",
      "ŋĐ"
    ],
    [
      "ģĥ",
      "ŀĐ"
    ],
    [
      "ĤŚ",
      "řŁĖ"
    ],
    [
      "ņŘŗş",
      "ĳŮ"
    ],
    [
      "ĀĻĿĤ",
      "ŀőŞş"
    ],
    [
      "Ę",
      "ĸ"
    ],
    [
      "ŕ",
      "Ŋ"
    ],
    [
      "ĩ",
      "Ŀ"
    ],
    [
      "ŝ",
      "ŗń"
    ],
    [
      "œŞ",
      "Ń"
    ],
    [
      "Ľ",
      "ŝŞ"
    ],
    [
      "ŝł",
      "ņŞ"
    ],
    [
      "ĿĤ",
      "ŝł"
    ],
    [
      "ŕŜ",
      "Ņ"
    ],
    [
      "ĹŜ",
      "Ń"
    ],
    [
      "Ĳĺ",
      "ģĢ"
    ],
    [
      "ĩ",
      "įĿŰ"
    ],
    [
      "ĤĽ",
      "ĩŰ"
    ],
    [
      "ĩļ",
      "ŋĐ"
    ],
    [
      "Įģ",
      "ĩŰ"
    ],
    [
      "ĥģ",
      "ŚĐ"
    ],
    [
      "šĬ",
      "ĵŰ"
    ],
    [
      "œŀ",
      "ĤŮ"
    ],
    [
      "őř",
      "Ĭľ"
    ],
    [
      "ŔřĳŮ",
      "ĸĸŗĐ"
    ],
    [
      "őşş",
      "ś"
    ],
    [
      "Ēłĩī",
      "ĥĢ"
    ],
    [
      "ıŜ",
      "œŗĖ"
    ],
    [
      "č",
      "Ĥ"
    ],
    [
      "Ŗ",
      "ł"
    ],
    [
      "ŧ",
      "Ş"
    ],
    [
      "ğ",
      "Ű"
    ],
    [
      "ĤŚŕĒ",
      "œ"
    ],
    [
      "őŜ",
      "ŕ"
    ],
    [
      "śŞ",
      "Ēŗ"
    ],
    [
      "ņş",
      "Ēŗ"
    ],
    [
      "Ģ",
      "ĵŰ"
    ],
    [
      "ŗŔĒ",
      "ş"
    ],
    [
      "ĹŜ",
      "ŕĒ"
    ],
    [
      "Ņ",
      "řĳ"
    ],
    [
      "śŗ",
      "ĭŮ"
    ],
    [
      "ŗŜ",
      "ŋĖ"
    ],
    [
      "ĭķ",
      "ŗĐ"
    ],
    [
      "īĢ",
      "ĳŗĐ"
    ],
    [
      "ĭĦ",
      "ŗĐ"
    ],
    [
      "įĿ",
      "şŝ"
    ],
    [
      "ņŇ",
      "ŝĖ"
    ],
    [
      "ľ",
      "ĥ"
    ],
    [
      "Ŷ",
      "œ"
    ],
    [
      "ń",
      "ő"
    ],
    [
      "Ĥ",
      "Ĩ"
    ],
    [
      "Ĺ",
      "Ů"
    ],
    [
      "ď",
      "ġ"
    ],
    [
      "Ēş",
      "ĵŮ"
    ],
    [
      "Ŝ",
      "œĥŮ"
    ],
    [
      "Łł",
      "Įļ"
    ],
    [
      "ĳī",
      "Ŀ"
    ],
    [
      "Ķ",
      "ŝŅ"
    ],
    [
      "őŀ",
      "ń"
    ],
    [
      "œŞŖĖ",
      "ĵĦĩŰ"
    ],
    [
      "ĨĢ",
      "Ŭ"
    ],
    [
      "œń",
      "ņŗ"
    ],
    [
      "śŚ",
      "ĭŮ"
    ],
    [
      "śŕ",
      "ĠĢŬ"
    ],
    [
      "œņ",
      "ŗĖ"
    ],
    [
      "Į",
      "ĨĪ"
    ],
    [
      "ĭġ",
      "Ļ"
    ],
    [
      "Ŕł",
      "ĤļŬ"
    ],
    [
      "Ŀĸ",
      "śŀ"
    ],
    [
      "Œ",
      "ŗœįŮ"
    ],
    [
      "Ā",
      "ĨĸĵŀĐ"
    ],
    [
      "ĸħ",
      "ŝĐ"
    ],
    [
      "ņŞ",
      "ĤħľŰ"
    ],
    [
      "Ī",
      "Ű"
    ],
    [
      "ē",
      "ī"
    ],
    [
      "Ŕ",
      "ŗń"
    ],
    [
      "œŞ",
      "ř"
    ],
    [
      "ŁĖ",
      "ĵĦĩŰ"
    ],
    [
      "Ĩ",
      "īĨŰ"
    ],
    [
      "őş",
      "ņ"
    ],
    [
      "ġ",
      "Ŀŀ"
    ],
    [
      "ıŀ",
      "ŔĒ"
    ],
    [
      "ŗĳ",
      "ĪŬ"
    ],
    [
      "ģ",
      "Śř"
    ],
    [
      "Ģŗ",
      "ő"
    ],
    [
      "į",
      "īĿŰ"
    ],
    [
      "ĳ",
      "ŗŃ"
    ],
    [
      "Ĭ",
      "įĢŰ"
    ],
    [
      "şő",
      "ŜĖ"
    ],
    [
      "ģī",
      "ĩľ"
    ],
    [
      "Ħ",
      "įĥľ"
    ],
    [
      "ŁŞ",
      "Ĩľ"
    ],
    [
      "ž",
      "œ"
    ],
    [
      "Ĳ",
      "ĭ"
    ],
    [
      "Ł",
      "Ś"
    ],
    [
      "ĭľ",
      "Ĺ"
    ],
    [
      "Ĉ",
      "ĺŬ"
    ],
    [
      "ĨĠ",
      "ĩŰ"
    ],
    [
      "Įļ",
      "ĸŰ"
    ],
    [
      "œŘ",
      "ĸŮ"
    ],
    [
      "ő",
      "œĥŮ"
    ],
    [
      "ī",
      "ĿĤ"
    ],
    [
      "ĳī",
      "Ģ"
    ],
    [
      "ŝŖ",
      "Ēł"
    ],
    [
      "Ňł",
      "ŗĖ"
    ],
    [
      "šĽ",
      "ĸ"
    ],
    [
      "ĿĹ",
      "ŕŞ"
    ],
    [
      "Ş",
      "ĨĽŬ"
    ],
    [
      "ĤĠ",
      "ĸģĒ"
    ],
    [
      "őŜ",
      "ŇŒ"
    ],
    [
      "śŗŚ",
      "ł"
    ],
    [
      "Ĳ",
      "ŗŕŜĖ"
    ],
    [
      "œŚ",
      "ĲġŬ"
    ],
    [
      "Ė",
      "Ħ"
    ],
    [
      "Ŕ",
      "Ŝ"
    ],
    [
      "Ł",
      "Ň"
    ],
    [
      "Ĩģ",
      "Ŭ"
    ],
    [
      "ņŁ",
      "ĮŮ"
    ],
    [
      "Ż",
      "Ė"
    ],
    [
      "Ŀ",
      "ļ"
    ],
    [
      "Ğ",
      "Ŀ"
    ],
    [
      "ŧ",
      "Ř"
    ],
    [
      "Ę",
      "ŗĐ"
    ],
    [
      "Ī",
      "ĽŬ"
    ],
    [
      "Ĭ",
      "ĽŬ"
    ],
    [
      "śŘ",
      "ĤŮ"
    ],
    [
      "ŕŀ",
      "ŀ"
    ],
    [
      "ņ",
      "Ĥļ"
    ],
    [
      "ŝł",
      "ņĖ"
    ],
    [
      "ŀ",
      "ŀœ"
    ],
    [
      "Ēņ",
      "ĳġ"
    ],
    [
      "į",
      "ĵŜń"
    ],
    [
      "Ħ",
      "ĩı"
    ],
    [
      "Ġļ",
      "ŝŇ"
    ],
    [
      "ĭĴ",
      "ŗĐ"
    ],
    [
      "ł",
      "şŀł"
    ],
    [
      "ĥ",
      "Ķ"
    ],
    [
      "Ī",
      "ī"
    ],
    [
      "ŗ",
      "ŉ"
    ],
    [
      "ų",
      "Ř"
    ],
    [
      "œ",
      "ŝł"
    ],
    [
      "Ēř",
      "Ŝ"
    ],
    [
      "ĩ",
      "īĨŰ"
    ],
    [
      "ģĢ",
      "ņĐ"
    ],
    [
      "ģĢ",
      "ņŘ"
    ],
    [
      "ĩ",
      "ġŬ"
    ],
    [
      "ł",
      "ŗĳ"
    ],
    [
      "ģĥ",
      "ņŘ"
    ],
    [
      "š",
      "ġĢŰ"
    ],
    [
      "œŅ",
      "ĵŮ"
    ],
    [
      "Ĩ",
      "ģļ"
    ],
    [
      "Ĥ",
      "ģļ"
    ],
    [
      "ĭģĒ",
      "ő"
    ],
    [
      "łń",
      "Į"
    ],
    [
      "œŜ",
      "Şŏš"
    ],
    [
      "Ňő",
      "ĩŮ"
    ],
    [
      "ł",
      "Ş"
    ],
    [
      "š",
      "ą"
    ],
    [
      "ď",
      "ī"
    ],
    [
      "ŀ",
      "ŕĒ"
    ],
    [
      "ř",
      "ŃĒ"
    ],
    [
      "Ĥ",
      "įĸ"
    ],
    [
      "ő",
      "ŕŖĖ"
    ],
    [
      "ŝŃ",
      "ņĖ"
    ],
    [
      "Ī",
      "ħĢķ"
    ],
    [
      "ĮĻ",
      "ĸĸ"
    ],
    [
      "Ēń",
      "ŀŗ"
    ],
    [
      "į",
      "ıŜĐ"
    ],
    [
      "ŗņ",
      "ŗń"
    ],
    [
      "ĥĢ",
      "Łń"
    ],
    [
      "į",
      "ĥĢ"
    ],
    [
      "Ř",
      "śŅš"
    ],
    [
      "Ġı",
      "ŋ"
    ],
    [
      "Śŗ",
      "ķīŬ"
    ],
    [
      "ĒŞ",
      "ĠĪŬ"
    ],
    [
      "Ż",
      "Đ"
    ],
    [
      "ř",
      "Ř"
    ],
    [
      "š",
      "ā"
    ],
    [
      "Ĭ",
      "ĩŰ"
    ],
    [
      "ź",
      "œš"
    ],
    [
      "ģĒ",
      "Ń"
    ],
    [
      "ĝ",
      "œł"
    ],
    [
      "ħ",
      "īľ"
    ],
    [
      "Ŝŗ",
      "Ņš"
    ],
    [
      "Ġ",
      "ŀř"
    ],
    [
      "Ĥļ",
      "ĭļ"
    ],
    [
      "ģ",
      "ŗœ"
    ],
    [
      "ġ",
      "ĿŜ"
    ],
    [
      "Ľ",
      "śŜ"
    ],
    [
      "Ĳħ",
      "īľ"
    ],
    [
      "Ēŀ",
      "Şŗ"
    ],
    [
      "ŁĐ",
      "ŝŐš"
    ],
    [
      "Ĩĸ",
      "ĩĢ"
    ],
    [
      "ŝŃ",
      "ĳŮ"
    ],
    [
      "œŕ",
      "ĪŮ"
    ],
    [
      "őř",
      "įĽ"
    ],
    [
      "ĵŖĐ",
      "Őŏš"
    ],
    [
      "Ŵ",
      "ş"
    ],
    [
      "Ő",
      "ŕĒ"
    ],
    [
      "ĸ",
      "ŗł"
    ],
    [
      "Ĥļ",
      "Ģ"
    ],
    [
      "œŞ",
      "ņĖ"
    ],
    [
      "ŜĖ",
      "ĵĦĩŰ"
    ],
    [
      "Łń",
      "ŝń"
    ],
    [
      "ŗŔĒ",
      "ř"
    ],
    [
      "ľ",
      "ľĵ"
    ],
    [
      "ľĵ",
      "ŗĐ"
    ],
    [
      "ıŜŔĒ",
      "Ņ"
    ],
    [
      "Ēń",
      "ĤĽ"
    ],
    [
      "ļ",
      "ŗő"
    ],
    [
      "Ēń",
      "Ņř"
    ],
    [
      "œ",
      "œņ"
    ],
    [
      "ŗŃĒ",
      "ŗįĪŬ"
    ],
    [
      "Ŗ",
      "řŜőš"
    ],
    [
      "śŔ",
      "ŗĖ"
    ],
    [
      "ħœŃĒ",
      "ŗ"
    ],
    [
      "Ĺģ",
      "ņł"
    ],
    [
      "ĭľ",
      "őŕĒ"
    ],
    [
      "ĮĻĢ",
      "ĴĒ"
    ],
    [
      "Ĵľ",
      "Ŭ"
    ],
    [
      "ģĥŜ",
      "Ŕ"
    ],
    [
      "Ē",
      "ŏ"
    ],
    [
      "ď",
      "Ŭ"
    ],
    [
      "ı",
      "śŞ"
    ],
    [
      "Ł",
      "œĳ"
    ],
    [
      "ĠĠ",
      "ĿŰ"
    ],
    [
      "řŜ",
      "œš"
    ],
    [
      "ħ",
      "Śş"
    ],
    [
      "ŗŅ",
      "ĤŮ"
    ],
    [
      "ŀŗ",
      "ŕ"
    ],
    [
      "ĸ",
      "ŗő"
    ],
    [
      "ĵļ",
      "ĭļ"
    ],
    [
      "ĹĢ",
      "ŗĐ"
    ],
    [
      "śœ",
      "œŚš"
    ],
    [
      "ģħ",
      "ŜĐ"
    ],
    [
      "Ĥĸ",
      "ĩľ"
    ],
    [
      "ģ",
      "ĩľņĐ"
    ],
    [
      "Ġĺ",
      "ĥĿŜ"
    ],
    [
      "őř",
      "Ĭģ"
    ],
    [
      "Ř",
      "œŒš"
    ],
    [
      "ĒŖ",
      "ŀřĬŮ"
    ],
    [
      "ģĥŜ",
      "ŔĒ"
    ],
    [
      "ĭĶ",
      "ņŕŀĖ"
    ],
    [
      "ų",
      "ŝŗń"
    ],
    [
      "Ā",
      "ļ"
    ],
    [
      "ı",
      "ł"
    ],
    [
      "ĳ",
      "Ī"
    ],
    [
      "ģ",
      "Ň"
    ],
    [
      "š",
      "ĉ"
    ],
    [
      "ŋ",
      "ř"
    ],
    [
      "šĺĤĵĒ",
      "ł"
    ],
    [
      "őŜ",
      "ŝ"
    ],
    [
      "őŞ",
      "ł"
    ],
    [
      "őŀ",
      "ŝ"
    ],
    [
      "š",
      "ĦĩŰ"
    ],
    [
      "ıŜŔĒ",
      "ŗ"
    ],
    [
      "ĤĢ",
      "ĵŰ"
    ],
    [
      "ĨĢ",
      "ĠŰ"
    ],
    [
      "ŇŃ",
      "ņń"
    ],
    [
      "ĭĢ",
      "ģħ"
    ],
    [
      "ıŜŔ",
      "Ēł"
    ],
    [
      "ĠĢ",
      "ĠĩĒ"
    ],
    [
      "ĵĒşŔĖ",
      "ĵĦĩŰ"
    ],
    [
      "ı",
      "ļĩģ"
    ],
    [
      "łŜœ",
      "ŏ"
    ],
    [
      "įĭĠ",
      "ĥ"
    ],
    [
      "Ŕş",
      "ĳĽĸŰ"
    ],
    [
      "Ĩ",
      "ı"
    ],
    [
      "ž",
      "ŕ"
    ],
    [
      "Ĺ",
      "Ű"
    ],
    [
      "Ł",
      "Ŝ"
    ],
    [
      "Ā",
      "ĵ"
    ],
    [
      "ŀ",
      "ŗń"
    ],
    [
      "ĢŰ",
      "ņŘŗĖ"
    ],
    [
      "ĸŰ",
      "ņŘŗĖ"
    ],
    [
      "įľ",
      "Ļ"
    ],
    [
      "ŝŃ",
      "įĪŬ"
    ],
    [
      "Łş",
      "Ħ"
    ],
    [
      "őŀ",
      "Œš"
    ],
    [
      "ĒŇ",
      "œŅ"
    ],
    [
      "Ĳ",
      "īĿŰ"
    ],
    [
      "ŝŝ",
      "ŗĖ"
    ],
    [
      "ĳ",
      "Şő"
    ],
    [
      "şŔĖ",
      "ĵĦĩŰ"
    ],
    [
      "ő",
      "ŕŜł"
    ],
    [
      "šľ",
      "ľĿ"
    ],
    [
      "įĪ",
      "Ĥŗł"
    ],
    [
      "ĸĸ",
      "ŝŅŕŞ"
    ],
    [
      "Ļľ",
      "ĹŜŗĒłĩīŬ"
    ],
    [
      "Ř",
      "ĮĺŬ"
    ],
    [
      "š",
      "ĩ"
    ],
    [
      "Ŝ",
      "ń"
    ],
    [
      "ś",
      "Ō"
    ],
    [
      "Ĕ",
      "Ġ"
    ],
    [
      "Ē",
      "Ů"
    ],
    [
      "ż",
      "œ"
    ],
    [
      "č",
      "ļ"
    ],
    [
      "Ŧ",
      "ş"
    ],
    [
      "Į",
      "ķ"
    ],
    [
      "ź",
      "ŕĒ"
    ],
    [
      "ļ",
      "œł"
    ],
    [
      "ģ",
      "ŗł"
    ],
    [
      "œŞ",
      "ŗ"
    ],
    [
      "ŝŅ",
      "ŁĖ"
    ],
    [
      "šĹ",
      "Ĥ"
    ],
    [
      "šĹ",
      "ĭģ"
    ],
    [
      "Ķ",
      "śŜ"
    ],
    [
      "śŚ",
      "ĤŮ"
    ],
    [
      "ıņĐ",
      "ņŞĤŮ"
    ],
    [
      "Ĺ",
      "ŞŜ"
    ],
    [
      "ı",
      "ŕő"
    ],
    [
      "ńŕŀ",
      "Ņ"
    ],
    [
      "ĥŜ",
      "ń"
    ],
    [
      "ŝ",
      "ŗŘĵŮ"
    ],
    [
      "ĩĦ",
      "ŗŞ"
    ],
    [
      "Ĭĩ",
      "ĵŜĐ"
    ],
    [
      "ĒŇŚş",
      "ĢĦŬ"
    ],
    [
      "ĩįĺ",
      "ĵĒ"
    ],
    [
      "Ŗśń",
      "ĲĺŬ"
    ],
    [
      "Ĉ",
      "ĵ"
    ],
    [
      "ą",
      "Ĥ"
    ],
    [
      "ł",
      "Ņš"
    ],
    [
      "ş",
      "şŀ"
    ],
    [
      "ľ",
      "ĩĒ"
    ],
    [
      "ħĢķ",
      "ĒńŚœš"
    ],
    [
      "œ",
      "ŗœ"
    ],
    [
      "Ś",
      "őŁĖ"
    ],
    [
      "ĵŖĐ",
      "ņřš"
    ],
    [
      "œŔ",
      "ŗĖ"
    ],
    [
      "Ĥģ",
      "Ŭ"
    ],
    [
      "šĺĤ",
      "ĹŁĐ"
    ],
    [
      "śř",
      "įĽŬ"
    ],
    [
      "Ĳľ",
      "ĩĳ"
    ],
    [
      "Ĭ",
      "ĹĤ"
    ],
    [
      "Ĩĥ",
      "ŀřŜő"
    ],
    [
      "ĢĢ",
      "ĹĴ"
    ],
    [
      "Ĉ",
      "Ġ"
    ],
    [
      "ų",
      "ś"
    ],
    [
      "ı",
      "ŕ"
    ],
    [
      "Ŵ",
      "ř"
    ],
    [
      "ş",
      "ŃĒ"
    ],
    [
      "ĤŚŕĒ",
      "ś"
    ],
    [
      "ĭĢ",
      "ņĐ"
    ],
    [
      "ĭĤ",
      "ĒńŚœš"
    ],
    [
      "ŀŕ",
      "ŗĖ"
    ],
    [
      "Ġ",
      "ıŀ"
    ],
    [
      "ĭľŖĐ",
      "ņŞĤŮ"
    ],
    [
      "Ģŗ",
      "ņ"
    ],
    [
      "ŗŚ",
      "ĸŮ"
    ],
    [
      "ņş",
      "ĒŔ"
    ],
    [
      "śŅ",
      "ĩŮ"
    ],
    [
      "Ġģ",
      "ħ"
    ],
    [
      "ĩģĒ",
      "őŜŒš"
    ],
    [
      "ġĿ",
      "Łń"
    ],
    [
      "ıĢ",
      "ĭĩ"
    ],
    [
      "šĦ",
      "ĭĴĒ"
    ],
    [
      "ł",
      "ŜŗĖ"
    ],
    [
      "ĸĸ",
      "ŗŉĒ"
    ],
    [
      "š",
      "Ą"
    ],
    [
      "ĥ",
      "ĩ"
    ],
    [
      "ų",
      "ł"
    ],
    [
      "đ",
      "ş"
    ],
    [
      "ģĒ",
      "ő"
    ],
    [
      "Ĥļ",
      "ĢŰ"
    ],
    [
      "Ń",
      "ņĖ"
    ],
    [
      "ĤŚŕĒ",
      "ń"
    ],
    [
      "ģľ",
      "ŖĐ"
    ],
    [
      "Ġļ",
      "ĸŰ"
    ],
    [
      "ş",
      "őŜ"
    ],
    [
      "œŚ",
      "ş"
    ],
    [
      "ĩľ",
      "Ŀ"
    ],
    [
      "ģĢ",
      "ĩŰ"
    ],
    [
      "řŜ",
      "Œ"
    ],
    [
      "Ģŗ",
      "ŃĒ"
    ],
    [
      "ĤĽ",
      "ĿŰ"
    ],
    [
      "ĥļ",
      "ŗĐ"
    ],
    [
      "Ĩĺ",
      "ĥĿŜĐ"
    ],
    [
      "Ĩģ",
      "ĩŰ"
    ],
    [
      "ĤŚŕ",
      "ŋĖ"
    ],
    [
      "Ġ",
      "ĨĸĵŀĐ"
    ],
    [
      "Ņő",
      "ŋĖ"
    ],
    [
      "Ŕř",
      "Şś"
    ],
    [
      "Ĕ",
      "ĝŬ"
    ],
    [
      "č",
      "ľ"
    ],
    [
      "Ţ",
      "ŗ"
    ],
    [
      "Ĥ",
      "ĥ"
    ],
    [
      "ż",
      "ş"
    ],
    [
      "Ā",
      "Ġ"
    ],
    [
      "ą",
      "ħ"
    ],
    [
      "Ş",
      "ŀ"
    ],
    [
      "ĕ",
      "ī"
    ],
    [
      "œŞ",
      "ŁĖ"
    ],
    [
      "ĭ",
      "ĺŬ"
    ],
    [
      "ř",
      "ņĖ"
    ],
    [
      "ĤŚŕĒ",
      "ņ"
    ],
    [
      "ıŜ",
      "ŃĒ"
    ],
    [
      "œń",
      "ĒłĩīŬ"
    ],
    [
      "ĭ",
      "įĸ"
    ],
    [
      "ś",
      "ŕŖĖ"
    ],
    [
      "ņŘ",
      "ŀœ"
    ],
    [
      "ŀŕ",
      "ŁĖ"
    ],
    [
      "ĳ",
      "ġĢ"
    ],
    [
      "ĩĢ",
      "śœ"
    ],
    [
      "Ś",
      "ŕŀĖ"
    ],
    [
      "ĹŜŗ",
      "Ēŗ"
    ],
    [
      "ĮĻ",
      "ĿŰ"
    ],
    [
      "Ĳ",
      "ŗœ"
    ],
    [
      "Ēŕ",
      "Ŋ"
    ],
    [
      "Ġ",
      "ĵŁĐ"
    ],
    [
      "ĳħ",
      "ĸĹ"
    ],
    [
      "ŕş",
      "Ė"
    ],
    [
      "ġľ",
      "ĤŚĐ"
    ],
    [
      "š",
      "įĸŰ"
    ],
    [
      "őő",
      "ŜĖ"
    ],
    [
      "ŇŃ",
      "ŗĖ"
    ],
    [
      "ŗŘ",
      "ĵĽŬ"
    ],
    [
      "ĥĦ",
      "ŗł"
    ],
    [
      "Ĥ",
      "śŝ"
    ],
    [
      "šĺ",
      "ĻĿ"
    ],
    [
      "ĩľ",
      "őŕĒ"
    ],
    [
      "įĢ",
      "ĳŗĐ"
    ],
    [
      "Ĥı",
      "ńŕĒ"
    ],
    [
      "ĤĠ",
      "įĵĒ"
    ],
    [
      "ĵŜ",
      "œŗĖ"
    ],
    [
      "ŝń",
      "ŚœĳŮ"
    ],
    [
      "ŕşŔ",
      "ĤļŬ"
    ],
    [
      "Ş",
      "ł"
    ],
    [
      "Ğ",
      "Ĺ"
    ],
    [
      "ħ",
      "Ļ"
    ],
    [
      "ř",
      "ŕĒ"
    ],
    [
      "Ā",
      "ĽŬ"
    ],
    [
      "Ķ",
      "śŞ"
    ],
    [
      "īľ",
      "Ħ"
    ],
    [
      "ę",
      "ņĐ"
    ],
    [
      "Ŕ",
      "œĳ"
    ],
    [
      "ŀř",
      "ņş"
    ],
    [
      "ŗŘ",
      "ĵ"
    ],
    [
      "ĩ",
      "įľ"
    ],
    [
      "ĨĠ",
      "ĿĤ"
    ],
    [
      "ħ",
      "ŝŅ"
    ],
    [
      "ıŞ",
      "ń"
    ],
    [
      "ĸ",
      "ĹŜ"
    ],
    [
      "őŀ",
      "ő"
    ],
    [
      "řĳ",
      "īŬ"
    ],
    [
      "ŀ",
      "ŉĒ"
    ],
    [
      "ĤĪŬ",
      "ıŁĐ"
    ],
    [
      "Ĵļ",
      "Ģ"
    ],
    [
      "Ģ",
      "īĢĤ"
    ],
    [
      "ħ",
      "ġĠ"
    ],
    [
      "ĥļ",
      "ŞĐ"
    ],
    [
      "ĻĹņŘ",
      "ĒłĩīŬ"
    ],
    [
      "ņŕŀ",
      "Ř"
    ],
    [
      "łŗ",
      "œš"
    ],
    [
      "ħļģĽ",
      "ĒńŚœš"
    ],
    [
      "ĶŀşşĖ",
      "ĵĦĩŰ"
    ],
    [
      "Ķġľ",
      "Ļ"
    ],
    [
      "ĻĿ",
      "ŇŜŖĖ"
    ],
    [
      "ħ",
      "Ś"
    ],
    [
      "ă",
      "ī"
    ],
    [
      "š",
      "Ş"
    ],
    [
      "č",
      "Ģ"
    ],
    [
      "ģĒ",
      "Œ"
    ],
    [
      "ĳ",
      "œł"
    ],
    [
      "ĭľ",
      "ŁĐ"
    ],
    [
      "ŕŀ",
      "Ņ"
    ],
    [
      "ő",
      "ņş"
    ],
    [
      "ŗ",
      "Ŝŗ"
    ],
    [
      "őŀ",
      "œš"
    ],
    [
      "Ĩ",
      "ĭħ"
    ],
    [
      "Şŗ",
      "įĪŬ"
    ],
    [
      "Ġ",
      "ıņ"
    ],
    [
      "ĶĦ",
      "ģŰ"
    ],
    [
      "œŘ",
      "ĢīŬ"
    ],
    [
      "Ş",
      "ĠĪŬ"
    ],
    [
      "ĴĽĸĢ",
      "œŜ"
    ],
    [
      "ĹŜ",
      "œŞŃ"
    ],
    [
      "ģ",
      "Ŭ"
    ],
    [
      "Ī",
      "Ķ"
    ],
    [
      "Ģ",
      "ķ"
    ],
    [
      "Ā",
      "Ĺ"
    ],
    [
      "š",
      "ċ"
    ],
    [
      "Ğ",
      "ĵ"
    ],
    [
      "Ĭ",
      "Ļ"
    ],
    [
      "ę",
      "ă"
    ],
    [
      "į",
      "Ħ"
    ],
    [
      "š",
      "Đ"
    ],
    [
      "ā",
      "Ĺ"
    ],
    [
      "Ą",
      "ĵĒ"
    ],
    [
      "īľ",
      "ģ"
    ],
    [
      "įĢ",
      "ľ"
    ],
    [
      "Ň",
      "ŝŐ"
    ],
    [
      "Ĭ",
      "ġĢ"
    ],
    [
      "ļĩ",
      "ĵ"
    ],
    [
      "Ł",
      "řŜő"
    ],
    [
      "Ģĺ",
      "ģĢ"
    ],
    [
      "ĥĽ",
      "ŗĐ"
    ],
    [
      "į",
      "ĮĿ"
    ],
    [
      "śŗŚ",
      "łš"
    ],
    [
      "ŕŜ",
      "ŕĤŮ"
    ],
    [
      "ģ",
      "ĤŚŕŀĖ"
    ],
    [
      "Ņşŀ",
      "ŝ"
    ],
    [
      "Śőń",
      "œš"
    ],
    [
      "ĸ",
      "œņŗĖ"
    ],
    [
      "đ",
      "ŇŃņń"
    ],
    [
      "đş",
      "ŕŀş"
    ],
    [
      "ı",
      "Ē"
    ],
    [
      "Ĳ",
      "ŗ"
    ],
    [
      "ş",
      "ņ"
    ],
    [
      "Ą",
      "Ŀ"
    ],
    [
      "ą",
      "ī"
    ],
    [
      "Ÿ",
      "Ń"
    ],
    [
      "ğ",
      "ĵ"
    ],
    [
      "ľ",
      "œł"
    ],
    [
      "įŮ",
      "ĥľ"
    ],
    [
      "Ā",
      "ĺŬ"
    ],
    [
      "ĤŚŕĒ",
      "ŗ"
    ],
    [
      "ĤŚŕĒ",
      "Ŕ"
    ],
    [
      "ĥŮ",
      "ĸĸŗĐ"
    ],
    [
      "ħĢ",
      "Ĺ"
    ],
    [
      "šĺĤĵĒ",
      "œ"
    ],
    [
      "Ġļ",
      "įĸ"
    ],
    [
      "Ŝ",
      "ŕŖĖ"
    ],
    [
      "ŝŃ",
      "ĲŮ"
    ],
    [
      "ıŀ",
      "ŉĒ"
    ],
    [
      "Ēő",
      "ĒŅ"
    ],
    [
      "Şř",
      "Ķ"
    ],
    [
      "ĒŔ",
      "Ĥ"
    ],
    [
      "ĭĢ",
      "őŘ"
    ],
    [
      "Ĵļ",
      "ĩŰ"
    ],
    [
      "ģĒ",
      "řŜĖ"
    ],
    [
      "ŗŜ",
      "ŞĖ"
    ],
    [
      "śŜ",
      "ŞĖ"
    ],
    [
      "ıĢ",
      "ĭĳ"
    ],
    [
      "Ĵĺ",
      "ĤŰ"
    ],
    [
      "ĤĪŬ",
      "ĤŚőņĖ"
    ],
    [
      "ħġľ",
      "Ľ"
    ],
    [
      "ĹŜń",
      "ŝĖ"
    ],
    [
      "š",
      "ĭģĽ"
    ],
    [
      "ļ",
      "ĢŗŃ"
    ],
    [
      "œŞ",
      "őœš"
    ],
    [
      "œŖ",
      "ņœĳŮ"
    ],
    [
      "śş",
      "ŜŗĭŮ"
    ],
    [
      "į",
      "ĮļŗĐ"
    ],
    [
      "ŀ",
      "ŏ"
    ],
    [
      "Ŕ",
      "ő"
    ],
    [
      "Ĉ",
      "Ů"
    ],
    [
      "ž",
      "ŗ"
    ],
    [
      "ŧ",
      "ť"
    ],
    [
      "ŧ",
      "ţ"
    ],
    [
      "ų",
      "Ŝ"
    ],
    [
      "Ĺ",
      "ģĒ"
    ],
    [
      "Ģ",
      "ŗń"
    ],
    [
      "ļ",
      "œń"
    ],
    [
      "ĵŀ",
      "ń"
    ],
    [
      "ģ",
      "ņş"
    ],
    [
      "ĤŚŕĒ",
      "Ŵ"
    ],
    [
      "ś",
      "ŝł"
    ],
    [
      "ŝń",
      "ĤŮ"
    ],
    [
      "Ś",
      "ŕŖĖ"
    ],
    [
      "őş",
      "Ŝ"
    ],
    [
      "ś",
      "œĥŮ"
    ],
    [
      "ĭģ",
      "ļ"
    ],
    [
      "ŗĳ",
      "Ī"
    ],
    [
      "Łş",
      "įĩŬ"
    ],
    [
      "Ģŗ",
      "ŕĒ"
    ],
    [
      "Ĭ",
      "īĿŰ"
    ],
    [
      "ķ",
      "īĿŰ"
    ],
    [
      "ŅŞ",
      "ĮŮ"
    ],
    [
      "őŗ",
      "įŮ"
    ],
    [
      "Ķŝł",
      "ĒłĩīŬ"
    ],
    [
      "Ēł",
      "ŗņ"
    ],
    [
      "Ĥ",
      "įĨŰ"
    ],
    [
      "ł",
      "őŀł"
    ],
    [
      "őŚ",
      "ĴĪ"
    ],
    [
      "ģ",
      "ĩ"
    ],
    [
      "ĺ",
      "Ŀ"
    ],
    [
      "š",
      "Ġ"
    ],
    [
      "ć",
      "Ŭ"
    ],
    [
      "ż",
      "ř"
    ],
    [
      "ŋ",
      "Ņ"
    ],
    [
      "Ĵ",
      "ŁĐ"
    ],
    [
      "šĺĤ",
      "Ģ"
    ],
    [
      "ĵŀ",
      "Ş"
    ],
    [
      "šĺĤĵĒ",
      "Ŗ"
    ],
    [
      "ĩľ",
      "ĵ"
    ],
    [
      "ıŀ",
      "ŝ"
    ],
    [
      "ı",
      "ġĢ"
    ],
    [
      "ģ",
      "Śş"
    ],
    [
      "ŁĖ",
      "ĵġŬ"
    ],
    [
      "ŗŗ",
      "ĥŮ"
    ],
    [
      "ĒŞ",
      "ĤŮ"
    ],
    [
      "ĤĽ",
      "Ŀ"
    ],
    [
      "Ī",
      "ĥģ"
    ],
    [
      "ĵħģľ",
      "ĒşŔĖ"
    ],
    [
      "ĨĪ",
      "ĩŰ"
    ],
    [
      "ĩļ",
      "ŞĐ"
    ],
    [
      "ĤĢ",
      "ĠŰ"
    ],
    [
      "őń",
      "śřįŮ"
    ],
    [
      "Ļĸ",
      "ŝĐ"
    ],
    [
      "ĒŇ",
      "ŗńĤŮ"
    ],
    [
      "ĩ",
      "ıŀĐ"
    ],
    [
      "ĤĹ",
      "łĐ"
    ],
    [
      "ĩĴĒ",
      "şŜĖ"
    ],
    [
      "ģĒŇ",
      "ŗńĤŮ"
    ],
    [
      "ķħ",
      "ĿĹŝŞ"
    ],
    [
      "ĵ",
      "ĵœł"
    ],
    [
      "Łœĳ",
      "ĸ"
    ],
    [
      "Ű",
      "œ"
    ],
    [
      "ċ",
      "ġ"
    ],
    [
      "ź",
      "œ"
    ],
    [
      "Ģ",
      "ĭ"
    ],
    [
      "č",
      "ħ"
    ],
    [
      "Ŵ",
      "ł"
    ],
    [
      "Ă",
      "ġ"
    ],
    [
      "Ĺ",
      "Ĺ"
    ],
    [
      "Č",
      "ħ"
    ],
    [
      "ę",
      "ľ"
    ],
    [
      "Ŵ",
      "ń"
    ],
    [
      "Ŧ",
      "ř"
    ],
    [
      "ŕŀ",
      "ř"
    ],
    [
      "ĠĠ",
      "ĸŰ"
    ],
    [
      "őŜ",
      "Ņš"
    ],
    [
      "ľ",
      "ıŜ"
    ],
    [
      "Ĭ",
      "įĸ"
    ],
    [
      "ĳ",
      "ŗŞ"
    ],
    [
      "ĳī",
      "ĩŰ"
    ],
    [
      "ĩĴĒ",
      "Ń"
    ],
    [
      "ĵŮ",
      "ģĶ"
    ],
    [
      "ĳ",
      "Śř"
    ],
    [
      "ķ",
      "ħĢķ"
    ],
    [
      "ĩ",
      "ħĢķ"
    ],
    [
      "Į",
      "ĭħ"
    ],
    [
      "ı",
      "ŁŃ"
    ],
    [
      "ŕş",
      "ņ"
    ],
    [
      "Ł",
      "ŕŁĖ"
    ],
    [
      "ĒŐ",
      "Įļ"
    ],
    [
      "Ŝş",
      "įĩŬ"
    ],
    [
      "ĵĒń",
      "Śœ"
    ],
    [
      "ģĽ",
      "ŗĐ"
    ],
    [
      "ĵīľ",
      "ľ"
    ],
    [
      "Ķ",
      "įĵŰ"
    ],
    [
      "ŗ",
      "ŗĳŮ"
    ],
    [
      "ĭ",
      "ġĢķ"
    ],
    [
      "Ĥģ",
      "ĮĵŀĐ"
    ],
    [
      "Ł",
      "ŀŗŕ"
    ],
    [
      "Ŕ",
      "Ņ"
    ],
    [
      "ħ",
      "ļ"
    ],
    [
      "ŝ",
      "ŏ"
    ],
    [
      "īľ",
      "Ŀ"
    ],
    [
      "ĳ",
      "ĺŬ"
    ],
    [
      "ħ",
      "ĺŬ"
    ],
    [
      "ģ",
      "ŝŞ"
    ],
    [
      "ĭĢ",
      "ņř"
    ],
    [
      "įĢ",
      "ĵŰ"
    ],
    [
      "ř",
      "ŕŖĖ"
    ],
    [
      "ġľ",
      "Ĺ"
    ],
    [
      "řŜ",
      "ş"
    ],
    [
      "ı",
      "ŀŕ"
    ],
    [
      "ĨĠ",
      "ĭļ"
    ],
    [
      "ħ",
      "ĨŬ"
    ],
    [
      "ŗĳ",
      "ĩ"
    ],
    [
      "Ĺ",
      "ĤĹ"
    ],
    [
      "ĸĢ",
      "ŋĐ"
    ],
    [
      "Ŀ",
      "ŅŞ"
    ],
    [
      "śł",
      "ĨġĢŰ"
    ],
    [
      "ŅŘ",
      "ŝĖ"
    ],
    [
      "š",
      "ĻĢ"
    ],
    [
      "Őŕ",
      "ŗŘ"
    ],
    [
      "ņ",
      "ŜŋĖ"
    ],
    [
      "ĲŮ",
      "ĘĸŗĐ"
    ],
    [
      "ħ",
      "Śŕ"
    ],
    [
      "Įĩ",
      "ĒńŚœš"
    ],
    [
      "ĮĻĢ",
      "Ĥ"
    ],
    [
      "ņŞ",
      "ĤķŬ"
    ],
    [
      "Őŉ",
      "ĒłĩīŬ"
    ],
    [
      "Ĳĺľ",
      "ıŞř"
    ],
    [
      "ĒńŚ",
      "şĲŮ"
    ],
    [
      "ĸ",
      "īĭĢ"
    ],
    [
      "ĩ",
      "ĺ"
    ],
    [
      "ħ",
      "ĵ"
    ],
    [
      "ŋ",
      "ş"
    ],
    [
      "ĩ",
      "ĩ"
    ],
    [
      "Ł",
      "ŉ"
    ],
    [
      "Ŀ",
      "Ľ"
    ],
    [
      "Ŋ",
      "Đ"
    ],
    [
      "ĸ",
      "ĩĢ"
    ],
    [
      "ĿŰ",
      "ņŘŗĖ"
    ],
    [
      "ŀ",
      "ŕŖĖ"
    ],
    [
      "řŜ",
      "ŕ"
    ],
    [
      "įľ",
      "ĵ"
    ],
    [
      "ħŮ",
      "ĸĸŗĐ"
    ],
    [
      "ĨĠ",
      "ĸĿ"
    ],
    [
      "ĭ",
      "įĢĴĒ"
    ],
    [
      "Ĳ",
      "Ļľ"
    ],
    [
      "ń",
      "ŕŁĖ"
    ],
    [
      "ġ",
      "ıŜĐ"
    ],
    [
      "ŞŜ",
      "ŝŁ"
    ],
    [
      "Őœ",
      "ĤĠŬ"
    ],
    [
      "ĭ",
      "įĵ"
    ],
    [
      "ĢġĢ",
      "ģ"
    ],
    [
      "ĸı",
      "śŞ"
    ],
    [
      "Ĵ",
      "Ňœ"
    ],
    [
      "Ĭ",
      "įĥľ"
    ],
    [
      "īĿ",
      "ģ"
    ],
    [
      "ļļ",
      "œŉ"
    ],
    [
      "ĸ",
      "śŗŚ"
    ],
    [
      "ĪĢŝŝ",
      "ĒłĩīŬ"
    ],
    [
      "ģĥ",
      "ŞŔĒ"
    ],
    [
      "Łł",
      "ĳĻ"
    ],
    [
      "œřŜ",
      "Ņ"
    ],
    [
      "Ĵļ",
      "ĥľŕĐņŞĤŮ"
    ],
    [
      "ŋ",
      "ŕœń"
    ],
    [
      "Ņş",
      "ŇŚĥŮ"
    ],
    [
      "Ł",
      "ŕŀŀ"
    ],
    [
      "Āģ",
      "ĩĢśœ"
    ],
    [
      "Ŧ",
      "œ"
    ],
    [
      "Ű",
      "Ņ"
    ],
    [
      "Ď",
      "ĵ"
    ],
    [
      "Ă",
      "ĵ"
    ],
    [
      "Š",
      "ŗ"
    ],
    [
      "Ś",
      "ĤŮ"
    ],
    [
      "ģ",
      "ŗĐ"
    ],
    [
      "ĸ",
      "ĽŬ"
    ],
    [
      "ĥ",
      "ŁĐ"
    ],
    [
      "Ĳ",
      "ŗń"
    ],
    [
      "ģ",
      "ĭľ"
    ],
    [
      "ĵŀ",
      "Ń"
    ],
    [
      "ĭĤ",
      "ı"
    ],
    [
      "ĵ",
      "ħĢ"
    ],
    [
      "įľ",
      "Ĺ"
    ],
    [
      "ĥľ",
      "œŜ"
    ],
    [
      "ĵŮ",
      "ĸĿ"
    ],
    [
      "Ŀ",
      "ĹŜŗ"
    ],
    [
      "Ŭ",
      "ıŜŔĒ"
    ],
    [
      "ĨĽ",
      "ĸŰ"
    ],
    [
      "ĸ",
      "œŃĒ"
    ],
    [
      "ĩı",
      "Łń"
    ],
    [
      "ĵŮ",
      "ĻıŁĐ"
    ],
    [
      "ľ",
      "ģģ"
    ],
    [
      "ą",
      "Ŝř"
    ],
    [
      "Őœ",
      "Ģ"
    ],
    [
      "Ēş",
      "ĵĽŬ"
    ],
    [
      "Őŕ",
      "őŗ"
    ],
    [
      "œšĺ",
      "Ĥ"
    ],
    [
      "œœ",
      "ŗĖ"
    ],
    [
      "Ķħĸĸ",
      "ĒńŚœš"
    ],
    [
      "ħśńŚĖ",
      "ĵĦĩŰ"
    ],
    [
      "śş",
      "ŜŅ"
    ],
    [
      "ĸ",
      "ļŋĐ"
    ],
    [
      "ĠĠ",
      "įĵĒ"
    ],
    [
      "šĨ",
      "ľĿşĐ"
    ],
    [
      "Ĭ",
      "īľĹ"
    ],
    [
      "Ķ",
      "ġĹļŖĐ"
    ],
    [
      "čĥ",
      "Łńŀŗ"
    ],
    [
      "Ģ",
      "ļ"
    ],
    [
      "Ĺ",
      "Ĳ"
    ],
    [
      "Ġ",
      "Ķ"
    ],
    [
      "ť",
      "ş"
    ],
    [
      "ŃĒ",
      "ŗ"
    ],
    [
      "Ŝ",
      "œł"
    ],
    [
      "ĒńŚ",
      "ń"
    ],
    [
      "ĿŰ",
      "ņş"
    ],
    [
      "Ś",
      "œĳ"
    ],
    [
      "ı",
      "įĢ"
    ],
    [
      "įĢ",
      "ķ"
    ],
    [
      "Ēŗ",
      "ĵŮ"
    ],
    [
      "őş",
      "œ"
    ],
    [
      "įľ",
      "Ŀ"
    ],
    [
      "į",
      "ġŬ"
    ],
    [
      "ġĹ",
      "ģĒ"
    ],
    [
      "ŝŃ",
      "įĺ"
    ],
    [
      "śŕ",
      "ĤŮ"
    ],
    [
      "ĲŮ",
      "ľĵ"
    ],
    [
      "ĤĪŬ",
      "ĿŜĐ"
    ],
    [
      "ŝś",
      "ĤŮ"
    ],
    [
      "ŕŞ",
      "ŏš"
    ],
    [
      "ĵŁĐ",
      "œŘĥŮ"
    ],
    [
      "ĥģ",
      "ņĐ"
    ],
    [
      "Ēŕ",
      "Įģ"
    ],
    [
      "ġĠ",
      "Ŀ"
    ],
    [
      "śŒ",
      "ĤŮ"
    ],
    [
      "Ħĥ",
      "Ľ"
    ],
    [
      "ĨĠ",
      "ĸĵŀ"
    ],
    [
      "ŐŚ",
      "ĤŮ"
    ],
    [
      "ŝŒ",
      "Ĵĭ"
    ],
    [
      "ĸĥŀ",
      "Ş"
    ],
    [
      "œŐ",
      "ĵīľŰ"
    ],
    [
      "įĿŀ",
      "Ŕ"
    ],
    [
      "Ű",
      "łśł"
    ],
    [
      "Ľ",
      "ŝłŗĖ"
    ],
    [
      "Ŕ",
      "Ĥ"
    ],
    [
      "Š",
      "œ"
    ],
    [
      "ŵ",
      "ř"
    ],
    [
      "Ż",
      "ł"
    ],
    [
      "Ţ",
      "ş"
    ],
    [
      "ż",
      "ŕ"
    ],
    [
      "Ē",
      "ī"
    ],
    [
      "ŝ",
      "ŔĒ"
    ],
    [
      "ĵŀ",
      "ş"
    ],
    [
      "Ī",
      "īĨŰ"
    ],
    [
      "ĤĠ",
      "ĨŰ"
    ],
    [
      "ı",
      "ļĩ"
    ],
    [
      "Ĥ",
      "įŬ"
    ],
    [
      "ľĵ",
      "ŁĐ"
    ],
    [
      "ŁĖ",
      "ĨĠŬ"
    ],
    [
      "ĵĦ",
      "ľĿ"
    ],
    [
      "ģ",
      "ŗő"
    ],
    [
      "ĩı",
      "şĐ"
    ],
    [
      "ĭĳ",
      "ŚĐ"
    ],
    [
      "Ħĥ",
      "ķ"
    ],
    [
      "Ēń",
      "śś"
    ],
    [
      "Ġĭ",
      "ĩŰ"
    ],
    [
      "ĩľ",
      "ņŃĒ"
    ],
    [
      "ĥĴ",
      "ŗĐ"
    ],
    [
      "ņş",
      "ĬīŬ"
    ],
    [
      "ĵĦ",
      "ĥģĒ"
    ],
    [
      "č",
      "īĿ"
    ],
    [
      "ĺĵŀ",
      "Ń"
    ],
    [
      "ġı",
      "śŞ"
    ],
    [
      "ŝŅ",
      "ŜŒš"
    ],
    [
      "Ķśł",
      "Łł"
    ],
    [
      "ņŘ",
      "ŗŏš"
    ],
    [
      "ĵĦ",
      "ľĵŗĐ"
    ],
    [
      "śŘ",
      "ĢĢĹĴ"
    ],
    [
      "ă",
      "ġ"
    ],
    [
      "Ď",
      "Ŀ"
    ],
    [
      "Ź",
      "ř"
    ],
    [
      "ĥ",
      "Ĳ"
    ],
    [
      "Ŷ",
      "ŕ"
    ],
    [
      "Ĺ",
      "ĺ"
    ],
    [
      "Ă",
      "Ŀ"
    ],
    [
      "ŝ",
      "ŉ"
    ],
    [
      "Ş",
      "Ņš"
    ],
    [
      "Ēł",
      "ŗł"
    ],
    [
      "ŕŀ",
      "ś"
    ],
    [
      "ĵŮ",
      "ĥľ"
    ],
    [
      "Ŝŗ",
      "Œ"
    ],
    [
      "ĭĤ",
      "Ĺ"
    ],
    [
      "ĸĸ",
      "ŀş"
    ],
    [
      "ĸ",
      "īĨŰ"
    ],
    [
      "ş",
      "ŕŖĖ"
    ],
    [
      "œ",
      "ŏš"
    ],
    [
      "Ĥ",
      "Ňł"
    ],
    [
      "ĥľŕĐ",
      "ņŞ"
    ],
    [
      "ĒŒ",
      "ŗĖ"
    ],
    [
      "śŘĦŮ",
      "ĸĿ"
    ],
    [
      "Ş",
      "őŜŒš"
    ],
    [
      "ĥĳ",
      "œŞ"
    ],
    [
      "ĒŃ",
      "ņŗ"
    ],
    [
      "ĵ",
      "ŞĐ"
    ],
    [
      "ŗņ",
      "ŗŚ"
    ],
    [
      "Ēř",
      "Ŝŕ"
    ],
    [
      "ŕő",
      "ŜĖ"
    ],
    [
      "ĹŜń",
      "ŗń"
    ],
    [
      "Ŗŕ",
      "Ŕœ"
    ],
    [
      "ĪĿ",
      "ŀœ"
    ],
    [
      "Ĵģ",
      "Ŭ"
    ],
    [
      "ĒŘ",
      "œŒš"
    ],
    [
      "ŗś",
      "ģīľŰ"
    ],
    [
      "ĩļ",
      "ģĥŕŘ"
    ],
    [
      "ă",
      "ļĥĤ"
    ],
    [
      "ņř",
      "şœš"
    ],
    [
      "ĪĹ",
      "Şŝ"
    ],
    [
      "įī",
      "ıśŞ"
    ],
    [
      "ē",
      "ġ"
    ],
    [
      "Ľ",
      "ĸ"
    ],
    [
      "ř",
      "Ş"
    ],
    [
      "ĺ",
      "ı"
    ],
    [
      "ĩ",
      "Ĳ"
    ],
    [
      "Ċ",
      "Ģ"
    ],
    [
      "Ž",
      "Ř"
    ],
    [
      "Ź",
      "ş"
    ],
    [
      "Ĥ",
      "īŬ"
    ],
    [
      "ľ",
      "ĵĒ"
    ],
    [
      "ı",
      "ŖĐ"
    ],
    [
      "ħ",
      "œł"
    ],
    [
      "ģ",
      "īľ"
    ],
    [
      "ŀ",
      "ŝń"
    ],
    [
      "ĩľ",
      "ņř"
    ],
    [
      "ŗŞ",
      "ņş"
    ],
    [
      "œĥŮ",
      "ĸĸŗĐ"
    ],
    [
      "ġĪ",
      "Ķ"
    ],
    [
      "ĮĠ",
      "ī"
    ],
    [
      "ģ",
      "įĿ"
    ],
    [
      "įŮ",
      "ĭľŖĐ"
    ],
    [
      "Ĵ",
      "Ňł"
    ],
    [
      "ĭ",
      "įŬ"
    ],
    [
      "ĭħ",
      "ģľ"
    ],
    [
      "ŝś",
      "Ņ"
    ],
    [
      "ű",
      "şş"
    ],
    [
      "ĩģ",
      "ŁĐ"
    ],
    [
      "Ēŀ",
      "ŗń"
    ],
    [
      "ī",
      "ıŜĐ"
    ],
    [
      "įī",
      "ĵĒ"
    ],
    [
      "ŗŅš",
      "įĢĴĒ"
    ],
    [
      "śŃĒ",
      "ŗ"
    ],
    [
      "Śř",
      "şĖ"
    ],
    [
      "ŇŃ",
      "ņĖ"
    ],
    [
      "Ēŵ",
      "ĩ"
    ],
    [
      "Ŕş",
      "ŞŚ"
    ],
    [
      "įĨ",
      "ĵĒ"
    ],
    [
      "ő",
      "ņşĮĠŬ"
    ],
    [
      "Ēř",
      "įīŬ"
    ],
    [
      "šĺĤĵ",
      "ŋĐ"
    ],
    [
      "ŁĖ",
      "ĶīľĵĒ"
    ],
    [
      "ĩħ",
      "ļŰ"
    ],
    [
      "Ŕ",
      "ĤīĢŰ"
    ],
    [
      "ě",
      "ĢĹ"
    ],
    [
      "ųŅ",
      "Łłĳ"
    ],
    [
      "čīĿ",
      "ľœł"
    ],
    [
      "Ē",
      "ŉ"
    ],
    [
      "ē",
      "ħ"
    ],
    [
      "Į",
      "ĪŬ"
    ],
    [
      "į",
      "īľ"
    ],
    [
      "ĤŚŕĒ",
      "Ř"
    ],
    [
      "Ħ",
      "ħĢ"
    ],
    [
      "šĺĤĵĒ",
      "Ų"
    ],
    [
      "Ĥļ",
      "ĵŰ"
    ],
    [
      "ŗŔĒ",
      "Ņ"
    ],
    [
      "Ĥ",
      "įĺ"
    ],
    [
      "ı",
      "őŘ"
    ],
    [
      "ĩĴĒ",
      "őŁĖ"
    ],
    [
      "ŝ",
      "şř"
    ],
    [
      "őŜ",
      "łš"
    ],
    [
      "ņ",
      "őŞĖ"
    ],
    [
      "Ŕřĳ",
      "ĭ"
    ],
    [
      "įĤ",
      "ŝł"
    ],
    [
      "ş",
      "įĽ"
    ],
    [
      "ŗŘ",
      "ĢīŬ"
    ],
    [
      "į",
      "įĸĹŝŞ"
    ],
    [
      "ĿĤ",
      "ŀŅ"
    ],
    [
      "Ĥĭ",
      "ĸĹŝŞ"
    ],
    [
      "Ŀŀń",
      "ŚĖ"
    ],
    [
      "ķīľ",
      "ģ"
    ],
    [
      "ĵħ",
      "įŰ"
    ],
    [
      "š",
      "ħĸŰ"
    ],
    [
      "Ġĺ",
      "ĥĿŜŃĒ"
    ],
    [
      "ŖŅ",
      "ŀşįĩŬ"
    ],
    [
      "ĵļ",
      "Ĺĳ"
    ],
    [
      "ĻĿŀ",
      "ś"
    ],
    [
      "Ĩ",
      "ĥĢŁń"
    ],
    [
      "ŋ",
      "Ś"
    ],
    [
      "ĸ",
      "Ľ"
    ],
    [
      "Ī",
      "Ĥ"
    ],
    [
      "Ĵ",
      "Ű"
    ],
    [
      "ź",
      "ŗ"
    ],
    [
      "ā",
      "Ŀ"
    ],
    [
      "Ħ",
      "ĩĢ"
    ],
    [
      "ĵŀ",
      "ŝ"
    ],
    [
      "œŘ",
      "ĵŮ"
    ],
    [
      "Ġļ",
      "ĿŰ"
    ],
    [
      "ņŘ",
      "ŀř"
    ],
    [
      "Ĥ",
      "ŀş"
    ],
    [
      "ŀœ",
      "ĲŮ"
    ],
    [
      "Ĥ",
      "ŗŞ"
    ],
    [
      "ĵŜ",
      "œ"
    ],
    [
      "ĸŮ",
      "ĭľŖĐ"
    ],
    [
      "ĹŜŗ",
      "Ēł"
    ],
    [
      "Ĝ",
      "ŗŃ"
    ],
    [
      "ĥĤ",
      "śşŜĖ"
    ],
    [
      "ĩŰ",
      "ŅőŁĖ"
    ],
    [
      "Ş",
      "őŜŒ"
    ],
    [
      "œŔ",
      "ĭīŬ"
    ],
    [
      "šĺ",
      "ľı"
    ],
    [
      "ĿŜ",
      "ŜŋĖ"
    ],
    [
      "ķīľ",
      "ľ"
    ],
    [
      "ńœĳ",
      "Ľ"
    ],
    [
      "łŕŀ",
      "ŗ"
    ],
    [
      "ĲĻ",
      "ļĠ"
    ],
    [
      "ĵĦ",
      "ĩĩĒ"
    ],
    [
      "ņŅ",
      "ŀŘ"
    ],
    [
      "ě",
      "ğŰ"
    ],
    [
      "ĭĹŜ",
      "ŃņĖ"
    ],
    [
      "ĤŚ",
      "łŗœš"
    ],
    [
      "ı",
      "ń"
    ],
    [
      "š",
      "Ř"
    ],
    [
      "Ħ",
      "Ģ"
    ],
    [
      "Ž",
      "Ş"
    ],
    [
      "Ď",
      "ļ"
    ],
    [
      "Ś",
      "Ń"
    ],
    [
      "Ď",
      "ĥ"
    ],
    [
      "Ř",
      "Ņ"
    ],
    [
      "ŵ",
      "ş"
    ],
    [
      "ņş",
      "ŜĖ"
    ],
    [
      "ĭ",
      "ħĢ"
    ],
    [
      "Ĳ",
      "ŝń"
    ],
    [
      "ĿĤ",
      "ŗł"
    ],
    [
      "ŕŜ",
      "ŕ"
    ],
    [
      "Ňń",
      "ĤŮ"
    ],
    [
      "ĳ",
      "Şş"
    ],
    [
      "ŗŒš",
      "įŬ"
    ],
    [
      "Ň",
      "Śş"
    ],
    [
      "ĭ",
      "ħĢķ"
    ],
    [
      "Ģŗ",
      "ŝ"
    ],
    [
      "ĥĤ",
      "ŗĐ"
    ],
    [
      "ņř",
      "šĽ"
    ],
    [
      "œł",
      "ĤĽŬ"
    ],
    [
      "śŘ",
      "ĤĽŬ"
    ],
    [
      "Ņş",
      "Ŕ"
    ],
    [
      "ŝŝ",
      "ŀ"
    ],
    [
      "œŒ",
      "ĤŮ"
    ],
    [
      "Ħ",
      "įĢŰ"
    ],
    [
      "ĩī",
      "ĢŰ"
    ],
    [
      "ĳ",
      "ŝŜ"
    ],
    [
      "Ēń",
      "Ĥĭ"
    ],
    [
      "ĠĪ",
      "ĩŰ"
    ],
    [
      "ģĢ",
      "řĐ"
    ],
    [
      "ĸ",
      "śŝ"
    ],
    [
      "ă",
      "ņő"
    ],
    [
      "ņŕ",
      "œś"
    ],
    [
      "Śş",
      "ıŮ"
    ],
    [
      "ħĨ",
      "ĥĳ"
    ],
    [
      "Őő",
      "ņł"
    ],
    [
      "Ļ",
      "ıŋĐ"
    ],
    [
      "šĺĤĢ",
      "ŝŅŕŞ"
    ],
    [
      "ųŃ",
      "ĲĺľıŞř"
    ],
    [
      "Ş",
      "Ŗ"
    ],
    [
      "Ř",
      "ş"
    ],
    [
      "Ņ",
      "ń"
    ],
    [
      "ę",
      "Ŝ"
    ],
    [
      "ĉ",
      "ġ"
    ],
    [
      "Į",
      "ĠĠ"
    ],
    [
      "őŜ",
      "Ř"
    ],
    [
      "őŞ",
      "ř"
    ],
    [
      "Ŀ",
      "ĵŖĐ"
    ],
    [
      "śń",
      "ŗĖ"
    ],
    [
      "ĳ",
      "ŀŕ"
    ],
    [
      "ĮŮ",
      "ĸĸŗĐ"
    ],
    [
      "ģĥ",
      "ŁĐ"
    ],
    [
      "Ģ",
      "ļĩ"
    ],
    [
      "ĵ",
      "ġĢŰ"
    ],
    [
      "ĳ",
      "ħĢķ"
    ],
    [
      "Ŀ",
      "ĿŜĐ"
    ],
    [
      "Ēł",
      "ŗŚ"
    ],
    [
      "ĸ",
      "śŃ"
    ],
    [
      "ļ",
      "ĿŜ"
    ],
    [
      "śŜ",
      "ŗĖ"
    ],
    [
      "į",
      "ĥļ"
    ],
    [
      "Ĳħ",
      "Ĩ"
    ],
    [
      "ŕ",
      "Įģ"
    ],
    [
      "ĵļ",
      "ĵŰ"
    ],
    [
      "Ķŝł",
      "ŗĖ"
    ],
    [
      "ŝń",
      "ĵĦŬ"
    ],
    [
      "Śŗ",
      "ĲŮ"
    ],
    [
      "śń",
      "śřįŮ"
    ],
    [
      "ĸĸ",
      "śŃĒ"
    ],
    [
      "ĥŀ",
      "ń"
    ],
    [
      "ħœŃĒ",
      "Ņ"
    ],
    [
      "Ŗ",
      "Ńĳ"
    ],
    [
      "ģĻ",
      "ĥļ"
    ],
    [
      "Łń",
      "ŀŃ"
    ],
    [
      "ņş",
      "ķīŬ"
    ],
    [
      "ĮĻĢ",
      "Ĵ"
    ],
    [
      "Ēłĩī",
      "ĵŰ"
    ],
    [
      "őŜ",
      "ŕĤŮ"
    ],
    [
      "Įġ",
      "ħŰ"
    ],
    [
      "ŗŔĒ",
      "ŐĮļŬ"
    ],
    [
      "ŕ",
      "Įģļ"
    ],
    [
      "ĮĢ",
      "ģķ"
    ],
    [
      "ĎĢ",
      "śń"
    ],
    [
      "č",
      "Ľŗł"
    ],
    [
      "ųŅŁłĳ",
      "įĠĹ"
    ],
    [
      "Ġĩ",
      "ĭĹŜŃņĖ"
    ],
    [
      "čĽŗł",
      "śŕ"
    ],
    [
      "Ÿ",
      "ř"
    ],
    [
      "Ű",
      "Ś"
    ],
    [
      "ť",
      "ř"
    ],
    [
      "Ĺ",
      "ķ"
    ],
    [
      "ģ",
      "Ĺ"
    ],
    [
      "ă",
      "ľ"
    ],
    [
      "Ţ",
      "ń"
    ],
    [
      "Ť",
      "ř"
    ],
    [
      "ŋ",
      "ń"
    ],
    [
      "Ŝ",
      "ŕĒ"
    ],
    [
      "į",
      "ĸĸ"
    ],
    [
      "ĳ",
      "ĪŬ"
    ],
    [
      "ĤŚŕĒ",
      "Œ"
    ],
    [
      "őŜ",
      "œ"
    ],
    [
      "įĸ",
      "œł"
    ],
    [
      "ĭĢ",
      "ŀř"
    ],
    [
      "Ł",
      "Įļ"
    ],
    [
      "œĥŮ",
      "ĥľ"
    ],
    [
      "Łń",
      "œń"
    ],
    [
      "ıŞ",
      "ş"
    ],
    [
      "ıŀ",
      "ś"
    ],
    [
      "ņĖ",
      "ĮĨŬ"
    ],
    [
      "ĮĠ",
      "ĨŰ"
    ],
    [
      "Ī",
      "ĹŜ"
    ],
    [
      "Ňł",
      "ĩŮ"
    ],
    [
      "Ġ",
      "ıŜŔĒ"
    ],
    [
      "Ēő",
      "ņł"
    ],
    [
      "œŚ",
      "šĽ"
    ],
    [
      "į",
      "įġ"
    ],
    [
      "ĩģ",
      "Ł"
    ],
    [
      "ņœ",
      "ĲŮ"
    ],
    [
      "Ņŗ",
      "ĸŮ"
    ],
    [
      "Ēń",
      "ĤĢ"
    ],
    [
      "ļģ",
      "ģ"
    ],
    [
      "ŗŃĒ",
      "ŗ"
    ],
    [
      "Ēŀ",
      "œń"
    ],
    [
      "Ġļ",
      "ľĹ"
    ],
    [
      "ĮĢ",
      "Ŭ"
    ],
    [
      "Ĳ",
      "īĢĤ"
    ],
    [
      "łş",
      "Łş"
    ],
    [
      "ĨĹ",
      "ļ"
    ],
    [
      "Ě",
      "œŀ"
    ],
    [
      "ă",
      "ŗŀ"
    ],
    [
      "Ĵ",
      "ŗŀ"
    ],
    [
      "Ēť",
      "ĵ"
    ],
    [
      "ĶĦ",
      "ĩľ"
    ],
    [
      "ĻĿ",
      "ĵŖĐ"
    ],
    [
      "ĶĦ",
      "ĩĢŗĐ"
    ],
    [
      "ņş",
      "ŀĖ"
    ],
    [
      "Įĥ",
      "śŜ"
    ],
    [
      "Ļĸ",
      "ŗłŗĖ"
    ],
    [
      "ĒŁ",
      "ĤļĩŰ"
    ],
    [
      "ŐŅ",
      "śŚ"
    ],
    [
      "ĩĴ",
      "ĒńŚŗĵŮ"
    ],
    [
      "ŗŞ",
      "őœš"
    ],
    [
      "łŚ",
      "Ġķ"
    ],
    [
      "ņŃĳ",
      "īŬ"
    ],
    [
      "Ĵ",
      "ŗŖ"
    ],
    [
      "Ķśł",
      "Łłš"
    ],
    [
      "Č",
      "įĢĹ"
    ],
    [
      "ĵħġ",
      "ĵĒ"
    ],
    [
      "ŀř",
      "ĴĠĨŰ"
    ],
    [
      "ŀş",
      "ŇŘĥŮ"
    ],
    [
      "ŁŞĨľ",
      "Ŭ"
    ],
    [
      "ş",
      "řĳīŬ"
    ],
    [
      "ĭķ",
      "œřŜŅ"
    ],
    [
      "Ċ",
      "Ĺ"
    ],
    [
      "Ē",
      "Ħ"
    ],
    [
      "ī",
      "ı"
    ],
    [
      "œ",
      "Ŋ"
    ],
    [
      "ň",
      "ş"
    ],
    [
      "Ī",
      "ħ"
    ],
    [
      "ĭľ",
      "ņĐ"
    ],
    [
      "Ŝŗ",
      "Ņ"
    ],
    [
      "ĨĠ",
      "Ĺ"
    ],
    [
      "ł",
      "ŕŖĖ"
    ],
    [
      "Ň",
      "śł"
    ],
    [
      "Łń",
      "ŀş"
    ],
    [
      "ŗŔĒ",
      "Ş"
    ],
    [
      "ŝŃ",
      "ŗĖ"
    ],
    [
      "ŗĳ",
      "ħ"
    ],
    [
      "ĭ",
      "īľŰ"
    ],
    [
      "ŗĐ",
      "œŘĥŮ"
    ],
    [
      "śŘ",
      "ĵġŬ"
    ],
    [
      "Łł",
      "ĳħ"
    ],
    [
      "ģ",
      "īĸ"
    ],
    [
      "Ĭ",
      "īĸ"
    ],
    [
      "ĵ",
      "įĠŰ"
    ],
    [
      "ıņ",
      "ŕŁĖ"
    ],
    [
      "şř",
      "ĲĺŬ"
    ],
    [
      "şŗ",
      "įŮ"
    ],
    [
      "ĒńŚœ",
      "ĸŮ"
    ],
    [
      "ı",
      "Ēŝ"
    ],
    [
      "ĮĨŬĤŚŕĒ",
      "Ņ"
    ],
    [
      "şő",
      "śŘ"
    ],
    [
      "ĪĹ",
      "ĳ"
    ],
    [
      "ŝŅ",
      "Ŝł"
    ],
    [
      "ı",
      "ġĿ"
    ],
    [
      "ĲŮ",
      "ģĶĒńŚœš"
    ],
    [
      "ı",
      "Őş"
    ],
    [
      "Ą",
      "Śŕ"
    ],
    [
      "ņş",
      "ĢŮ"
    ],
    [
      "Įı",
      "ņń"
    ],
    [
      "ŁĐ",
      "ŅœĳīŬ"
    ],
    [
      "ĵĻľ",
      "ľ"
    ],
    [
      "řĳĺ",
      "ĤŰ"
    ],
    [
      "ĭĲ",
      "ŝŅņĖ"
    ],
    [
      "ĠĬ",
      "ģĥņĐ"
    ],
    [
      "Ŀ",
      "ĵŀņ"
    ],
    [
      "ĸĸ",
      "ŀŕŗĖ"
    ],
    [
      "įĮĿ",
      "Ňń"
    ],
    [
      "čĥŁńŀŗ",
      "ĭħ"
    ],
    [
      "ăŗŀ",
      "ņœ"
    ],
    [
      "ĭ",
      "į"
    ],
    [
      "ŋ",
      "Ń"
    ],
    [
      "Ś",
      "Ņ"
    ],
    [
      "ħ",
      "Ĺ"
    ],
    [
      "Ť",
      "ş"
    ],
    [
      "Ţ",
      "ř"
    ],
    [
      "ņ",
      "Ŝ"
    ],
    [
      "ĤŚ",
      "ř"
    ],
    [
      "Ň",
      "œń"
    ],
    [
      "Ľ",
      "œń"
    ],
    [
      "ņş",
      "Ēł"
    ],
    [
      "ś",
      "Œš"
    ],
    [
      "Ľ",
      "ģľ"
    ],
    [
      "ĥ",
      "ķŬ"
    ],
    [
      "ŕŜ",
      "ő"
    ],
    [
      "ľĵ",
      "őş"
    ],
    [
      "Şş",
      "įĩŬ"
    ],
    [
      "Ġ",
      "ĹŜŗ"
    ],
    [
      "Ŕ",
      "ŗŅ"
    ],
    [
      "ĨĢ",
      "ĩŰ"
    ],
    [
      "Ēŀ",
      "ŀœ"
    ],
    [
      "ĨĽ",
      "ĥĿŜĐ"
    ],
    [
      "Łŕ",
      "œŅ"
    ],
    [
      "ĹĢ",
      "őŘ"
    ],
    [
      "ĮĹ",
      "ĥľŕĐ"
    ],
    [
      "ŝ",
      "œř"
    ],
    [
      "ŃĒ",
      "ŗįĪŬ"
    ],
    [
      "ř",
      "řŜőš"
    ],
    [
      "Ē",
      "őŞŚ"
    ],
    [
      "ŝŞ",
      "Şŏš"
    ],
    [
      "ŝŅ",
      "ŜŒ"
    ],
    [
      "Ĥī",
      "ĸŰ"
    ],
    [
      "ĩĽ",
      "ŗŞņĖ"
    ],
    [
      "Ģħ",
      "ĭļ"
    ],
    [
      "Ġļ",
      "ĠĩĒ"
    ],
    [
      "Ēń",
      "Ĥľ"
    ],
    [
      "ŝŔ",
      "Ňŕ"
    ],
    [
      "ĭĲ",
      "ŞŕĒ"
    ],
    [
      "şŒ",
      "ŗń"
    ],
    [
      "ĥ",
      "įĵŰ"
    ],
    [
      "ŗń",
      "ĨīĿŰ"
    ],
    [
      "łŕŀ",
      "ş"
    ],
    [
      "Ļ",
      "ļŰ"
    ],
    [
      "ĭĹŜ",
      "ŕŖĖ"
    ],
    [
      "Ĥŗ",
      "ŝł"
    ],
    [
      "ĩĤ",
      "Ņŕ"
    ],
    [
      "Ĥ",
      "įĿĤ"
    ],
    [
      "Ĥ",
      "įġŰ"
    ],
    [
      "Ħ",
      "ĭĦŗĐ"
    ],
    [
      "ŇŅ",
      "ĵļĭļ"
    ],
    [
      "ıŕő",
      "śŘ"
    ],
    [
      "Ġ",
      "ŝ"
    ],
    [
      "š",
      "ĸ"
    ],
    [
      "Ĳ",
      "Ģ"
    ],
    [
      "Ŗ",
      "ŉ"
    ],
    [
      "ğ",
      "ĳ"
    ],
    [
      "Ē",
      "ľ"
    ],
    [
      "Ň",
      "ŕĒ"
    ],
    [
      "Ġ",
      "ģĒ"
    ],
    [
      "ĵĦ",
      "ĭľ"
    ],
    [
      "ĤŚŕĒ",
      "ŵ"
    ],
    [
      "ĳ",
      "ŝł"
    ],
    [
      "ĩľ",
      "ŗł"
    ],
    [
      "ġ",
      "ĵŖĐ"
    ],
    [
      "œ",
      "ŀœ"
    ],
    [
      "ŗŘ",
      "ĵħ"
    ],
    [
      "ŗĖ",
      "ĠĠĨŰ"
    ],
    [
      "Ű",
      "œŞŖĖ"
    ],
    [
      "řĳ",
      "ĺŬ"
    ],
    [
      "şş",
      "Łł"
    ],
    [
      "ĥ",
      "īĿŰ"
    ],
    [
      "śŃ",
      "ņĖ"
    ],
    [
      "Ī",
      "ĩģ"
    ],
    [
      "Ŕ",
      "śŅ"
    ],
    [
      "ŝ",
      "ņŗ"
    ],
    [
      "ĨĠ",
      "ĩģĒ"
    ],
    [
      "ĤĹ",
      "şĐ"
    ],
    [
      "Ēņ",
      "Ĥļ"
    ],
    [
      "įį",
      "ĵĒ"
    ],
    [
      "ġĹ",
      "ĤŚĐ"
    ],
    [
      "ĥ",
      "īĢĤ"
    ],
    [
      "őœ",
      "ĲŮ"
    ],
    [
      "ģģ",
      "Ħ"
    ],
    [
      "įĹ",
      "œŜ"
    ],
    [
      "ĵĦ",
      "ĩĽ"
    ],
    [
      "ņ",
      "ĮĽ"
    ],
    [
      "ĒŸ",
      "ŗĖ"
    ],
    [
      "ĩŰ",
      "ŝŖĒłĩīŬ"
    ],
    [
      "šĹ",
      "ĤĿ"
    ],
    [
      "Ĥ",
      "įĨ"
    ],
    [
      "Ĵ",
      "ĭĤŰ"
    ],
    [
      "Ĥģ",
      "ĩľņĐ"
    ],
    [
      "Łņ",
      "Ĥĭ"
    ],
    [
      "ŕł",
      "ŝŃ"
    ],
    [
      "ģ",
      "łŕ"
    ],
    [
      "ı",
      "łŀ"
    ],
    [
      "ĨľĿşĐ",
      "ņŞĤŮ"
    ],
    [
      "ħ",
      "ŗŕŜĖ"
    ],
    [
      "œńśř",
      "įįĠŰ"
    ],
    [
      "ĵħ",
      "ĺĵĒ"
    ],
    [
      "ĢġĢĤ",
      "śŞ"
    ],
    [
      "ĳ",
      "ġĹķŚĐ"
    ],
    [
      "ųŝŗń",
      "Ĩĭĭľ"
    ],
    [
      "šĺĤ",
      "ĢŗŕĒ"
    ],
    [
      "ăŗŀņœ",
      "ĬĬĩĢ"
    ],
    [
      "Ŧ",
      "ń"
    ],
    [
      "Ĉ",
      "Ĺ"
    ],
    [
      "Ę",
      "Ŀ"
    ],
    [
      "ă",
      "Ļ"
    ],
    [
      "ś",
      "ŕĒ"
    ],
    [
      "ć",
      "ĢŰ"
    ],
    [
      "śŞ",
      "Ēł"
    ],
    [
      "ĤŚŕĒ",
      "Ś"
    ],
    [
      "Ŝŗ",
      "Ř"
    ],
    [
      "įĢ",
      "ĳ"
    ],
    [
      "ŁĐ",
      "ņŞĤŮ"
    ],
    [
      "œŚ",
      "ř"
    ],
    [
      "śł",
      "ĤŮ"
    ],
    [
      "Ĺ",
      "şŀ"
    ],
    [
      "ņ",
      "ĳī"
    ],
    [
      "ıŀ",
      "ŉ"
    ],
    [
      "ĭģ",
      "ŝŞ"
    ],
    [
      "ĸĿ",
      "ŜĐ"
    ],
    [
      "ĤĠ",
      "ī"
    ],
    [
      "ŀş",
      "ĵħ"
    ],
    [
      "ģĥ",
      "ģ"
    ],
    [
      "ĠŮ",
      "ľĵ"
    ],
    [
      "ĒŒ",
      "Ňł"
    ],
    [
      "őń",
      "ŝń"
    ],
    [
      "Ĳ",
      "œŃ"
    ],
    [
      "Ġļ",
      "ĸĹ"
    ],
    [
      "ŗŃ",
      "ŁĖ"
    ],
    [
      "œń",
      "ņœ"
    ],
    [
      "Ĵļ",
      "ĵŰ"
    ],
    [
      "ņŗ",
      "ĭŮ"
    ],
    [
      "œŅš",
      "įŬ"
    ],
    [
      "Ĩ",
      "īĢĤ"
    ],
    [
      "Ķ",
      "ŝŜ"
    ],
    [
      "ħħ",
      "ĠĽ"
    ],
    [
      "ĵī",
      "ĭĽ"
    ],
    [
      "ŅŞ",
      "ĤĠŬ"
    ],
    [
      "ĸĵ",
      "œŝ"
    ],
    [
      "ņŕ",
      "ĩŮ"
    ],
    [
      "ŅřņŞ",
      "šĺĤĵĒ"
    ],
    [
      "ŁĐ",
      "ŦŞĤŮ"
    ],
    [
      "Ĳħ",
      "ĸĹŝŞ"
    ],
    [
      "ģļ",
      "ŝŗ"
    ],
    [
      "ĪĿ",
      "Ňł"
    ],
    [
      "ı",
      "ŕŕĒ"
    ],
    [
      "Ŕłŝś",
      "šĺĤĵĒ"
    ],
    [
      "ŗŔĒŔĸŮ",
      "ĸĸŗĐ"
    ],
    [
      "ĸĹ",
      "şŕĒ"
    ],
    [
      "œńśř",
      "įĽŬ"
    ],
    [
      "Ġĺ",
      "ĸļ"
    ],
    [
      "ņœ",
      "ĠģŬ"
    ],
    [
      "ħĢĳ",
      "ŞŅ"
    ],
    [
      "ĮĢ",
      "ĠĿŅ"
    ],
    [
      "Ĺģņł",
      "œŚ"
    ],
    [
      "ŅŘ",
      "śŚĤŮ"
    ],
    [
      "ď",
      "īľĿ"
    ],
    [
      "łł",
      "ŝŒĴĭ"
    ],
    [
      "ŋ",
      "Ŝ"
    ],
    [
      "Č",
      "ī"
    ],
    [
      "ŀ",
      "ŝ"
    ],
    [
      "ġ",
      "ģ"
    ],
    [
      "Ě",
      "Ĺ"
    ],
    [
      "Ā",
      "ĭ"
    ],
    [
      "Š",
      "ŕ"
    ],
    [
      "ŗ",
      "ŏ"
    ],
    [
      "ŵ",
      "ł"
    ],
    [
      "Ę",
      "Ģ"
    ],
    [
      "ĤŚŕĒ",
      "ŷ"
    ],
    [
      "Ġ",
      "ŝł"
    ],
    [
      "ıŜ",
      "Ş"
    ],
    [
      "ı",
      "īĨŰ"
    ],
    [
      "œŞ",
      "ŋĖ"
    ],
    [
      "śł",
      "ĤĪŬ"
    ],
    [
      "ŗŞ",
      "ŗń"
    ],
    [
      "ŗŞ",
      "ŖĖ"
    ],
    [
      "įĩ",
      "ĿŰ"
    ],
    [
      "ĳī",
      "ĿŰ"
    ],
    [
      "Ħ",
      "īĢ"
    ],
    [
      "ĵŜ",
      "ŔĒ"
    ],
    [
      "ĭģ",
      "ĒńŚœš"
    ],
    [
      "œĐ",
      "ŀœ"
    ],
    [
      "ĳħ",
      "Ĩ"
    ],
    [
      "őŀ",
      "łš"
    ],
    [
      "ĩħ",
      "īĸ"
    ],
    [
      "ņŞ",
      "ĨĽŬ"
    ],
    [
      "ķ",
      "ġĠ"
    ],
    [
      "ĴĽ",
      "ĸŰ"
    ],
    [
      "ĵĒń",
      "Śŗ"
    ],
    [
      "ņŘ",
      "śŅš"
    ],
    [
      "Ĥĸ",
      "ĩļ"
    ],
    [
      "şř",
      "ŞŚ"
    ],
    [
      "œ",
      "œŚĖ"
    ],
    [
      "Įľ",
      "Ŭ"
    ],
    [
      "Ēř",
      "ņŅš"
    ],
    [
      "ĸĸ",
      "ŗŝ"
    ],
    [
      "ĩ",
      "īľĵĒ"
    ],
    [
      "ŗŒ",
      "šĺĤıņĐ"
    ],
    [
      "ıŖ",
      "ŕĒ"
    ],
    [
      "ġĢ",
      "ļŋĐ"
    ],
    [
      "Ģ",
      "ġĹľ"
    ],
    [
      "ŗŔ",
      "ĒłĩįĸŰ"
    ],
    [
      "ķī",
      "ĠĿ"
    ],
    [
      "ıļģ",
      "Ħ"
    ],
    [
      "ıīľ",
      "Ĺ"
    ],
    [
      "ĿĠ",
      "ŗœ"
    ],
    [
      "Ŝ",
      "şŀł"
    ],
    [
      "ņř",
      "őĖ"
    ],
    [
      "ġġ",
      "ĵĒ"
    ],
    [
      "ĩĴĒ",
      "ŇśłĩŮ"
    ],
    [
      "ņŘŀœ",
      "ĤŮ"
    ],
    [
      "ħŝŅ",
      "ŞŒš"
    ],
    [
      "đŇŃņń",
      "ĠĢ"
    ],
    [
      "đşŕŀş",
      "ĢįĢŰ"
    ],
    [
      "śŞ",
      "őŚĴĪ"
    ],
    [
      "Ĳŗń",
      "Ņœ"
    ],
    [
      "Ĵ",
      "ī"
    ],
    [
      "ĳ",
      "ļ"
    ],
    [
      "Ŗ",
      "Ŕ"
    ],
    [
      "ť",
      "ŗ"
    ],
    [
      "Ą",
      "Ĺ"
    ],
    [
      "Ē",
      "ũ"
    ],
    [
      "ĵ",
      "Ġ"
    ],
    [
      "ś",
      "ň"
    ],
    [
      "ĸ",
      "ľ"
    ],
    [
      "Ļ",
      "Ů"
    ],
    [
      "č",
      "Ŭ"
    ],
    [
      "Ł",
      "Ł"
    ],
    [
      "Ľ",
      "śŞ"
    ],
    [
      "ņř",
      "įŮ"
    ],
    [
      "ŀœ",
      "Ņ"
    ],
    [
      "ġĹ",
      "Ŝŗ"
    ],
    [
      "į",
      "įŬ"
    ],
    [
      "Ĩĺ",
      "ĩĴĒ"
    ],
    [
      "śœ",
      "ŗĖ"
    ],
    [
      "ĹŜĐ",
      "œĖ"
    ],
    [
      "őł",
      "ņ"
    ],
    [
      "ıŁĐ",
      "œĖ"
    ],
    [
      "œŅ",
      "Ĳ"
    ],
    [
      "Ĥ",
      "œś"
    ],
    [
      "Ģ",
      "Ļľ"
    ],
    [
      "Ĳĺ",
      "ľĹ"
    ],
    [
      "őş",
      "ŇŘ"
    ],
    [
      "śņ",
      "ŗń"
    ],
    [
      "ģĶ",
      "ĒńŚœ"
    ],
    [
      "ŝŀ",
      "ĤļŬ"
    ],
    [
      "ĭĠ",
      "œŞ"
    ],
    [
      "ŗŔĒ",
      "ŗįĪŬ"
    ],
    [
      "Śœ",
      "įŮ"
    ],
    [
      "Ŀĵ",
      "œŃ"
    ],
    [
      "ĲĽ",
      "ĥĿŜĐ"
    ],
    [
      "śŞ",
      "ņœĳ"
    ],
    [
      "Ŕ",
      "ĴĺŬ"
    ],
    [
      "őş",
      "ĵķŬ"
    ],
    [
      "ħ",
      "œŉ"
    ],
    [
      "ģ",
      "ġĹĤ"
    ],
    [
      "š",
      "ĦĥģĒ"
    ],
    [
      "Ňń",
      "ĨĠīŰņŘŗĖ"
    ],
    [
      "ŁŅ",
      "łņ"
    ],
    [
      "ł",
      "řĳĺ"
    ],
    [
      "ĩıŀ",
      "ŃĒ"
    ],
    [
      "ŗŔĒ",
      "ŁĨĺĤŰ"
    ],
    [
      "ĵĦ",
      "ģĥŕŘ"
    ],
    [
      "ıŔń",
      "ŗńš"
    ],
    [
      "ĤŚ",
      "łŝŃ"
    ],
    [
      "ľ",
      "ŝłņŞ"
    ],
    [
      "Ħįĥľ",
      "Łń"
    ],
    [
      "ďī",
      "ĻŰ"
    ],
    [
      "Ĳ",
      "īľĦ"
    ],
    [
      "ŵ",
      "ŕŀś"
    ],
    [
      "Ć",
      "Ŀ"
    ],
    [
      "ă",
      "ļ"
    ],
    [
      "Ŝ",
      "Ř"
    ],
    [
      "ſ",
      "ŕ"
    ],
    [
      "Ė",
      "ħ"
    ],
    [
      "Ļ",
      "Ŭ"
    ],
    [
      "ŋ",
      "ŀ"
    ],
    [
      "ų",
      "Ő"
    ],
    [
      "Ÿ",
      "ş"
    ],
    [
      "ĒńŚ",
      "ş"
    ],
    [
      "ļ",
      "œŞ"
    ],
    [
      "ķ",
      "œŞ"
    ],
    [
      "ĵŀ",
      "ł"
    ],
    [
      "Ő",
      "ŕŀ"
    ],
    [
      "œł",
      "šĺĤĵĒ"
    ],
    [
      "Ĥļ",
      "ĩĴĒ"
    ],
    [
      "ĭģ",
      "Ŭ"
    ],
    [
      "Ĩĺ",
      "ĩŰ"
    ],
    [
      "Ģŗ",
      "Ŕ"
    ],
    [
      "Śř",
      "ŕŞ"
    ],
    [
      "ņş",
      "Ēŕ"
    ],
    [
      "ĤĽŬ",
      "ĿŔĐ"
    ],
    [
      "ĥĳ",
      "ŗĐ"
    ],
    [
      "ĒŔ",
      "śŅ"
    ],
    [
      "ĨĽ",
      "Ĥ"
    ],
    [
      "Ĩĭ",
      "ĩŰ"
    ],
    [
      "Ŕ",
      "ŅŞ"
    ],
    [
      "ĠĹ",
      "Ľ"
    ],
    [
      "Ġĩ",
      "ĩŰ"
    ],
    [
      "Ŕ",
      "łš"
    ],
    [
      "Ļ",
      "Ŝş"
    ],
    [
      "ĵŖĐ",
      "śŘš"
    ],
    [
      "Ĩ",
      "ĨĪ"
    ],
    [
      "ņř",
      "ĳŮ"
    ],
    [
      "Ŀĵ",
      "őş"
    ],
    [
      "ņő",
      "śŘ"
    ],
    [
      "ĭ",
      "įĢĴ"
    ],
    [
      "ĢġĢ",
      "ĴĒ"
    ],
    [
      "œő",
      "ĤŮ"
    ],
    [
      "ŝŅ",
      "ŀĖ"
    ],
    [
      "ĺĵŀ",
      "őŞĖ"
    ],
    [
      "Ķī",
      "ĩľ"
    ],
    [
      "őř",
      "ņŏš"
    ],
    [
      "ŝł",
      "ĩīľŰ"
    ],
    [
      "šĹĥĤŚĐ",
      "ņŞĤŮ"
    ],
    [
      "ĒőŜŒ",
      "šĺĤĵĒ"
    ],
    [
      "łŅ",
      "ŐŚ"
    ],
    [
      "Ł",
      "ĩħįĸ"
    ],
    [
      "Őŏ",
      "šĺĤĵĒ"
    ],
    [
      "ĵġŬ",
      "ĲŗĐ"
    ],
    [
      "Ş",
      "ĠĸĩŰ"
    ],
    [
      "Į",
      "ħĢĤ"
    ],
    [
      "ĵĹ",
      "ĩĵŜĐ"
    ],
    [
      "ĠĺĥĿŜ",
      "őŞĖ"
    ],
    [
      "Ľ",
      "œŔŗĖ"
    ],
    [
      "Ġıŀ",
      "ŗ"
    ],
    [
      "ĳħĸĹ",
      "ŁŘ"
    ],
    [
      "Ş",
      "ŗĳĩ"
    ],
    [
      "ĪĿ",
      "ŞŜŝŁ"
    ],
    [
      "żŕ",
      "ŅĖ"
    ],
    [
      "ŕ",
      "ĩ"
    ],
    [
      "ğ",
      "ĥ"
    ],
    [
      "Ĥ",
      "ġ"
    ],
    [
      "ĵ",
      "Ľ"
    ],
    [
      "ĵ",
      "ķ"
    ],
    [
      "Ĳ",
      "ķ"
    ],
    [
      "Ĩ",
      "Ķ"
    ],
    [
      "Ĩ",
      "īŬ"
    ],
    [
      "Ŀ",
      "ģĒ"
    ],
    [
      "ŀ",
      "œń"
    ],
    [
      "őŜ",
      "Ņ"
    ],
    [
      "ı",
      "śł"
    ],
    [
      "ŕ",
      "Łł"
    ],
    [
      "ņŘ",
      "ŝŃ"
    ],
    [
      "ľ",
      "ĵŜ"
    ],
    [
      "Ġĺ",
      "įĸ"
    ],
    [
      "įĺ",
      "ĩľ"
    ],
    [
      "Ġ",
      "ĵŀĐ"
    ],
    [
      "ĸ",
      "ħĢķ"
    ],
    [
      "įĢĴĒ",
      "Ń"
    ],
    [
      "œŞ",
      "Ēœ"
    ],
    [
      "ĤĽŬ",
      "ıŜŔĒ"
    ],
    [
      "Ŀ",
      "ĵŁĐ"
    ],
    [
      "śŅ",
      "ĵŮ"
    ],
    [
      "ĭĤ",
      "őŘ"
    ],
    [
      "Ņş",
      "įĩŬ"
    ],
    [
      "ĥģ",
      "ņş"
    ],
    [
      "śŜ",
      "ř"
    ],
    [
      "ĹŜ",
      "ŕŁĖ"
    ],
    [
      "Śş",
      "ĬŮ"
    ],
    [
      "ı",
      "ĒŖ"
    ],
    [
      "įĸŰ",
      "ņŘŗĖ"
    ],
    [
      "Ķŝł",
      "ş"
    ],
    [
      "Łŕ",
      "őř"
    ],
    [
      "ĵ",
      "ġľŰ"
    ],
    [
      "ŗņ",
      "ŗŘ"
    ],
    [
      "ŁŃ",
      "śřįŮ"
    ],
    [
      "ņŘ",
      "ŗś"
    ],
    [
      "Şœ",
      "ĲŮ"
    ],
    [
      "ĤĹ",
      "ŕŘ"
    ],
    [
      "Ŗŕ",
      "ńœ"
    ],
    [
      "ŝń",
      "ĪŮ"
    ],
    [
      "ıĢ",
      "ĩŰ"
    ],
    [
      "Ġĺ",
      "ĸı"
    ],
    [
      "ņşĮĠŬ",
      "ĿŔĐ"
    ],
    [
      "Ġ",
      "ĭĤŰ"
    ],
    [
      "ĻĹņŘ",
      "Ēŗ"
    ],
    [
      "Ġħ",
      "ľ"
    ],
    [
      "ņŕŀ",
      "Ņš"
    ],
    [
      "ņœĳ",
      "ĽŬ"
    ],
    [
      "Ĳľ",
      "ģľ"
    ],
    [
      "šĬ",
      "ĹĤ"
    ],
    [
      "šĺĤĵ",
      "şĐ"
    ],
    [
      "Ķī",
      "Ġļ"
    ],
    [
      "Ĥĺ",
      "Ļĵ"
    ],
    [
      "ŝŜ",
      "ŝő"
    ],
    [
      "ģģ",
      "ģņĐ"
    ],
    [
      "ņ",
      "ŚĸŮ"
    ],
    [
      "Şŉ",
      "Ēŗ"
    ],
    [
      "şŜĖ",
      "ĵĦĩŰ"
    ],
    [
      "ņř",
      "ĳķŬ"
    ],
    [
      "ģĿ",
      "řĐ"
    ],
    [
      "ģ",
      "įįĻ"
    ],
    [
      "ĒşŜĖ",
      "ĵĦĩŰ"
    ],
    [
      "Įĵ",
      "ņŇ"
    ],
    [
      "ņŞ",
      "ĮĻīĸ"
    ],
    [
      "Łř",
      "Ŗœš"
    ],
    [
      "įī",
      "ĿĵĒ"
    ],
    [
      "Ĳĺľ",
      "ĥ"
    ],
    [
      "ĭĤ",
      "śşŜŅš"
    ],
    [
      "Ģ",
      "ĭĤŗł"
    ],
    [
      "ıŔń",
      "ŗń"
    ],
    [
      "Ř",
      "œŀĤŮ"
    ],
    [
      "łŗĳ",
      "ĺŬ"
    ],
    [
      "ď",
      "ġľĤŚĐ"
    ],
    [
      "Ĥśŝ",
      "ŗĖ"
    ],
    [
      "ĸĹŜ",
      "Ņ"
    ],
    [
      "Ġıņ",
      "ŕŀĖ"
    ],
    [
      "ľ",
      "ŇŝŐ"
    ],
    [
      "ĵħĢ",
      "ĥ"
    ],
    [
      "ăļĥĤ",
      "śŃŚĖ"
    ],
    [
      "ČįĢĹ",
      "Şő"
    ],
    [
      "ĤĺĻĵ",
      "ŗŞ"
    ],
    [
      "ĵ",
      "ń"
    ],
    [
      "ć",
      "ļ"
    ],
    [
      "đ",
      "ġ"
    ],
    [
      "ŀ",
      "ŉ"
    ],
    [
      "ģ",
      "ĵ"
    ],
    [
      "Ŷ",
      "ŗ"
    ],
    [
      "Ř",
      "ř"
    ],
    [
      "Ő",
      "Ė"
    ],
    [
      "ć",
      "ġ"
    ],
    [
      "ď",
      "ı"
    ],
    [
      "ű",
      "ń"
    ],
    [
      "Ć",
      "ĩŰ"
    ],
    [
      "ŋ",
      "Ņš"
    ],
    [
      "ħ",
      "śŞ"
    ],
    [
      "ĒńŚ",
      "ŗ"
    ],
    [
      "ŝŘ",
      "ĥŮ"
    ],
    [
      "īĢ",
      "ķ"
    ],
    [
      "ĵŖĐ",
      "œĖ"
    ],
    [
      "ĳ",
      "Ňł"
    ],
    [
      "ŋĖ",
      "ĠĠĨŰ"
    ],
    [
      "Ġĺ",
      "ĥľŕĐ"
    ],
    [
      "ıŜŔĒ",
      "ś"
    ],
    [
      "ĭĤ",
      "śŞŕĖ"
    ],
    [
      "ŗ",
      "őń"
    ],
    [
      "ŗŒš",
      "įĿŰ"
    ],
    [
      "įĸ",
      "ĵŁĐ"
    ],
    [
      "ĒŒ",
      "ĨĽ"
    ],
    [
      "ē",
      "ŝŝ"
    ],
    [
      "ĤĢ",
      "ĨŰ"
    ],
    [
      "įġ",
      "Ļľ"
    ],
    [
      "ĢĦ",
      "ĭĢ"
    ],
    [
      "śŚ",
      "ĬŮ"
    ],
    [
      "ĺ",
      "ĵŜń"
    ],
    [
      "ť",
      "Ŝş"
    ],
    [
      "Ĵ",
      "ĩĤ"
    ],
    [
      "ĥģ",
      "śşŜĖ"
    ],
    [
      "Ĳ",
      "ŗŜ"
    ],
    [
      "ĩģĒ",
      "şŔĖ"
    ],
    [
      "Ēś",
      "ĨĢ"
    ],
    [
      "ĨģĢ",
      "ĒńŚœš"
    ],
    [
      "ĒŤ",
      "Śœ"
    ],
    [
      "Ť",
      "Śœ"
    ],
    [
      "Ēń",
      "Ĥĺ"
    ],
    [
      "ıņř",
      "Ŝő"
    ],
    [
      "ĵŮ",
      "ģĶĒńŚœš"
    ],
    [
      "š",
      "įĢĴ"
    ],
    [
      "ĳŝŞ",
      "ņń"
    ],
    [
      "ĵĺ",
      "ĩĢ"
    ],
    [
      "į",
      "ış"
    ],
    [
      "ĤĪŬ",
      "ħśńŚĖ"
    ],
    [
      "ĳ",
      "įĥľ"
    ],
    [
      "Şő",
      "ņœĳŮ"
    ],
    [
      "Ğ",
      "ŗŇ"
    ],
    [
      "şŕ",
      "ŜĖ"
    ],
    [
      "Ļĵ",
      "ŞŜ"
    ],
    [
      "įī",
      "ĻŰ"
    ],
    [
      "ģ",
      "Ňŀ"
    ],
    [
      "Łŀ",
      "ŝŘ"
    ],
    [
      "ĩĴĒŒŋĖ",
      "ĵĦĩŰ"
    ],
    [
      "ņŅ",
      "ŀœš"
    ],
    [
      "ş",
      "ņŞĤļŬ"
    ],
    [
      "ĠĢ",
      "ĠĵŖĐ"
    ],
    [
      "ĤĸĩĢ",
      "œŜ"
    ],
    [
      "ŗŔĒ",
      "řįŮ"
    ],
    [
      "ĥġ",
      "Ļľ"
    ],
    [
      "œłĵ",
      "įįĻ"
    ],
    [
      "Ī",
      "Ġģħ"
    ],
    [
      "Ĳŝń",
      "ŚĖ"
    ],
    [
      "ĂĦ",
      "ĹĢőŘ"
    ],
    [
      "Ą",
      "ĵ"
    ],
    [
      "ĉ",
      "ī"
    ],
    [
      "Į",
      "ħ"
    ],
    [
      "Ř",
      "Ń"
    ],
    [
      "ŋ",
      "ł"
    ],
    [
      "ł",
      "ŕĒ"
    ],
    [
      "ē",
      "œł"
    ],
    [
      "ŝ",
      "Œš"
    ],
    [
      "Ĩ",
      "įĢ"
    ],
    [
      "ħĢ",
      "Ħ"
    ],
    [
      "ĩľ",
      "ŖĐ"
    ],
    [
      "Ĵ",
      "įľ"
    ],
    [
      "ť",
      "şŀ"
    ],
    [
      "ķ",
      "ŀŕ"
    ],
    [
      "ĭ",
      "ĨŬ"
    ],
    [
      "ġĹ",
      "Ŝ"
    ],
    [
      "ĹŜ",
      "ņ"
    ],
    [
      "ſ",
      "ŗĳ"
    ],
    [
      "ĤŮ",
      "ĭŰ"
    ],
    [
      "ĠŮ",
      "ĭľŖĐ"
    ],
    [
      "ļĩ",
      "ĵĒ"
    ],
    [
      "ł",
      "ŕŀĖ"
    ],
    [
      "Łř",
      "Łł"
    ],
    [
      "Ģŗ",
      "Ŝ"
    ],
    [
      "ĩľ",
      "ņł"
    ],
    [
      "Ÿ",
      "őł"
    ],
    [
      "śŃ",
      "Ś"
    ],
    [
      "Œ",
      "ĤĽ"
    ],
    [
      "ĿĹ",
      "Ŗ"
    ],
    [
      "ĿĹ",
      "Ĺ"
    ],
    [
      "śł",
      "ŗŕ"
    ],
    [
      "Ħ",
      "ĭģĒ"
    ],
    [
      "œń",
      "ĳħ"
    ],
    [
      "ŗŗ",
      "ĬŮ"
    ],
    [
      "Ēņ",
      "ĳī"
    ],
    [
      "š",
      "įĢŰ"
    ],
    [
      "Ě",
      "ŇŞ"
    ],
    [
      "śŞ",
      "ņřš"
    ],
    [
      "śŅ",
      "ĨġĢŰ"
    ],
    [
      "ĩħ",
      "ġŰ"
    ],
    [
      "Ŕşŀ",
      "ŕ"
    ],
    [
      "ĨĹ",
      "œŞ"
    ],
    [
      "ĩĳ",
      "ŝŞ"
    ],
    [
      "Ŀ",
      "ĥŀ"
    ],
    [
      "ńş",
      "įĩŬ"
    ],
    [
      "ĭġ",
      "ļ"
    ],
    [
      "ĵī",
      "ġĠ"
    ],
    [
      "ģħ",
      "ŗł"
    ],
    [
      "ĭī",
      "ĭģ"
    ],
    [
      "Įĺ",
      "ĤŰ"
    ],
    [
      "ĩĴĒ",
      "Ŗŝń"
    ],
    [
      "ĿĿ",
      "Ňń"
    ],
    [
      "Ĥĭ",
      "ĸĵŖĐ"
    ],
    [
      "ış",
      "ŕŁĖ"
    ],
    [
      "Ġħ",
      "ĨŰ"
    ],
    [
      "ĸĸœń",
      "ĒłĩīŬ"
    ],
    [
      "ĥħ",
      "ĸĹŝŞ"
    ],
    [
      "ĺĹ",
      "ŗŇ"
    ],
    [
      "Őř",
      "ĴĺŬ"
    ],
    [
      "Ĥįľ",
      "ļŋĐ"
    ],
    [
      "ŝŚ",
      "Įĩ"
    ],
    [
      "Ŝ",
      "ŚĸŮ"
    ],
    [
      "Ĳħ",
      "įŰ"
    ],
    [
      "ńœĳ",
      "Ġ"
    ],
    [
      "ĠħĢ",
      "ģņĐ"
    ],
    [
      "Ĭġ",
      "ĿĤ"
    ],
    [
      "ņń",
      "Ĵĭ"
    ],
    [
      "ĕĦ",
      "ĩĢŗĐ"
    ],
    [
      "Ļĵ",
      "ńŕŀĖ"
    ],
    [
      "ĴĬ",
      "ĠĹ"
    ],
    [
      "Ĥŗ",
      "őşĖ"
    ],
    [
      "ġ",
      "ĺĵŀĐ"
    ],
    [
      "ĿĹ",
      "ŖŕĒ"
    ],
    [
      "œłĨġĢ",
      "ıŞĐ"
    ],
    [
      "Ņř",
      "ĴĢĨŰ"
    ],
    [
      "ĥī",
      "ĿĹŕŞ"
    ],
    [
      "ĥľ",
      "őŜŇŒ"
    ],
    [
      "ģ",
      "ŗņŗń"
    ],
    [
      "Űłśł",
      "ĨĽĤŰ"
    ],
    [
      "ģīĸ",
      "ħŗŕŜĖ"
    ],
    [
      "Ŗœ",
      "ķīĠĿ"
    ],
    [
      "Ĩ",
      "ġ"
    ],
    [
      "Ŷ",
      "Ņ"
    ],
    [
      "Ļ",
      "ļ"
    ],
    [
      "ť",
      "ĵ"
    ],
    [
      "Ĳ",
      "ĥ"
    ],
    [
      "Ţ",
      "ő"
    ],
    [
      "Ŝ",
      "ŖĖ"
    ],
    [
      "Ź",
      "ŜĖ"
    ],
    [
      "Ľ",
      "ŗń"
    ],
    [
      "ĝ",
      "œŞ"
    ],
    [
      "ŕŀ",
      "ń"
    ],
    [
      "įĢ",
      "Ļ"
    ],
    [
      "ĭĤ",
      "Ŀ"
    ],
    [
      "ŝŘ",
      "ĲŮ"
    ],
    [
      "Ēń",
      "ŀř"
    ],
    [
      "ĳ",
      "ŀş"
    ],
    [
      "ģ",
      "ĩľ"
    ],
    [
      "Ħ",
      "īĨŰ"
    ],
    [
      "ŀœ",
      "į"
    ],
    [
      "ŀœ",
      "ş"
    ],
    [
      "Č",
      "įľ"
    ],
    [
      "ĿĤ",
      "œł"
    ],
    [
      "ŝŖ",
      "Ēŗ"
    ],
    [
      "őř",
      "Ė"
    ],
    [
      "ġĢ",
      "Ĺ"
    ],
    [
      "œĥŮ",
      "ĸĿ"
    ],
    [
      "ĵ",
      "įŬ"
    ],
    [
      "ĭŰ",
      "œŞŖĖ"
    ],
    [
      "ņş",
      "ĒŅ"
    ],
    [
      "ł",
      "ŗŅ"
    ],
    [
      "ıŁĐ",
      "ņŞĤŮ"
    ],
    [
      "œŃ",
      "Łş"
    ],
    [
      "šĽ",
      "ĸĢ"
    ],
    [
      "ş",
      "ŕŁĖ"
    ],
    [
      "ĠĢ",
      "Ġĩ"
    ],
    [
      "ľ",
      "ľĹ"
    ],
    [
      "ĮĢ",
      "ĨŰ"
    ]
  ],
  "vocab": {
    "<pad>": 0,
    "<bos>": 1,
    "<eos>": 2,
    "<unk>": 3,
    "Ā": 4,
    "ā": 5,
    "Ă": 6,
    "ă": 7,
    "Ą": 8,
    "ą": 9,
    "Ć": 10,
    "ć": 11,
    "Ĉ": 12,
    "ĉ": 13,
    "Ċ": 14,
    "ċ": 15,
    "Č": 16,
    "č": 17,
    "Ď": 18,
    "ď": 19,
    "Đ": 20,
    "đ": 21,
    "Ē": 22,
    "ē": 23,
    "Ĕ": 24,
    "ĕ": 25,
    "Ė": 26,
    "ė": 27,
    "Ę": 28,
    "ę": 29,
    "Ě": 30,
    "ě": 31,
    "Ĝ": 32,
    "ĝ": 33,
    "Ğ": 34,
    "ğ": 35,
    "Ġ": 36,
    "ġ": 37,
    "Ģ": 38,
    "ģ": 39,
    "Ĥ": 40,
    "ĥ": 41,
    "Ħ": 42,
    "ħ": 43,
    "Ĩ": 44,
    "ĩ": 45,
    "Ī": 46,
    "ī": 47,
    "Ĭ": 48,
    "ĭ": 49,
    "Į": 50,
    "į": 51,
    "İ": 52,
    "ı": 53,
    "Ĳ": 54,
    "ĳ": 55,
    "Ĵ": 56,
    "ĵ": 57,
    "Ķ": 58,
    "ķ": 59,
    "ĸ": 60,
    "Ĺ": 61,
    "ĺ": 62,
    "Ļ": 63,
    "ļ": 64,
    "Ľ": 65,
    "ľ": 66,
    "Ŀ": 67,
    "ŀ": 68,
    "Ł": 69,
    "ł": 70,
    "Ń": 71,
    "ń": 72,
    "Ņ": 73,
    "ņ": 74,
    "Ň": 75,
    "ň": 76,
    "ŉ": 77,
    "Ŋ": 78,
    "ŋ": 79,
    "Ō": 80,
    "Ŏ": 81,
    "ŏ": 82,
    "Ő": 83,
    "ő": 84,
    "Œ": 85,
    "œ": 86,
    "Ŕ": 87,
    "ŕ": 88,
    "Ŗ": 89,
    "ŗ": 90,
    "Ř": 91,
    "ř": 92,
    "Ś": 93,
    "ś": 94,
    "Ŝ": 95,
    "ŝ": 96,
    "Ş": 97,
    "ş": 98,
    "Š": 99,
    "š": 100,
    "Ţ": 101,
    "ţ": 102,
    "Ť": 103,
    "ť": 104,
    "Ŧ": 105,
    "ŧ": 106,
    "Ũ": 107,
    "ũ": 108,
    "Ū": 109,
    "ū": 110,
    "Ŭ": 111,
    "Ů": 112,
    "ů": 113,
    "Ű": 114,
    "ű": 115,
    "Ų": 116,
    "ų": 117,
    "Ŵ": 118,
    "ŵ": 119,
    "Ŷ": 120,
    "ŷ": 121,
    "Ÿ": 122,
    "Ź": 123,
    "ź": 124,
    "Ż": 125,
    "ż": 126,
    "Ž": 127,
    "ž": 128,
    "ſ": 129,
    "ĩŰ": 130,
    "ŕĒ": 131,
    "ĤŮ": 132,
    "ŗĖ": 133,
    "ŗĐ": 134,
    "īŬ": 135,
    "ĵĒ": 136,
    "œš": 137,
    "Ēń": 138,
    "Ēł": 139,
    "ŁĖ": 140,
    "ĿŰ": 141,
    "ĽŬ": 142,
    "ĲŮ": 143,
    "ŁĐ": 144,
    "šĺ": 145,
    "ĤŚ": 146,
    "ņŞ": 147,
    "ņŘ": 148,
    "ĸĸ": 149,
    "ĵĦ": 150,
    "ĪŬ": 151,
    "ĨŰ": 152,
    "ŖĖ": 153,
    "ĥŮ": 154,
    "ŖĐ": 155,
    "ģĒ": 156,
    "ŃĒ": 157,
    "ĠŬ": 158,
    "ĢŰ": 159,
    "Ņš": 160,
    "ŜĖ": 161,
    "įŮ": 162,
    "œł": 163,
    "ŜĐ": 164,
    "ŗń": 165,
    "ĥľ": 166,
    "śŘ": 167,
    "œń": 168,
    "ŗł": 169,
    "śŞ": 170,
    "ŔĒ": 171,
    "ĴĒ": 172,
    "ĒńŚ": 173,
    "šĺĤ": 174,
    "īľ": 175,
    "œŞ": 176,
    "ĭľ": 177,
    "ĩĢ": 178,
    "ĵŀ": 179,
    "ĩīŬ": 180,
    "ņř": 181,
    "ŕŀ": 182,
    "Ĥļ": 183,
    "ņş": 184,
    "Œš": 185,
    "œŘ": 186,
    "ĺŬ": 187,
    "ņĖ": 188,
    "ĵŮ": 189,
    "ĸŰ": 190,
    "ņĐ": 191,
    "ĤŚŕĒ": 192,
    "Ŝŗ": 193,
    "ņŘŗĖ": 194,
    "œĳ": 195,
    "ĵĦĩŰ": 196,
    "ŝŞ": 197,
    "ĸĸŗĐ": 198,
    "įĢ": 199,
    "ĭĤ": 200,
    "ģľ": 201,
    "ħĢ": 202,
    "ŝł": 203,
    "ĨĠ": 204,
    "Ġļ": 205,
    "ŝŘ": 206,
    "šĺĤĵĒ": 207,
    "ĠĠ": 208,
    "őŜ": 209,
    "ĭĢ": 210,
    "ņŞĤŮ": 211,
    "œŚ": 212,
    "őŞ": 213,
    "Ēŗ": 214,
    "ıŜ": 215,
    "ĒńŚœš": 216,
    "Ēř": 217,
    "ĒłĩīŬ": 218,
    "ŝń": 219,
    "įĸ": 220,
    "Ēş": 221,
    "ĤĪŬ": 222,
    "ŀř": 223,
    "ŀş": 224,
    "Įļ": 225,
    "ĵŰ": 226,
    "ĩľ": 227,
    "īĨŰ": 228,
    "ĵŖĐ": 229,
    "ŕŖĖ": 230,
    "ķŬ": 231,
    "ŋĖ": 232,
    "ģĢ": 233,
    "ĸŮ": 234,
    "śł": 235,
    "śń": 236,
    "ŋĐ": 237,
    "ŀœ": 238,
    "őş": 239,
    "ġľ": 240,
    "ŗŞ": 241,
    "řŜ": 242,
    "ŗŘ": 243,
    "Ŀŀ": 244,
    "ĠĢ": 245,
    "įľ": 246,
    "œĥŮ": 247,
    "şŀ": 248,
    "Łń": 249,
    "Łł": 250,
    "œŜ": 251,
    "įĩ": 252,
    "ŏš": 253,
    "ŗŔĒ": 254,
    "ŝŐ": 255,
    "ŀŕ": 256,
    "ġŬ": 257,
    "ģŰ": 258,
    "ĿĤ": 259,
    "ĳī": 260,
    "ĮŮ": 261,
    "ŝŅ": 262,
    "įĪŬ": 263,
    "ĭļ": 264,
    "Ēő": 265,
    "ŝĐ": 266,
    "ŝŃ": 267,
    "ĩĴĒ": 268,
    "ıŞ": 269,
    "ŝĖ": 270,
    "ıŀ": 271,
    "ĨŬ": 272,
    "ġĹ": 273,
    "īĢ": 274,
    "ŝŖ": 275,
    "ġĪ": 276,
    "ħŮ": 277,
    "ĿŔ": 278,
    "őř": 279,
    "ģĶ": 280,
    "ĵŜ": 281,
    "ŔĖ": 282,
    "ĮĨŬ": 283,
    "Ġĺ": 284,
    "ĭģ": 285,
    "ġĢ": 286,
    "įĠ": 287,
    "ĩĒ": 288,
    "ĸĿ": 289,
    "ŕŜ": 290,
    "Łş": 291,
    "ĤĠ": 292,
    "ĮĠ": 293,
    "įĿ": 294,
    "ġĪŰ": 295,
    "ĹŜ": 296,
    "ŗŒš": 297,
    "ŗĳ": 298,
    "Ňń": 299,
    "őŀ": 300,
    "ĵħ": 301,
    "ĿŔĐ": 302,
    "ĭŰ": 303,
    "įĺ": 304,
    "ĠŮ": 305,
    "ĦŮ": 306,
    "œĖ": 307,
    "œĐ": 308,
    "ŕĐ": 309,
    "ĭľŖĐ": 310,
    "Śř": 311,
    "Şş": 312,
    "Ňł": 313,
    "ĠĠĨŰ": 314,
    "ĦĩŰ": 315,
    "ģĥ": 316,
    "ļĩ": 317,
    "įŬ": 318,
    "ĵŀĐ": 319,
    "œŞŖĖ": 320,
    "Ĩĺ": 321,
    "īŰ": 322,
    "ġĢŰ": 323,
    "śŕ": 324,
    "řĳ": 325,
    "ŕĖ": 326,
    "ŉĒ": 327,
    "ĤļŬ": 328,
    "ľĵ": 329,
    "śœ": 330,
    "ŕŀĖ": 331,
    "įĩŬ": 332,
    "ĭŮ": 333,
    "īľŰ": 334,
    "Śş": 335,
    "ħĢķ": 336,
    "ĹŜŗ": 337,
    "Łř": 338,
    "Ģŗ": 339,
    "ĮĠŬ": 340,
    "ĿŜĐ": 341,
    "ĮĻ": 342,
    "ĨĠŬ": 343,
    "ĩŮ": 344,
    "ĭħ": 345,
    "œŘĥŮ": 346,
    "šĹ": 347,
    "ĩħ": 348,
    "ĒŅ": 349,
    "ŗŅ": 350,
    "ĥľŕĐ": 351,
    "ŗŚ": 352,
    "ħĢŰ": 353,
    "Şř": 354,
    "ĹŜĐ": 355,
    "ıŜŔĒ": 356,
    "ĕĦĩŰ": 357,
    "śş": 358,
    "ĒŔ": 359,
    "ĨĠīŰ": 360,
    "ĥĤ": 361,
    "ĒŒ": 362,
    "œĳŮ": 363,
    "įĢĴĒ": 364,
    "ņń": 365,
    "śŞŕĖ": 366,
    "őń": 367,
    "ĒŃ": 368,
    "ŝś": 369,
    "Ĳĺ": 370,
    "ĵġŬ": 371,
    "ĤĹ": 372,
    "ņł": 373,
    "ĒŁ": 374,
    "šĽ": 375,
    "őł": 376,
    "śř": 377,
    "ŕŞ": 378,
    "ĤŝĐ": 379,
    "ŗœ": 380,
    "śŘĦŮ": 381,
    "ŗŗ": 382,
    "ıŁĐ": 383,
    "ĠĽŬ": 384,
    "Ēœ": 385,
    "ľĿ": 386,
    "ĒŇ": 387,
    "œŅ": 388,
    "ŀŗ": 389,
    "œŃ": 390,
    "įĿŰ": 391,
    "řŜő": 392,
    "ĸĹ": 393,
    "őŜŒš": 394,
    "Ēŕ": 395,
    "ĒŞ": 396,
    "ģļ": 397,
    "şş": 398,
    "įġ": 399,
    "īĿŰ": 400,
    "ĤĽŬ": 401,
    "śŃ": 402,
    "ĩģ": 403,
    "ĥĳ": 404,
    "ĤĽ": 405,
    "ĵŁĐ": 406,
    "ĿĹ": 407,
    "ĒŘ": 408,
    "śŅ": 409,
    "ŗŕ": 410,
    "őŘ": 411,
    "ŗŃ": 412,
    "ņœ": 413,
    "ŗŒ": 414,
    "Ņş": 415,
    "ĨĽ": 416,
    "ĤŰ": 417,
    "ŗńš": 418,
    "Ŗş": 419,
    "šĺģŰ": 420,
    "ĨĢ": 421,
    "ĳġ": 422,
    "Łœ": 423,
    "ŝŝ": 424,
    "ĥģ": 425,
    "œŃĒ": 426,
    "Ĵļ": 427,
    "Şŗ": 428,
    "œś": 429,
    "ņŗ": 430,
    "őŁĖ": 431,
    "ĿŜ": 432,
    "ŝŘš": 433,
    "ĒńŝĖ": 434,
    "ĭģĒ": 435,
    "Ĩĭ": 436,
    "Ŗœ": 437,
    "ŁŅ": 438,
    "Ġģ": 439,
    "ĩģĒ": 440,
    "Ņŗ": 441,
    "śŜ": 442,
    "ĥļ": 443,
    "ĤĢ": 444,
    "Ĳħ": 445,
    "şř": 446,
    "Ļľ": 447,
    "ŚĖ": 448,
    "ŗő": 449,
    "ļģ": 450,
    "ĢĦ": 451,
    "ŗŃĒ": 452,
    "ĒşŔĖ": 453,
    "ĸĢ": 454,
    "ĩļ": 455,
    "ŁŃ": 456,
    "śŗ": 457,
    "ŅŞ": 458,
    "ĳħ": 459,
    "ĠĹ": 460,
    "şĐ": 461,
    "ĤĵĒ": 462,
    "ŕş": 463,
    "ŕŁĖ": 464,
    "œŅš": 465,
    "śő": 466,
    "śŚ": 467,
    "ĬŮ": 468,
    "Įģ": 469,
    "Ēņ": 470,
    "ĒłĮŮ": 471,
    "œŒ": 472,
    "Ēŀ": 473,
    "Ŝő": 474,
    "Ŗř": 475,
    "ŗŔ": 476,
    "ĵŜń": 477,
    "įĢŰ": 478,
    "ĩı": 479,
    "Ŕř": 480,
    "Ġĩ": 481,
    "œŝ": 482,
    "įĪ": 483,
    "ĭĽ": 484,
    "ľĹ": 485,
    "łš": 486,
    "Ŝœ": 487,
    "ĴĠ": 488,
    "ĠĽ": 489,
    "ŇŞ": 490,
    "ŇŘ": 491,
    "ĒŐ": 492,
    "ĵļ": 493,
    "řŜĖ": 494,
    "ĭĳ": 495,
    "ņřš": 496,
    "ŝŐš": 497,
    "œŔ": 498,
    "ĠĠŬ": 499,
    "őŞĖ": 500,
    "őŗ": 501,
    "ĮĢ": 502,
    "ĠĢŬ": 503,
    "ĒřħŮ": 504,
    "ĨġĢŰ": 505,
    "ĩī": 506,
    "įħ": 507,
    "Şő": 508,
    "Ŝş": 509,
    "Ŕş": 510,
    "ĩĤ": 511,
    "ŚĐ": 512,
    "įį": 513,
    "Ņř": 514,
    "ĠĺŬ": 515,
    "īĸ": 516,
    "ĤŚĐ": 517,
    "śşŜĖ": 518,
    "Śœš": 519,
    "īĢĤ": 520,
    "ŝņ": 521,
    "ĵħģľ": 522,
    "łş": 523,
    "śŘš": 524,
    "Ĩĸ": 525,
    "ġŰ": 526,
    "ıŜĐ": 527,
    "įĠŰ": 528,
    "œņ": 529,
    "śŀ": 530,
    "ıņ": 531,
    "ĩĴ": 532,
    "ĨĽŬ": 533,
    "ĒŗįĪŬ": 534,
    "łř": 535,
    "ġĠ": 536,
    "įī": 537,
    "śņ": 538,
    "ĨĪ": 539,
    "ĒŤ": 540,
    "ĥĿŜĐ": 541,
    "ĒŖ": 542,
    "ŗŜ": 543,
    "ıŞĐ": 544,
    "ŗŅš": 545,
    "įĸŰ": 546,
    "ĿŀĐ": 547,
    "łł": 548,
    "Ķŝł": 549,
    "Łŕ": 550,
    "ĹĢ": 551,
    "ıņĐ": 552,
    "ŞĐ": 553,
    "ĳŮ": 554,
    "ĮļŬ": 555,
    "ĲĺŬ": 556,
    "Ŕşŀ": 557,
    "Ģĥ": 558,
    "ĵĦŬ": 559,
    "şįŮ": 560,
    "ġľŰ": 561,
    "ŗņ": 562,
    "ŚŕĒ": 563,
    "Śŗ": 564,
    "şŔĖ": 565,
    "ĒŢ": 566,
    "ŝŜ": 567,
    "łń": 568,
    "şŗ": 569,
    "Ĥĭ": 570,
    "ĠŰ": 571,
    "ĨĹ": 572,
    "šĬ": 573,
    "ĒńŚœ": 574,
    "œŀ": 575,
    "ŝŇ": 576,
    "ĸŗĐ": 577,
    "Ēű": 578,
    "ĻıŁĐ": 579,
    "ĭķŬ": 580,
    "ŝŀ": 581,
    "įļ": 582,
    "ĥĢ": 583,
    "őœ": 584,
    "śřįŮ": 585,
    "ŅőŁĖ": 586,
    "šġĪŰ": 587,
    "řħŮ": 588,
    "ŁŘ": 589,
    "ŁŞ": 590,
    "Ēś": 591,
    "Ĩļ": 592,
    "ĮĹ": 593,
    "ĨģĢ": 594,
    "ŅŘ": 595,
    "œř": 596,
    "ģģ": 597,
    "ĵīĨŰ": 598,
    "ĩĳ": 599,
    "įĹ": 600,
    "őő": 601,
    "ŗŀ": 602,
    "Ēŷ": 603,
    "śŃĒ": 604,
    "Ŝř": 605,
    "ĭĠ": 606,
    "ŅŗĲŮ": 607,
    "ŗś": 608,
    "őņĖ": 609,
    "œŕ": 610,
    "Ēť": 611,
    "Şœ": 612,
    "ŦŘ": 613,
    "ŗįĪŬ": 614,
    "ĶįĿŰ": 615,
    "Śœ": 616,
    "ĴĽ": 617,
    "Ŗŕ": 618,
    "śŒ": 619,
    "ĩĽ": 620,
    "ŕŘ": 621,
    "œŘš": 622,
    "Ēţ": 623,
    "Ħĥ": 624,
    "ŝŚ": 625,
    "śś": 626,
    "ŦŞ": 627,
    "ĵĒń": 628,
    "ŞĖ": 629,
    "Ŕřĳ": 630,
    "Ĩĵ": 631,
    "Ģĺ": 632,
    "Ŕń": 633,
    "şĖ": 634,
    "őŜŒ": 635,
    "ĥī": 636,
    "ŝŁ": 637,
    "ĥŀ": 638,
    "ŕĒł": 639,
    "ŕŜł": 640,
    "Ēŝ": 641,
    "Ŀĵ": 642,
    "ĮĨŬĤŚŕĒ": 643,
    "řŜőš": 644,
    "ŇŃ": 645,
    "œŚš": 646,
    "ĥħ": 647,
    "Şŕ": 648,
    "Ļĸ": 649,
    "ńœ": 650,
    "Ĥĺ": 651,
    "ńş": 652,
    "įĤ": 653,
    "ĒŲ": 654,
    "şő": 655,
    "śŔ": 656,
    "ĪĹ": 657,
    "ħħ": 658,
    "Őœ": 659,
    "Ĥģ": 660,
    "ĵŜĐ": 661,
    "ħœŃĒ": 662,
    "ĭġ": 663,
    "ŇŚ": 664,
    "ŇŅ": 665,
    "ĭĴ": 666,
    "ĒřŜĖ": 667,
    "ĵī": 668,
    "ĴĢ": 669,
    "ĒŴ": 670,
    "ĻĢ": 671,
    "ģħ": 672,
    "Ĩģ": 673,
    "śŅš": 674,
    "ĵĽŬ": 675,
    "ĹŝŞ": 676,
    "ŀő": 677,
    "ĠĿ": 678,
    "įĻ": 679,
    "Ēŵ": 680,
    "ıņř": 681,
    "Ŝł": 682,
    "ĮĽ": 683,
    "ŞŜ": 684,
    "Ŝŕ": 685,
    "Ġĵ": 686,
    "įĺŬ": 687,
    "ĒőŜŒš": 688,
    "ńř": 689,
    "Ŕł": 690,
    "ĠĪ": 691,
    "ĤĠŬ": 692,
    "Įĵ": 693,
    "ĒŸ": 694,
    "šľ": 695,
    "ĭī": 696,
    "ŇŜ": 697,
    "Ĳī": 698,
    "Ġĭ": 699,
    "řĐ": 700,
    "ĭīŬ": 701,
    "ĥĦ": 702,
    "śŝ": 703,
    "Ŀĸ": 704,
    "ľı": 705,
    "Ēų": 706,
    "ņŅ": 707,
    "ĻĹ": 708,
    "ĒŽ": 709,
    "ĲĽ": 710,
    "ĪŮ": 711,
    "ŝŖĒłĩīŬ": 712,
    "ĶĦ": 713,
    "Őŕ": 714,
    "ĿŔĐņŞĤŮ": 715,
    "ĤĿ": 716,
    "ĚĤĵĒ": 717,
    "œšĺ": 718,
    "ġĿ": 719,
    "ĒşįŮ": 720,
    "ņœĥŮ": 721,
    "Ĥĸ": 722,
    "Ġı": 723,
    "Ķħ": 724,
    "ĒŻ": 725,
    "şœ": 726,
    "Ĭľ": 727,
    "ŗĵŮ": 728,
    "Ńĳ": 729,
    "įĭ": 730,
    "ĸģĒ": 731,
    "Ēž": 732,
    "įĽ": 733,
    "Ģġ": 734,
    "ıĢ": 735,
    "ŝŐšĺĤĵĒ": 736,
    "ŦŘŗĖ": 737,
    "ņő": 738,
    "ģĶĒńŚœš": 739,
    "Ĺľ": 740,
    "ĻĿ": 741,
    "ıŜŔ": 742,
    "ĥķ": 743,
    "őŞŚ": 744,
    "ķħ": 745,
    "Įĺ": 746,
    "ŜŋĖ": 747,
    "Ēłĩ": 748,
    "ņŕŖĖ": 749,
    "ĥĽ": 750,
    "šįĢĴĒ": 751,
    "šĪ": 752,
    "Ŗŝń": 753,
    "ŞŚ": 754,
    "łœ": 755,
    "ņŃĒ": 756,
    "ĿĿ": 757,
    "ĄŚŕĒ": 758,
    "ģī": 759,
    "įĵ": 760,
    "Ĵĺ": 761,
    "ĦĦ": 762,
    "įĢĴ": 763,
    "ĢġĢ": 764,
    "ĭķ": 765,
    "ŕŗ": 766,
    "ħśń": 767,
    "ĹŁĐ": 768,
    "ĒŹ": 769,
    "ĢīŬ": 770,
    "ĩĢŗĐ": 771,
    "Şŏš": 772,
    "ĸĵ": 773,
    "ĲĦ": 774,
    "įĨ": 775,
    "ĭĻ": 776,
    "ņŕ": 777,
    "ĥĴ": 778,
    "ŅřņŞ": 779,
    "ģĽ": 780,
    "ļĢ": 781,
    "ĸı": 782,
    "œŚĖ": 783,
    "ŞŕĒ": 784,
    "ņşĮĠŬ": 785,
    "Įľ": 786,
    "Ĥı": 787,
    "įĸĹŝŞ": 788,
    "ĭĤŰ": 789,
    "œő": 790,
    "ĢĦŬ": 791,
    "įĿŜ": 792,
    "ŝş": 793,
    "ĈĠŬ": 794,
    "ŗş": 795,
    "įĽŬ": 796,
    "ĘĸŗĐ": 797,
    "Ĺģ": 798,
    "ņŅš": 799,
    "œłš": 800,
    "ŀĖ": 801,
    "Įĥ": 802,
    "ĸĵŖĐ": 803,
    "ŜŒ": 804,
    "ĤŚőņĖ": 805,
    "ĻĹņŘ": 806,
    "šħĢŰ": 807,
    "Ĥī": 808,
    "œœ": 809,
    "ĪĢ": 810,
    "ĒŚ": 811,
    "Ĥŗł": 812,
    "ŗŞņĖ": 813,
    "Ňœ": 814,
    "ŝř": 815,
    "Ħŗł": 816,
    "ŦŞĤŮ": 817,
    "Ģħ": 818,
    "Ēź": 819,
    "őŕĒ": 820,
    "ĳŝŞ": 821,
    "Ĩĥ": 822,
    "ĥĤŚĐ": 823,
    "ĲīŬ": 824,
    "šĦ": 825,
    "ĠĩĒ": 826,
    "Ķħĸĸ": 827,
    "ĵĺ": 828,
    "ŀŅ": 829,
    "ış": 830,
    "ĲĻ": 831,
    "ŗłŗĖ": 832,
    "ĭĹ": 833,
    "ŔşŀĖ": 834,
    "Ēſ": 835,
    "ĬīŬ": 836,
    "ĨĺĤŰ": 837,
    "ĺĹ": 838,
    "ĤļĩŰ": 839,
    "ĭĢŬ": 840,
    "Ġħ": 841,
    "ĵīŬ": 842,
    "ĸĸœń": 843,
    "Įĸ": 844,
    "ĵīľŰ": 845,
    "ħśńŚĖ": 846,
    "Őř": 847,
    "ĸĹŝŞ": 848,
    "ģĻ": 849,
    "ĤĠĸŰ": 850,
    "ĵīľ": 851,
    "ĩľņĐ": 852,
    "ĩħĿŰ": 853,
    "ŀŃ": 854,
    "ħġľŰ": 855,
    "įīŬ": 856,
    "Ŀŀń": 857,
    "ŝŒ": 858,
    "ņŕŀ": 859,
    "Ġĸ": 860,
    "ĠĵĒ": 861,
    "įĥľ": 862,
    "ģķŬ": 863,
    "ĪĿŀĐ": 864,
    "łŗ": 865,
    "łŚ": 866,
    "ĵĦĭĤ": 867,
    "įĠļ": 868,
    "Ĥľ": 869,
    "őŕ": 870,
    "ŝŔ": 871,
    "ĒŁĠĽŬ": 872,
    "ĭģľ": 873,
    "Łłš": 874,
    "ŞŉĒ": 875,
    "ĨĠŬĤŚŕĒ": 876,
    "Ĥĵ": 877,
    "Ĩĩ": 878,
    "Ēż": 879,
    "Ĭħ": 880,
    "őś": 881,
    "ķīŬ": 882,
    "ŕř": 883,
    "šĹĭģĒ": 884,
    "ĥģĒ": 885,
    "ŅĖ": 886,
    "ŗńĤŮ": 887,
    "Ġľ": 888,
    "ĵŀŕĒ": 889,
    "īĿ": 890,
    "ĬĬ": 891,
    "ŜŅ": 892,
    "ĲŋĐ": 893,
    "ņŞĠĺŬ": 894,
    "Ņœ": 895,
    "Ňő": 896,
    "ĥĿŜ": 897,
    "Őş": 898,
    "ĒŜ": 899,
    "ņœĳŮ": 900,
    "Śő": 901,
    "œĳīŬ": 902,
    "ŗŝ": 903,
    "Ŀĥ": 904,
    "ŔřĳŮ": 905,
    "Şœš": 906,
    "īľĵĒ": 907,
    "ıŀĐ": 908,
    "ġĪŰņŘŗĖ": 909,
    "ĲŮĭľŖĐ": 910,
    "ŐŅ": 911,
    "œş": 912,
    "ĳŗĐ": 913,
    "ĭĩ": 914,
    "ĨġĢ": 915,
    "Ġĥ": 916,
    "šģ": 917,
    "šĨ": 918,
    "įĨŰ": 919,
    "Śŕ": 920,
    "ŗř": 921,
    "šĺĤıņĐ": 922,
    "ŅĐ": 923,
    "ļļ": 924,
    "ŇŒ": 925,
    "ŕń": 926,
    "ŗŇ": 927,
    "ģĠ": 928,
    "śŘšĺĤĵĒ": 929,
    "ŐŃ": 930,
    "ŕő": 931,
    "ķīľ": 932,
    "ĩĹ": 933,
    "ņœĳ": 934,
    "Ĳľ": 935,
    "Łņ": 936,
    "ļģĽ": 937,
    "ıŖ": 938,
    "ĭĥ": 939,
    "ŁŕĒ": 940,
    "ĭĴĒ": 941,
    "ĴĺŬ": 942,
    "ĒŇœŅš": 943,
    "őŚ": 944,
    "ŜŗĖ": 945,
    "ŇŔ": 946,
    "ĥľĒńŚœš": 947,
    "ļŋĐ": 948,
    "ĹĤ": 949,
    "ĠĪŬ": 950,
    "ńŕŀ": 951,
    "ġĹľ": 952,
    "ńŕĒ": 953,
    "ĠļŬ": 954,
    "ħġľ": 955,
    "ņŕŀĖ": 956,
    "ĒńŚŗĵŮ": 957,
    "Ŗŗ": 958,
    "ļĿ": 959,
    "Ĥįľ": 960,
    "įĥ": 961,
    "ĩġ": 962,
    "ĵķŬ": 963,
    "őşş": 964,
    "őŀĖ": 965,
    "ľŰ": 966,
    "įĵĒ": 967,
    "ŕŀœš": 968,
    "śŞĒłĩīŬ": 969,
    "śłĩŮ": 970,
    "ŖŅ": 971,
    "ņŃ": 972,
    "ĹŜń": 973,
    "ŅşĵĦŬ": 974,
    "ġĵ": 975,
    "ħĿŰ": 976,
    "ļĥ": 977,
    "ĩĢŁĐ": 978,
    "Ĭģ": 979,
    "ĺĵŀ": 980,
    "ŀĐ": 981,
    "Łŗ": 982,
    "įŮĸĸŗĐ": 983,
    "Ķŀş": 984,
    "ĥŜ": 985,
    "ŗŘĵŮ": 986,
    "ĢĢ": 987,
    "šįŬ": 988,
    "œŔĒ": 989,
    "ĭģĽ": 990,
    "ĭĤśşŜĖ": 991,
    "šĺĤĵ": 992,
    "ĮģŬ": 993,
    "ĢŗŃ": 994,
    "Įĩ": 995,
    "Ňŕ": 996,
    "ĤŚŕ": 997,
    "ĒŠ": 998,
    "įı": 999,
    "ĮĻĢ": 1000,
    "ņœš": 1001,
    "ĤĵŀĐ": 1002,
    "ĬīĢĤ": 1003,
    "ĒłĩįĸŰ": 1004,
    "Ķī": 1005,
    "ĵĢ": 1006,
    "őœš": 1007,
    "ĹŜĐņŞĤŮ": 1008,
    "ŕł": 1009,
    "şįĩŬ": 1010,
    "œŉ": 1011,
    "šĝ": 1012,
    "şŕ": 1013,
    "ŚřŁĖ": 1014,
    "ĮĿ": 1015,
    "Ļĵ": 1016,
    "ŝő": 1017,
    "Łœš": 1018,
    "ģņĐ": 1019,
    "ŝŗ": 1020,
    "šď": 1021,
    "ŚĸŮ": 1022,
    "ĳġġŰ": 1023,
    "ĶŮ": 1024,
    "łŕ": 1025,
    "łĐ": 1026,
    "ĻŰ": 1027,
    "ĤŚŕĒŅ": 1028,
    "ĭĲ": 1029,
    "ĤļĿŰ": 1030,
    "Ňŗ": 1031,
    "şŒ": 1032,
    "Şŉ": 1033,
    "Ĥħ": 1034,
    "ŔĸŮ": 1035,
    "ħļģĽ": 1036,
    "ıī": 1037,
    "ĦīŬ": 1038,
    "ĒŃĒ": 1039,
    "ıŀń": 1040,
    "śŗŚ": 1041,
    "ĤĪŬĤŝĐ": 1042,
    "Ňś": 1043,
    "ŝŕ": 1044,
    "ļĹ": 1045,
    "Ŕœ": 1046,
    "ĭĪŬ": 1047,
    "šĺĤĵĒŃ": 1048,
    "ĪĿ": 1049,
    "ħŰ": 1050,
    "ĸĵŀ": 1051,
    "ĬĵŰ": 1052,
    "ıġ": 1053,
    "ĤĹŁĐ": 1054,
    "ĠĬ": 1055,
    "šļĩ": 1056,
    "Ēłĩī": 1057,
    "Ŀģ": 1058,
    "ıŮ": 1059,
    "ġı": 1060,
    "Śń": 1061,
    "ġĲ": 1062,
    "ŒŋĖ": 1063,
    "ŗŔĒŗ": 1064,
    "ŕŅ": 1065,
    "Őŗ": 1066,
    "ŕŕĒ": 1067,
    "Őŏš": 1068,
    "ľĿşĐ": 1069,
    "ġĵŜń": 1070,
    "ĒŦ": 1071,
    "ĪĢŝŝ": 1072,
    "ĭĺ": 1073,
    "įŰ": 1074,
    "ŐŚ": 1075,
    "ĶŀşşĖ": 1076,
    "Īĥ": 1077,
    "œŗĖ": 1078,
    "ħŗłŗĖ": 1079,
    "ĢĿ": 1080,
    "šĢ": 1081,
    "ńœĳ": 1082,
    "šč": 1083,
    "ĳŚ": 1084,
    "Ĩľ": 1085,
    "Ġŀş": 1086,
    "ņŏš": 1087,
    "ıŞŜ": 1088,
    "łő": 1089,
    "ŕĤŮ": 1090,
    "ĒşŔĖĵĦĩŰ": 1091,
    "ĒřħŮĸĸŗĐ": 1092,
    "ĵĒşŔĖ": 1093,
    "ĵġ": 1094,
    "ıħ": 1095,
    "ĠķŬ": 1096,
    "ŕœ": 1097,
    "ŗłŁĖ": 1098,
    "įĵŰ": 1099,
    "ķī": 1100,
    "ĭĦ": 1101,
    "ĨĺŬ": 1102,
    "ĩĠ": 1103,
    "ĤĶ": 1104,
    "şŜĖ": 1105,
    "Ŕŗ": 1106,
    "œŗ": 1107,
    "ģĒŇ": 1108,
    "ŝœ": 1109,
    "Ģĵ": 1110,
    "ĨīĿŰ": 1111,
    "ĸśŃĒ": 1112,
    "ŗńĲŮ": 1113,
    "łŕŀ": 1114,
    "ĩīľŰ": 1115,
    "ıļģ": 1116,
    "įĭĩŰ": 1117,
    "ĶīľĵĒ": 1118,
    "ıľ": 1119,
    "ĻĵŀŕĒ": 1120,
    "őĐ": 1121,
    "ŚşĲŮ": 1122,
    "Ŕłŝś": 1123,
    "Įġ": 1124,
    "ŔŐ": 1125,
    "ĳīŬ": 1126,
    "ıīľ": 1127,
    "Ĵģ": 1128,
    "œńśřįŮ": 1129,
    "ĿĠ": 1130,
    "ĒŅš": 1131,
    "įľĤ": 1132,
    "ŗŎ": 1133,
    "űř": 1134,
    "œŒš": 1135,
    "ĩĦ": 1136,
    "ŖŃ": 1137,
    "ĮĠĿŰ": 1138,
    "ŗĳŮ": 1139,
    "œłĨġĢŰ": 1140,
    "ĢŮ": 1141,
    "Įı": 1142,
    "ĵħĢķ": 1143,
    "ŕŜłš": 1144,
    "ĲīĨŰ": 1145,
    "ļŰ": 1146,
    "Ňņ": 1147,
    "ĸĸŗł": 1148,
    "őŞş": 1149,
    "şŀł": 1150,
    "ĸĿĒńŚœš": 1151,
    "Ĭī": 1152,
    "ĩĨ": 1153,
    "ġĹĤ": 1154,
    "ŐŉĒ": 1155,
    "ļĵ": 1156,
    "łĖ": 1157,
    "ħĢŰņŘŗĖ": 1158,
    "ħĺ": 1159,
    "ŗň": 1160,
    "ŞŔĒ": 1161,
    "Ĥĩ": 1162,
    "ŁŕŖĖ": 1163,
    "ŁĠĽŬ": 1164,
    "ŜŅš": 1165,
    "ĒőŁĖ": 1166,
    "ĭĹŜ": 1167,
    "ŔńĮģŬ": 1168,
    "řĖ": 1169,
    "ŀřĬŮ": 1170,
    "ŇŗŚ": 1171,
    "Ēĺ": 1172,
    "ĠħĢ": 1173,
    "ĵŁń": 1174,
    "ĤŮģĶ": 1175,
    "řħŮĸĸŗĐ": 1176,
    "ĠĺĥĿŜĐ": 1177,
    "Ņŕŀœš": 1178,
    "ŗŁ": 1179,
    "Ĵľ": 1180,
    "ĵĦĩĢ": 1181,
    "ħŚř": 1182,
    "ģĥŜ": 1183,
    "šġĪŰņŘŗĖ": 1184,
    "śŐ": 1185,
    "ĥĻ": 1186,
    "ļĵŀ": 1187,
    "śŖ": 1188,
    "ŅœĳīŬ": 1189,
    "őĖ": 1190,
    "űş": 1191,
    "ĲŮĥľ": 1192,
    "ĦĥģĒ": 1193,
    "šĹĥĤŚĐ": 1194,
    "ņşĒłĩīŬ": 1195,
    "ĒŖŝń": 1196,
    "Ĥŗ": 1197,
    "ņřŝŘ": 1198,
    "ŁœĥŮ": 1199,
    "Ňŀ": 1200,
    "ģĳ": 1201,
    "Łŀ": 1202,
    "ĳķŬ": 1203,
    "ŝŅŕŞ": 1204,
    "ĩĴĒńŝĖ": 1205,
    "Ľĥ": 1206,
    "łŀ": 1207,
    "ŃŃ": 1208,
    "ĵŀŃĒ": 1209,
    "ĪĿŀ": 1210,
    "ĨĺĵŰ": 1211,
    "ŗŒšĺģŰ": 1212,
    "Šř": 1213,
    "Ņŕ": 1214,
    "ŗŘš": 1215,
    "ĩŰŝŖ": 1216,
    "ĮĩĒ": 1217,
    "ļĩģ": 1218,
    "Ēŧ": 1219,
    "ĠĴĒ": 1220,
    "ĀŮ": 1221,
    "ŐĮļŬ": 1222,
    "ħĨ": 1223,
    "ĒŰ": 1224,
    "Ŀĳ": 1225,
    "įĸĵŖĐ": 1226,
    "ŃŅ": 1227,
    "ņŉ": 1228,
    "ąľ": 1229,
    "řŁĖ": 1230,
    "ĴĽŬ": 1231,
    "ŐĮļ": 1232,
    "ĥīĨŰ": 1233,
    "ĲŮģĶ": 1234,
    "Ŗő": 1235,
    "ģĿ": 1236,
    "ŞŅ": 1237,
    "ĵĻľ": 1238,
    "Ġķ": 1239,
    "šī": 1240,
    "İĻ": 1241,
    "ĥĽŬ": 1242,
    "įĿĤ": 1243,
    "ıņřŝŘ": 1244,
    "ĲŮĸĸŗĐ": 1245,
    "ĒŶ": 1246,
    "šă": 1247,
    "ĳĻ": 1248,
    "ņřšĺĤĵĒ": 1249,
    "įīĨŰ": 1250,
    "ġĢķ": 1251,
    "ŕĒŗ": 1252,
    "ŚœĳŮ": 1253,
    "ŚőŖĖ": 1254,
    "ħĸŰ": 1255,
    "įįĻ": 1256,
    "Ĭĩ": 1257,
    "Ĭġ": 1258,
    "őŜĖ": 1259,
    "ĽœŞ": 1260,
    "ĤķŬ": 1261,
    "ĨĭŬ": 1262,
    "ĵĒńŚœš": 1263,
    "ģĤ": 1264,
    "őŅ": 1265,
    "ĥīŬ": 1266,
    "œřŜ": 1267,
    "ķīľŰ": 1268,
    "ĥħĢķ": 1269,
    "ŗŔĒłĮŮ": 1270,
    "ĢĥŬ": 1271,
    "ħī": 1272,
    "ĂĦ": 1273,
    "ĵĹ": 1274,
    "ĲĽŬ": 1275,
    "ŇŃĒ": 1276,
    "şŀĖ": 1277,
    "ĤŚŕŀĖ": 1278,
    "ĹŜŗĒłĩīŬ": 1279,
    "ĒőŜŒ": 1280,
    "ŗŔĒŔĸŮ": 1281,
    "ŻŘ": 1282,
    "šĭ": 1283,
    "ŇœŅš": 1284,
    "ĨĩĤ": 1285,
    "ĳŚĐ": 1286,
    "ſş": 1287,
    "ĵĒŃ": 1288,
    "œœř": 1289,
    "Ĺļ": 1290,
    "Ŝœš": 1291,
    "œńŗĖ": 1292,
    "įľŰ": 1293,
    "ŖœĥŮ": 1294,
    "ġĹĢ": 1295,
    "ĨĠīŰņŘŗĖ": 1296,
    "ŻŞ": 1297,
    "ıŜń": 1298,
    "ĒńŚœšĽ": 1299,
    "ĒşŜĖ": 1300,
    "ĤĪŬĤŚŕĒ": 1301,
    "ĿĹŝŞ": 1302,
    "ĹĭģĒ": 1303,
    "ņŘœłš": 1304,
    "łŅ": 1305,
    "śńŋĖ": 1306,
    "śŕŁĖ": 1307,
    "ĸĩ": 1308,
    "ĎĠŬ": 1309,
    "Ġŗł": 1310,
    "ĵġŬĤŚŕĒ": 1311,
    "Ĳħģľ": 1312,
    "ĩįĨŰ": 1313,
    "ĸĥ": 1314,
    "Őł": 1315,
    "ņŘœł": 1316,
    "œĳĽŬ": 1317,
    "łŜœ": 1318,
    "řŜĖĵĦĩŰ": 1319,
    "ĨľĿşĐ": 1320,
    "łņ": 1321,
    "Őń": 1322,
    "ŢĩīŬ": 1323,
    "ĵġľ": 1324,
    "řĳŮ": 1325,
    "ĥľŕĐņŞĤŮ": 1326,
    "ĨļŬ": 1327,
    "Ňŝ": 1328,
    "ďĿ": 1329,
    "Ēš": 1330,
    "ĹņĐ": 1331,
    "Őő": 1332,
    "ĭĩĒ": 1333,
    "ŗŔĒłĩīŬ": 1334,
    "Ĵĭ": 1335,
    "Ĵħ": 1336,
    "őŝ": 1337,
    "šĽŬ": 1338,
    "ĻĿĤ": 1339,
    "Ġĭħ": 1340,
    "ņřŜő": 1341,
    "Łő": 1342,
    "ĭĤŗĐ": 1343,
    "ĿŰœŞŖĖ": 1344,
    "ĩĴĒŒŋĖ": 1345,
    "ĠĤ": 1346,
    "Ĵŗł": 1347,
    "řĳĺ": 1348,
    "ŗœįŮ": 1349,
    "ĒŤŚœš": 1350,
    "űŘ": 1351,
    "ĵŊ": 1352,
    "ŀœš": 1353,
    "őŀł": 1354,
    "ıņřŝŘš": 1355,
    "šĚĤĵĒ": 1356,
    "šń": 1357,
    "şŝ": 1358,
    "śĐ": 1359,
    "Ňş": 1360,
    "şŕĒ": 1361,
    "ĩŰņŘŗĖ": 1362,
    "įĢĤ": 1363,
    "śŘĦŮĸĸŗĐ": 1364,
    "ĵĻ": 1365,
    "œĳħ": 1366,
    "ĤĪ": 1367,
    "šł": 1368,
    "ſŗ": 1369,
    "ďĸ": 1370,
    "ĨįĢŰ": 1371,
    "śœŚĖ": 1372,
    "ĤĪŬĲŋĐ": 1373,
    "šČ": 1374,
    "šĚ": 1375,
    "œŖ": 1376,
    "ŐŕŀĖ": 1377,
    "ĤĹŬ": 1378,
    "ģġ": 1379,
    "Ĵĩ": 1380,
    "ŗĐņŞĤŮ": 1381,
    "ŖŕŖĖ": 1382,
    "ıŞř": 1383,
    "ĩıŀ": 1384,
    "ĒŢĩīŬ": 1385,
    "Ňř": 1386,
    "ĤŮĸĸŗĐ": 1387,
    "œŝŘ": 1388,
    "ıŋĐ": 1389,
    "ņŞĤļŬ": 1390,
    "ģīľŰ": 1391,
    "ŀřŜő": 1392,
    "įįĸ": 1393,
    "ņşįĩŬ": 1394,
    "ĩħįĸ": 1395,
    "ĥĤŋĐ": 1396,
    "Şń": 1397,
    "īļ": 1398,
    "ĵœł": 1399,
    "ĵŀř": 1400,
    "ĲŮĭŰ": 1401,
    "ŤŚœš": 1402,
    "ıņŕŖĖ": 1403,
    "šć": 1404,
    "Őŉ": 1405,
    "ĭĶ": 1406,
    "śłĸŮ": 1407,
    "ĸĵŀĐ": 1408,
    "ŗŔĒşįŮ": 1409,
    "ŕĒłĩīŬ": 1410,
    "ĮĸĩĢ": 1411,
    "Ŗń": 1412,
    "ņŇ": 1413,
    "ŞŒš": 1414,
    "ĒřŁĖ": 1415,
    "ĨĵŖĐ": 1416,
    "œńśř": 1417,
    "ĠŞő": 1418,
    "şŃ": 1419,
    "ŁĖĠĠĨŰ": 1420,
    "ŗŕŜĖ": 1421,
    "ĨĸĵŀĐ": 1422,
    "ġġ": 1423,
    "Ŕŕ": 1424,
    "ĭĽŬ": 1425,
    "ŜŒš": 1426,
    "ĮĻīĸ": 1427,
    "įįĠŰ": 1428,
    "ĥĦŗĐ": 1429,
    "ŁĨĺĤŰ": 1430,
    "ņŁ": 1431,
    "ĕĦ": 1432,
    "ĩĶ": 1433,
    "ŀŏš": 1434,
    "ĸļ": 1435,
    "ŞŒ": 1436,
    "ġľĤ": 1437,
    "ĥĵŁĐ": 1438,
    "ĥĳŚĐ": 1439,
    "ļŖĐ": 1440,
    "ĮĺŬ": 1441,
    "ĒœŝŘ": 1442,
    "ıņŕĒ": 1443,
    "ŚŗĥŮ": 1444,
    "œšĺĤĵĒ": 1445,
    "ĻĸśœŚĖ": 1446,
    "ŗįŮ": 1447,
    "īľĹ": 1448,
    "ĨĹŜŗ": 1449,
    "ņŃĳ": 1450,
    "ŁĤļĩŰ": 1451,
    "ĠĴ": 1452,
    "ĨĿ": 1453,
    "Şŏ": 1454,
    "ŗĖĵĦĩŰ": 1455,
    "įĠĹ": 1456,
    "ĬĬĩĢ": 1457,
    "ĮĪ": 1458,
    "ŜŃ": 1459,
    "ņŚ": 1460,
    "ŇŅš": 1461,
    "īľģĒ": 1462,
    "ĤŚŕĒł": 1463,
    "ġĹķ": 1464,
    "ĠĺĩŰ": 1465,
    "ģľŕĐ": 1466,
    "ńŕŀĖ": 1467,
    "ŗŅĵŮ": 1468,
    "œŝś": 1469,
    "ĸĥŀ": 1470,
    "ĹĩĢŗĐ": 1471,
    "ŕŃ": 1472,
    "ıĺ": 1473,
    "ĒńĤ": 1474,
    "ĠļĵŰ": 1475,
    "ĠĢĠŰ": 1476,
    "ģĥŕŘ": 1477,
    "ĵĒńŝĖ": 1478,
    "ĤīĢŰ": 1479,
    "ĺĵĒ": 1480,
    "ĤŮĥľ": 1481,
    "ŕŀş": 1482,
    "ŕŀŅš": 1483,
    "ĩĺŬ": 1484,
    "įĸĤ": 1485,
    "řŜł": 1486,
    "ĸĩĒ": 1487,
    "įĿģ": 1488,
    "ĮĻĸŰ": 1489,
    "ńœš": 1490,
    "ĵŮĸĸŗĐ": 1491,
    "ŝŝł": 1492,
    "ĭĢĵŰ": 1493,
    "ĲŇń": 1494,
    "ŗĭŮ": 1495,
    "ĨĸĩŰ": 1496,
    "œŜŞĖ": 1497,
    "ſř": 1498,
    "ĹĽ": 1499,
    "ŗŖ": 1500,
    "ŕœš": 1501,
    "Ŗœš": 1502,
    "ĤŮĭľŖĐ": 1503,
    "œŚĭŮ": 1504,
    "ŅŘśŕ": 1505,
    "ĦĦĸŰ": 1506,
    "ĶĦĥĳŚĐ": 1507,
    "ğĤ": 1508,
    "Ĩī": 1509,
    "Ķśł": 1510,
    "ŕĮĠ": 1511,
    "ĮĠīŰ": 1512,
    "ņřŝŘš": 1513,
    "ĿĵĒ": 1514,
    "ĸĹŜŗ": 1515,
    "ĤıŖĐ": 1516,
    "ŖŅš": 1517,
    "śńŁĖ": 1518,
    "ŝŞŕĖ": 1519,
    "ģņł": 1520,
    "śőŜĖ": 1521,
    "ĸœŔĒ": 1522,
    "Šş": 1523,
    "ĨŮ": 1524,
    "űŞ": 1525,
    "ŖŃĒ": 1526,
    "ŝŞŗĖ": 1527,
    "ņŉĒ": 1528,
    "őőł": 1529,
    "ĳĽ": 1530,
    "ĩķ": 1531,
    "īĥ": 1532,
    "įĢĹ": 1533,
    "ĠĵŖĐ": 1534,
    "œłŋĖ": 1535,
    "ĵŜŔ": 1536,
    "įįĤ": 1537,
    "őőŝ": 1538,
    "ļĿŀń": 1539,
    "ĥĿŜŃĒ": 1540,
    "œŐ": 1541,
    "ĴĬ": 1542,
    "ŁĐœŘĥŮ": 1543,
    "šįĿŰ": 1544,
    "śŗįŮ": 1545,
    "śņŗĖ": 1546,
    "ĹĥĤŚĐ": 1547,
    "ħŚřőŞ": 1548,
    "ĥı": 1549,
    "ŗŒšĬĵŰ": 1550,
    "ŗŐ": 1551,
    "œłĤĪŬ": 1552,
    "ŝŅņĖ": 1553,
    "ŗŉĒ": 1554,
    "Ĳĺľ": 1555,
    "œŝŗĖ": 1556,
    "ĩĴĒńŚœš": 1557,
    "ĨĭĤŰ": 1558,
    "łŘ": 1559,
    "ĢĹ": 1560,
    "Ħļ": 1561,
    "ĤĺŬ": 1562,
    "ĿŇń": 1563,
    "Ķśœ": 1564,
    "ĤŝĐņŞĤŮ": 1565,
    "ĤĸĩĢ": 1566,
    "ĥŬ": 1567,
    "ńŕ": 1568,
    "Ŕşŀś": 1569,
    "łŜ": 1570,
    "ĺĵ": 1571,
    "łŃ": 1572,
    "šħĢ": 1573,
    "őŞŅ": 1574,
    "ģŝĐ": 1575,
    "ĭļŞĐ": 1576,
    "ĥĪ": 1577,
    "šĆ": 1578,
    "ųŃ": 1579,
    "ĨģĒ": 1580,
    "őŜł": 1581,
    "ıĒŃ": 1582,
    "ĨĩĤĤ": 1583,
    "šĜ": 1584,
    "Īĵ": 1585,
    "ŞŃ": 1586,
    "őşĖ": 1587,
    "ĒŁĨĺĤŰ": 1588,
    "śŘĦ": 1589,
    "ĭĤņ": 1590,
    "Ġŀŕ": 1591,
    "įġĸŰ": 1592,
    "ĤĽĸŰ": 1593,
    "ĒŞĨĽŬ": 1594,
    "ĒřŜĖĵĦĩŰ": 1595,
    "šœ": 1596,
    "Įĭ": 1597,
    "Ēŗš": 1598,
    "ŕŜŒ": 1599,
    "ĠĠĨŰņŘŗĖ": 1600,
    "ĺĵŀĐ": 1601,
    "ĩŰœŞŖĖ": 1602,
    "Įģļ": 1603,
    "ŝņŗń": 1604,
    "ĥıŜĐ": 1605,
    "ħħľ": 1606,
    "ĳģ": 1607,
    "Űş": 1608,
    "ĩŰśŞ": 1609,
    "ļĠ": 1610,
    "řįŮ": 1611,
    "ĭīĨŰ": 1612,
    "ŀœĥŮ": 1613,
    "ģĥņĐ": 1614,
    "ŖşįĩŬ": 1615,
    "ĠģĤ": 1616,
    "şŕŜł": 1617,
    "ŞŔ": 1618,
    "ĭĪ": 1619,
    "şĲŮ": 1620,
    "œĲŮ": 1621,
    "ģľŗĐ": 1622,
    "śŞŕĖĵĦĩŰ": 1623,
    "šĨģĢ": 1624,
    "šĂ": 1625,
    "Ņő": 1626,
    "Ģī": 1627,
    "Őŏ": 1628,
    "őŃ": 1629,
    "ŀś": 1630,
    "Ġœł": 1631,
    "ĩĴĒő": 1632,
    "įġĵĒ": 1633,
    "ĳŝŝ": 1634,
    "ļı": 1635,
    "ĹĴ": 1636,
    "ĤĪŬĹŜĐ": 1637,
    "ŕşŔ": 1638,
    "œįĺŬ": 1639,
    "ĦĦŬ": 1640,
    "ſő": 1641,
    "Łś": 1642,
    "īĹ": 1643,
    "ŖŕĒ": 1644,
    "ŞŕŖĖ": 1645,
    "ĸĿŀ": 1646,
    "ŗőŀ": 1647,
    "ĨĵŀĐ": 1648,
    "šĺģŰņŘŗĖ": 1649,
    "ŖŀřĬŮ": 1650,
    "Ħħ": 1651,
    "ľŝń": 1652,
    "ĨĺĿŰ": 1653,
    "ļĥĤ": 1654,
    "įġŰ": 1655,
    "ĠģŬ": 1656,
    "ĳį": 1657,
    "łœĳ": 1658,
    "ĭĢŋĐ": 1659,
    "ĒőņĖ": 1660,
    "ŗĳĺ": 1661,
    "šĹĤĹ": 1662,
    "śŀĤŮ": 1663,
    "œłĨġĢ": 1664,
    "ŔŚ": 1665,
    "ŁŅš": 1666,
    "īĭĢ": 1667,
    "ŀń": 1668,
    "ųŅ": 1669,
    "œłĤŮ": 1670,
    "Şŝł": 1671,
    "ľľĿ": 1672,
    "ĭĽŗĐ": 1673,
    "ŀŅĵŮ": 1674,
    "ĥĿ": 1675,
    "ĠļĩŰ": 1676,
    "ŇŞŖĖ": 1677,
    "ĹĠ": 1678,
    "ĒłĩīŬģ": 1679,
    "ńœĥŮ": 1680,
    "ĲġŬ": 1681,
    "ĮĵŀĐ": 1682,
    "ŕĒłĮŮ": 1683,
    "ĲĦŬ": 1684,
    "ŔĐ": 1685,
    "şŅ": 1686,
    "ĥġ": 1687,
    "ĠĻ": 1688,
    "ķŗĐ": 1689,
    "ŀşįĩŬ": 1690,
    "ńœĳŮ": 1691,
    "ĩģņĐ": 1692,
    "ŀŞŗ": 1693,
    "ŇśłĩŮ": 1694,
    "ŐĳġġŰ": 1695,
    "śşŜŅš": 1696,
    "Ŀı": 1697,
    "Łŝ": 1698,
    "ĲŗĐ": 1699,
    "ĶĠŬ": 1700,
    "īĢĴ": 1701,
    "ĤįĿ": 1702,
    "įħĢķ": 1703,
    "ĒŐĮļŬ": 1704,
    "ĮĹĢŰ": 1705,
    "ŐŅņĖ": 1706,
    "řş": 1707,
    "ģīŬ": 1708,
    "Ĩĵŀ": 1709,
    "ĒŗĲŮ": 1710,
    "ıŞŃ": 1711,
    "ĤŮĸĿ": 1712,
    "įĺĩĢ": 1713,
    "ŗŒšĺĤĵĒ": 1714,
    "ĵħģľŁĐ": 1715,
    "ģĻĸŰ": 1716,
    "ĠĸĩŰ": 1717,
    "ŐŜŗĖ": 1718,
    "ŅŘśŕĩŮ": 1719,
    "ńŗ": 1720,
    "ŔŖ": 1721,
    "āı": 1722,
    "ņŕĒ": 1723,
    "ĨĪŬ": 1724,
    "ģľĒńŚœš": 1725,
    "įĸĵĒ": 1726,
    "ĺĵŖĐ": 1727,
    "ŜŗĭŮ": 1728,
    "ĥĳœŜ": 1729,
    "ĩĴĒřŜĖ": 1730,
    "ĢĻ": 1731,
    "ıļ": 1732,
    "ĥľŗĐ": 1733,
    "ŕœń": 1734,
    "ĥīľ": 1735,
    "ńŕŖĖ": 1736,
    "ĠħĢŰ": 1737,
    "ĥĵ": 1738,
    "šĈ": 1739,
    "ņĭ": 1740,
    "Ĺĳ": 1741,
    "Āģ": 1742,
    "įĿŀ": 1743,
    "ġĢŰņŘŗĖ": 1744,
    "ĒŇŚş": 1745,
    "ģĒşŔĖ": 1746,
    "œŚĭķŬ": 1747,
    "ĲĦĥ": 1748,
    "œšĺģŰ": 1749,
    "įĿŜŃ": 1750,
    "šř": 1751,
    "ģĴ": 1752,
    "ĩŰņş": 1753,
    "ĭĢŗĐ": 1754,
    "Łłĳ": 1755,
    "ŁĖĮĨŬ": 1756,
    "įĺĿŰ": 1757,
    "ĿŜŕĒ": 1758,
    "őőŞĖ": 1759,
    "şįŮĸĸŗĐ": 1760,
    "ģņ": 1761,
    "ńĤ": 1762,
    "Īı": 1763,
    "Űř": 1764,
    "ĴŮ": 1765,
    "ŁŃĒ": 1766,
    "Ŗŕŀ": 1767,
    "ĢĺŬ": 1768,
    "ĠĭĤ": 1769,
    "ħĢĤ": 1770,
    "őşœš": 1771,
    "ŞœĥŮ": 1772,
    "ŀŃņĖ": 1773,
    "ġĲŗł": 1774,
    "ņşĮĠĿŰ": 1775,
    "ĴĪ": 1776,
    "ġĥ": 1777,
    "ġıŜ": 1778,
    "ĵħġ": 1779,
    "ļĩĳ": 1780,
    "ĲġĢŰ": 1781,
    "ĥīľŰ": 1782,
    "ŕŞŚ": 1783,
    "ĒŕĮĠ": 1784,
    "ĒłĮŮĸĸŗĐ": 1785,
    "ĒşįŮĸĸŗĐ": 1786,
    "Ģġġ": 1787,
    "ŔřŀŅĵŮ": 1788,
    "ĸħ": 1789,
    "ıĦ": 1790,
    "ĀĢ": 1791,
    "źř": 1792,
    "žş": 1793,
    "ĨĵĒ": 1794,
    "ĨĩĢ": 1795,
    "ŝŘĤŮ": 1796,
    "œńĸŮ": 1797,
    "ĮĠĩŰ": 1798,
    "œńŗŒš": 1799,
    "ŝŘĦŮ": 1800,
    "ıņń": 1801,
    "ħœŃ": 1802,
    "őşŜł": 1803,
    "ģņő": 1804,
    "őŞŚĸŮ": 1805,
    "ŅŞĨĭĤŰ": 1806,
    "Ÿŗ": 1807,
    "ģķ": 1808,
    "ĸģ": 1809,
    "šŕ": 1810,
    "ĩĵ": 1811,
    "ųĐ": 1812,
    "ŀŀř": 1813,
    "ŗŗĳ": 1814,
    "ĨįŬ": 1815,
    "śœĲŮ": 1816,
    "ŖŕŀĖ": 1817,
    "ĨįĠŰ": 1818,
    "ĩĻ": 1819,
    "ĮĵĒ": 1820,
    "œłŗĖ": 1821,
    "ĭĢŖĐ": 1822,
    "ĮļŗĐ": 1823,
    "ŗŃņĖ": 1824,
    "ĠģĩŰ": 1825,
    "ĠĽĸŰ": 1826,
    "śőŞĖ": 1827,
    "ĒřŜł": 1828,
    "śĤĠĸŰ": 1829,
    "ŗřŀĖ": 1830,
    "ĪĿŀŝ": 1831,
    "œŁ": 1832,
    "ĨĬ": 1833,
    "įľĵĒ": 1834,
    "ŗŏš": 1835,
    "ĴļŬ": 1836,
    "ĒŇśłĩŮ": 1837,
    "ĤħľŰ": 1838,
    "ġĹļŖĐ": 1839,
    "čĥ": 1840,
    "ıĽŬ": 1841,
    "ĭģņĐ": 1842,
    "įĿşŀ": 1843,
    "őŀŒ": 1844,
    "œŉĒ": 1845,
    "ŁşĮĠŬ": 1846,
    "Ēœŝś": 1847,
    "ĢġġĠ": 1848,
    "ıŞŜŋĖ": 1849,
    "ĢġĢĤ": 1850,
    "ĩĹŀĐ": 1851,
    "şŕŜłš": 1852,
    "śĖ": 1853,
    "ĳĺ": 1854,
    "Űń": 1855,
    "şœš": 1856,
    "ģĢŗĐ": 1857,
    "įľĢ": 1858,
    "ĩĩĒ": 1859,
    "ĩįĸŰ": 1860,
    "ĒŘśŅš": 1861,
    "ıŜŔĒłĩīŬ": 1862,
    "ĨĴ": 1863,
    "Şś": 1864,
    "œŇ": 1865,
    "śŞŗĖ": 1866,
    "ħŝł": 1867,
    "ĒřįŮ": 1868,
    "łśł": 1869,
    "Ķġľ": 1870,
    "ĒŒŋĖ": 1871,
    "ĴĠĨŰ": 1872,
    "ŝŇŜĖ": 1873,
    "ŁŘśņ": 1874,
    "ŕŘņĖ": 1875,
    "ĢĺĥĿŜĐ": 1876,
    "ĥķŚń": 1877,
    "ıġľĤ": 1878,
    "ĪĹŀŃņĖ": 1879,
    "ĮĬ": 1880,
    "źş": 1881,
    "ĤŚŕĒŐ": 1882,
    "őŜş": 1883,
    "ĲħĢķ": 1884,
    "įĪĩĢ": 1885,
    "šħĿŰ": 1886,
    "ŇŗŚĖ": 1887,
    "ĳŝŝł": 1888,
    "īĵ": 1889,
    "ŇĐ": 1890,
    "īĴ": 1891,
    "żŗ": 1892,
    "ĉīŬ": 1893,
    "ĴīŬ": 1894,
    "œńĤŮ": 1895,
    "ĭĤŗł": 1896,
    "ŝŘšĺĤĵĒ": 1897,
    "ĒşĲŮ": 1898,
    "ķīĨŰ": 1899,
    "ŗŝŐ": 1900,
    "ĥĤŁĐ": 1901,
    "ĭīĿŰ": 1902,
    "ĴśŃ": 1903,
    "įıŞĐ": 1904,
    "ıŔń": 1905,
    "ĩĦŗł": 1906,
    "œœřĖ": 1907,
    "įĠģŝĐ": 1908,
    "ıŞŃŝĖ": 1909,
    "ĸĸŗřŀĖ": 1910,
    "ĥŰ": 1911,
    "šĊ": 1912,
    "ćĢ": 1913,
    "ŕŕ": 1914,
    "ŐŜ": 1915,
    "ĝŬ": 1916,
    "ĭĤŗŔĒ": 1917,
    "ıŀł": 1918,
    "ĩįĺ": 1919,
    "ĭĹŜĐ": 1920,
    "Łńŀŗ": 1921,
    "ħĸģĒ": 1922,
    "ĵĦĩĹŀĐ": 1923,
    "šļ": 1924,
    "ĥĠ": 1925,
    "ĎĢ": 1926,
    "řř": 1927,
    "Ħī": 1928,
    "ĳįĢ": 1929,
    "ħĢĵĒ": 1930,
    "ĢīĨŰ": 1931,
    "Ņşŀ": 1932,
    "ĲŮĸĿ": 1933,
    "ĭļŁş": 1934,
    "ģĥļ": 1935,
    "ĿŜĐņŞĤŮ": 1936,
    "ĮĹŬ": 1937,
    "Ŕřĳģ": 1938,
    "ŇŜŖĖ": 1939,
    "ņŘŗş": 1940,
    "śŊ": 1941,
    "ŀŘ": 1942,
    "čŰ": 1943,
    "ĤŚş": 1944,
    "Ľŗł": 1945,
    "Ŗœĳ": 1946,
    "őŜő": 1947,
    "Ŗśń": 1948,
    "Śőń": 1949,
    "œřŜĖ": 1950,
    "ĴĽĸĢ": 1951,
    "ĩĵŜĐ": 1952,
    "ĹņŃĒ": 1953,
    "įĢĴĒńŚœš": 1954,
    "ĽŗŞņĖ": 1955,
    "őşŜŅ": 1956,
    "ĢĿņĐ": 1957,
    "ıįľĤ": 1958,
    "ēŚ": 1959,
    "ĸĵĒ": 1960,
    "ĒřņĖ": 1961,
    "ĶġŬ": 1962,
    "ĿŰŝŖ": 1963,
    "ġĢĵĒ": 1964,
    "ĿŔĐņŞ": 1965,
    "ŜşņĖ": 1966,
    "ĨļĿĤ": 1967,
    "ĮĺĤĵŀĐ": 1968,
    "ĵĹģŰ": 1969,
    "řœ": 1970,
    "śłĲŮ": 1971,
    "ŝŃĵŮ": 1972,
    "ıŀŕĒ": 1973,
    "ŁşŜĖ": 1974,
    "ĮĠĭļ": 1975,
    "ıőń": 1976,
    "ĒńŝĖĵĦĩŰ": 1977,
    "Ēŀŀř": 1978,
    "ĠĢĿĿ": 1979,
    "ĠĭħŰ": 1980,
    "ħġ": 1981,
    "ıŜř": 1982,
    "ĮĻľ": 1983,
    "ņŘŗńš": 1984,
    "ŁřŝŘš": 1985,
    "Ĩĭĭľ": 1986,
    "ĤŮĻıŁĐ": 1987,
    "šħĢŰņŘŗĖ": 1988,
    "ħġľŰņŘŗĖ": 1989,
    "šĺĤĵśł": 1990,
    "ŝŃĭĪŬ": 1991,
    "ĀĻĿĤ": 1992,
    "ħħľģņĐ": 1993,
    "ĲĦĥĠ": 1994,
    "ĦĻ": 1995,
    "œŏ": 1996,
    "šġ": 1997,
    "šş": 1998,
    "Şŝ": 1999,
    "Őœš": 2000,
    "œłŖĖ": 2001,
    "ĤŚŕĒŕ": 2002,
    "ĳīĨŰ": 2003,
    "őŀŏš": 2004,
    "ĒŘŗĖ": 2005,
    "Ņĵ": 2006,
    "ĨĨ": 2007,
    "ħľ": 2008,
    "ħĢĳ": 2009,
    "ŝłŗĖ": 2010,
    "ĠļĨŰ": 2011,
    "įķŬ": 2012,
    "œŘĥŮĸĸŗĐ": 2013,
    "ĲĺĩĢ": 2014,
    "ŕŞĵŮ": 2015,
    "įĵŁĐ": 2016,
    "ĴŗŃ": 2017,
    "ĭĽģŰ": 2018,
    "őŗĭŮ": 2019,
    "őłĨġĢŰ": 2020,
    "ŜřĵŮ": 2021,
    "ışŕĒ": 2022,
    "šĞ": 2023,
    "ņŏ": 2024,
    "ĪīŬ": 2025,
    "ņŘŗń": 2026,
    "śŞŕ": 2027,
    "ĿŜŗ": 2028,
    "ĬįĢ": 2029,
    "ĵŖĐņŞĤŮ": 2030,
    "įľĩĒ": 2031,
    "ĵīĿŰ": 2032,
    "śŃŚĖ": 2033,
    "įĿŜń": 2034,
    "ģĦŗł": 2035,
    "ĮĻĠĴĒ": 2036,
    "ŋœ": 2037,
    "Űŗ": 2038,
    "ŀŒ": 2039,
    "łŃĒ": 2040,
    "ĥľŕ": 2041,
    "ŕŀœ": 2042,
    "ĒŅĵ": 2043,
    "ŕŖĖĵġŬ": 2044,
    "ŗĐŝŐš": 2045,
    "ĴĢĨŰ": 2046,
    "ĮĥņĐ": 2047,
    "ŇŗńĤŮ": 2048,
    "ħĺĩĢ": 2049,
    "ġĹķŚĐ": 2050,
    "śőĩĺŬ": 2051,
    "Ŷř": 2052,
    "ųĖ": 2053,
    "žř": 2054,
    "ĳĽŬ": 2055,
    "Ģġľ": 2056,
    "ĽŗŞ": 2057,
    "ĳŝŅ": 2058,
    "ĒőŜĖ": 2059,
    "ĠĺĩĴĒ": 2060,
    "œśĤŮ": 2061,
    "Ĩĭĭļ": 2062,
    "įĭĠ": 2063,
    "ŝŁįŮ": 2064,
    "ĒŐĳġġŰ": 2065,
    "œŗŗĖ": 2066,
    "ĩĽŐŕŀĖ": 2067,
    "Ĥŀ": 2068,
    "řŕ": 2069,
    "šĀ": 2070,
    "ŜŗŒš": 2071,
    "œœŚ": 2072,
    "Ķįľ": 2073,
    "ŗĳīŬ": 2074,
    "ŗĳķŬ": 2075,
    "őŀŗ": 2076,
    "ŗŒšħĢŰ": 2077,
    "ĒŔĸŮ": 2078,
    "ĵļģ": 2079,
    "ŇŘĥŮ": 2080,
    "īĸņĐ": 2081,
    "łłŗŅ": 2082,
    "šę": 2083,
    "Ĳġ": 2084,
    "Űő": 2085,
    "ŇĖ": 2086,
    "Īļ": 2087,
    "ŔŃ": 2088,
    "œłĵ": 2089,
    "śŔĒ": 2090,
    "ĨĠī": 2091,
    "šĺĤĵĒń": 2092,
    "ŝŞĒłĩīŬ": 2093,
    "ĭľŋĐ": 2094,
    "řŜœ": 2095,
    "ıŀŔ": 2096,
    "ĵŜŃ": 2097,
    "ŁřįŮ": 2098,
    "œŜŁř": 2099,
    "Ģŗœ": 2100,
    "ĢįĠŰ": 2101,
    "ŁřŕŘ": 2102,
    "šĹĩĢŗĐ": 2103,
    "ĵĢĵŰ": 2104,
    "ģĲ": 2105,
    "Żń": 2106,
    "šĖ": 2107,
    "ſœ": 2108,
    "ęŜĐ": 2109,
    "ĿŰśŞ": 2110,
    "ĩīľ": 2111,
    "Ŝŗŗ": 2112,
    "œŞĒŗ": 2113,
    "ĮļĩŰ": 2114,
    "ĬīĨŰ": 2115,
    "ĿŔŖ": 2116,
    "őřįĺ": 2117,
    "įŬģ": 2118,
    "ĮĠŬĤŚŕĒ": 2119,
    "ŖřŜő": 2120,
    "ĩģŗĐ": 2121,
    "ŗŃŗĖ": 2122,
    "ĤĢŬ": 2123,
    "ŞŕŁĖ": 2124,
    "ĵħģľœŜ": 2125,
    "įļŇŔ": 2126,
    "ġĹľŖĐ": 2127,
    "ĤŚŕśń": 2128,
    "ĲŮĻĵŀŕĒ": 2129,
    "ĒńŚœĨļŬ": 2130,
    "ĳĽĸŰ": 2131,
    "ļĸ": 2132,
    "ĸĤ": 2133,
    "Ħġ": 2134,
    "Ŷş": 2135,
    "ŞŃĒ": 2136,
    "ľĩĢ": 2137,
    "ŕŖĖĵĦĩŰ": 2138,
    "ĻĿŀ": 2139,
    "ĠŝŃ": 2140,
    "įĺģŰ": 2141,
    "Ēłŗŕ": 2142,
    "ĤŅş": 2143,
    "ņĳġ": 2144,
    "ŗŔĒł": 2145,
    "ĥıŞĐ": 2146,
    "ĤįľŰ": 2147,
    "şŒŗńš": 2148,
    "ĴĩĤŰ": 2149,
    "őŞŅĮŮ": 2150,
    "ųŚ": 2151,
    "ųń": 2152,
    "űŗ": 2153,
    "ąŰ": 2154,
    "ŖŒ": 2155,
    "ĠĠĵŰ": 2156,
    "ŝŅĵŮ": 2157,
    "ŖœĳŮ": 2158,
    "œŃņĖ": 2159,
    "įĤśşŜĖ": 2160,
    "ĮĵŗŞ": 2161,
    "ŔşŀĖĵĦĩŰ": 2162,
    "ŀőŞş": 2163,
    "ĒŁĩħįĸ": 2164,
    "ĭĸ": 2165,
    "ŀł": 2166,
    "ŘŗĖ": 2167,
    "ĬħĢ": 2168,
    "ħĠļ": 2169,
    "ĤĪŬı": 2170,
    "łŝŃ": 2171,
    "ĵőń": 2172,
    "ŝśŚ": 2173,
    "ģĒőŜŒš": 2174,
    "Ġģļ": 2175,
    "ĢīĿŰ": 2176,
    "ĨĽĤŰ": 2177,
    "ĮĽĸŰ": 2178,
    "ĪĿŀĐņŞĤŮ": 2179,
    "ĦĭĴĒ": 2180,
    "őşşņ": 2181,
    "ŗőŀĖ": 2182,
    "ŊĖ": 2183,
    "ıĻ": 2184,
    "īĵĒ": 2185,
    "œńĥŮ": 2186,
    "Ĭġľ": 2187,
    "ĭįľ": 2188,
    "ŕŞœ": 2189,
    "ŇŚĥŮ": 2190,
    "ŐŃĵŮ": 2191,
    "ĭľĵ": 2192,
    "œŚŗ": 2193,
    "įĸĹ": 2194,
    "ŝŅņŞ": 2195,
    "ĹŜŔ": 2196,
    "ŁřŝŘ": 2197,
    "ĒłŗŅ": 2198,
    "ŅšįĢĴĒ": 2199,
    "ŕŞĖ": 2200,
    "ĤıŁĐ": 2201,
    "įġĠ": 2202,
    "ĢįĢŰ": 2203,
    "ĠĿŅ": 2204,
    "ĭĳřĐ": 2205,
    "šĭģľ": 2206,
    "ĮĻľŰ": 2207,
    "ļıŀń": 2208,
    "šĹĤĹőŘ": 2209,
    "ĨĠįļŇŔ": 2210,
    "ĵŀņ": 2211,
    "ĒńŚœšĺ": 2212,
    "Įļĸĸ": 2213,
    "īĢģ": 2214,
    "ĠĺĩĢ": 2215,
    "ļĩı": 2216,
    "œŃĒŗ": 2217,
    "őŕŁĖ": 2218,
    "ĵįĥľ": 2219,
    "įĠļŋĐ": 2220,
    "ģĥŀĐ": 2221,
    "ĤŚřŁĖ": 2222,
    "ņŘŗşĳŮ": 2223,
    "ĀĻĿĤŀőŞş": 2224,
    "Ęĸ": 2225,
    "ŕŊ": 2226,
    "ĩĿ": 2227,
    "ŝŗń": 2228,
    "œŞŃ": 2229,
    "ĽŝŞ": 2230,
    "ŝłņŞ": 2231,
    "ĿĤŝł": 2232,
    "ŕŜŅ": 2233,
    "ĹŜŃ": 2234,
    "ĲĺģĢ": 2235,
    "ĩįĿŰ": 2236,
    "ĤĽĩŰ": 2237,
    "ĩļŋĐ": 2238,
    "ĮģĩŰ": 2239,
    "ĥģŚĐ": 2240,
    "šĬĵŰ": 2241,
    "œŀĤŮ": 2242,
    "őřĬľ": 2243,
    "ŔřĳŮĸĸŗĐ": 2244,
    "őşşś": 2245,
    "ĒłĩīĥĢ": 2246,
    "ıŜœŗĖ": 2247,
    "čĤ": 2248,
    "Ŗł": 2249,
    "ŧŞ": 2250,
    "ğŰ": 2251,
    "ĤŚŕĒœ": 2252,
    "őŜŕ": 2253,
    "śŞĒŗ": 2254,
    "ņşĒŗ": 2255,
    "ĢĵŰ": 2256,
    "ŗŔĒş": 2257,
    "ĹŜŕĒ": 2258,
    "Ņřĳ": 2259,
    "śŗĭŮ": 2260,
    "ŗŜŋĖ": 2261,
    "ĭķŗĐ": 2262,
    "īĢĳŗĐ": 2263,
    "ĭĦŗĐ": 2264,
    "įĿşŝ": 2265,
    "ņŇŝĖ": 2266,
    "ľĥ": 2267,
    "Ŷœ": 2268,
    "ńő": 2269,
    "ĤĨ": 2270,
    "ĹŮ": 2271,
    "ďġ": 2272,
    "ĒşĵŮ": 2273,
    "ŜœĥŮ": 2274,
    "ŁłĮļ": 2275,
    "ĳīĿ": 2276,
    "ĶŝŅ": 2277,
    "őŀń": 2278,
    "œŞŖĖĵĦĩŰ": 2279,
    "ĨĢŬ": 2280,
    "œńņŗ": 2281,
    "śŚĭŮ": 2282,
    "śŕĠĢŬ": 2283,
    "œņŗĖ": 2284,
    "ĮĨĪ": 2285,
    "ĭġĻ": 2286,
    "ŔłĤļŬ": 2287,
    "Ŀĸśŀ": 2288,
    "ŒŗœįŮ": 2289,
    "ĀĨĸĵŀĐ": 2290,
    "ĸħŝĐ": 2291,
    "ņŞĤħľŰ": 2292,
    "ĪŰ": 2293,
    "ēī": 2294,
    "Ŕŗń": 2295,
    "œŞř": 2296,
    "ŁĖĵĦĩŰ": 2297,
    "ĨīĨŰ": 2298,
    "őşņ": 2299,
    "ġĿŀ": 2300,
    "ıŀŔĒ": 2301,
    "ŗĳĪŬ": 2302,
    "ģŚř": 2303,
    "Ģŗő": 2304,
    "įīĿŰ": 2305,
    "ĳŗŃ": 2306,
    "ĬįĢŰ": 2307,
    "şőŜĖ": 2308,
    "ģīĩľ": 2309,
    "Ħįĥľ": 2310,
    "ŁŞĨľ": 2311,
    "žœ": 2312,
    "Ĳĭ": 2313,
    "ŁŚ": 2314,
    "ĭľĹ": 2315,
    "ĈĺŬ": 2316,
    "ĨĠĩŰ": 2317,
    "ĮļĸŰ": 2318,
    "œŘĸŮ": 2319,
    "őœĥŮ": 2320,
    "īĿĤ": 2321,
    "ĳīĢ": 2322,
    "ŝŖĒł": 2323,
    "ŇłŗĖ": 2324,
    "šĽĸ": 2325,
    "ĿĹŕŞ": 2326,
    "ŞĨĽŬ": 2327,
    "ĤĠĸģĒ": 2328,
    "őŜŇŒ": 2329,
    "śŗŚł": 2330,
    "ĲŗŕŜĖ": 2331,
    "œŚĲġŬ": 2332,
    "ĖĦ": 2333,
    "ŔŜ": 2334,
    "ŁŇ": 2335,
    "ĨģŬ": 2336,
    "ņŁĮŮ": 2337,
    "ŻĖ": 2338,
    "Ŀļ": 2339,
    "ĞĿ": 2340,
    "ŧŘ": 2341,
    "ĘŗĐ": 2342,
    "ĪĽŬ": 2343,
    "ĬĽŬ": 2344,
    "śŘĤŮ": 2345,
    "ŕŀŀ": 2346,
    "ņĤļ": 2347,
    "ŝłņĖ": 2348,
    "ŀŀœ": 2349,
    "Ēņĳġ": 2350,
    "įĵŜń": 2351,
    "Ħĩı": 2352,
    "ĠļŝŇ": 2353,
    "ĭĴŗĐ": 2354,
    "łşŀł": 2355,
    "ĥĶ": 2356,
    "Īī": 2357,
    "ŗŉ": 2358,
    "ųŘ": 2359,
    "œŝł": 2360,
    "ĒřŜ": 2361,
    "ĩīĨŰ": 2362,
    "ģĢņĐ": 2363,
    "ģĢņŘ": 2364,
    "ĩġŬ": 2365,
    "łŗĳ": 2366,
    "ģĥņŘ": 2367,
    "šġĢŰ": 2368,
    "œŅĵŮ": 2369,
    "Ĩģļ": 2370,
    "Ĥģļ": 2371,
    "ĭģĒő": 2372,
    "łńĮ": 2373,
    "œŜŞŏš": 2374,
    "ŇőĩŮ": 2375,
    "łŞ": 2376,
    "šą": 2377,
    "ďī": 2378,
    "ŀŕĒ": 2379,
    "řŃĒ": 2380,
    "Ĥįĸ": 2381,
    "őŕŖĖ": 2382,
    "ŝŃņĖ": 2383,
    "ĪħĢķ": 2384,
    "ĮĻĸĸ": 2385,
    "Ēńŀŗ": 2386,
    "įıŜĐ": 2387,
    "ŗņŗń": 2388,
    "ĥĢŁń": 2389,
    "įĥĢ": 2390,
    "ŘśŅš": 2391,
    "Ġıŋ": 2392,
    "ŚŗķīŬ": 2393,
    "ĒŞĠĪŬ": 2394,
    "ŻĐ": 2395,
    "řŘ": 2396,
    "šā": 2397,
    "ĬĩŰ": 2398,
    "źœš": 2399,
    "ģĒŃ": 2400,
    "ĝœł": 2401,
    "ħīľ": 2402,
    "ŜŗŅš": 2403,
    "Ġŀř": 2404,
    "Ĥļĭļ": 2405,
    "ģŗœ": 2406,
    "ġĿŜ": 2407,
    "ĽśŜ": 2408,
    "Ĳħīľ": 2409,
    "ĒŀŞŗ": 2410,
    "ŁĐŝŐš": 2411,
    "ĨĸĩĢ": 2412,
    "ŝŃĳŮ": 2413,
    "œŕĪŮ": 2414,
    "őřįĽ": 2415,
    "ĵŖĐŐŏš": 2416,
    "Ŵş": 2417,
    "ŐŕĒ": 2418,
    "ĸŗł": 2419,
    "ĤļĢ": 2420,
    "œŞņĖ": 2421,
    "ŜĖĵĦĩŰ": 2422,
    "Łńŝń": 2423,
    "ŗŔĒř": 2424,
    "ľľĵ": 2425,
    "ľĵŗĐ": 2426,
    "ıŜŔĒŅ": 2427,
    "ĒńĤĽ": 2428,
    "ļŗő": 2429,
    "ĒńŅř": 2430,
    "œœņ": 2431,
    "ŗŃĒŗįĪŬ": 2432,
    "ŖřŜőš": 2433,
    "śŔŗĖ": 2434,
    "ħœŃĒŗ": 2435,
    "Ĺģņł": 2436,
    "ĭľőŕĒ": 2437,
    "ĮĻĢĴĒ": 2438,
    "ĴľŬ": 2439,
    "ģĥŜŔ": 2440,
    "Ēŏ": 2441,
    "ďŬ": 2442,
    "ıśŞ": 2443,
    "Łœĳ": 2444,
    "ĠĠĿŰ": 2445,
    "řŜœš": 2446,
    "ħŚş": 2447,
    "ŗŅĤŮ": 2448,
    "ŀŗŕ": 2449,
    "ĸŗő": 2450,
    "ĵļĭļ": 2451,
    "ĹĢŗĐ": 2452,
    "śœœŚš": 2453,
    "ģħŜĐ": 2454,
    "Ĥĸĩľ": 2455,
    "ģĩľņĐ": 2456,
    "ĠĺĥĿŜ": 2457,
    "őřĬģ": 2458,
    "ŘœŒš": 2459,
    "ĒŖŀřĬŮ": 2460,
    "ģĥŜŔĒ": 2461,
    "ĭĶņŕŀĖ": 2462,
    "ųŝŗń": 2463,
    "Āļ": 2464,
    "ıł": 2465,
    "ĳĪ": 2466,
    "ģŇ": 2467,
    "šĉ": 2468,
    "ŋř": 2469,
    "šĺĤĵĒł": 2470,
    "őŜŝ": 2471,
    "őŞł": 2472,
    "őŀŝ": 2473,
    "šĦĩŰ": 2474,
    "ıŜŔĒŗ": 2475,
    "ĤĢĵŰ": 2476,
    "ĨĢĠŰ": 2477,
    "ŇŃņń": 2478,
    "ĭĢģħ": 2479,
    "ıŜŔĒł": 2480,
    "ĠĢĠĩĒ": 2481,
    "ĵĒşŔĖĵĦĩŰ": 2482,
    "ıļĩģ": 2483,
    "łŜœŏ": 2484,
    "įĭĠĥ": 2485,
    "ŔşĳĽĸŰ": 2486,
    "Ĩı": 2487,
    "žŕ": 2488,
    "ĹŰ": 2489,
    "ŁŜ": 2490,
    "Āĵ": 2491,
    "ŀŗń": 2492,
    "ĢŰņŘŗĖ": 2493,
    "ĸŰņŘŗĖ": 2494,
    "įľĻ": 2495,
    "ŝŃįĪŬ": 2496,
    "ŁşĦ": 2497,
    "őŀŒš": 2498,
    "ĒŇœŅ": 2499,
    "ĲīĿŰ": 2500,
    "ŝŝŗĖ": 2501,
    "ĳŞő": 2502,
    "şŔĖĵĦĩŰ": 2503,
    "őŕŜł": 2504,
    "šľľĿ": 2505,
    "įĪĤŗł": 2506,
    "ĸĸŝŅŕŞ": 2507,
    "ĻľĹŜŗĒłĩīŬ": 2508,
    "ŘĮĺŬ": 2509,
    "šĩ": 2510,
    "Ŝń": 2511,
    "śŌ": 2512,
    "ĔĠ": 2513,
    "ĒŮ": 2514,
    "żœ": 2515,
    "čļ": 2516,
    "Ŧş": 2517,
    "Įķ": 2518,
    "źŕĒ": 2519,
    "ļœł": 2520,
    "ģŗł": 2521,
    "œŞŗ": 2522,
    "ŝŅŁĖ": 2523,
    "šĹĤ": 2524,
    "šĹĭģ": 2525,
    "ĶśŜ": 2526,
    "śŚĤŮ": 2527,
    "ıņĐņŞĤŮ": 2528,
    "ĹŞŜ": 2529,
    "ıŕő": 2530,
    "ńŕŀŅ": 2531,
    "ĥŜń": 2532,
    "ŝŗŘĵŮ": 2533,
    "ĩĦŗŞ": 2534,
    "ĬĩĵŜĐ": 2535,
    "ĒŇŚşĢĦŬ": 2536,
    "ĩįĺĵĒ": 2537,
    "ŖśńĲĺŬ": 2538,
    "Ĉĵ": 2539,
    "ąĤ": 2540,
    "łŅš": 2541,
    "şşŀ": 2542,
    "ľĩĒ": 2543,
    "ħĢķĒńŚœš": 2544,
    "œŗœ": 2545,
    "ŚőŁĖ": 2546,
    "ĵŖĐņřš": 2547,
    "œŔŗĖ": 2548,
    "ĤģŬ": 2549,
    "šĺĤĹŁĐ": 2550,
    "śřįĽŬ": 2551,
    "Ĳľĩĳ": 2552,
    "ĬĹĤ": 2553,
    "ĨĥŀřŜő": 2554,
    "ĢĢĹĴ": 2555,
    "ĈĠ": 2556,
    "ųś": 2557,
    "ıŕ": 2558,
    "Ŵř": 2559,
    "şŃĒ": 2560,
    "ĤŚŕĒś": 2561,
    "ĭĢņĐ": 2562,
    "ĭĤĒńŚœš": 2563,
    "ŀŕŗĖ": 2564,
    "Ġıŀ": 2565,
    "ĭľŖĐņŞĤŮ": 2566,
    "Ģŗņ": 2567,
    "ŗŚĸŮ": 2568,
    "ņşĒŔ": 2569,
    "śŅĩŮ": 2570,
    "Ġģħ": 2571,
    "ĩģĒőŜŒš": 2572,
    "ġĿŁń": 2573,
    "ıĢĭĩ": 2574,
    "šĦĭĴĒ": 2575,
    "łŜŗĖ": 2576,
    "ĸĸŗŉĒ": 2577,
    "šĄ": 2578,
    "ĥĩ": 2579,
    "ųł": 2580,
    "đş": 2581,
    "ģĒő": 2582,
    "ĤļĢŰ": 2583,
    "ŃņĖ": 2584,
    "ĤŚŕĒń": 2585,
    "ģľŖĐ": 2586,
    "ĠļĸŰ": 2587,
    "şőŜ": 2588,
    "œŚş": 2589,
    "ĩľĿ": 2590,
    "ģĢĩŰ": 2591,
    "řŜŒ": 2592,
    "ĢŗŃĒ": 2593,
    "ĤĽĿŰ": 2594,
    "ĥļŗĐ": 2595,
    "ĨĺĥĿŜĐ": 2596,
    "ĨģĩŰ": 2597,
    "ĤŚŕŋĖ": 2598,
    "ĠĨĸĵŀĐ": 2599,
    "ŅőŋĖ": 2600,
    "ŔřŞś": 2601,
    "ĔĝŬ": 2602,
    "čľ": 2603,
    "Ţŗ": 2604,
    "Ĥĥ": 2605,
    "żş": 2606,
    "ĀĠ": 2607,
    "ąħ": 2608,
    "Şŀ": 2609,
    "ĕī": 2610,
    "œŞŁĖ": 2611,
    "ĭĺŬ": 2612,
    "řņĖ": 2613,
    "ĤŚŕĒņ": 2614,
    "ıŜŃĒ": 2615,
    "œńĒłĩīŬ": 2616,
    "ĭįĸ": 2617,
    "śŕŖĖ": 2618,
    "ņŘŀœ": 2619,
    "ŀŕŁĖ": 2620,
    "ĳġĢ": 2621,
    "ĩĢśœ": 2622,
    "ŚŕŀĖ": 2623,
    "ĹŜŗĒŗ": 2624,
    "ĮĻĿŰ": 2625,
    "Ĳŗœ": 2626,
    "ĒŕŊ": 2627,
    "ĠĵŁĐ": 2628,
    "ĳħĸĹ": 2629,
    "ŕşĖ": 2630,
    "ġľĤŚĐ": 2631,
    "šįĸŰ": 2632,
    "őőŜĖ": 2633,
    "ŇŃŗĖ": 2634,
    "ŗŘĵĽŬ": 2635,
    "ĥĦŗł": 2636,
    "Ĥśŝ": 2637,
    "šĺĻĿ": 2638,
    "ĩľőŕĒ": 2639,
    "įĢĳŗĐ": 2640,
    "ĤıńŕĒ": 2641,
    "ĤĠįĵĒ": 2642,
    "ĵŜœŗĖ": 2643,
    "ŝńŚœĳŮ": 2644,
    "ŕşŔĤļŬ": 2645,
    "Şł": 2646,
    "ĞĹ": 2647,
    "ħĻ": 2648,
    "řŕĒ": 2649,
    "ĀĽŬ": 2650,
    "ĶśŞ": 2651,
    "īľĦ": 2652,
    "ęņĐ": 2653,
    "Ŕœĳ": 2654,
    "ŀřņş": 2655,
    "ŗŘĵ": 2656,
    "ĩįľ": 2657,
    "ĨĠĿĤ": 2658,
    "ħŝŅ": 2659,
    "ıŞń": 2660,
    "ĸĹŜ": 2661,
    "őŀő": 2662,
    "řĳīŬ": 2663,
    "ŀŉĒ": 2664,
    "ĤĪŬıŁĐ": 2665,
    "ĴļĢ": 2666,
    "ĢīĢĤ": 2667,
    "ħġĠ": 2668,
    "ĥļŞĐ": 2669,
    "ĻĹņŘĒłĩīŬ": 2670,
    "ņŕŀŘ": 2671,
    "łŗœš": 2672,
    "ħļģĽĒńŚœš": 2673,
    "ĶŀşşĖĵĦĩŰ": 2674,
    "ĶġľĻ": 2675,
    "ĻĿŇŜŖĖ": 2676,
    "ħŚ": 2677,
    "ăī": 2678,
    "šŞ": 2679,
    "čĢ": 2680,
    "ģĒŒ": 2681,
    "ĳœł": 2682,
    "ĭľŁĐ": 2683,
    "ŕŀŅ": 2684,
    "őņş": 2685,
    "ŗŜŗ": 2686,
    "őŀœš": 2687,
    "Ĩĭħ": 2688,
    "ŞŗįĪŬ": 2689,
    "Ġıņ": 2690,
    "ĶĦģŰ": 2691,
    "œŘĢīŬ": 2692,
    "ŞĠĪŬ": 2693,
    "ĴĽĸĢœŜ": 2694,
    "ĹŜœŞŃ": 2695,
    "ģŬ": 2696,
    "ĪĶ": 2697,
    "Ģķ": 2698,
    "ĀĹ": 2699,
    "šċ": 2700,
    "Ğĵ": 2701,
    "ĬĻ": 2702,
    "ęă": 2703,
    "įĦ": 2704,
    "šĐ": 2705,
    "āĹ": 2706,
    "ĄĵĒ": 2707,
    "īľģ": 2708,
    "įĢľ": 2709,
    "ŇŝŐ": 2710,
    "ĬġĢ": 2711,
    "ļĩĵ": 2712,
    "ŁřŜő": 2713,
    "ĢĺģĢ": 2714,
    "ĥĽŗĐ": 2715,
    "įĮĿ": 2716,
    "śŗŚłš": 2717,
    "ŕŜŕĤŮ": 2718,
    "ģĤŚŕŀĖ": 2719,
    "Ņşŀŝ": 2720,
    "Śőńœš": 2721,
    "ĸœņŗĖ": 2722,
    "đŇŃņń": 2723,
    "đşŕŀş": 2724,
    "ıĒ": 2725,
    "Ĳŗ": 2726,
    "şņ": 2727,
    "ĄĿ": 2728,
    "ąī": 2729,
    "ŸŃ": 2730,
    "ğĵ": 2731,
    "ľœł": 2732,
    "įŮĥľ": 2733,
    "ĀĺŬ": 2734,
    "ĤŚŕĒŗ": 2735,
    "ĤŚŕĒŔ": 2736,
    "ĥŮĸĸŗĐ": 2737,
    "ħĢĹ": 2738,
    "šĺĤĵĒœ": 2739,
    "Ġļįĸ": 2740,
    "ŜŕŖĖ": 2741,
    "ŝŃĲŮ": 2742,
    "ıŀŉĒ": 2743,
    "ĒőĒŅ": 2744,
    "ŞřĶ": 2745,
    "ĒŔĤ": 2746,
    "ĭĢőŘ": 2747,
    "ĴļĩŰ": 2748,
    "ģĒřŜĖ": 2749,
    "ŗŜŞĖ": 2750,
    "śŜŞĖ": 2751,
    "ıĢĭĳ": 2752,
    "ĴĺĤŰ": 2753,
    "ĤĪŬĤŚőņĖ": 2754,
    "ħġľĽ": 2755,
    "ĹŜńŝĖ": 2756,
    "šĭģĽ": 2757,
    "ļĢŗŃ": 2758,
    "œŞőœš": 2759,
    "œŖņœĳŮ": 2760,
    "śşŜŗĭŮ": 2761,
    "įĮļŗĐ": 2762,
    "ŀŏ": 2763,
    "Ŕő": 2764,
    "ĈŮ": 2765,
    "žŗ": 2766,
    "ŧť": 2767,
    "ŧţ": 2768,
    "ųŜ": 2769,
    "ĹģĒ": 2770,
    "Ģŗń": 2771,
    "ļœń": 2772,
    "ĵŀń": 2773,
    "ģņş": 2774,
    "ĤŚŕĒŴ": 2775,
    "śŝł": 2776,
    "ŝńĤŮ": 2777,
    "ŚŕŖĖ": 2778,
    "őşŜ": 2779,
    "śœĥŮ": 2780,
    "ĭģļ": 2781,
    "ŗĳĪ": 2782,
    "ŁşįĩŬ": 2783,
    "ĢŗŕĒ": 2784,
    "ĬīĿŰ": 2785,
    "ķīĿŰ": 2786,
    "ŅŞĮŮ": 2787,
    "őŗįŮ": 2788,
    "ĶŝłĒłĩīŬ": 2789,
    "Ēłŗņ": 2790,
    "ĤįĨŰ": 2791,
    "łőŀł": 2792,
    "őŚĴĪ": 2793,
    "ģĩ": 2794,
    "ĺĿ": 2795,
    "šĠ": 2796,
    "ćŬ": 2797,
    "żř": 2798,
    "ŋŅ": 2799,
    "ĴŁĐ": 2800,
    "šĺĤĢ": 2801,
    "ĵŀŞ": 2802,
    "šĺĤĵĒŖ": 2803,
    "ĩľĵ": 2804,
    "ıŀŝ": 2805,
    "ıġĢ": 2806,
    "ģŚş": 2807,
    "ŁĖĵġŬ": 2808,
    "ŗŗĥŮ": 2809,
    "ĒŞĤŮ": 2810,
    "ĤĽĿ": 2811,
    "Īĥģ": 2812,
    "ĵħģľĒşŔĖ": 2813,
    "ĨĪĩŰ": 2814,
    "ĩļŞĐ": 2815,
    "ĤĢĠŰ": 2816,
    "őńśřįŮ": 2817,
    "ĻĸŝĐ": 2818,
    "ĒŇŗńĤŮ": 2819,
    "ĩıŀĐ": 2820,
    "ĤĹłĐ": 2821,
    "ĩĴĒşŜĖ": 2822,
    "ģĒŇŗńĤŮ": 2823,
    "ķħĿĹŝŞ": 2824,
    "ĵĵœł": 2825,
    "Łœĳĸ": 2826,
    "Űœ": 2827,
    "ċġ": 2828,
    "źœ": 2829,
    "Ģĭ": 2830,
    "čħ": 2831,
    "Ŵł": 2832,
    "Ăġ": 2833,
    "ĹĹ": 2834,
    "Čħ": 2835,
    "ęľ": 2836,
    "Ŵń": 2837,
    "Ŧř": 2838,
    "ŕŀř": 2839,
    "ĠĠĸŰ": 2840,
    "őŜŅš": 2841,
    "ľıŜ": 2842,
    "Ĭįĸ": 2843,
    "ĳŗŞ": 2844,
    "ĳīĩŰ": 2845,
    "ĩĴĒŃ": 2846,
    "ĵŮģĶ": 2847,
    "ĳŚř": 2848,
    "ķħĢķ": 2849,
    "ĩħĢķ": 2850,
    "Įĭħ": 2851,
    "ıŁŃ": 2852,
    "ŕşņ": 2853,
    "ŁŕŁĖ": 2854,
    "ĒŐĮļ": 2855,
    "ŜşįĩŬ": 2856,
    "ĵĒńŚœ": 2857,
    "ģĽŗĐ": 2858,
    "ĵīľľ": 2859,
    "ĶįĵŰ": 2860,
    "ŗŗĳŮ": 2861,
    "ĭġĢķ": 2862,
    "ĤģĮĵŀĐ": 2863,
    "Łŀŗŕ": 2864,
    "ŔŅ": 2865,
    "ħļ": 2866,
    "ŝŏ": 2867,
    "īľĿ": 2868,
    "ĳĺŬ": 2869,
    "ħĺŬ": 2870,
    "ģŝŞ": 2871,
    "ĭĢņř": 2872,
    "įĢĵŰ": 2873,
    "řŕŖĖ": 2874,
    "ġľĹ": 2875,
    "řŜş": 2876,
    "ıŀŕ": 2877,
    "ĨĠĭļ": 2878,
    "ħĨŬ": 2879,
    "ŗĳĩ": 2880,
    "ĹĤĹ": 2881,
    "ĸĢŋĐ": 2882,
    "ĿŅŞ": 2883,
    "śłĨġĢŰ": 2884,
    "ŅŘŝĖ": 2885,
    "šĻĢ": 2886,
    "ŐŕŗŘ": 2887,
    "ņŜŋĖ": 2888,
    "ĲŮĘĸŗĐ": 2889,
    "ħŚŕ": 2890,
    "ĮĩĒńŚœš": 2891,
    "ĮĻĢĤ": 2892,
    "ņŞĤķŬ": 2893,
    "ŐŉĒłĩīŬ": 2894,
    "ĲĺľıŞř": 2895,
    "ĒńŚşĲŮ": 2896,
    "ĸīĭĢ": 2897,
    "ĩĺ": 2898,
    "ħĵ": 2899,
    "ŋş": 2900,
    "ĩĩ": 2901,
    "Łŉ": 2902,
    "ĿĽ": 2903,
    "ŊĐ": 2904,
    "ĸĩĢ": 2905,
    "ĿŰņŘŗĖ": 2906,
    "ŀŕŖĖ": 2907,
    "řŜŕ": 2908,
    "įľĵ": 2909,
    "ħŮĸĸŗĐ": 2910,
    "ĨĠĸĿ": 2911,
    "ĭįĢĴĒ": 2912,
    "ĲĻľ": 2913,
    "ńŕŁĖ": 2914,
    "ġıŜĐ": 2915,
    "ŞŜŝŁ": 2916,
    "ŐœĤĠŬ": 2917,
    "ĭįĵ": 2918,
    "ĢġĢģ": 2919,
    "ĸıśŞ": 2920,
    "ĴŇœ": 2921,
    "Ĭįĥľ": 2922,
    "īĿģ": 2923,
    "ļļœŉ": 2924,
    "ĸśŗŚ": 2925,
    "ĪĢŝŝĒłĩīŬ": 2926,
    "ģĥŞŔĒ": 2927,
    "ŁłĳĻ": 2928,
    "œřŜŅ": 2929,
    "ĴļĥľŕĐņŞĤŮ": 2930,
    "ŋŕœń": 2931,
    "ŅşŇŚĥŮ": 2932,
    "Łŕŀŀ": 2933,
    "ĀģĩĢśœ": 2934,
    "Ŧœ": 2935,
    "ŰŅ": 2936,
    "Ďĵ": 2937,
    "Ăĵ": 2938,
    "Šŗ": 2939,
    "ŚĤŮ": 2940,
    "ģŗĐ": 2941,
    "ĸĽŬ": 2942,
    "ĥŁĐ": 2943,
    "Ĳŗń": 2944,
    "ģĭľ": 2945,
    "ĵŀŃ": 2946,
    "ĭĤı": 2947,
    "ĵħĢ": 2948,
    "įľĹ": 2949,
    "ĥľœŜ": 2950,
    "ĵŮĸĿ": 2951,
    "ĿĹŜŗ": 2952,
    "ŬıŜŔĒ": 2953,
    "ĨĽĸŰ": 2954,
    "ĸœŃĒ": 2955,
    "ĩıŁń": 2956,
    "ĵŮĻıŁĐ": 2957,
    "ľģģ": 2958,
    "ąŜř": 2959,
    "ŐœĢ": 2960,
    "ĒşĵĽŬ": 2961,
    "Őŕőŗ": 2962,
    "œšĺĤ": 2963,
    "œœŗĖ": 2964,
    "ĶħĸĸĒńŚœš": 2965,
    "ħśńŚĖĵĦĩŰ": 2966,
    "śşŜŅ": 2967,
    "ĸļŋĐ": 2968,
    "ĠĠįĵĒ": 2969,
    "šĨľĿşĐ": 2970,
    "ĬīľĹ": 2971,
    "ĶġĹļŖĐ": 2972,
    "čĥŁńŀŗ": 2973,
    "Ģļ": 2974,
    "ĹĲ": 2975,
    "ĠĶ": 2976,
    "ťş": 2977,
    "ŃĒŗ": 2978,
    "Ŝœł": 2979,
    "ĒńŚń": 2980,
    "ĿŰņş": 2981,
    "Śœĳ": 2982,
    "ıįĢ": 2983,
    "įĢķ": 2984,
    "ĒŗĵŮ": 2985,
    "őşœ": 2986,
    "įľĿ": 2987,
    "įġŬ": 2988,
    "ġĹģĒ": 2989,
    "ŝŃįĺ": 2990,
    "śŕĤŮ": 2991,
    "ĲŮľĵ": 2992,
    "ĤĪŬĿŜĐ": 2993,
    "ŝśĤŮ": 2994,
    "ŕŞŏš": 2995,
    "ĵŁĐœŘĥŮ": 2996,
    "ĥģņĐ": 2997,
    "ĒŕĮģ": 2998,
    "ġĠĿ": 2999,
    "śŒĤŮ": 3000,
    "ĦĥĽ": 3001,
    "ĨĠĸĵŀ": 3002,
    "ŐŚĤŮ": 3003,
    "ŝŒĴĭ": 3004,
    "ĸĥŀŞ": 3005,
    "œŐĵīľŰ": 3006,
    "įĿŀŔ": 3007,
    "Űłśł": 3008,
    "ĽŝłŗĖ": 3009,
    "ŔĤ": 3010,
    "Šœ": 3011,
    "ŵř": 3012,
    "Żł": 3013,
    "Ţş": 3014,
    "żŕ": 3015,
    "Ēī": 3016,
    "ŝŔĒ": 3017,
    "ĵŀş": 3018,
    "ĪīĨŰ": 3019,
    "ĤĠĨŰ": 3020,
    "ıļĩ": 3021,
    "ĤįŬ": 3022,
    "ľĵŁĐ": 3023,
    "ŁĖĨĠŬ": 3024,
    "ĵĦľĿ": 3025,
    "ģŗő": 3026,
    "ĩışĐ": 3027,
    "ĭĳŚĐ": 3028,
    "Ħĥķ": 3029,
    "Ēńśś": 3030,
    "ĠĭĩŰ": 3031,
    "ĩľņŃĒ": 3032,
    "ĥĴŗĐ": 3033,
    "ņşĬīŬ": 3034,
    "ĵĦĥģĒ": 3035,
    "čīĿ": 3036,
    "ĺĵŀŃ": 3037,
    "ġıśŞ": 3038,
    "ŝŅŜŒš": 3039,
    "ĶśłŁł": 3040,
    "ņŘŗŏš": 3041,
    "ĵĦľĵŗĐ": 3042,
    "śŘĢĢĹĴ": 3043,
    "ăġ": 3044,
    "ĎĿ": 3045,
    "Źř": 3046,
    "ĥĲ": 3047,
    "Ŷŕ": 3048,
    "Ĺĺ": 3049,
    "ĂĿ": 3050,
    "ŝŉ": 3051,
    "ŞŅš": 3052,
    "Ēłŗł": 3053,
    "ŕŀś": 3054,
    "ĵŮĥľ": 3055,
    "ŜŗŒ": 3056,
    "ĭĤĹ": 3057,
    "ĸĸŀş": 3058,
    "ĸīĨŰ": 3059,
    "şŕŖĖ": 3060,
    "œŏš": 3061,
    "ĤŇł": 3062,
    "ĥľŕĐņŞ": 3063,
    "ĒŒŗĖ": 3064,
    "śŘĦŮĸĿ": 3065,
    "ŞőŜŒš": 3066,
    "ĥĳœŞ": 3067,
    "ĒŃņŗ": 3068,
    "ĵŞĐ": 3069,
    "ŗņŗŚ": 3070,
    "ĒřŜŕ": 3071,
    "ŕőŜĖ": 3072,
    "ĹŜńŗń": 3073,
    "ŖŕŔœ": 3074,
    "ĪĿŀœ": 3075,
    "ĴģŬ": 3076,
    "ĒŘœŒš": 3077,
    "ŗśģīľŰ": 3078,
    "ĩļģĥŕŘ": 3079,
    "ăļĥĤ": 3080,
    "ņřşœš": 3081,
    "ĪĹŞŝ": 3082,
    "įīıśŞ": 3083,
    "ēġ": 3084,
    "Ľĸ": 3085,
    "řŞ": 3086,
    "ĺı": 3087,
    "ĩĲ": 3088,
    "ĊĢ": 3089,
    "ŽŘ": 3090,
    "Źş": 3091,
    "ĤīŬ": 3092,
    "ľĵĒ": 3093,
    "ıŖĐ": 3094,
    "ħœł": 3095,
    "ģīľ": 3096,
    "ŀŝń": 3097,
    "ĩľņř": 3098,
    "ŗŞņş": 3099,
    "œĥŮĸĸŗĐ": 3100,
    "ġĪĶ": 3101,
    "ĮĠī": 3102,
    "ģįĿ": 3103,
    "įŮĭľŖĐ": 3104,
    "ĴŇł": 3105,
    "ĭįŬ": 3106,
    "ĭħģľ": 3107,
    "ŝśŅ": 3108,
    "űşş": 3109,
    "ĩģŁĐ": 3110,
    "Ēŀŗń": 3111,
    "īıŜĐ": 3112,
    "įīĵĒ": 3113,
    "ŗŅšįĢĴĒ": 3114,
    "śŃĒŗ": 3115,
    "ŚřşĖ": 3116,
    "ŇŃņĖ": 3117,
    "Ēŵĩ": 3118,
    "ŔşŞŚ": 3119,
    "įĨĵĒ": 3120,
    "őņşĮĠŬ": 3121,
    "ĒřįīŬ": 3122,
    "šĺĤĵŋĐ": 3123,
    "ŁĖĶīľĵĒ": 3124,
    "ĩħļŰ": 3125,
    "ŔĤīĢŰ": 3126,
    "ěĢĹ": 3127,
    "ųŅŁłĳ": 3128,
    "čīĿľœł": 3129,
    "Ēŉ": 3130,
    "ēħ": 3131,
    "ĮĪŬ": 3132,
    "įīľ": 3133,
    "ĤŚŕĒŘ": 3134,
    "ĦħĢ": 3135,
    "šĺĤĵĒŲ": 3136,
    "ĤļĵŰ": 3137,
    "ŗŔĒŅ": 3138,
    "Ĥįĺ": 3139,
    "ıőŘ": 3140,
    "ĩĴĒőŁĖ": 3141,
    "ŝşř": 3142,
    "őŜłš": 3143,
    "ņőŞĖ": 3144,
    "Ŕřĳĭ": 3145,
    "įĤŝł": 3146,
    "şįĽ": 3147,
    "ŗŘĢīŬ": 3148,
    "įįĸĹŝŞ": 3149,
    "ĿĤŀŅ": 3150,
    "ĤĭĸĹŝŞ": 3151,
    "ĿŀńŚĖ": 3152,
    "ķīľģ": 3153,
    "ĵħįŰ": 3154,
    "šħĸŰ": 3155,
    "ĠĺĥĿŜŃĒ": 3156,
    "ŖŅŀşįĩŬ": 3157,
    "ĵļĹĳ": 3158,
    "ĻĿŀś": 3159,
    "ĨĥĢŁń": 3160,
    "ŋŚ": 3161,
    "ĸĽ": 3162,
    "ĪĤ": 3163,
    "ĴŰ": 3164,
    "źŗ": 3165,
    "āĿ": 3166,
    "ĦĩĢ": 3167,
    "ĵŀŝ": 3168,
    "œŘĵŮ": 3169,
    "ĠļĿŰ": 3170,
    "ņŘŀř": 3171,
    "Ĥŀş": 3172,
    "ŀœĲŮ": 3173,
    "ĤŗŞ": 3174,
    "ĵŜœ": 3175,
    "ĸŮĭľŖĐ": 3176,
    "ĹŜŗĒł": 3177,
    "ĜŗŃ": 3178,
    "ĥĤśşŜĖ": 3179,
    "ĩŰŅőŁĖ": 3180,
    "ŞőŜŒ": 3181,
    "œŔĭīŬ": 3182,
    "šĺľı": 3183,
    "ĿŜŜŋĖ": 3184,
    "ķīľľ": 3185,
    "ńœĳĽ": 3186,
    "łŕŀŗ": 3187,
    "ĲĻļĠ": 3188,
    "ĵĦĩĩĒ": 3189,
    "ņŅŀŘ": 3190,
    "ěğŰ": 3191,
    "ĭĹŜŃņĖ": 3192,
    "ĤŚłŗœš": 3193,
    "ıń": 3194,
    "šŘ": 3195,
    "ĦĢ": 3196,
    "ŽŞ": 3197,
    "Ďļ": 3198,
    "ŚŃ": 3199,
    "Ďĥ": 3200,
    "ŘŅ": 3201,
    "ŵş": 3202,
    "ņşŜĖ": 3203,
    "ĭħĢ": 3204,
    "Ĳŝń": 3205,
    "ĿĤŗł": 3206,
    "ŕŜŕ": 3207,
    "ŇńĤŮ": 3208,
    "ĳŞş": 3209,
    "ŗŒšįŬ": 3210,
    "ŇŚş": 3211,
    "ĭħĢķ": 3212,
    "Ģŗŝ": 3213,
    "ĥĤŗĐ": 3214,
    "ņřšĽ": 3215,
    "œłĤĽŬ": 3216,
    "śŘĤĽŬ": 3217,
    "ŅşŔ": 3218,
    "ŝŝŀ": 3219,
    "œŒĤŮ": 3220,
    "ĦįĢŰ": 3221,
    "ĩīĢŰ": 3222,
    "ĳŝŜ": 3223,
    "ĒńĤĭ": 3224,
    "ĠĪĩŰ": 3225,
    "ģĢřĐ": 3226,
    "ĸśŝ": 3227,
    "ăņő": 3228,
    "ņŕœś": 3229,
    "ŚşıŮ": 3230,
    "ħĨĥĳ": 3231,
    "Őőņł": 3232,
    "ĻıŋĐ": 3233,
    "šĺĤĢŝŅŕŞ": 3234,
    "ųŃĲĺľıŞř": 3235,
    "ŞŖ": 3236,
    "Řş": 3237,
    "Ņń": 3238,
    "ęŜ": 3239,
    "ĉġ": 3240,
    "ĮĠĠ": 3241,
    "őŜŘ": 3242,
    "őŞř": 3243,
    "ĿĵŖĐ": 3244,
    "śńŗĖ": 3245,
    "ĳŀŕ": 3246,
    "ĮŮĸĸŗĐ": 3247,
    "ģĥŁĐ": 3248,
    "Ģļĩ": 3249,
    "ĵġĢŰ": 3250,
    "ĳħĢķ": 3251,
    "ĿĿŜĐ": 3252,
    "ĒłŗŚ": 3253,
    "ĸśŃ": 3254,
    "ļĿŜ": 3255,
    "śŜŗĖ": 3256,
    "įĥļ": 3257,
    "ĲħĨ": 3258,
    "ŕĮģ": 3259,
    "ĵļĵŰ": 3260,
    "ĶŝłŗĖ": 3261,
    "ŝńĵĦŬ": 3262,
    "ŚŗĲŮ": 3263,
    "śńśřįŮ": 3264,
    "ĸĸśŃĒ": 3265,
    "ĥŀń": 3266,
    "ħœŃĒŅ": 3267,
    "ŖŃĳ": 3268,
    "ģĻĥļ": 3269,
    "ŁńŀŃ": 3270,
    "ņşķīŬ": 3271,
    "ĮĻĢĴ": 3272,
    "ĒłĩīĵŰ": 3273,
    "őŜŕĤŮ": 3274,
    "ĮġħŰ": 3275,
    "ŗŔĒŐĮļŬ": 3276,
    "ŕĮģļ": 3277,
    "ĮĢģķ": 3278,
    "ĎĢśń": 3279,
    "čĽŗł": 3280,
    "ųŅŁłĳįĠĹ": 3281,
    "ĠĩĭĹŜŃņĖ": 3282,
    "čĽŗłśŕ": 3283,
    "Ÿř": 3284,
    "ŰŚ": 3285,
    "ťř": 3286,
    "Ĺķ": 3287,
    "ģĹ": 3288,
    "ăľ": 3289,
    "Ţń": 3290,
    "Ťř": 3291,
    "ŋń": 3292,
    "ŜŕĒ": 3293,
    "įĸĸ": 3294,
    "ĳĪŬ": 3295,
    "ĤŚŕĒŒ": 3296,
    "őŜœ": 3297,
    "įĸœł": 3298,
    "ĭĢŀř": 3299,
    "ŁĮļ": 3300,
    "œĥŮĥľ": 3301,
    "Łńœń": 3302,
    "ıŞş": 3303,
    "ıŀś": 3304,
    "ņĖĮĨŬ": 3305,
    "ĮĠĨŰ": 3306,
    "ĪĹŜ": 3307,
    "ŇłĩŮ": 3308,
    "ĠıŜŔĒ": 3309,
    "Ēőņł": 3310,
    "œŚšĽ": 3311,
    "įįġ": 3312,
    "ĩģŁ": 3313,
    "ņœĲŮ": 3314,
    "ŅŗĸŮ": 3315,
    "ĒńĤĢ": 3316,
    "ļģģ": 3317,
    "ŗŃĒŗ": 3318,
    "Ēŀœń": 3319,
    "ĠļľĹ": 3320,
    "ĮĢŬ": 3321,
    "ĲīĢĤ": 3322,
    "łşŁş": 3323,
    "ĨĹļ": 3324,
    "Ěœŀ": 3325,
    "ăŗŀ": 3326,
    "Ĵŗŀ": 3327,
    "Ēťĵ": 3328,
    "ĶĦĩľ": 3329,
    "ĻĿĵŖĐ": 3330,
    "ĶĦĩĢŗĐ": 3331,
    "ņşŀĖ": 3332,
    "ĮĥśŜ": 3333,
    "ĻĸŗłŗĖ": 3334,
    "ĒŁĤļĩŰ": 3335,
    "ŐŅśŚ": 3336,
    "ĩĴĒńŚŗĵŮ": 3337,
    "ŗŞőœš": 3338,
    "łŚĠķ": 3339,
    "ņŃĳīŬ": 3340,
    "ĴŗŖ": 3341,
    "ĶśłŁłš": 3342,
    "ČįĢĹ": 3343,
    "ĵħġĵĒ": 3344,
    "ŀřĴĠĨŰ": 3345,
    "ŀşŇŘĥŮ": 3346,
    "ŁŞĨľŬ": 3347,
    "şřĳīŬ": 3348,
    "ĭķœřŜŅ": 3349,
    "ĊĹ": 3350,
    "ĒĦ": 3351,
    "īı": 3352,
    "œŊ": 3353,
    "ňş": 3354,
    "Īħ": 3355,
    "ĭľņĐ": 3356,
    "ŜŗŅ": 3357,
    "ĨĠĹ": 3358,
    "łŕŖĖ": 3359,
    "Ňśł": 3360,
    "Łńŀş": 3361,
    "ŗŔĒŞ": 3362,
    "ŝŃŗĖ": 3363,
    "ŗĳħ": 3364,
    "ĭīľŰ": 3365,
    "ŗĐœŘĥŮ": 3366,
    "śŘĵġŬ": 3367,
    "Łłĳħ": 3368,
    "ģīĸ": 3369,
    "Ĭīĸ": 3370,
    "ĵįĠŰ": 3371,
    "ıņŕŁĖ": 3372,
    "şřĲĺŬ": 3373,
    "şŗįŮ": 3374,
    "ĒńŚœĸŮ": 3375,
    "ıĒŝ": 3376,
    "ĮĨŬĤŚŕĒŅ": 3377,
    "şőśŘ": 3378,
    "ĪĹĳ": 3379,
    "ŝŅŜł": 3380,
    "ıġĿ": 3381,
    "ĲŮģĶĒńŚœš": 3382,
    "ıŐş": 3383,
    "ĄŚŕ": 3384,
    "ņşĢŮ": 3385,
    "Įıņń": 3386,
    "ŁĐŅœĳīŬ": 3387,
    "ĵĻľľ": 3388,
    "řĳĺĤŰ": 3389,
    "ĭĲŝŅņĖ": 3390,
    "ĠĬģĥņĐ": 3391,
    "Ŀĵŀņ": 3392,
    "ĸĸŀŕŗĖ": 3393,
    "įĮĿŇń": 3394,
    "čĥŁńŀŗĭħ": 3395,
    "ăŗŀņœ": 3396,
    "ĭį": 3397,
    "ŋŃ": 3398,
    "ŚŅ": 3399,
    "ħĹ": 3400,
    "Ťş": 3401,
    "Ţř": 3402,
    "ņŜ": 3403,
    "ĤŚř": 3404,
    "Ňœń": 3405,
    "Ľœń": 3406,
    "ņşĒł": 3407,
    "śŒš": 3408,
    "Ľģľ": 3409,
    "ĥķŬ": 3410,
    "ŕŜő": 3411,
    "ľĵőş": 3412,
    "ŞşįĩŬ": 3413,
    "ĠĹŜŗ": 3414,
    "ŔŗŅ": 3415,
    "ĨĢĩŰ": 3416,
    "Ēŀŀœ": 3417,
    "ĨĽĥĿŜĐ": 3418,
    "ŁŕœŅ": 3419,
    "ĹĢőŘ": 3420,
    "ĮĹĥľŕĐ": 3421,
    "ŝœř": 3422,
    "ŃĒŗįĪŬ": 3423,
    "řřŜőš": 3424,
    "ĒőŞŚ": 3425,
    "ŝŞŞŏš": 3426,
    "ŝŅŜŒ": 3427,
    "ĤīĸŰ": 3428,
    "ĩĽŗŞņĖ": 3429,
    "Ģħĭļ": 3430,
    "ĠļĠĩĒ": 3431,
    "ĒńĤľ": 3432,
    "ŝŔŇŕ": 3433,
    "ĭĲŞŕĒ": 3434,
    "şŒŗń": 3435,
    "ĥįĵŰ": 3436,
    "ŗńĨīĿŰ": 3437,
    "łŕŀş": 3438,
    "ĻļŰ": 3439,
    "ĭĹŜŕŖĖ": 3440,
    "Ĥŗŝł": 3441,
    "ĩĤŅŕ": 3442,
    "ĤįĿĤ": 3443,
    "ĤįġŰ": 3444,
    "ĦĭĦŗĐ": 3445,
    "ŇŅĵļĭļ": 3446,
    "ıŕőśŘ": 3447,
    "Ġŝ": 3448,
    "šĸ": 3449,
    "ĲĢ": 3450,
    "Ŗŉ": 3451,
    "ğĳ": 3452,
    "Ēľ": 3453,
    "ŇŕĒ": 3454,
    "ĠģĒ": 3455,
    "ĵĦĭľ": 3456,
    "ĤŚŕĒŵ": 3457,
    "ĳŝł": 3458,
    "ĩľŗł": 3459,
    "ġĵŖĐ": 3460,
    "œŀœ": 3461,
    "ŗŘĵħ": 3462,
    "ŗĖĠĠĨŰ": 3463,
    "ŰœŞŖĖ": 3464,
    "řĳĺŬ": 3465,
    "şşŁł": 3466,
    "ĥīĿŰ": 3467,
    "śŃņĖ": 3468,
    "Īĩģ": 3469,
    "ŔśŅ": 3470,
    "ŝņŗ": 3471,
    "ĨĠĩģĒ": 3472,
    "ĤĹşĐ": 3473,
    "ĒņĤļ": 3474,
    "įįĵĒ": 3475,
    "ġĹĤŚĐ": 3476,
    "ĥīĢĤ": 3477,
    "őœĲŮ": 3478,
    "ģģĦ": 3479,
    "įĹœŜ": 3480,
    "ĵĦĩĽ": 3481,
    "ņĮĽ": 3482,
    "ĒŸŗĖ": 3483,
    "ĩŰŝŖĒłĩīŬ": 3484,
    "šĹĤĿ": 3485,
    "ĤįĨ": 3486,
    "ĴĭĤŰ": 3487,
    "ĤģĩľņĐ": 3488,
    "ŁņĤĭ": 3489,
    "ŕłŝŃ": 3490,
    "ģłŕ": 3491,
    "ıłŀ": 3492,
    "ĨľĿşĐņŞĤŮ": 3493,
    "ħŗŕŜĖ": 3494,
    "œńśřįįĠŰ": 3495,
    "ĵħĺĵĒ": 3496,
    "ĢġĢĤśŞ": 3497,
    "ĳġĹķŚĐ": 3498,
    "ųŝŗńĨĭĭľ": 3499,
    "šĺĤĢŗŕĒ": 3500,
    "ăŗŀņœĬĬĩĢ": 3501,
    "Ŧń": 3502,
    "ĈĹ": 3503,
    "ĘĿ": 3504,
    "ăĻ": 3505,
    "śŕĒ": 3506,
    "ćĢŰ": 3507,
    "śŞĒł": 3508,
    "ĤŚŕĒŚ": 3509,
    "ŜŗŘ": 3510,
    "įĢĳ": 3511,
    "ŁĐņŞĤŮ": 3512,
    "œŚř": 3513,
    "śłĤŮ": 3514,
    "Ĺşŀ": 3515,
    "ņĳī": 3516,
    "ıŀŉ": 3517,
    "ĭģŝŞ": 3518,
    "ĸĿŜĐ": 3519,
    "ĤĠī": 3520,
    "ŀşĵħ": 3521,
    "ģĥģ": 3522,
    "ĠŮľĵ": 3523,
    "ĒŒŇł": 3524,
    "őńŝń": 3525,
    "ĲœŃ": 3526,
    "ĠļĸĹ": 3527,
    "ŗŃŁĖ": 3528,
    "œńņœ": 3529,
    "ĴļĵŰ": 3530,
    "ņŗĭŮ": 3531,
    "œŅšįŬ": 3532,
    "ĨīĢĤ": 3533,
    "ĶŝŜ": 3534,
    "ħħĠĽ": 3535,
    "ĵīĭĽ": 3536,
    "ŅŞĤĠŬ": 3537,
    "ĸĵœŝ": 3538,
    "ņŕĩŮ": 3539,
    "ŅřņŞšĺĤĵĒ": 3540,
    "ŁĐŦŞĤŮ": 3541,
    "ĲħĸĹŝŞ": 3542,
    "ģļŝŗ": 3543,
    "ĪĿŇł": 3544,
    "ıŕŕĒ": 3545,
    "ŔłŝśšĺĤĵĒ": 3546,
    "ŗŔĒŔĸŮĸĸŗĐ": 3547,
    "ĸĹşŕĒ": 3548,
    "œńśřįĽŬ": 3549,
    "Ġĺĸļ": 3550,
    "ņœĠģŬ": 3551,
    "ħĢĳŞŅ": 3552,
    "ĮĢĠĿŅ": 3553,
    "ĹģņłœŚ": 3554,
    "ŅŘśŚĤŮ": 3555,
    "ďīľĿ": 3556,
    "łłŝŒĴĭ": 3557,
    "ŋŜ": 3558,
    "Čī": 3559,
    "ŀŝ": 3560,
    "ġģ": 3561,
    "ĚĹ": 3562,
    "Āĭ": 3563,
    "Šŕ": 3564,
    "ŗŏ": 3565,
    "ŵł": 3566,
    "ĘĢ": 3567,
    "ĤŚŕĒŷ": 3568,
    "Ġŝł": 3569,
    "ıŜŞ": 3570,
    "ıīĨŰ": 3571,
    "œŞŋĖ": 3572,
    "śłĤĪŬ": 3573,
    "ŗŞŗń": 3574,
    "ŗŞŖĖ": 3575,
    "įĩĿŰ": 3576,
    "ĳīĿŰ": 3577,
    "ĦīĢ": 3578,
    "ĵŜŔĒ": 3579,
    "ĭģĒńŚœš": 3580,
    "œĐŀœ": 3581,
    "ĳħĨ": 3582,
    "őŀłš": 3583,
    "ĩħīĸ": 3584,
    "ņŞĨĽŬ": 3585,
    "ķġĠ": 3586,
    "ĴĽĸŰ": 3587,
    "ĵĒńŚŗ": 3588,
    "ņŘśŅš": 3589,
    "Ĥĸĩļ": 3590,
    "şřŞŚ": 3591,
    "œœŚĖ": 3592,
    "ĮľŬ": 3593,
    "ĒřņŅš": 3594,
    "ĸĸŗŝ": 3595,
    "ĩīľĵĒ": 3596,
    "ŗŒšĺĤıņĐ": 3597,
    "ıŖŕĒ": 3598,
    "ġĢļŋĐ": 3599,
    "ĢġĹľ": 3600,
    "ŗŔĒłĩįĸŰ": 3601,
    "ķīĠĿ": 3602,
    "ıļģĦ": 3603,
    "ıīľĹ": 3604,
    "ĿĠŗœ": 3605,
    "Ŝşŀł": 3606,
    "ņřőĖ": 3607,
    "ġġĵĒ": 3608,
    "ĩĴĒŇśłĩŮ": 3609,
    "ņŘŀœĤŮ": 3610,
    "ħŝŅŞŒš": 3611,
    "đŇŃņńĠĢ": 3612,
    "đşŕŀşĢįĢŰ": 3613,
    "śŞőŚĴĪ": 3614,
    "ĲŗńŅœ": 3615,
    "Ĵī": 3616,
    "ĳļ": 3617,
    "ŖŔ": 3618,
    "ťŗ": 3619,
    "ĄĹ": 3620,
    "Ēũ": 3621,
    "ĵĠ": 3622,
    "śň": 3623,
    "ĸľ": 3624,
    "ĻŮ": 3625,
    "čŬ": 3626,
    "ŁŁ": 3627,
    "ĽśŞ": 3628,
    "ņřįŮ": 3629,
    "ŀœŅ": 3630,
    "ġĹŜŗ": 3631,
    "įįŬ": 3632,
    "ĨĺĩĴĒ": 3633,
    "śœŗĖ": 3634,
    "ĹŜĐœĖ": 3635,
    "őłņ": 3636,
    "ıŁĐœĖ": 3637,
    "œŅĲ": 3638,
    "Ĥœś": 3639,
    "ĢĻľ": 3640,
    "ĲĺľĹ": 3641,
    "őşŇŘ": 3642,
    "śņŗń": 3643,
    "ģĶĒńŚœ": 3644,
    "ŝŀĤļŬ": 3645,
    "ĭĠœŞ": 3646,
    "ŗŔĒŗįĪŬ": 3647,
    "ŚœįŮ": 3648,
    "ĿĵœŃ": 3649,
    "ĲĽĥĿŜĐ": 3650,
    "śŞņœĳ": 3651,
    "ŔĴĺŬ": 3652,
    "őşĵķŬ": 3653,
    "ħœŉ": 3654,
    "ģġĹĤ": 3655,
    "šĦĥģĒ": 3656,
    "ŇńĨĠīŰņŘŗĖ": 3657,
    "ŁŅłņ": 3658,
    "łřĳĺ": 3659,
    "ĩıŀŃĒ": 3660,
    "ŗŔĒŁĨĺĤŰ": 3661,
    "ĵĦģĥŕŘ": 3662,
    "ıŔńŗńš": 3663,
    "ĤŚłŝŃ": 3664,
    "ľŝłņŞ": 3665,
    "ĦįĥľŁń": 3666,
    "ďīĻŰ": 3667,
    "ĲīľĦ": 3668,
    "ŵŕŀś": 3669,
    "ĆĿ": 3670,
    "ăļ": 3671,
    "ŜŘ": 3672,
    "ſŕ": 3673,
    "Ėħ": 3674,
    "ĻŬ": 3675,
    "ŋŀ": 3676,
    "ųŐ": 3677,
    "Ÿş": 3678,
    "ĒńŚş": 3679,
    "ļœŞ": 3680,
    "ķœŞ": 3681,
[...]
