{
  "vocab_size": 4000,
  "special_tokens": [
    "<pad>",
    "<bos>",
    "<eos>",
    "<unk>"
  ],
  "split_pattern": null,
  "merges": [
    [
      "ĩ",
      "Ű"
    ],
    [
      "ŕ",
      "Ē"
    ],
    [
      "ŗ",
      "Ė"
    ],
    [
      "Ĥ",
      "Ů"
    ],
    [
      "ŗ",
      "Đ"
    ],
    [
      "ĵ",
      "Ē"
    ],
    [
      "ī",
      "Ŭ"
    ],
    [
      "œ",
      "š"
    ],
    [
      "Ē",
      "ń"
    ],
    [
      "Ē",
      "ł"
    ],
    [
      "Ł",
      "Ė"
    ],
    [
      "Ĳ",
      "Ů"
    ],
    [
      "Ŀ",
      "Ű"
    ],
    [
      "Ľ",
      "Ŭ"
    ],
    [
      "Ł",
      "Đ"
    ],
    [
      "š",
      "ĺ"
    ],
    [
      "Ĥ",
      "Ś"
    ],
    [
      "ņ",
      "Ş"
    ],
    [
      "ņ",
      "Ř"
    ],
    [
      "ĸ",
      "ĸ"
    ],
    [
      "ĵ",
      "Ħ"
    ],
    [
      "Ī",
      "Ŭ"
    ],
    [
      "Ĩ",
      "Ű"
    ],
    [
      "Ŗ",
      "Ė"
    ],
    [
      "ģ",
      "Ē"
    ],
    [
      "Ŗ",
      "Đ"
    ],
    [
      "ĥ",
      "Ů"
    ],
    [
      "Ń",
      "Ē"
    ],
    [
      "Ġ",
      "Ŭ"
    ],
    [
      "Ņ",
      "š"
    ],
    [
      "Ģ",
      "Ű"
    ],
    [
      "į",
      "Ů"
    ],
    [
      "Ŝ",
      "Ė"
    ],
    [
      "œ",
      "ł"
    ],
    [
      "Ŝ",
      "Đ"
    ],
    [
      "ŗ",
      "ń"
    ],
    [
      "œ",
      "ń"
    ],
    [
      "ĥ",
      "ľ"
    ],
    [
      "ŗ",
      "ł"
    ],
    [
      "ś",
      "Ř"
    ],
    [
      "ś",
      "Ş"
    ],
    [
      "Ŕ",
      "Ē"
    ],
    [
      "Ĵ",
      "Ē"
    ],
    [
      "Ēń",
      "Ś"
    ],
    [
      "œ",
      "Ş"
    ],
    [
      "ĭ",
      "ľ"
    ],
    [
      "šĺ",
      "Ĥ"
    ],
    [
      "ī",
      "ľ"
    ],
    [
      "ĩ",
      "Ģ"
    ],
    [
      "ĵ",
      "ŀ"
    ],
    [
      "ĩ",
      "īŬ"
    ],
    [
      "Ĥ",
      "ļ"
    ],
    [
      "ņ",
      "ř"
    ],
    [
      "ŕ",
      "ŀ"
    ],
    [
      "Œ",
      "š"
    ],
    [
      "ņ",
      "ş"
    ],
    [
      "œ",
      "Ř"
    ],
    [
      "ĺ",
      "Ŭ"
    ],
    [
      "ņ",
      "Ė"
    ],
    [
      "ĵ",
      "Ů"
    ],
    [
      "ĸ",
      "Ű"
    ],
    [
      "ņ",
      "Đ"
    ],
    [
      "Ŝ",
      "ŗ"
    ],
    [
      "ĤŚ",
      "ŕĒ"
    ],
    [
      "ņŘ",
      "ŗĖ"
    ],
    [
      "œ",
      "ĳ"
    ],
    [
      "ĵĦ",
      "ĩŰ"
    ],
    [
      "ŝ",
      "ł"
    ],
    [
      "ŝ",
      "Ş"
    ],
    [
      "į",
      "Ģ"
    ],
    [
      "ħ",
      "Ģ"
    ],
    [
      "ĸĸ",
      "ŗĐ"
    ],
    [
      "ĭ",
      "Ĥ"
    ],
    [
      "Ĩ",
      "Ġ"
    ],
    [
      "ģ",
      "ľ"
    ],
    [
      "Ġ",
      "ļ"
    ],
    [
      "ĭ",
      "Ģ"
    ],
    [
      "ŝ",
      "Ř"
    ],
    [
      "Ġ",
      "Ġ"
    ],
    [
      "ő",
      "Ŝ"
    ],
    [
      "šĺĤ",
      "ĵĒ"
    ],
    [
      "ņŞ",
      "ĤŮ"
    ],
    [
      "œ",
      "Ś"
    ],
    [
      "Ē",
      "ŗ"
    ],
    [
      "ő",
      "Ş"
    ],
    [
      "ĒńŚ",
      "œš"
    ],
    [
      "ı",
      "Ŝ"
    ],
    [
      "Ē",
      "ř"
    ],
    [
      "Ē",
      "ş"
    ],
    [
      "ŝ",
      "ń"
    ],
    [
      "į",
      "ĸ"
    ],
    [
      "Ēł",
      "ĩīŬ"
    ],
    [
      "Ĥ",
      "ĪŬ"
    ],
    [
      "Į",
      "ļ"
    ],
    [
      "ŕ",
      "ŖĖ"
    ],
    [
      "ŀ",
      "ř"
    ],
    [
      "ī",
      "ĨŰ"
    ],
    [
      "ŀ",
      "ş"
    ],
    [
      "ĵ",
      "ŖĐ"
    ],
    [
      "ĵ",
      "Ű"
    ],
    [
      "ģ",
      "Ģ"
    ],
    [
      "ŋ",
      "Ė"
    ],
    [
      "ĩ",
      "ľ"
    ],
    [
      "ś",
      "ł"
    ],
    [
      "ķ",
      "Ŭ"
    ],
    [
      "ś",
      "ń"
    ],
    [
      "ĸ",
      "Ů"
    ],
    [
      "ŋ",
      "Đ"
    ],
    [
      "ŀ",
      "œ"
    ],
    [
      "ġ",
      "ľ"
    ],
    [
      "ő",
      "ş"
    ],
    [
      "ŗ",
      "Ş"
    ],
    [
      "ř",
      "Ŝ"
    ],
    [
      "ŗ",
      "Ř"
    ],
    [
      "ŀ",
      "ŕ"
    ],
    [
      "œ",
      "ĥŮ"
    ],
    [
      "į",
      "ľ"
    ],
    [
      "Ġ",
      "Ģ"
    ],
    [
      "Ŀ",
      "ŀ"
    ],
    [
      "œ",
      "Ŝ"
    ],
    [
      "ŏ",
      "š"
    ],
    [
      "ŝ",
      "Ő"
    ],
    [
      "ş",
      "į"
    ],
    [
      "ŗ",
      "ŔĒ"
    ],
    [
      "Ł",
      "ń"
    ],
    [
      "Ł",
      "ł"
    ],
    [
      "ş",
      "ŀ"
    ],
    [
      "Ŀ",
      "Ĥ"
    ],
    [
      "ģ",
      "Ű"
    ],
    [
      "ġ",
      "Ŭ"
    ],
    [
      "ĳ",
      "ī"
    ],
    [
      "Ē",
      "ő"
    ],
    [
      "ĭ",
      "ļ"
    ],
    [
      "Į",
      "Ů"
    ],
    [
      "ĩ",
      "ĴĒ"
    ],
    [
      "ŝ",
      "Ė"
    ],
    [
      "ı",
      "Ş"
    ],
    [
      "į",
      "ĪŬ"
    ],
    [
      "ŝ",
      "Đ"
    ],
    [
      "Ĩ",
      "Ŭ"
    ],
    [
      "ġ",
      "Ĺ"
    ],
    [
      "ı",
      "ŀ"
    ],
    [
      "ŝ",
      "Ņ"
    ],
    [
      "ī",
      "Ģ"
    ],
    [
      "ŝ",
      "Ń"
    ],
    [
      "ŝ",
      "Ŗ"
    ],
    [
      "Ī",
      "Ű"
    ],
    [
      "Ŕ",
      "Đ"
    ],
    [
      "ħ",
      "Ů"
    ],
    [
      "Ŕ",
      "Ė"
    ],
    [
      "ő",
      "ř"
    ],
    [
      "ģ",
      "Ķ"
    ],
    [
      "Ġ",
      "ĺ"
    ],
    [
      "ĵ",
      "Ŝ"
    ],
    [
      "ĭ",
      "ģ"
    ],
    [
      "ś",
      "ŕ"
    ],
    [
      "ġ",
      "Ģ"
    ],
    [
      "ĵ",
      "ħ"
    ],
    [
      "Į",
      "ĨŬ"
    ],
    [
      "į",
      "Ġ"
    ],
    [
      "ĩ",
      "Ē"
    ],
    [
      "ŗ",
      "Œš"
    ],
    [
      "ő",
      "ŀ"
    ],
    [
      "į",
      "Ŀ"
    ],
    [
      "ĸ",
      "Ŀ"
    ],
    [
      "ŗ",
      "ĳ"
    ],
    [
      "Ŀ",
      "ŔĐ"
    ],
    [
      "Ĺ",
      "Ŝ"
    ],
    [
      "Ĥ",
      "Ġ"
    ],
    [
      "ġ",
      "ĪŰ"
    ],
    [
      "ļ",
      "ĩ"
    ],
    [
      "Į",
      "Ġ"
    ],
    [
      "ĭ",
      "Ű"
    ],
    [
      "œ",
      "Đ"
    ],
    [
      "Ň",
      "ń"
    ],
    [
      "ĠĠ",
      "ĨŰ"
    ],
    [
      "œ",
      "Ė"
    ],
    [
      "Ś",
      "ř"
    ],
    [
      "ĭľ",
      "ŖĐ"
    ],
    [
      "ŕ",
      "Ŝ"
    ],
    [
      "Ħ",
      "Ů"
    ],
    [
      "Ĩ",
      "ĺ"
    ],
    [
      "ŕ",
      "Đ"
    ],
    [
      "Ġ",
      "Ů"
    ],
    [
      "ĵŀ",
      "Đ"
    ],
    [
      "œŞ",
      "ŖĖ"
    ],
    [
      "ī",
      "Ű"
    ],
    [
      "į",
      "Ŭ"
    ],
    [
      "ĩ",
      "Ŭ"
    ],
    [
      "Ň",
      "ł"
    ],
    [
      "ģ",
      "ĥ"
    ],
    [
      "ľ",
      "ĵ"
    ],
    [
      "ŕ",
      "Ė"
    ],
    [
      "ř",
      "ĳ"
    ],
    [
      "Ĥļ",
      "Ŭ"
    ],
    [
      "Ħ",
      "ĩŰ"
    ],
    [
      "ś",
      "œ"
    ],
    [
      "Ē",
      "Ņ"
    ],
    [
      "ġ",
      "ĢŰ"
    ],
    [
      "Ł",
      "ş"
    ],
    [
      "Ĺ",
      "Ŝŗ"
    ],
    [
      "ŕŀ",
      "Ė"
    ],
    [
      "īľ",
      "Ű"
    ],
    [
      "ħĢ",
      "ķ"
    ],
    [
      "Ł",
      "ř"
    ],
    [
      "ĭ",
      "Ů"
    ],
    [
      "Ş",
      "ş"
    ],
    [
      "Ģ",
      "ŗ"
    ],
    [
      "Ś",
      "ş"
    ],
    [
      "Į",
      "ĠŬ"
    ],
    [
      "ĩ",
      "Ů"
    ],
    [
      "Ŀ",
      "ŜĐ"
    ],
    [
      "į",
      "ĺ"
    ],
    [
      "Ĩ",
      "ĠŬ"
    ],
    [
      "ŉ",
      "Ē"
    ],
    [
      "ĩ",
      "ħ"
    ],
    [
      "ĭ",
      "ħ"
    ],
    [
      "Ş",
      "ř"
    ],
    [
      "œŘ",
      "ĥŮ"
    ],
    [
      "š",
      "Ĺ"
    ],
    [
      "Į",
      "Ļ"
    ],
    [
      "ŗ",
      "Ņ"
    ],
    [
      "ĥľ",
      "ŕĐ"
    ],
    [
      "ő",
      "ń"
    ],
    [
      "Ĺ",
      "ŜĐ"
    ],
    [
      "ĥ",
      "Ĥ"
    ],
    [
      "ħ",
      "ĢŰ"
    ],
    [
      "ŗ",
      "Ś"
    ],
    [
      "ĨĠ",
      "īŰ"
    ],
    [
      "Ē",
      "Ŕ"
    ],
    [
      "œĳ",
      "Ů"
    ],
    [
      "ıŜ",
      "ŔĒ"
    ],
    [
      "š",
      "Ľ"
    ],
    [
      "śŞ",
      "ŕĖ"
    ],
    [
      "Ē",
      "Ń"
    ],
    [
      "įĢ",
      "ĴĒ"
    ],
    [
      "ś",
      "ş"
    ],
    [
      "Ĳ",
      "ĺ"
    ],
    [
      "ŝ",
      "ś"
    ],
    [
      "Ē",
      "Œ"
    ],
    [
      "ĕ",
      "ĦĩŰ"
    ],
    [
      "Ĥ",
      "Ĺ"
    ],
    [
      "ĵ",
      "ġŬ"
    ],
    [
      "ő",
      "ł"
    ],
    [
      "ņ",
      "ń"
    ],
    [
      "Ē",
      "Ł"
    ],
    [
      "ŕ",
      "Ş"
    ],
    [
      "ś",
      "ř"
    ],
    [
      "ŗ",
      "ŗ"
    ],
    [
      "ı",
      "ŁĐ"
    ],
    [
      "ĸ",
      "Ĺ"
    ],
    [
      "ņ",
      "ł"
    ],
    [
      "Ĥ",
      "ŝĐ"
    ],
    [
      "śŘ",
      "ĦŮ"
    ],
    [
      "ŗ",
      "œ"
    ],
    [
      "ľ",
      "Ŀ"
    ],
    [
      "Ē",
      "œ"
    ],
    [
      "į",
      "ĿŰ"
    ],
    [
      "ŗ",
      "ŕ"
    ],
    [
      "Ē",
      "ŕ"
    ],
    [
      "ģ",
      "ļ"
    ],
    [
      "Ġ",
      "ĽŬ"
    ],
    [
      "œ",
      "Ń"
    ],
    [
      "œ",
      "Ņ"
    ],
    [
      "Ē",
      "Ň"
    ],
    [
      "řŜ",
      "ő"
    ],
    [
      "őŜ",
      "Œš"
    ],
    [
      "Ē",
      "Ş"
    ],
    [
      "ś",
      "Ń"
    ],
    [
      "Ĥ",
      "ĽŬ"
    ],
    [
      "ī",
      "ĿŰ"
    ],
    [
      "ĥ",
      "ĳ"
    ],
    [
      "ĩ",
      "ģ"
    ],
    [
      "ś",
      "Ņ"
    ],
    [
      "ŗ",
      "Œ"
    ],
    [
      "į",
      "ġ"
    ],
    [
      "Ĥ",
      "Ľ"
    ],
    [
      "Ē",
      "Ř"
    ],
    [
      "Ĩ",
      "Ľ"
    ],
    [
      "ŀ",
      "ŗ"
    ],
    [
      "ĵ",
      "ŁĐ"
    ],
    [
      "ő",
      "Ř"
    ],
    [
      "Ŀ",
      "Ĺ"
    ],
    [
      "ŗ",
      "Ń"
    ],
    [
      "Ĥ",
      "Ű"
    ],
    [
      "ĳ",
      "ġ"
    ],
    [
      "Ņ",
      "ş"
    ],
    [
      "Ĩ",
      "Ģ"
    ],
    [
      "Ņ",
      "Ş"
    ],
    [
      "ŗń",
      "š"
    ],
    [
      "ĥ",
      "ģ"
    ],
    [
      "Ł",
      "œ"
    ],
    [
      "ņ",
      "œ"
    ],
    [
      "ŝ",
      "ŝ"
    ],
    [
      "šĺ",
      "ģŰ"
    ],
    [
      "ş",
      "ş"
    ],
    [
      "Ĩ",
      "ĭ"
    ],
    [
      "œ",
      "ŃĒ"
    ],
    [
      "Ŗ",
      "œ"
    ],
    [
      "ĭ",
      "ģĒ"
    ],
    [
      "ő",
      "ŁĖ"
    ],
    [
      "Ĥ",
      "Ģ"
    ],
    [
      "Ġ",
      "Ĺ"
    ],
    [
      "ŝŘ",
      "š"
    ],
    [
      "Ēń",
      "ŝĖ"
    ],
    [
      "Ĵ",
      "ļ"
    ],
    [
      "ņ",
      "ŗ"
    ],
    [
      "Ŀ",
      "Ŝ"
    ],
    [
      "ĩ",
      "ļ"
    ],
    [
      "ĩ",
      "ģĒ"
    ],
    [
      "ś",
      "ŗ"
    ],
    [
      "ĥ",
      "ļ"
    ],
    [
      "ś",
      "Ŝ"
    ],
    [
      "Ł",
      "Ņ"
    ],
    [
      "Ļ",
      "ľ"
    ],
    [
      "Ş",
      "ŗ"
    ],
    [
      "ŗ",
      "ŃĒ"
    ],
    [
      "Ēş",
      "ŔĖ"
    ],
    [
      "Ĳ",
      "ħ"
    ],
    [
      "ŗ",
      "ő"
    ],
    [
      "Ś",
      "Ė"
    ],
    [
      "ş",
      "ř"
    ],
    [
      "Ņ",
      "ŗ"
    ],
    [
      "Ġ",
      "ģ"
    ],
    [
      "Ģ",
      "Ħ"
    ],
    [
      "Ł",
      "Ń"
    ],
    [
      "ĳ",
      "ħ"
    ],
    [
      "ļ",
      "ģ"
    ],
    [
      "Ē",
      "ņ"
    ],
    [
      "ş",
      "Đ"
    ],
    [
      "œ",
      "ś"
    ],
    [
      "œ",
      "Ņš"
    ],
    [
      "ś",
      "ő"
    ],
    [
      "Ĭ",
      "Ů"
    ],
    [
      "Ĥ",
      "ĵĒ"
    ],
    [
      "Ēł",
      "ĮŮ"
    ],
    [
      "Į",
      "ģ"
    ],
    [
      "Ē",
      "ŀ"
    ],
    [
      "Ŗ",
      "ř"
    ],
    [
      "ĸ",
      "Ģ"
    ],
    [
      "ŕ",
      "ŁĖ"
    ],
    [
      "Ŝ",
      "ő"
    ],
    [
      "ŗ",
      "Ŕ"
    ],
    [
      "Ŗ",
      "ş"
    ],
    [
      "ŕ",
      "ş"
    ],
    [
      "şį",
      "ĩŬ"
    ],
    [
      "Į",
      "Ģ"
    ],
    [
      "Ŕ",
      "ř"
    ],
    [
      "ĵŜ",
      "ń"
    ],
    [
      "ś",
      "Ś"
    ],
    [
      "ĩ",
      "ı"
    ],
    [
      "Ġ",
      "Ľ"
    ],
    [
      "œ",
      "Œ"
    ],
    [
      "ľ",
      "Ĺ"
    ],
    [
      "ŝŐ",
      "š"
    ],
    [
      "Ņ",
      "ř"
    ],
    [
      "į",
      "ĢŰ"
    ],
    [
      "Ġ",
      "ĠŬ"
    ],
    [
      "Ŝ",
      "œ"
    ],
    [
      "ł",
      "š"
    ],
    [
      "Ē",
      "Ő"
    ],
    [
      "őŞ",
      "Ė"
    ],
    [
      "ĭ",
      "Ľ"
    ],
    [
      "œ",
      "ŝ"
    ],
    [
      "Ġ",
      "ĩ"
    ],
    [
      "ĵ",
      "ļ"
    ],
    [
      "Ň",
      "Ş"
    ],
    [
      "Ň",
      "Ř"
    ],
    [
      "ő",
      "ŗ"
    ],
    [
      "Ēř",
      "ħŮ"
    ],
    [
      "ĭ",
      "ĳ"
    ],
    [
      "ĵħ",
      "ģľ"
    ],
    [
      "ĩ",
      "ī"
    ],
    [
      "Ŕ",
      "ş"
    ],
    [
      "ř",
      "ŜĖ"
    ],
    [
      "Ĵ",
      "Ġ"
    ],
    [
      "ĠĢ",
      "Ŭ"
    ],
    [
      "ņř",
      "š"
    ],
    [
      "į",
      "Ī"
    ],
    [
      "Ġ",
      "ĺŬ"
    ],
    [
      "Ś",
      "œš"
    ],
    [
      "ĩ",
      "Ĥ"
    ],
    [
      "īĢ",
      "Ĥ"
    ],
    [
      "œ",
      "Ŕ"
    ],
    [
      "śŘ",
      "š"
    ],
    [
      "ī",
      "ĸ"
    ],
    [
      "Ĩ",
      "ġĢŰ"
    ],
    [
      "ĤŚ",
      "Đ"
    ],
    [
      "ı",
      "ŜĐ"
    ],
    [
      "ŝ",
      "ņ"
    ],
    [
      "Ş",
      "ő"
    ],
    [
      "ġ",
      "Ű"
    ],
    [
      "įĠ",
      "Ű"
    ],
    [
      "śş",
      "ŜĖ"
    ],
    [
      "ġ",
      "Ġ"
    ],
    [
      "Ś",
      "Đ"
    ],
    [
      "ł",
      "ł"
    ],
    [
      "Ĩ",
      "ĸ"
    ],
    [
      "į",
      "į"
    ],
    [
      "ĩ",
      "Ĵ"
    ],
    [
      "œ",
      "ņ"
    ],
    [
      "ı",
      "ņ"
    ],
    [
      "ś",
      "ŀ"
    ],
    [
      "į",
      "ĸŰ"
    ],
    [
      "Ĩ",
      "ĽŬ"
    ],
    [
      "Ē",
      "Ŗ"
    ],
    [
      "ı",
      "ņĐ"
    ],
    [
      "ŗ",
      "Ŝ"
    ],
    [
      "Ĥ",
      "ĭ"
    ],
    [
      "ŝ",
      "Ŝ"
    ],
    [
      "ł",
      "ń"
    ],
    [
      "Ēŗ",
      "įĪŬ"
    ],
    [
      "ıŞ",
      "Đ"
    ],
    [
      "Ē",
      "Ť"
    ],
    [
      "ĥ",
      "ĿŜĐ"
    ],
    [
      "ş",
      "ŗ"
    ],
    [
      "Ĺ",
      "Ģ"
    ],
    [
      "ś",
      "ņ"
    ],
    [
      "ş",
      "ŔĖ"
    ],
    [
      "Ł",
      "ŕ"
    ],
    [
      "Ŀŀ",
      "Đ"
    ],
    [
      "ĳ",
      "Ů"
    ],
    [
      "Ķ",
      "ŝł"
    ],
    [
      "ş",
      "įŮ"
    ],
    [
      "ł",
      "ř"
    ],
    [
      "Ś",
      "ŗ"
    ],
    [
      "ŗ",
      "Ņš"
    ],
    [
      "ġľ",
      "Ű"
    ],
    [
      "ĵĦ",
      "Ŭ"
    ],
    [
      "Įļ",
      "Ŭ"
    ],
    [
      "ĵ",
      "Ş"
    ],
    [
      "Ē",
      "Ţ"
    ],
    [
      "į",
      "ī"
    ],
    [
      "Ĩ",
      "Ĺ"
    ],
    [
      "ĥ",
      "Ģ"
    ],
    [
      "į",
      "ļ"
    ],
    [
      "į",
      "ħ"
    ],
    [
      "į",
      "ĩŬ"
    ],
    [
      "ŝ",
      "Ś"
    ],
    [
      "ŗ",
      "ņ"
    ],
    [
      "ŝ",
      "ŀ"
    ],
    [
      "Ĳ",
      "ĺŬ"
    ],
    [
      "Ł",
      "Ř"
    ],
    [
      "Ģ",
      "ĥ"
    ],
    [
      "œ",
      "ŀ"
    ],
    [
      "Ś",
      "ŕĒ"
    ],
    [
      "ĒńŚ",
      "œ"
    ],
    [
      "ł",
      "ş"
    ],
    [
      "Ġ",
      "Ű"
    ],
    [
      "Ŝ",
      "ş"
    ],
    [
      "Ĩ",
      "Ī"
    ],
    [
      "ĭ",
      "ķŬ"
    ],
    [
      "ĸ",
      "ŗĐ"
    ],
    [
      "ŝ",
      "Ň"
    ],
    [
      "śř",
      "įŮ"
    ],
    [
      "Ł",
      "Ş"
    ],
    [
      "Ē",
      "ű"
    ],
    [
      "Ņ",
      "Ř"
    ],
    [
      "Į",
      "Ĺ"
    ],
    [
      "š",
      "Ĭ"
    ],
    [
      "ś",
      "ŃĒ"
    ],
    [
      "Ņ",
      "őŁĖ"
    ],
    [
      "ĵ",
      "īĨŰ"
    ],
    [
      "ģ",
      "ģ"
    ],
    [
      "Ĩ",
      "ļ"
    ],
    [
      "ő",
      "œ"
    ],
    [
      "Ĩ",
      "ģĢ"
    ],
    [
      "Ş",
      "œ"
    ],
    [
      "ř",
      "ħŮ"
    ],
    [
      "š",
      "ġĪŰ"
    ],
    [
      "œ",
      "ŕ"
    ],
    [
      "Ļ",
      "ıŁĐ"
    ],
    [
      "ő",
      "ņĖ"
    ],
    [
      "ĩ",
      "ĳ"
    ],
    [
      "Ē",
      "ŷ"
    ],
    [
      "œ",
      "ř"
    ],
    [
      "Ē",
      "ś"
    ],
    [
      "Ķ",
      "įĿŰ"
    ],
    [
      "ś",
      "ś"
    ],
    [
      "ŗ",
      "ŀ"
    ],
    [
      "ĭ",
      "Ġ"
    ],
    [
      "Ŕ",
      "şŀ"
    ],
    [
      "Ŝ",
      "ř"
    ],
    [
      "ő",
      "ő"
    ],
    [
      "š",
      "ľ"
    ],
    [
      "Ŗ",
      "ŕ"
    ],
    [
      "ŗ",
      "įĪŬ"
    ],
    [
      "ŕ",
      "Ř"
    ],
    [
      "ĵĒ",
      "ń"
    ],
    [
      "Ħ",
      "ĥ"
    ],
    [
      "Ŕ",
      "ń"
    ],
    [
      "Ŧ",
      "Ş"
    ],
    [
      "ś",
      "Œ"
    ],
    [
      "ŗ",
      "ś"
    ],
    [
      "ĥ",
      "ī"
    ],
    [
      "Ň",
      "Ś"
    ],
    [
      "į",
      "Ĺ"
    ],
    [
      "Ŕ",
      "řĳ"
    ],
    [
      "ŝ",
      "Ł"
    ],
    [
      "Ē",
      "ť"
    ],
    [
      "Ĵ",
      "Ľ"
    ],
    [
      "Ņŗ",
      "ĲŮ"
    ],
    [
      "ĩ",
      "Ľ"
    ],
    [
      "Ĩ",
      "ĵ"
    ],
    [
      "Ļ",
      "ĸ"
    ],
    [
      "Ŧ",
      "Ř"
    ],
    [
      "ŕĒ",
      "ł"
    ],
    [
      "ħ",
      "ľ"
    ],
    [
      "Ē",
      "ţ"
    ],
    [
      "ĥ",
      "ŀ"
    ],
    [
      "Ş",
      "Ė"
    ],
    [
      "Ē",
      "ŝ"
    ],
    [
      "Ģ",
      "ĺ"
    ],
    [
      "őŜ",
      "Œ"
    ],
    [
      "ş",
      "Ė"
    ],
    [
      "Ī",
      "Ĺ"
    ],
    [
      "ś",
      "Ŕ"
    ],
    [
      "ń",
      "œ"
    ],
    [
      "řŜő",
      "š"
    ],
    [
      "ĵ",
      "ĽŬ"
    ],
    [
      "œŘ",
      "š"
    ],
    [
      "Ň",
      "Ń"
    ],
    [
      "ĮĨŬ",
      "ĤŚŕĒ"
    ],
    [
      "ģ",
      "ħ"
    ],
    [
      "Ş",
      "Đ"
    ],
    [
      "ĥ",
      "ħ"
    ],
    [
      "į",
      "Ĥ"
    ],
    [
      "ş",
      "ő"
    ],
    [
      "Ś",
      "œ"
    ],
    [
      "Ġ",
      "Ŀ"
    ],
    [
      "ġ",
      "Ŀ"
    ],
    [
      "Ġ",
      "ĵ"
    ],
    [
      "Ő",
      "œ"
    ],
    [
      "Ĥ",
      "ĺ"
    ],
    [
      "ń",
      "ř"
    ],
    [
      "Ŝ",
      "ŕ"
    ],
    [
      "ś",
      "Ņš"
    ],
    [
      "ŕŜ",
      "ł"
    ],
    [
      "Ēř",
      "ŜĖ"
    ],
    [
      "Ĵ",
      "Ģ"
    ],
    [
      "ĵ",
      "ŜĐ"
    ],
    [
      "Ļ",
      "Ģ"
    ],
    [
      "ı",
      "ņř"
    ],
    [
      "Ŝ",
      "ł"
    ],
    [
      "Ĥ",
      "ģ"
    ],
    [
      "ĵ",
      "ī"
    ],
    [
      "Ĥ",
      "ĠŬ"
    ],
    [
      "Ē",
      "ŵ"
    ],
    [
      "Ē",
      "Ų"
    ],
    [
      "œŚ",
      "š"
    ],
    [
      "Ĩ",
      "ģ"
    ],
    [
      "ĭ",
      "ī"
    ],
    [
      "ħ",
      "œŃĒ"
    ],
    [
      "Ň",
      "Ņ"
    ],
    [
      "Ŕ",
      "ł"
    ],
    [
      "ĭ",
      "Ĵ"
    ],
    [
      "Ġ",
      "ĭ"
    ],
    [
      "Ĺ",
      "ŝŞ"
    ],
    [
      "ń",
      "ş"
    ],
    [
      "Ň",
      "Ŝ"
    ],
    [
      "Į",
      "Ľ"
    ],
    [
      "ŀ",
      "ő"
    ],
    [
      "ś",
      "ŝ"
    ],
    [
      "Ē",
      "őŜŒš"
    ],
    [
      "Ġ",
      "Ī"
    ],
    [
      "ĥ",
      "Ħ"
    ],
    [
      "Ē",
      "ų"
    ],
    [
      "Ŀ",
      "ĸ"
    ],
    [
      "į",
      "Ļ"
    ],
    [
      "ņ",
      "œĥŮ"
    ],
    [
      "ņ",
      "Ņ"
    ],
    [
      "Ļ",
      "Ĺ"
    ],
    [
      "Ĳ",
      "ī"
    ],
    [
      "Ĥ",
      "Ŀ"
    ],
    [
      "Ő",
      "ŕ"
    ],
    [
      "Ē",
      "Ŵ"
    ],
    [
      "Ş",
      "ŕ"
    ],
    [
      "į",
      "ĺŬ"
    ],
    [
      "ĭ",
      "ġ"
    ],
    [
      "ş",
      "œ"
    ],
    [
      "ĭ",
      "īŬ"
    ],
    [
      "Į",
      "ĵ"
    ],
    [
      "Ķ",
      "ħ"
    ],
    [
      "ľ",
      "ı"
    ],
    [
      "Ĳ",
      "Ľ"
    ],
    [
      "ř",
      "Đ"
    ],
    [
      "Ē",
      "Ÿ"
    ],
    [
      "Ī",
      "Ů"
    ],
    [
      "Ķ",
      "Ħ"
    ],
    [
      "ŝŖ",
      "ĒłĩīŬ"
    ],
    [
      "œš",
      "ĺ"
    ],
    [
      "ģĶ",
      "ĒńŚœš"
    ],
    [
      "Ēş",
      "įŮ"
    ],
    [
      "Ŀ",
      "ĵ"
    ],
    [
      "Ē",
      "Ž"
    ],
    [
      "Ģ",
      "ġ"
    ],
    [
      "Ē",
      "Ż"
    ],
    [
      "ņ",
      "Ń"
    ],
    [
      "ĿŔĐ",
      "ņŞĤŮ"
    ],
    [
      "Į",
      "ĺ"
    ],
    [
      "Ĥ",
      "ĸ"
    ],
    [
      "Ēł",
      "ĩ"
    ],
    [
      "ņ",
      "ő"
    ],
    [
      "Ġ",
      "ı"
    ],
    [
      "ŗ",
      "ĵŮ"
    ],
    [
      "Ŝ",
      "ŋĖ"
    ],
    [
      "ıŜ",
      "Ŕ"
    ],
    [
      "őŞ",
      "Ś"
    ],
    [
      "ŝŐ",
      "šĺĤĵĒ"
    ],
    [
      "Ě",
      "ĤĵĒ"
    ],
    [
      "Ĭ",
      "ľ"
    ],
    [
      "ĥ",
      "Ľ"
    ],
    [
      "Ē",
      "ž"
    ],
    [
      "Ĺ",
      "ľ"
    ],
    [
      "Ļ",
      "Ŀ"
    ],
    [
      "Ĉ",
      "ĠŬ"
    ],
    [
      "ĸ",
      "ģĒ"
    ],
    [
      "ņ",
      "ŃĒ"
    ],
    [
      "ı",
      "Ģ"
    ],
    [
      "š",
      "įĢĴĒ"
    ],
    [
      "Ħ",
      "Ħ"
    ],
    [
      "Ŗ",
      "ŝń"
    ],
    [
      "ņ",
      "ŕŖĖ"
    ],
    [
      "ļ",
      "Ģ"
    ],
    [
      "Ņř",
      "ņŞ"
    ],
    [
      "ł",
      "œ"
    ],
    [
      "Ĳ",
      "Ħ"
    ],
    [
      "ģ",
      "ī"
    ],
    [
      "Ĺ",
      "ŁĐ"
    ],
    [
      "ĥ",
      "ķ"
    ],
    [
      "ĭ",
      "Ļ"
    ],
    [
      "œł",
      "š"
    ],
    [
      "ķ",
      "ħ"
    ],
    [
      "ģ",
      "Ľ"
    ],
    [
      "Ģ",
      "ġĢ"
    ],
    [
      "Ŀ",
      "Ŀ"
    ],
    [
      "Ş",
      "Ś"
    ],
    [
      "ŦŘ",
      "ŗĖ"
    ],
    [
      "Ĵ",
      "ĺ"
    ],
    [
      "įĢ",
      "Ĵ"
    ],
    [
      "ĭ",
      "ķ"
    ],
    [
      "ĩĢ",
      "ŗĐ"
    ],
    [
      "ņş",
      "ĮĠŬ"
    ],
    [
      "Ē",
      "Ź"
    ],
    [
      "ħ",
      "śń"
    ],
    [
      "į",
      "ĵ"
    ],
    [
      "œŚ",
      "Ė"
    ],
    [
      "Ģ",
      "īŬ"
    ],
    [
      "ŀ",
      "Ė"
    ],
    [
      "ĸ",
      "ĵŖĐ"
    ],
    [
      "ĤŚ",
      "őņĖ"
    ],
    [
      "į",
      "Ľ"
    ],
    [
      "ņ",
      "ŕ"
    ],
    [
      "ő",
      "ŕ"
    ],
    [
      "ĭĤ",
      "Ű"
    ],
    [
      "Ĥ",
      "ı"
    ],
    [
      "į",
      "ĭ"
    ],
    [
      "ĥ",
      "Ĵ"
    ],
    [
      "Į",
      "ľ"
    ],
    [
      "Ą",
      "ŚŕĒ"
    ],
    [
      "š",
      "Ī"
    ],
    [
      "įĸ",
      "ĹŝŞ"
    ],
    [
      "į",
      "Ĩ"
    ],
    [
      "ħ",
      "ħ"
    ],
    [
      "Ş",
      "ŏš"
    ],
    [
      "Ň",
      "œ"
    ],
    [
      "ņ",
      "Ņš"
    ],
    [
      "Į",
      "ĥ"
    ],
    [
      "ĸ",
      "ı"
    ],
    [
      "Ę",
      "ĸŗĐ"
    ],
    [
      "Ē",
      "Ś"
    ],
    [
      "įĿ",
      "Ŝ"
    ],
    [
      "Ĥ",
      "ī"
    ],
    [
      "ĸĸ",
      "œń"
    ],
    [
      "ĢĦ",
      "Ŭ"
    ],
    [
      "ĩ",
      "Ĺ"
    ],
    [
      "ĭ",
      "Ĺ"
    ],
    [
      "ĻĹ",
      "ņŘ"
    ],
    [
      "Ş",
      "ŕĒ"
    ],
    [
      "Ŝ",
      "Œ"
    ],
    [
      "œ",
      "œ"
    ],
    [
      "ī",
      "Ŀ"
    ],
    [
      "š",
      "ħĢŰ"
    ],
    [
      "ĺ",
      "Ĺ"
    ],
    [
      "Ķħ",
      "ĸĸ"
    ],
    [
      "ĵĦ",
      "ĭĤ"
    ],
    [
      "Ē",
      "ź"
    ],
    [
      "Ħ",
      "ŗł"
    ],
    [
      "į",
      "Ġļ"
    ],
    [
      "ŗ",
      "ŝ"
    ],
    [
      "Ġ",
      "ĸ"
    ],
    [
      "ĵ",
      "īŬ"
    ],
    [
      "œ",
      "ő"
    ],
    [
      "Ĥ",
      "ŗł"
    ],
    [
      "ĳ",
      "ŝŞ"
    ],
    [
      "ŗŞ",
      "ņĖ"
    ],
    [
      "ĸĹ",
      "ŝŞ"
    ],
    [
      "ŦŞ",
      "ĤŮ"
    ],
    [
      "ő",
      "ŕĒ"
    ],
    [
      "Ĥļ",
      "ĩŰ"
    ],
    [
      "ĥ",
      "ĤŚĐ"
    ],
    [
      "Ĩ",
      "ĥ"
    ],
    [
      "Ĳ",
      "Ļ"
    ],
    [
      "Ĭ",
      "īŬ"
    ],
    [
      "ĸ",
      "ĵ"
    ],
    [
      "ŕ",
      "ř"
    ],
    [
      "š",
      "Ħ"
    ],
    [
      "ŝ",
      "Ŕ"
    ],
    [
      "Ő",
      "ř"
    ],
    [
      "Ĩĺ",
      "ĤŰ"
    ],
    [
      "ŗł",
      "ŗĖ"
    ],
    [
      "ħ",
      "ġľŰ"
    ],
    [
      "Ī",
      "Ģ"
    ],
    [
      "Ē",
      "ſ"
    ],
    [
      "ĵ",
      "īľ"
    ],
    [
      "Ş",
      "Ŝ"
    ],
    [
      "Į",
      "ĸ"
    ],
    [
      "Ŕşŀ",
      "Ė"
    ],
    [
      "ł",
      "ŗ"
    ],
    [
      "ħśń",
      "ŚĖ"
    ],
    [
      "Ĳ",
      "īŬ"
    ],
    [
      "ģ",
      "ķŬ"
    ],
    [
      "ŀ",
      "Ņ"
    ],
    [
      "Ģ",
      "ħ"
    ],
    [
      "į",
      "ĽŬ"
    ],
    [
      "ĭĢ",
      "Ŭ"
    ],
    [
      "ŀ",
      "Ń"
    ],
    [
      "Ī",
      "ĿŀĐ"
    ],
    [
      "ŝ",
      "Œ"
    ],
    [
      "ŝ",
      "ř"
    ],
    [
      "ŗ",
      "ş"
    ],
    [
      "Ġ",
      "ĩĒ"
    ],
    [
      "ĤĠ",
      "ĸŰ"
    ],
    [
      "ĵ",
      "ĺ"
    ],
    [
      "ĩľ",
      "ņĐ"
    ],
    [
      "ĥ",
      "ģĒ"
    ],
    [
      "į",
      "ı"
    ],
    [
      "Ŝ",
      "Ņ"
    ],
    [
      "Ő",
      "Ń"
    ],
    [
      "ĩħ",
      "ĿŰ"
    ],
    [
      "ĵ",
      "īľŰ"
    ],
    [
      "ł",
      "Ś"
    ],
    [
      "ģ",
      "Ļ"
    ],
    [
      "Ġ",
      "ĵĒ"
    ],
    [
      "ķ",
      "īŬ"
    ],
    [
      "ŗń",
      "ĤŮ"
    ],
    [
      "į",
      "ĥľ"
    ],
    [
      "ņ",
      "ŕŀ"
    ],
    [
      "šĹ",
      "ĭģĒ"
    ],
    [
      "Ĭ",
      "ħ"
    ],
    [
      "š",
      "ģ"
    ],
    [
      "Ē",
      "ż"
    ],
    [
      "Ņ",
      "Ė"
    ],
    [
      "ĥ",
      "ĿŜ"
    ],
    [
      "ĭ",
      "ģľ"
    ],
    [
      "šĺĤ",
      "ıņĐ"
    ],
    [
      "Ŀ",
      "ĥ"
    ],
    [
      "Ĳ",
      "ŋĐ"
    ],
    [
      "Ĺ",
      "ģ"
    ],
    [
      "ő",
      "ś"
    ],
    [
      "Ŗ",
      "ŗ"
    ],
    [
      "Ĥ",
      "ľ"
    ],
    [
      "Ŀŀ",
      "ń"
    ],
    [
      "ĒŁ",
      "ĠĽŬ"
    ],
    [
      "ņŞ",
      "ĠĺŬ"
    ],
    [
      "Ġ",
      "ľ"
    ],
    [
      "š",
      "Ĩ"
    ],
    [
      "ĨĠŬ",
      "ĤŚŕĒ"
    ],
    [
      "Ş",
      "œš"
    ],
    [
      "Ē",
      "Ŝ"
    ],
    [
      "ŗ",
      "ř"
    ],
    [
      "ģ",
      "Ġ"
    ],
    [
      "ĵŀ",
      "ŕĒ"
    ],
    [
      "Ĩ",
      "ġĢ"
    ],
    [
      "Ŕřĳ",
      "Ů"
    ],
    [
      "Ĭ",
      "Ĭ"
    ],
    [
      "ŗ",
      "Ň"
    ],
    [
      "œĳ",
      "īŬ"
    ],
    [
      "ļ",
      "ļ"
    ],
    [
      "Ő",
      "ş"
    ],
    [
      "ĳ",
      "īŬ"
    ],
    [
      "ġĪŰ",
      "ņŘŗĖ"
    ],
    [
      "ĲŮ",
      "ĭľŖĐ"
    ],
    [
      "Ň",
      "ő"
    ],
    [
      "ŕ",
      "ŗ"
    ],
    [
      "ņ",
      "œĳŮ"
    ],
    [
      "ĩ",
      "ġ"
    ],
    [
      "īľ",
      "ĵĒ"
    ],
    [
      "į",
      "ĩ"
    ],
    [
      "ŝ",
      "ş"
    ],
    [
      "ŕ",
      "ń"
    ],
    [
      "ıŀ",
      "Đ"
    ],
    [
      "ş",
      "ŕĒ"
    ],
    [
      "į",
      "ĨŰ"
    ],
    [
      "Ĺ",
      "Ĥ"
    ],
    [
      "Ň",
      "Œ"
    ],
    [
      "Ņ",
      "œ"
    ],
    [
      "Łł",
      "š"
    ],
    [
      "Ś",
      "ő"
    ],
    [
      "ş",
      "Œ"
    ],
    [
      "Ņ",
      "Đ"
    ],
    [
      "ġ",
      "ı"
    ],
    [
      "ļ",
      "ŋĐ"
    ],
    [
      "ĥ",
      "Ŝ"
    ],
    [
      "Ł",
      "ņ"
    ],
    [
      "ļ",
      "Ŀ"
    ],
    [
      "śł",
      "ĩŮ"
    ],
    [
      "ĳ",
      "ŗĐ"
    ],
    [
      "Ś",
      "ŕ"
    ],
    [
      "Ő",
      "Ņ"
    ],
    [
      "Ň",
      "ś"
    ],
    [
      "Ň",
      "Ŕ"
    ],
    [
      "ő",
      "ŜĖ"
    ],
    [
      "őŀ",
      "Ė"
    ],
    [
      "Ņş",
      "ĵĦŬ"
    ],
    [
      "ĭ",
      "ĩ"
    ],
    [
      "Ŗ",
      "Ņ"
    ],
    [
      "ŝ",
      "œ"
    ],
    [
      "ń",
      "ŕĒ"
    ],
    [
      "śŘ",
      "šĺĤĵĒ"
    ],
    [
      "Ŗ",
      "Ń"
    ],
    [
      "ĥľ",
      "ĒńŚœš"
    ],
    [
      "Ň",
      "ŕ"
    ],
    [
      "ĒńŚ",
      "ŗĵŮ"
    ],
    [
      "ħ",
      "ĿŰ"
    ],
    [
      "ķ",
      "īľ"
    ],
    [
      "ń",
      "ŕŀ"
    ],
    [
      "Ĥ",
      "įľ"
    ],
    [
      "ġĹ",
      "ľ"
    ],
    [
      "ļģ",
      "Ľ"
    ],
    [
      "œ",
      "ŉ"
    ],
    [
      "į",
      "ĵĒ"
    ],
    [
      "Ġ",
      "ĪŬ"
    ],
    [
      "śŞ",
      "ĒłĩīŬ"
    ],
    [
      "ħ",
      "ġľ"
    ],
    [
      "ļ",
      "ĥ"
    ],
    [
      "ĤŚ",
      "ŕ"
    ],
    [
      "ŗŘ",
      "ĵŮ"
    ],
    [
      "ņ",
      "ŕŀĖ"
    ],
    [
      "š",
      "įŬ"
    ],
    [
      "Ēłĩ",
      "įĸŰ"
    ],
    [
      "Ġ",
      "ĥ"
    ],
    [
      "Ł",
      "ŕĒ"
    ],
    [
      "Ş",
      "ŉ"
    ],
    [
      "ő",
      "Ś"
    ],
    [
      "Ĳ",
      "ľ"
    ],
    [
      "ņ",
      "œĳ"
    ],
    [
      "Ġļ",
      "Ŭ"
    ],
    [
      "ĵ",
      "ķŬ"
    ],
    [
      "Ŝ",
      "ŗĖ"
    ],
    [
      "ŕŀ",
      "œš"
    ],
    [
      "Ķ",
      "Ů"
    ],
    [
      "Ĵ",
      "ĺŬ"
    ],
    [
      "ĭ",
      "ĴĒ"
    ],
    [
      "į",
      "ĥ"
    ],
    [
      "Ĭ",
      "ģ"
    ],
    [
      "Ł",
      "ŗ"
    ],
    [
      "ģ",
      "ņĐ"
    ],
    [
      "ĺ",
      "ĵŀ"
    ],
    [
      "őş",
      "ş"
    ],
    [
      "ġ",
      "ĵ"
    ],
    [
      "ņ",
      "œš"
    ],
    [
      "šĺĤ",
      "ĵ"
    ],
    [
      "ĩĢ",
      "ŁĐ"
    ],
    [
      "ĹŜ",
      "ń"
    ],
    [
      "Įģ",
      "Ŭ"
    ],
    [
      "ĭĤ",
      "śşŜĖ"
    ],
    [
      "įŮ",
      "ĸĸŗĐ"
    ],
    [
      "Ĥ",
      "ĵŀĐ"
    ],
    [
      "Ĩ",
      "ĩ"
    ],
    [
      "ŕ",
      "ł"
    ],
    [
      "Ģ",
      "Ģ"
    ],
    [
      "Ē",
      "Š"
    ],
    [
      "Ķ",
      "ŀş"
    ],
    [
      "Ł",
      "ŀ"
    ],
    [
      "ĭ",
      "ĥ"
    ],
    [
      "ĭģ",
      "Ľ"
    ],
    [
      "Ĥ",
      "ĵ"
    ],
    [
      "Ġ",
      "ħ"
    ],
    [
      "ĒŇ",
      "œŅš"
    ],
    [
      "ı",
      "ġ"
    ],
    [
      "š",
      "ĝ"
    ],
    [
      "ŀ",
      "Đ"
    ],
    [
      "œ",
      "ŔĒ"
    ],
    [
      "Ģŗ",
      "Ń"
    ],
    [
      "ĹŜĐ",
      "ņŞĤŮ"
    ],
    [
      "Ĭ",
      "īĢĤ"
    ],
    [
      "ĭ",
      "ĪŬ"
    ],
    [
      "ĸ",
      "ĵŀ"
    ],
    [
      "Ĭ",
      "ĵŰ"
    ],
    [
      "ı",
      "ī"
    ],
    [
      "Ļ",
      "Ű"
    ],
    [
      "ő",
      "œš"
    ],
    [
      "Ł",
      "œš"
    ],
    [
      "Ē",
      "ŃĒ"
    ],
    [
      "Ĥļ",
      "ĿŰ"
    ],
    [
      "š",
      "ļĩ"
    ],
    [
      "ļ",
      "Ĺ"
    ],
    [
      "ł",
      "Đ"
    ],
    [
      "Ś",
      "ń"
    ],
    [
      "Ś",
      "ĸŮ"
    ],
    [
      "į",
      "īŬ"
    ],
    [
      "į",
      "Ű"
    ],
    [
      "Ŕ",
      "œ"
    ],
    [
      "ĮĻ",
      "Ģ"
    ],
    [
      "Ň",
      "ŗ"
    ],
    [
      "ĭ",
      "Ĳ"
    ],
    [
      "Ġ",
      "ŀş"
    ],
    [
      "Śř",
      "ŁĖ"
    ],
    [
      "Ş",
      "ŉĒ"
    ],
    [
      "š",
      "ď"
    ],
    [
      "ş",
      "ŕ"
    ],
    [
      "Ēł",
      "ĩī"
    ],
    [
      "ł",
      "ŕ"
    ],
    [
      "Ġ",
      "Ĭ"
    ],
    [
      "ĤĹ",
      "ŁĐ"
    ],
    [
      "Ī",
      "Ŀ"
    ],
    [
      "ĵ",
      "Ģ"
    ],
    [
      "ġ",
      "Ĳ"
    ],
    [
      "ı",
      "Ů"
    ],
    [
      "šĺĤĵĒ",
      "Ń"
    ],
    [
      "ħ",
      "Ű"
    ],
    [
      "Ē",
      "Ŧ"
    ],
    [
      "ĤŚŕĒ",
      "Ņ"
    ],
    [
      "Ŕ",
      "ĸŮ"
    ],
    [
      "Į",
      "Ŀ"
    ],
    [
      "ħ",
      "ĺ"
    ],
    [
      "ĤĪŬ",
      "ĤŝĐ"
    ],
    [
      "ĳġ",
      "ġŰ"
    ],
    [
      "ĵĒ",
      "şŔĖ"
    ],
    [
      "ĭ",
      "Ħ"
    ],
    [
      "Ĵ",
      "ģ"
    ],
    [
      "ŝ",
      "ő"
    ],
    [
      "ħ",
      "ļģĽ"
    ],
    [
      "š",
      "Ģ"
    ],
    [
      "ŝ",
      "ŕ"
    ],
    [
      "Œ",
      "ŋĖ"
    ],
    [
      "Ķ",
      "ī"
    ],
    [
      "ĒşŔĖ",
      "ĵĦĩŰ"
    ],
    [
      "ŝ",
      "ŗ"
    ],
    [
      "Ĩ",
      "ĺŬ"
    ],
    [
      "ıŀ",
      "ń"
    ],
    [
      "ĒřħŮ",
      "ĸĸŗĐ"
    ],
    [
      "Į",
      "ĩ"
    ],
    [
      "ŕ",
      "Ņ"
    ],
    [
      "ľĿ",
      "şĐ"
    ],
    [
      "ħ",
      "ŗłŗĖ"
    ],
    [
      "ģĒ",
      "Ň"
    ],
    [
      "Ġ",
      "ķŬ"
    ],
    [
      "ġ",
      "ĵŜń"
    ],
    [
      "œ",
      "ŗĖ"
    ],
    [
      "ŗł",
      "ŁĖ"
    ],
    [
      "ņ",
      "ŏš"
    ],
    [
      "ĩ",
      "īľŰ"
    ],
    [
      "Ī",
      "ĥ"
    ],
    [
      "ő",
      "Đ"
    ],
    [
      "Ķŀş",
      "şĖ"
    ],
    [
      "Ő",
      "ŏš"
    ],
    [
      "œ",
      "ŗ"
    ],
    [
      "Ģ",
      "Ŀ"
    ],
    [
      "ĵ",
      "Łń"
    ],
    [
      "ś",
      "ŗŚ"
    ],
    [
      "Ő",
      "ŗ"
    ],
    [
      "Ő",
      "Ś"
    ],
    [
      "ļ",
      "Ű"
    ],
    [
      "ĸ",
      "śŃĒ"
    ],
    [
      "œ",
      "ş"
    ],
    [
      "œń",
      "śřįŮ"
    ],
    [
      "ĩ",
      "Ġ"
    ],
    [
      "Ē",
      "Ņš"
    ],
    [
      "ĪĢ",
      "ŝŝ"
    ],
    [
      "Ŀ",
      "ģ"
    ],
    [
      "ıŞ",
      "Ŝ"
    ],
    [
      "Ĥ",
      "Ķ"
    ],
    [
      "ı",
      "ľ"
    ],
    [
      "ĭ",
      "ĺ"
    ],
    [
      "Ħ",
      "īŬ"
    ],
    [
      "ł",
      "ŕŀ"
    ],
    [
      "į",
      "ĵŰ"
    ],
    [
      "ŗŔĒ",
      "ŗ"
    ],
    [
      "ŗĳ",
      "Ů"
    ],
    [
      "Ķ",
      "īľĵĒ"
    ],
    [
      "ı",
      "Ŗ"
    ],
    [
      "ĵ",
      "ġ"
    ],
    [
      "Ģ",
      "Ů"
    ],
    [
      "ĤŮ",
      "ģĶ"
    ],
    [
      "ŕ",
      "ŕĒ"
    ],
    [
      "ĵ",
      "œł"
    ],
    [
      "Śş",
      "ĲŮ"
    ],
    [
      "ı",
      "ļģ"
    ],
    [
      "Ĭ",
      "ī"
    ],
    [
      "ĩ",
      "Ĩ"
    ],
    [
      "ŗ",
      "ň"
    ],
    [
      "ń",
      "œĳ"
    ],
    [
      "Ĩ",
      "īĿŰ"
    ],
    [
      "Ĩ",
      "ľ"
    ],
    [
      "ķ",
      "ī"
    ],
    [
      "œ",
      "Œš"
    ],
    [
      "œł",
      "ĨġĢŰ"
    ],
    [
      "Ġĺ",
      "ĥĿŜĐ"
    ],
    [
      "ŗń",
      "ĲŮ"
    ],
    [
      "įľ",
      "Ĥ"
    ],
    [
      "š",
      "č"
    ],
    [
      "ő",
      "Ė"
    ],
    [
      "Ŕ",
      "Ő"
    ],
    [
      "Ŕł",
      "ŝś"
    ],
    [
      "ł",
      "Ė"
    ],
    [
      "ņş",
      "ĮĠ"
    ],
    [
      "Ļ",
      "ĵŀŕĒ"
    ],
    [
      "Ň",
      "ņ"
    ],
    [
      "şŀ",
      "ł"
    ],
    [
      "ş",
      "ŜĖ"
    ],
    [
      "ĳ",
      "Ś"
    ],
    [
      "ĩ",
      "Ħ"
    ],
    [
      "Ŀ",
      "Ġ"
    ],
    [
      "Ēő",
      "ŁĖ"
    ],
    [
      "ŕŜ",
      "łš"
    ],
    [
      "Į",
      "ġ"
    ],
    [
      "Ł",
      "ŕŖĖ"
    ],
    [
      "ĵ",
      "ħĢķ"
    ],
    [
      "ŕ",
      "ő"
    ],
    [
      "ĩŰ",
      "ŝŖ"
    ],
    [
      "ħĢŰ",
      "ņŘŗĖ"
    ],
    [
      "ŕ",
      "œ"
    ],
    [
      "ŗ",
      "Ő"
    ],
    [
      "ĸĸ",
      "ŗł"
    ],
    [
      "ĵĦ",
      "ĩĢ"
    ],
    [
      "ġĹ",
      "Ĥ"
    ],
    [
      "Ĳ",
      "īĨŰ"
    ],
    [
      "ħ",
      "Śř"
    ],
    [
      "ŕ",
      "Ń"
    ],
    [
      "ĥ",
      "Ļ"
    ],
    [
      "ĒŖ",
      "ŝń"
    ],
    [
      "Ņ",
      "œĳīŬ"
    ],
    [
      "ř",
      "Ė"
    ],
    [
      "ŗ",
      "Ŏ"
    ],
    [
      "ł",
      "ő"
    ],
    [
      "ŗ",
      "Ł"
    ],
    [
      "Į",
      "ı"
    ],
    [
      "ű",
      "ř"
    ],
    [
      "ļ",
      "ĵŀ"
    ],
    [
      "Ň",
      "ŗŚ"
    ],
    [
      "ŀř",
      "ĬŮ"
    ],
    [
      "Ħĥ",
      "ģĒ"
    ],
    [
      "Ŕ",
      "Ŗ"
    ],
    [
      "ı",
      "īľ"
    ],
    [
      "Ĵ",
      "ľ"
    ],
    [
      "ģĥ",
      "Ŝ"
    ],
    [
      "ĲŮ",
      "ģĶ"
    ],
    [
      "Ī",
      "Ķ"
    ],
    [
      "ŗŒ",
      "šĺģŰ"
    ],
    [
      "Ņ",
      "ŕŀœš"
    ],
    [
      "Ŕń",
      "ĮģŬ"
    ],
    [
      "Ň",
      "ŀ"
    ],
    [
      "ļĩ",
      "ģ"
    ],
    [
      "Ŝ",
      "Ņš"
    ],
    [
      "ĲŮ",
      "ĥľ"
    ],
    [
      "ĳ",
      "ķŬ"
    ],
    [
      "ĭ",
      "ĹŜ"
    ],
    [
      "ı",
      "ħ"
    ],
    [
      "Ē",
      "ĺ"
    ],
    [
      "ś",
      "Ő"
    ],
    [
      "Ŀ",
      "ĳ"
    ],
    [
      "ł",
      "ŀ"
    ],
    [
      "ĳ",
      "Ļ"
    ],
    [
      "Ġ",
      "ħĢ"
    ],
    [
      "Ł",
      "ĠĽŬ"
    ],
    [
      "Ĥ",
      "ĩ"
    ],
    [
      "ņř",
      "ŝŘ"
    ],
    [
      "ĸĿ",
      "ĒńŚœš"
    ],
    [
      "ĩĴ",
      "ĒńŝĖ"
    ],
    [
      "Ň",
      "ŝ"
    ],
    [
      "įĸ",
      "ĵŖĐ"
    ],
    [
      "šġĪŰ",
      "ņŘŗĖ"
    ],
    [
      "ś",
      "Ŗ"
    ],
    [
      "ŝŅ",
      "ŕŞ"
    ],
    [
      "Ĩĭ",
      "Ŭ"
    ],
    [
      "ą",
      "ľ"
    ],
    [
      "ģ",
      "Ĥ"
    ],
    [
      "Ľ",
      "œŞ"
    ],
    [
      "Ł",
      "œĥŮ"
    ],
    [
      "Į",
      "ĩĒ"
    ],
    [
      "Ő",
      "ŉĒ"
    ],
    [
      "šĹ",
      "ĥĤŚĐ"
    ],
    [
      "š",
      "ĭ"
    ],
    [
      "ř",
      "ŁĖ"
    ],
    [
      "Ĩĺ",
      "ĵŰ"
    ],
    [
      "ĸ",
      "ĥ"
    ],
    [
      "Ś",
      "œĳŮ"
    ],
    [
      "ņ",
      "ŉ"
    ],
    [
      "ĵ",
      "Ŋ"
    ],
    [
      "ħ",
      "ĸŰ"
    ],
    [
      "őŞ",
      "ş"
    ],
    [
      "ĥ",
      "īĨŰ"
    ],
    [
      "ņŘ",
      "œłš"
    ],
    [
      "Ş",
      "Ņ"
    ],
    [
      "ĵ",
      "Ļľ"
    ],
    [
      "ħ",
      "ī"
    ],
    [
      "ĵĒ",
      "Ń"
    ],
    [
      "ĥ",
      "ĽŬ"
    ],
    [
      "Ġ",
      "ĴĒ"
    ],
    [
      "ĲŮ",
      "ĸĸŗĐ"
    ],
    [
      "ĒłĩīŬ",
      "ģ"
    ],
    [
      "śŕ",
      "ŁĖ"
    ],
    [
      "ģ",
      "Ŀ"
    ],
    [
      "ģ",
      "ĳ"
    ],
    [
      "ņŞ",
      "Ĥ"
    ],
    [
      "ŗŘ",
      "š"
    ],
    [
      "ħ",
      "Ĩ"
    ],
    [
      "řħŮ",
      "ĸĸŗĐ"
    ],
    [
      "ű",
      "ş"
    ],
    [
      "ġĢ",
      "ķ"
    ],
    [
      "Ĥ",
      "ŗ"
    ],
    [
      "Ĭ",
      "ġ"
    ],
    [
      "Ā",
      "Ů"
    ],
    [
      "Ő",
      "ĮļŬ"
    ],
    [
      "ĵŀ",
      "ŃĒ"
    ],
    [
      "ĥ",
      "ħĢķ"
    ],
    [
      "ıņř",
      "ŝŘ"
    ],
    [
      "Ē",
      "Ű"
    ],
    [
      "Ń",
      "Ņ"
    ],
    [
      "ĩŰ",
      "ņŘŗĖ"
    ],
    [
      "Ľ",
      "ĥ"
    ],
    [
      "Ē",
      "Ŷ"
    ],
    [
      "Ĭ",
      "ĩ"
    ],
    [
      "Ĺ",
      "ņĐ"
    ],
    [
      "Ī",
      "Ŀŀ"
    ],
    [
      "ĮĻ",
      "ľ"
    ],
    [
      "Ŕ",
      "ŗ"
    ],
    [
      "ş",
      "ŝ"
    ],
    [
      "Ġ",
      "ŗł"
    ],
    [
      "ĤĪŬ",
      "ĤŚŕĒ"
    ],
    [
      "ġĹ",
      "Ģ"
    ],
    [
      "ĵĒń",
      "Śœš"
    ],
    [
      "Š",
      "ř"
    ],
    [
      "Ż",
      "Ř"
    ],
    [
      "Ġ",
      "ķ"
    ],
    [
      "ś",
      "Đ"
    ],
    [
      "Ņ",
      "ŕ"
    ],
    [
      "š",
      "ī"
    ],
    [
      "ĭ",
      "Ķ"
    ],
    [
      "Ĩ",
      "ĹŜŗ"
    ],
    [
      "ņř",
      "Ŝő"
    ],
    [
      "ł",
      "ņ"
    ],
    [
      "ĵ",
      "Ĺ"
    ],
    [
      "Ē",
      "ŧ"
    ],
    [
      "İ",
      "Ļ"
    ],
    [
      "śń",
      "ŋĖ"
    ],
    [
      "şŀ",
      "Ė"
    ],
    [
      "ķ",
      "īľŰ"
    ],
    [
      "ĥ",
      "īŬ"
    ],
    [
      "Ş",
      "Œš"
    ],
    [
      "Ģĥ",
      "Ŭ"
    ],
    [
      "š",
      "ĽŬ"
    ],
    [
      "œĳ",
      "ĽŬ"
    ],
    [
      "įľ",
      "Ű"
    ],
    [
      "ĨĠīŰ",
      "ņŘŗĖ"
    ],
    [
      "ıņř",
      "ŝŘš"
    ],
    [
      "ŗŔĒ",
      "ŔĸŮ"
    ],
    [
      "Ţ",
      "ĩīŬ"
    ],
    [
      "Ēş",
      "ŜĖ"
    ],
    [
      "ĤŚ",
      "ŕŀĖ"
    ],
    [
      "ĵġŬ",
      "ĤŚŕĒ"
    ],
    [
      "Ĩ",
      "ĩĤ"
    ],
    [
      "Ē",
      "őŜŒ"
    ],
    [
      "Ŗ",
      "ő"
    ],
    [
      "š",
      "ă"
    ],
    [
      "Ż",
      "Ş"
    ],
    [
      "ņŘ",
      "œł"
    ],
    [
      "œń",
      "ŗĖ"
    ],
    [
      "ıŜ",
      "ń"
    ],
    [
      "Ĺ",
      "ĭģĒ"
    ],
    [
      "Ň",
      "œŅš"
    ],
    [
      "ŗŔ",
      "ĒłĮŮ"
    ],
    [
      "Ġ",
      "Ĥ"
    ],
    [
      "Ń",
      "Ń"
    ],
    [
      "įĢ",
      "Ĥ"
    ],
    [
      "Ĵ",
      "ŗł"
    ],
    [
      "Ń",
      "ĳ"
    ],
    [
      "Ő",
      "ŉ"
    ],
    [
      "Ĩ",
      "Ů"
    ],
    [
      "Ŝ",
      "œš"
    ],
    [
      "Ĳ",
      "ĽŬ"
    ],
    [
      "Ş",
      "ŔĒ"
    ],
    [
      "ņř",
      "šĺĤĵĒ"
    ],
    [
      "ġľ",
      "Ĥ"
    ],
    [
      "œ",
      "řŜ"
    ],
    [
      "į",
      "ĿĤ"
    ],
    [
      "ĳ",
      "ŚĐ"
    ],
    [
      "ļ",
      "ĵ"
    ],
    [
      "Ĵ",
      "ĭ"
    ],
    [
      "Ł",
      "ő"
    ],
    [
      "Ĵ",
      "ĽŬ"
    ],
    [
      "řĳ",
      "Ů"
    ],
    [
      "ĩħ",
      "įĸ"
    ],
    [
      "ĒŤ",
      "Śœš"
    ],
    [
      "ĩĴĒ",
      "ŒŋĖ"
    ],
    [
      "ı",
      "ŋĐ"
    ],
    [
      "ĿŰ",
      "œŞŖĖ"
    ],
    [
      "ģ",
      "īľŰ"
    ],
    [
      "ŕ",
      "ĤŮ"
    ],
    [
      "Ŗ",
      "ŕŖĖ"
    ],
    [
      "ł",
      "Ŝœ"
    ],
    [
      "ıņ",
      "ŕŖĖ"
    ],
    [
      "Ă",
      "Ħ"
    ],
    [
      "ĵ",
      "ġľ"
    ],
    [
      "Śő",
      "ŖĖ"
    ],
    [
      "Ģ",
      "ĵ"
    ],
    [
      "ĭĤ",
      "ŗĐ"
    ],
    [
      "ĿĹ",
      "ŝŞ"
    ],
    [
      "Ĳħ",
      "ģľ"
    ],
    [
      "ĩĴĒ",
      "řŜĖ"
    ],
    [
      "ĤĪŬ",
      "ĲŋĐ"
    ],
    [
      "š",
      "Č"
    ],
    [
      "ĸ",
      "ĩ"
    ],
    [
      "ő",
      "Ņ"
    ],
    [
      "œ",
      "Ŗ"
    ],
    [
      "ĒńŚœš",
      "Ľ"
    ],
    [
      "ņş",
      "ĒłĩīŬ"
    ],
    [
      "įį",
      "Ļ"
    ],
    [
      "ĲŮ",
      "ĭŰ"
    ],
    [
      "ĥľŕĐ",
      "ņŞĤŮ"
    ],
    [
      "ő",
      "ŝ"
    ],
    [
      "ŀ",
      "œš"
    ],
    [
      "Ň",
      "ŃĒ"
    ],
    [
      "Ŗ",
      "œĥŮ"
    ],
    [
      "ŁĖ",
      "ĠĠĨŰ"
    ],
    [
      "ś",
      "œŚĖ"
    ],
    [
      "Ĩ",
      "ľĿşĐ"
    ],
    [
      "Ĺ",
      "ļ"
    ],
    [
      "Ĩ",
      "ī"
    ],
    [
      "Ĺ",
      "Ľ"
    ],
    [
      "Ŭ",
      "ģ"
    ],
    [
      "Ē",
      "š"
    ],
    [
      "Ň",
      "ř"
    ],
    [
      "ĭ",
      "ĩĒ"
    ],
    [
      "œ",
      "œř"
    ],
    [
      "Ŝ",
      "Ń"
    ],
    [
      "ħľ",
      "Ű"
    ],
    [
      "ĩ",
      "įĨŰ"
    ],
    [
      "Ő",
      "ń"
    ],
    [
      "Ő",
      "ł"
    ],
    [
      "őŀ",
      "ł"
    ],
    [
      "ņş",
      "įĩŬ"
    ],
    [
      "Į",
      "Ī"
    ],
    [
      "Ő",
      "ő"
    ],
    [
      "Ď",
      "ĠŬ"
    ],
    [
      "œ",
      "ŝŘ"
    ],
    [
      "Ŕ",
      "ŕ"
    ],
    [
      "ī",
      "ļ"
    ],
    [
      "ņ",
      "Ň"
    ],
    [
      "Ŗ",
      "Ņš"
    ],
    [
      "š",
      "ł"
    ],
    [
      "Ļ",
      "ĵ"
    ],
    [
      "Ş",
      "Œ"
    ],
    [
      "ĤŮ",
      "ĸĸŗĐ"
    ],
    [
      "į",
      "įĸ"
    ],
    [
      "ŗŕ",
      "ŜĖ"
    ],
    [
      "Ť",
      "Śœš"
    ],
    [
      "ıņ",
      "ŕĒ"
    ],
    [
      "š",
      "ĚĤĵĒ"
    ],
    [
      "Ł",
      "ĨĺĤŰ"
    ],
    [
      "ű",
      "Ř"
    ],
    [
      "Ŗ",
      "ń"
    ],
    [
      "ď",
      "Ŀ"
    ],
    [
      "ĵ",
      "Ļ"
    ],
    [
      "ġ",
      "ĵĒ"
    ],
    [
      "ĭ",
      "ĽŬ"
    ],
    [
      "Ŝ",
      "Œš"
    ],
    [
      "ģĒ",
      "şŔĖ"
    ],
    [
      "ŗŔĒ",
      "şįŮ"
    ],
    [
      "ĥĦ",
      "ŗĐ"
    ],
    [
      "ſ",
      "ŗ"
    ],
    [
      "ł",
      "Ņ"
    ],
    [
      "Ŗ",
      "ŕĒ"
    ],
    [
      "Ŗ",
      "ŃĒ"
    ],
    [
      "ĥ",
      "ĵŁĐ"
    ],
    [
      "Ĺ",
      "ĩĢŗĐ"
    ],
    [
      "Ĥī",
      "ĢŰ"
    ],
    [
      "š",
      "Ě"
    ],
    [
      "Ĥ",
      "Ī"
    ],
    [
      "ľ",
      "ĥ"
    ],
    [
      "œĳ",
      "ħ"
    ],
    [
      "Ġ",
      "Şő"
    ],
    [
      "Ĩĸ",
      "ĵŀĐ"
    ],
    [
      "įĭ",
      "ĩŰ"
    ],
    [
      "š",
      "ń"
    ],
    [
      "ş",
      "Ń"
    ],
    [
      "š",
      "ć"
    ],
    [
      "ņ",
      "Ł"
    ],
    [
      "ĥĤ",
      "ŋĐ"
    ],
    [
      "œń",
      "śř"
    ],
    [
      "Įĸ",
      "ĩĢ"
    ],
    [
      "Ēř",
      "ŁĖ"
    ],
    [
      "Ĩ",
      "ĵŖĐ"
    ],
    [
      "ĮĻ",
      "īĸ"
    ],
    [
      "ŕĒł",
      "ĩīŬ"
    ],
    [
      "Ĩ",
      "Ŀ"
    ],
    [
      "ĤŮ",
      "ĥľ"
    ],
    [
      "řĳ",
      "ĺ"
    ],
    [
      "ď",
      "ĸ"
    ],
    [
      "ſ",
      "ş"
    ],
    [
      "śŘĦŮ",
      "ĸĸŗĐ"
    ],
    [
      "ŀř",
      "Ŝő"
    ],
    [
      "ģĥ",
      "ŕŘ"
    ],
    [
      "ģ",
      "ġ"
    ],
    [
      "ĕ",
      "Ħ"
    ],
    [
      "ŀ",
      "ŏš"
    ],
    [
      "ĸ",
      "ĹŜŗ"
    ],
    [
      "Ġ",
      "ĭħ"
    ],
    [
      "ŕŀ",
      "Ņš"
    ],
    [
      "śł",
      "ĸŮ"
    ],
    [
      "Ļ",
      "ĿĤ"
    ],
    [
      "ŗœ",
      "įŮ"
    ],
    [
      "Ĩ",
      "įĢŰ"
    ],
    [
      "ĸ",
      "ĥŀ"
    ],
    [
      "Ş",
      "ŏ"
    ],
    [
      "Ň",
      "ş"
    ],
    [
      "Ł",
      "ĤļĩŰ"
    ],
    [
      "Ļĸ",
      "śœŚĖ"
    ],
    [
      "ő",
      "Ń"
    ],
    [
      "ı",
      "ĺ"
    ],
    [
      "ıŞ",
      "ř"
    ],
    [
      "ņŞ",
      "ĤļŬ"
    ],
    [
      "Ő",
      "ŕŀĖ"
    ],
    [
      "ĒŢ",
      "ĩīŬ"
    ],
    [
      "ń",
      "ŗ"
    ],
    [
      "Ŀ",
      "ı"
    ],
    [
      "Į",
      "ĺŬ"
    ],
    [
      "š",
      "ħĢ"
    ],
    [
      "œ",
      "ŝś"
    ],
    [
      "Ēń",
      "Ĥ"
    ],
    [
      "ĩ",
      "ıŀ"
    ],
    [
      "ĸ",
      "ĵŀĐ"
    ],
    [
      "ĳ",
      "ŝ"
    ],
    [
      "ń",
      "œš"
    ],
    [
      "ŝŞ",
      "ŗĖ"
    ],
    [
      "ŅŘ",
      "śŕ"
    ],
    [
      "ĥ",
      "īľ"
    ],
    [
      "Ġļ",
      "ĵŰ"
    ],
    [
      "Ēœ",
      "ŝŘ"
    ],
    [
      "Ĩĸ",
      "ĩŰ"
    ],
    [
      "ĤĹ",
      "Ŭ"
    ],
    [
      "ĵĒń",
      "ŝĖ"
    ],
    [
      "Ŗ",
      "œš"
    ],
    [
      "ĭĢ",
      "ĵŰ"
    ],
    [
      "ĥĳ",
      "ŚĐ"
    ],
    [
      "ĬĬ",
      "ĩĢ"
    ],
    [
      "ĳ",
      "Ľ"
    ],
    [
      "ĺ",
      "ĵĒ"
    ],
    [
      "ŗ",
      "įŮ"
    ],
    [
      "řŜ",
      "ł"
    ],
    [
      "ņř",
      "ŝŘš"
    ],
    [
      "œšĺ",
      "ĤĵĒ"
    ],
    [
      "ħŚř",
      "őŞ"
    ],
    [
      "ł",
      "Ŝ"
    ],
    [
      "ĤŮ",
      "ĭľŖĐ"
    ],
    [
      "œŜ",
      "ŞĖ"
    ],
    [
      "ļ",
      "ŖĐ"
    ],
    [
      "œł",
      "ŋĖ"
    ],
    [
      "œŚ",
      "ĭŮ"
    ],
    [
      "Ĺ",
      "ĥĤŚĐ"
    ],
    [
      "ĥĿŜ",
      "ŃĒ"
    ],
    [
      "Ĵ",
      "ħ"
    ],
    [
      "Ĥ",
      "ĺŬ"
    ],
    [
      "ŗĐ",
      "ņŞĤŮ"
    ],
    [
      "ń",
      "ŕŀĖ"
    ],
    [
      "ĦĦ",
      "ĸŰ"
    ],
    [
      "Ĳ",
      "ġ"
    ],
    [
      "ĩ",
      "ķ"
    ],
    [
      "Ĵ",
      "Ĭ"
    ],
    [
      "ĵŮ",
      "ĸĸŗĐ"
    ],
    [
      "Ķ",
      "śł"
    ],
    [
      "ŁĐ",
      "œŘĥŮ"
    ],
    [
      "œŝ",
      "ŗĖ"
    ],
    [
      "Śŗ",
      "ĥŮ"
    ],
    [
      "ĠĢ",
      "ĠŰ"
    ],
    [
      "ĸ",
      "ļ"
    ],
    [
      "ş",
      "Ņ"
    ],
    [
      "ī",
      "ĥ"
    ],
    [
      "Ĥı",
      "ŖĐ"
    ],
    [
      "Ħ",
      "ļ"
    ],
    [
      "ņ",
      "Ś"
    ],
    [
      "ĤŚŕĒ",
      "ł"
    ],
    [
      "Ġ",
      "ĵŖĐ"
    ],
    [
      "ġĹ",
      "ķ"
    ],
    [
      "įĠ",
      "Ĺ"
    ],
    [
      "ĮĻ",
      "ĸŰ"
    ],
    [
      "ĤĪŬ",
      "ĹŜĐ"
    ],
    [
      "š",
      "įĿŰ"
    ],
    [
      "Ĩļ",
      "Ŭ"
    ],
    [
      "ŗŒš",
      "ĬĵŰ"
    ],
    [
      "Ġ",
      "ŀŕ"
    ],
    [
      "Ġĺ",
      "ĩŰ"
    ],
    [
      "ģľ",
      "ŕĐ"
    ],
    [
      "ĮĠ",
      "īŰ"
    ],
    [
      "ő",
      "őł"
    ],
    [
      "ĶĦ",
      "ĥĳŚĐ"
    ],
    [
      "œ",
      "Ő"
    ],
    [
      "ġ",
      "Ľ"
    ],
    [
      "ĥ",
      "Ī"
    ],
    [
      "ĩ",
      "Ķ"
    ],
    [
      "śń",
      "ŁĖ"
    ],
    [
      "śő",
      "ŜĖ"
    ],
    [
      "ğ",
      "Ĥ"
    ],
    [
      "ŕ",
      "œš"
    ],
    [
      "ĿŰ",
      "ŝŖ"
    ],
    [
      "ĵŜ",
      "Ŕ"
    ],
    [
      "ŗŅ",
      "ĵŮ"
    ],
    [
      "śņ",
      "ŗĖ"
    ],
    [
      "Ĩ",
      "ĭĤŰ"
    ],
    [
      "Ġ",
      "Ĵ"
    ],
    [
      "ű",
      "Ş"
    ],
    [
      "Ň",
      "Ņš"
    ],
    [
      "ĸ",
      "ĩĒ"
    ],
    [
      "įį",
      "Ĥ"
    ],
    [
      "ĸ",
      "œŔĒ"
    ],
    [
      "Ş",
      "ń"
    ],
    [
      "ĵŀ",
      "ř"
    ],
    [
      "ŕŀ",
      "ş"
    ],
    [
      "įĿ",
      "ģ"
    ],
    [
      "śő",
      "ĩ"
    ],
    [
      "ń",
      "ŕ"
    ],
    [
      "Ő",
      "Įļ"
    ],
    [
      "ĩĴ",
      "ĒńŚœš"
    ],
    [
      "ĭ",
      "Ī"
    ],
    [
      "őŞ",
      "Ņ"
    ],
    [
      "ŗŔ",
      "ĒłĩīŬ"
    ],
    [
      "ĥ",
      "Ŭ"
    ],
    [
      "ŗ",
      "Ŗ"
    ],
    [
      "ŗĖ",
      "ĵĦĩŰ"
    ],
    [
      "Ġģ",
      "Ĥ"
    ],
    [
      "ş",
      "ŕŜł"
    ],
    [
      "ĥ",
      "ġ"
    ],
    [
      "őŜ",
      "ł"
    ],
    [
      "Ēŗ",
      "š"
    ],
    [
      "Ŀ",
      "Ňń"
    ],
    [
      "ŗ",
      "ŉĒ"
    ],
    [
      "Ņ",
      "ő"
    ],
    [
      "ſ",
      "ř"
    ],
    [
      "Ĳ",
      "Ňń"
    ],
    [
      "ģ",
      "ņł"
    ],
    [
      "ļ",
      "Ŀŀń"
    ],
    [
      "ł",
      "Ń"
    ],
    [
      "Ŗ",
      "şįĩŬ"
    ],
    [
      "Ģ",
      "Ļ"
    ],
    [
      "ģľ",
      "ŗĐ"
    ],
    [
      "ĺ",
      "ĵŀĐ"
    ],
    [
      "ĩŰ",
      "œŞŖĖ"
    ],
    [
      "ĹŜŗ",
      "ĒłĩīŬ"
    ],
    [
      "Ŕşŀ",
      "ś"
    ],
    [
      "š",
      "ġ"
    ],
    [
      "ř",
      "įŮ"
    ],
    [
      "ī",
      "ĭĢ"
    ],
    [
      "ŝŅ",
      "ņĖ"
    ],
    [
      "ŕ",
      "ĮĠ"
    ],
    [
      "Ĩ",
      "ĵŀĐ"
    ],
    [
      "ĤŝĐ",
      "ņŞĤŮ"
    ],
    [
      "ĤĽ",
      "ĸŰ"
    ],
    [
      "œ",
      "įĺŬ"
    ],
    [
      "ł",
      "Ř"
    ],
    [
      "ī",
      "ı"
    ],
    [
      "ņ",
      "ŕĒ"
    ],
    [
      "śŘ",
      "Ħ"
    ],
    [
      "ŗ",
      "őŀ"
    ],
    [
      "ħ",
      "ħľ"
    ],
    [
      "ĭļ",
      "ŞĐ"
    ],
    [
      "Ł",
      "ś"
    ],
    [
      "ş",
      "ĲŮ"
    ],
    [
      "ł",
      "œĳ"
    ],
    [
      "ŝŞ",
      "ŕĖ"
    ],
    [
      "ı",
      "ĒŃ"
    ],
    [
      "Ő",
      "ŏ"
    ],
    [
      "Ĥ",
      "įĿ"
    ],
    [
      "ļ",
      "ĥĤ"
    ],
    [
      "ĳ",
      "ŝŝ"
    ],
    [
      "őő",
      "ŝ"
    ],
    [
      "Ŗ",
      "ŀřĬŮ"
    ],
    [
      "ĨĩĤ",
      "Ĥ"
    ],
    [
      "š",
      "Ć"
    ],
    [
      "ŀœ",
      "ĥŮ"
    ],
    [
      "şį",
      "ĺ"
    ],
    [
      "ģ",
      "ŝĐ"
    ],
    [
      "ĠĠĨŰ",
      "ņŘŗĖ"
    ],
    [
      "Ġĸ",
      "ĩŰ"
    ],
    [
      "ĒŁ",
      "ĨĺĤŰ"
    ],
    [
      "ı",
      "ļ"
    ],
    [
      "įĢ",
      "Ĺ"
    ],
    [
      "įĸ",
      "Ĥ"
    ],
    [
      "į",
      "Ŀŀ"
    ],
    [
      "ņ",
      "ŉĒ"
    ],
    [
      "įĸ",
      "ĵĒ"
    ],
    [
      "ĭ",
      "īĨŰ"
    ],
    [
      "śŗ",
      "įŮ"
    ],
    [
      "ĒřŜĖ",
      "ĵĦĩŰ"
    ],
    [
      "Ĥĸ",
      "ĩĢ"
    ],
    [
      "Ħ",
      "ħ"
    ],
    [
      "Ĩ",
      "ģĒ"
    ],
    [
      "ĩŰ",
      "śŞ"
    ],
    [
      "Ń",
      "ŝĖ"
    ],
    [
      "Ģ",
      "Ĺ"
    ],
    [
      "Ĺ",
      "Ġ"
    ],
    [
      "ų",
      "Ņ"
    ],
    [
      "ģ",
      "īŬ"
    ],
    [
      "īľ",
      "Ĺ"
    ],
    [
      "ģĥ",
      "ņĐ"
    ],
    [
      "œł",
      "ĨġĢ"
    ],
    [
      "Ŕ",
      "Ś"
    ],
    [
      "ĩĴĒ",
      "ő"
    ],
    [
      "ġĢŰ",
      "ņŘŗĖ"
    ],
    [
      "įġ",
      "ĸŰ"
    ],
    [
      "ĤĹ",
      "őŘ"
    ],
    [
      "ĒŞ",
      "ĨĽŬ"
    ],
    [
      "Ĺ",
      "Ĵ"
    ],
    [
      "œł",
      "ĤŮ"
    ],
    [
      "ĥ",
      "ıŜĐ"
    ],
    [
      "ŝņ",
      "ŗń"
    ],
    [
      "ĥ",
      "Ŀ"
    ],
    [
      "š",
      "Ĝ"
    ],
    [
      "š",
      "Ă"
    ],
    [
      "œ",
      "ĲŮ"
    ],
    [
      "ģ",
      "ĭľ"
    ],
    [
      "Ş",
      "ŕŖĖ"
    ],
    [
      "ĭĢ",
      "ŋĐ"
    ],
    [
      "Ň",
      "śłĩŮ"
    ],
    [
      "ĥ",
      "ı"
    ],
    [
      "ī",
      "Ĺ"
    ],
    [
      "ų",
      "Ń"
    ],
    [
      "Ł",
      "Ņš"
    ],
    [
      "œł",
      "ŗĖ"
    ],
    [
      "ľ",
      "ŝń"
    ],
    [
      "įġ",
      "ĵĒ"
    ],
    [
      "ŕş",
      "Ŕ"
    ],
    [
      "Ħ",
      "ġ"
    ],
    [
      "Ķ",
      "ĠŬ"
    ],
    [
      "Ĳ",
      "ġŬ"
    ],
    [
      "Į",
      "ģļ"
    ],
    [
      "Ģ",
      "ī"
    ],
    [
      "ļ",
      "Ġ"
    ],
    [
      "ĸ",
      "Ŀŀ"
    ],
    [
      "ı",
      "ġľĤ"
    ],
    [
      "ŅŘśŕ",
      "ĩŮ"
    ],
    [
      "ļ",
      "ı"
    ],
    [
      "Š",
      "ş"
    ],
    [
      "ĩ",
      "ĵ"
    ],
    [
      "ġ",
      "ĥ"
    ],
    [
      "Ġ",
      "œł"
    ],
    [
      "Ġļ",
      "ĩŰ"
    ],
    [
      "œł",
      "ĤĪŬ"
    ],
    [
      "į",
      "īĨŰ"
    ],
    [
      "ŗĳ",
      "ĺ"
    ],
    [
      "ĿŜ",
      "ŕĒ"
    ],
    [
      "ĒŐ",
      "ĮļŬ"
    ],
    [
      "š",
      "ĨģĢ"
    ],
    [
      "Ī",
      "ĵ"
    ],
    [
      "Ş",
      "ŝł"
    ],
    [
      "ĭĤ",
      "ņ"
    ],
    [
      "śŞŕĖ",
      "ĵĦĩŰ"
    ],
    [
      "ĭĽ",
      "ŗĐ"
    ],
    [
      "š",
      "œ"
    ],
    [
      "Ő",
      "Ŝ"
    ],
    [
      "őş",
      "Ė"
    ],
    [
      "ŕŜ",
      "Œ"
    ],
    [
      "Į",
      "ĵŀĐ"
    ],
    [
      "ĳ",
      "į"
    ],
    [
      "Ēŗ",
      "ĲŮ"
    ],
    [
      "ıŀ",
      "ŕĒ"
    ],
    [
      "ĤŮ",
      "ĸĿ"
    ],
    [
      "įġ",
      "Ű"
    ],
    [
      "ĵŞ",
      "Đ"
    ],
    [
      "Ĵ",
      "ĩ"
    ],
    [
      "ĭĢ",
      "ŗĐ"
    ],
    [
      "ĳ",
      "īĨŰ"
    ],
    [
      "ŁĖ",
      "ĮĨŬ"
    ],
    [
      "œ",
      "ŉĒ"
    ],
    [
      "ĵħģľ",
      "ŁĐ"
    ],
    [
      "Ĵ",
      "Ī"
    ],
    [
      "Ĳ",
      "ŗĐ"
    ],
    [
      "Ł",
      "ŃĒ"
    ],
    [
      "ń",
      "ŕŖĖ"
    ],
    [
      "ń",
      "œĳŮ"
    ],
    [
      "į",
      "įĠŰ"
    ],
    [
      "ĒşįŮ",
      "ĸĸŗĐ"
    ],
    [
      "ģľ",
      "ĒńŚœš"
    ],
    [
      "Ĥ",
      "ķŬ"
    ],
    [
      "ļĩ",
      "ĳ"
    ],
    [
      "Ŝŗ",
      "ĭŮ"
    ],
    [
      "ı",
      "őń"
    ],
    [
      "ĭĤ",
      "śş"
    ],
    [
      "ŇŞ",
      "ŖĖ"
    ],
    [
      "śŀ",
      "ĤŮ"
    ],
    [
      "ĦĦ",
      "Ŭ"
    ],
    [
      "Śş",
      "ĢĦŬ"
    ],
    [
      "ŗř",
      "ŀĖ"
    ],
    [
      "Ő",
      "ŜŗĖ"
    ],
    [
      "ş",
      "ŕŜłš"
    ],
    [
      "Ĩ",
      "ĵŀ"
    ],
    [
      "Ēő",
      "ņĖ"
    ],
    [
      "ŕĒł",
      "ĮŮ"
    ],
    [
      "ġĲ",
      "ŗł"
    ],
    [
      "Ő",
      "ĳġġŰ"
    ],
    [
      "ŀ",
      "ń"
    ],
    [
      "š",
      "Ĉ"
    ],
    [
      "ĳ",
      "ĺ"
    ],
    [
      "Ł",
      "ŝ"
    ],
    [
      "Ŀ",
      "ĵĒ"
    ],
    [
      "ŗ",
      "ŏš"
    ],
    [
      "ĩ",
      "ĩĒ"
    ],
    [
      "ľ",
      "ľĿ"
    ],
    [
      "ĩģ",
      "ņĐ"
    ],
    [
      "ĮĹ",
      "ĢŰ"
    ],
    [
      "ĲĦ",
      "Ŭ"
    ],
    [
      "š",
      "ř"
    ],
    [
      "š",
      "ŕ"
    ],
    [
      "ĩŰ",
      "ņş"
    ],
    [
      "ń",
      "œĥŮ"
    ],
    [
      "Ĩĺ",
      "ĿŰ"
    ],
    [
      "ŗŒ",
      "šĺĤĵĒ"
    ],
    [
      "řŜĖ",
      "ĵĦĩŰ"
    ],
    [
      "œšĺ",
      "ģŰ"
    ],
    [
      "Ŕř",
      "ŀŅ"
    ],
    [
      "ģ",
      "Ŭ"
    ],
    [
      "ŀ",
      "ś"
    ],
    [
      "Ĩ",
      "Ĭ"
    ],
    [
      "ŕ",
      "œń"
    ],
    [
      "šĺģŰ",
      "ņŘŗĖ"
    ],
    [
      "ő",
      "őŞĖ"
    ],
    [
      "ŀş",
      "įĩŬ"
    ],
    [
      "œŚ",
      "ĭķŬ"
    ],
    [
      "Ş",
      "Ń"
    ],
    [
      "ş",
      "œš"
    ],
    [
      "ĥľ",
      "ŗĐ"
    ],
    [
      "Ĩ",
      "įŬ"
    ],
    [
      "ŕŞ",
      "Ś"
    ],
    [
      "ĭ",
      "īĿŰ"
    ],
    [
      "ŀ",
      "Şŗ"
    ],
    [
      "şįŮ",
      "ĸĸŗĐ"
    ],
    [
      "ĪĿŀ",
      "ŝ"
    ],
    [
      "ń",
      "Ĥ"
    ],
    [
      "ſ",
      "ő"
    ],
    [
      "Ĩ",
      "ĪŬ"
    ],
    [
      "ġ",
      "ıŜ"
    ],
    [
      "ŀ",
      "ŀř"
    ],
    [
      "ŕŘ",
      "ņĖ"
    ],
    [
      "Ā",
      "Ģ"
    ],
    [
      "Į",
      "ĭ"
    ],
    [
      "ħ",
      "ŝł"
    ],
    [
      "ģĢ",
      "ŗĐ"
    ],
    [
      "Ĳ",
      "ġĢŰ"
    ],
    [
      "ĥ",
      "īľŰ"
    ],
    [
      "ŗŃ",
      "ņĖ"
    ],
    [
      "ĵŞ",
      "Ŝ"
    ],
    [
      "ģĻ",
      "ĸŰ"
    ],
    [
      "ŅŞ",
      "ĨĭĤŰ"
    ],
    [
      "ĸĸ",
      "ŗřŀĖ"
    ],
    [
      "ĥ",
      "Ű"
    ],
    [
      "ĥ",
      "Ķ"
    ],
    [
      "ĸ",
      "ģ"
    ],
    [
      "ĸ",
      "ħ"
    ],
    [
      "ı",
      "Ħ"
    ],
    [
      "ĩ",
      "īľ"
    ],
    [
      "Ĩ",
      "ĩĢ"
    ],
    [
      "Įļ",
      "ĩŰ"
    ],
    [
      "įľ",
      "ĵĒ"
    ],
    [
      "ī",
      "ĿĤ"
    ],
    [
      "īĢ",
      "Ĵ"
    ],
    [
      "ŝŘ",
      "ĦŮ"
    ],
    [
      "śœ",
      "ĲŮ"
    ],
    [
      "ŗ",
      "ĭŮ"
    ],
    [
      "ĥĳ",
      "œŜ"
    ],
    [
      "Ĩ",
      "įĠŰ"
    ],
    [
      "őŞŚ",
      "ĸŮ"
    ],
    [
      "ĒŇ",
      "śłĩŮ"
    ],
    [
      "Į",
      "Ĭ"
    ],
    [
      "Ű",
      "ř"
    ],
    [
      "Ĺ",
      "ĳ"
    ],
    [
      "Ĩ",
      "ĵĒ"
    ],
    [
      "ĳ",
      "įĢ"
    ],
    [
      "ħĢ",
      "Ĥ"
    ],
    [
      "ĳ",
      "ħĢķ"
    ],
    [
      "Ģġ",
      "ġĠ"
    ],
    [
      "ıŞ",
      "ŃŝĖ"
    ],
    [
      "ģ",
      "ķ"
    ],
    [
      "Ģ",
      "ĺŬ"
    ],
    [
      "ħ",
      "œŃ"
    ],
    [
      "Ġģ",
      "ĩŰ"
    ],
    [
      "őş",
      "Ŝł"
    ],
    [
      "ś",
      "Ė"
    ],
    [
      "Ġ",
      "Ļ"
    ],
    [
      "Ā",
      "ģ"
    ],
    [
      "Ģ",
      "ġľ"
    ],
    [
      "Ķ",
      "ġľ"
    ],
    [
      "ĮĠ",
      "ĩŰ"
    ],
    [
      "Ŗ",
      "ŕŀĖ"
    ],
    [
      "Ģŗ",
      "œ"
    ],
    [
      "Ēŀ",
      "ŀř"
    ],
    [
      "ś",
      "őŞĖ"
    ],
    [
      "ģ",
      "ņ"
    ],
    [
      "Ĵ",
      "īŬ"
    ],
    [
      "ĭĢ",
      "ŖĐ"
    ],
    [
      "ĒŅ",
      "ĵ"
    ],
    [
      "Ś",
      "őń"
    ],
    [
      "ı",
      "ņń"
    ],
    [
      "ņŘ",
      "ŗńš"
    ],
    [
      "ŁŘ",
      "śņ"
    ],
    [
      "ĩĹ",
      "ŀĐ"
    ],
    [
      "ř",
      "ş"
    ],
    [
      "Ĩ",
      "Ĵ"
    ],
    [
      "č",
      "Ű"
    ],
    [
      "ķ",
      "ŗĐ"
    ],
    [
      "Ŗ",
      "ŕŀ"
    ],
    [
      "Įļ",
      "ŗĐ"
    ],
    [
      "ł",
      "śł"
    ],
    [
      "Ş",
      "œĥŮ"
    ],
    [
      "Ēŕ",
      "ĮĠ"
    ],
    [
      "Ĳ",
      "Ħĥ"
    ],
    [
      "įĿŜ",
      "Ń"
    ],
    [
      "Į",
      "ĵĒ"
    ],
    [
      "Ēř",
      "įŮ"
    ],
    [
      "Ņ",
      "şŀ"
    ],
    [
      "Ġ",
      "ħĢŰ"
    ],
    [
      "ĒŘ",
      "śŅš"
    ],
    [
      "ıŞ",
      "ŜŋĖ"
    ],
    [
      "ĥķ",
      "Śń"
    ],
    [
      "Ħ",
      "Ļ"
    ],
    [
      "œ",
      "Ł"
    ],
    [
      "ņ",
      "ĭ"
    ],
    [
      "ĺ",
      "ĵ"
    ],
    [
      "ĨĠ",
      "ī"
    ],
    [
      "ĵŖĐ",
      "ņŞĤŮ"
    ],
    [
      "œń",
      "ŗŒš"
    ],
    [
      "ĒłĮŮ",
      "ĸĸŗĐ"
    ],
    [
      "ĩ",
      "įĸŰ"
    ],
    [
      "š",
      "ħĿŰ"
    ],
    [
      "Ş",
      "Ŕ"
    ],
    [
      "Ű",
      "ń"
    ],
    [
      "ų",
      "Ė"
    ],
    [
      "ĿŰ",
      "śŞ"
    ],
    [
      "ŝŘ",
      "ĤŮ"
    ],
    [
      "Ģ",
      "īĨŰ"
    ],
    [
      "ŇŗŚ",
      "Ė"
    ],
    [
      "ĳŝ",
      "ŝł"
    ],
    [
      "ġĹ",
      "ļŖĐ"
    ],
    [
      "ć",
      "Ģ"
    ],
    [
      "Ş",
      "ś"
    ],
    [
      "ų",
      "Đ"
    ],
    [
      "ĤŚ",
      "ş"
    ],
    [
      "œń",
      "ĤŮ"
    ],
    [
      "śŞ",
      "ŕ"
    ],
    [
      "Ēş",
      "ĲŮ"
    ],
    [
      "őş",
      "œš"
    ],
    [
      "ŗ",
      "ŗĳ"
    ],
    [
      "ĴĠ",
      "ĨŰ"
    ],
    [
      "ĠĢ",
      "ĿĿ"
    ],
    [
      "ģ",
      "Ĵ"
    ],
    [
      "œń",
      "ĸŮ"
    ],
    [
      "ĭļ",
      "Łş"
    ],
    [
      "ĩ",
      "įĺ"
    ],
    [
      "ŝŐ",
      "œĳŮ"
    ],
    [
      "ņ",
      "ĳġ"
    ],
    [
      "Ġģ",
      "Ŭ"
    ],
    [
      "ĠĽ",
      "ĸŰ"
    ],
    [
      "ı",
      "Ŕń"
    ],
    [
      "ĩ",
      "Ħŗł"
    ],
    [
      "ı",
      "įľĤ"
    ],
    [
      "ŔřŀŅ",
      "ĵŮ"
    ],
    [
      "ĵĦ",
      "ĩĹŀĐ"
    ],
    [
      "ĩ",
      "Ļ"
    ],
    [
      "ĤŚŕĒ",
      "Ő"
    ],
    [
      "ĤŚŕĒ",
      "ŕ"
    ],
    [
      "ĭģ",
      "ņĐ"
    ],
    [
      "Ĳ",
      "ħĢķ"
    ],
    [
      "Ģĺ",
      "ĥĿŜĐ"
    ],
    [
      "ıŜŔ",
      "ĒłĩīŬ"
    ],
    [
      "śŞ",
      "ŗĖ"
    ],
    [
      "ķ",
      "īĨŰ"
    ],
    [
      "őŀ",
      "Œ"
    ],
    [
      "Ĵ",
      "śŃ"
    ],
    [
      "įĪ",
      "ĩĢ"
    ],
    [
      "ģ",
      "ņő"
    ],
    [
      "ŐŅ",
      "ņĖ"
    ],
    [
      "ĤŚŕ",
      "śń"
    ],
    [
      "Ī",
      "ı"
    ],
    [
      "Ď",
      "Ģ"
    ],
    [
      "ı",
      "ĽŬ"
    ],
    [
      "őŜ",
      "ş"
    ],
    [
      "ĭ",
      "ĹŜĐ"
    ],
    [
      "ŇŜ",
      "ŖĖ"
    ],
    [
      "š",
      "ş"
    ],
    [
      "ž",
      "ş"
    ],
    [
      "ā",
      "ı"
    ],
    [
      "Ő",
      "œš"
    ],
    [
      "šĺĤĵĒ",
      "ń"
    ],
    [
      "ġĢ",
      "ĵĒ"
    ],
    [
      "ĥĤ",
      "ŁĐ"
    ],
    [
      "ś",
      "ĤĠĸŰ"
    ],
    [
      "ĥ",
      "ĵ"
    ],
    [
      "ņ",
      "ŏ"
    ],
    [
      "ž",
      "ř"
    ],
    [
      "Ĭ",
      "ħĢ"
    ],
    [
      "ĭĤ",
      "ŗł"
    ],
    [
      "Ēř",
      "ņĖ"
    ],
    [
      "ĭĤ",
      "ŗŔĒ"
    ],
    [
      "ıŀ",
      "ł"
    ],
    [
      "įĿ",
      "şŀ"
    ],
    [
      "Łş",
      "ĮĠŬ"
    ],
    [
      "ŕŞ",
      "ĵŮ"
    ],
    [
      "ĨĽ",
      "ĤŰ"
    ],
    [
      "ĭĽ",
      "ģŰ"
    ],
    [
      "Ĩļ",
      "ĿĤ"
    ],
    [
      "ĢġĢ",
      "Ĥ"
    ],
    [
      "ŀŃ",
      "ņĖ"
    ],
    [
      "š",
      "ļ"
    ],
    [
      "Ÿ",
      "ŗ"
    ],
    [
      "Ŧ",
      "ř"
    ],
    [
      "ę",
      "ŜĐ"
    ],
    [
      "Ŝŗ",
      "ŗ"
    ],
    [
      "ŝł",
      "ŗĖ"
    ],
    [
      "Ĭ",
      "įĢ"
    ],
    [
      "Ŗ",
      "śń"
    ],
    [
      "Łł",
      "ĳ"
    ],
    [
      "ĲŮ",
      "ĸĿ"
    ],
    [
      "ŗĳ",
      "īŬ"
    ],
    [
      "Łř",
      "įŮ"
    ],
    [
      "Ŗ",
      "œĳŮ"
    ],
    [
      "Ēœ",
      "ŝś"
    ],
    [
      "Ĵļ",
      "Ŭ"
    ],
    [
      "œ",
      "řŜĖ"
    ],
    [
      "œœř",
      "Ė"
    ],
    [
      "Ĵ",
      "Ů"
    ],
    [
      "Ī",
      "ļ"
    ],
    [
      "ź",
      "ř"
    ],
    [
      "Ŕ",
      "Ń"
    ],
    [
      "įľ",
      "Ģ"
    ],
    [
      "ĳ",
      "ŝŅ"
    ],
    [
      "őŀ",
      "ŏš"
    ],
    [
      "ĹŜ",
      "ŕĒ"
    ],
    [
      "ĿŜĐ",
      "ņŞĤŮ"
    ],
    [
      "ĮĹ",
      "Ŭ"
    ],
    [
      "šľ",
      "ľĿ"
    ],
    [
      "ħĺ",
      "ĩĢ"
    ],
    [
      "ē",
      "Ś"
    ],
    [
      "ź",
      "ş"
    ],
    [
      "œ",
      "Ň"
    ],
    [
      "őŜ",
      "ő"
    ],
    [
      "Ķ",
      "ġŬ"
    ],
    [
      "ŝŃ",
      "ĵŮ"
    ],
    [
      "ģĒ",
      "őŜŒš"
    ],
    [
      "įĠļ",
      "ŋĐ"
    ],
    [
      "ħġľŰ",
      "ņŘŗĖ"
    ],
    [
      "Įĺ",
      "ĤĵŀĐ"
    ],
    [
      "š",
      "Ċ"
    ],
    [
      "ŀ",
      "ł"
    ],
    [
      "Ĩ",
      "Ĩ"
    ],
    [
      "Ĥ",
      "ħ"
    ],
    [
      "Ģ",
      "ı"
    ],
    [
      "Ő",
      "ŕĒ"
    ],
    [
      "ĉ",
      "īŬ"
    ],
    [
      "ņŘ",
      "ŗń"
    ],
    [
      "ŗŒš",
      "ħĢŰ"
    ],
    [
      "śŃ",
      "ŚĖ"
    ],
    [
      "īĸ",
      "ņĐ"
    ],
    [
      "ŝŇ",
      "ŜĖ"
    ],
    [
      "Ēř",
      "Ŝł"
    ],
    [
      "ĢĿ",
      "ņĐ"
    ],
    [
      "įĠ",
      "ģŝĐ"
    ],
    [
      "œ",
      "ŏ"
    ],
    [
      "ń",
      "ő"
    ],
    [
      "š",
      "Ğ"
    ],
    [
      "Ģ",
      "ļĩ"
    ],
    [
      "ģĥ",
      "ļ"
    ],
    [
      "Łş",
      "ŜĖ"
    ],
    [
      "œ",
      "įĺ"
    ],
    [
      "ĒŒ",
      "ŋĖ"
    ],
    [
      "œś",
      "ĤŮ"
    ],
    [
      "ĩ",
      "ĵŜĐ"
    ],
    [
      "šħĢŰ",
      "ņŘŗĖ"
    ],
    [
      "őş",
      "ŜŅ"
    ],
    [
      "ņŞĤ",
      "ħľŰ"
    ],
    [
      "ŀ",
      "Ř"
    ],
    [
      "ĸ",
      "ŗł"
    ],
    [
      "œŞ",
      "Ń"
    ],
    [
      "ĭľ",
      "ĵ"
    ],
    [
      "śł",
      "ĲŮ"
    ],
    [
      "Ŗ",
      "řŜő"
    ],
    [
      "śŗ",
      "ĭŮ"
    ],
    [
      "ņŘ",
      "ŗş"
    ],
    [
      "šĺĤĵ",
      "śł"
    ],
    [
      "Ī",
      "īŬ"
    ],
    [
      "ıŜ",
      "ř"
    ],
    [
      "į",
      "ıŞĐ"
    ],
    [
      "œŗ",
      "ŗĖ"
    ],
    [
      "Ġļ",
      "ĨŰ"
    ],
    [
      "őŜ",
      "ŕ"
    ],
    [
      "Ĭ",
      "ġľ"
    ],
    [
      "Ġĺ",
      "ĩĴĒ"
    ],
    [
      "į",
      "ħĢķ"
    ],
    [
      "ĤĢ",
      "Ŭ"
    ],
    [
      "łł",
      "ŗŅ"
    ],
    [
      "ĳĽ",
      "ĸŰ"
    ],
    [
      "ħħľ",
      "ģņĐ"
    ],
    [
      "Ę",
      "ĸ"
    ],
    [
      "Ű",
      "ş"
    ],
    [
      "ř",
      "œ"
    ],
    [
      "ŝŞ",
      "ĒłĩīŬ"
    ],
    [
      "Ļ",
      "Ŀŀ"
    ],
    [
      "ĵ",
      "īĿŰ"
    ],
    [
      "Ĩĭ",
      "ĭļ"
    ],
    [
      "ĥģ",
      "ŚĐ"
    ],
    [
      "ĤŮ",
      "ĻıŁĐ"
    ],
    [
      "įĿŜ",
      "ń"
    ],
    [
      "ĵĹ",
      "ģŰ"
    ],
    [
      "ĪĹ",
      "ŀŃņĖ"
    ],
    [
      "ĥ",
      "Ġ"
    ],
    [
      "ŕ",
      "ŕ"
    ],
    [
      "Ű",
      "ŗ"
    ],
    [
      "ŀ",
      "Œ"
    ],
    [
      "ż",
      "ŗ"
    ],
    [
      "ŕŀ",
      "œ"
    ],
    [
      "Ŗ",
      "œĳ"
    ],
    [
      "œŚ",
      "ŗ"
    ],
    [
      "ĮĠŬ",
      "ĤŚŕĒ"
    ],
    [
      "Ēņ",
      "ĳġ"
    ],
    [
      "őŗ",
      "ĭŮ"
    ],
    [
      "Ģ",
      "įĠŰ"
    ],
    [
      "ŃĒ",
      "ŗįĪŬ"
    ],
    [
      "ĴĢ",
      "ĨŰ"
    ],
    [
      "ħ",
      "ĸģĒ"
    ],
    [
      "Įĥ",
      "ņĐ"
    ],
    [
      "ų",
      "Ś"
    ],
    [
      "Ŗ",
      "ł"
    ],
    [
      "Ŕ",
      "ŗń"
    ],
    [
      "ĥľ",
      "ŕ"
    ],
    [
      "őř",
      "įĺ"
    ],
    [
      "Ēł",
      "ŗŕ"
    ],
    [
      "ŗŔ",
      "Ēł"
    ],
    [
      "ĵĢ",
      "ĵŰ"
    ],
    [
      "őŞŅ",
      "ĮŮ"
    ],
    [
      "ĲĦĥ",
      "Ġ"
    ],
    [
      "ś",
      "Ŋ"
    ],
    [
      "ĸ",
      "ĵĒ"
    ],
    [
      "ĳ",
      "ĽŬ"
    ],
    [
      "œł",
      "ŖĖ"
    ],
    [
      "ĤĪŬ",
      "ı"
    ],
    [
      "Ĵ",
      "ŗŃ"
    ],
    [
      "ĵħģľ",
      "œŜ"
    ],
    [
      "Ŝş",
      "ņĖ"
    ],
    [
      "ĭķ",
      "ŗĐ"
    ],
    [
      "ŝŃ",
      "ĭĪŬ"
    ],
    [
      "Ēő",
      "ŜĖ"
    ],
    [
      "ıŀ",
      "Ŕ"
    ],
    [
      "őŀ",
      "ŗ"
    ],
    [
      "ĿŔĐ",
      "ņŞ"
    ],
    [
      "Ĥ",
      "ıŁĐ"
    ],
    [
      "śŅ",
      "ĩŮ"
    ],
    [
      "Ŝř",
      "ĵŮ"
    ],
    [
      "Ĺ",
      "ņŃĒ"
    ],
    [
      "įĢĴ",
      "ĒńŚœš"
    ],
    [
      "Ň",
      "ŗńĤŮ"
    ],
    [
      "ĮĻ",
      "ĠĴĒ"
    ],
    [
      "ř",
      "ŕ"
    ],
    [
      "ģ",
      "Ĳ"
    ],
    [
      "Ă",
      "ġ"
    ],
    [
      "œŞ",
      "Ēŗ"
    ],
    [
      "œŞŖĖ",
      "ĵĦĩŰ"
    ],
    [
      "ŕŖĖ",
      "ĵġŬ"
    ],
    [
      "ĒŘ",
      "ŗĖ"
    ],
    [
      "ĒńŝĖ",
      "ĵĦĩŰ"
    ],
    [
      "ģ",
      "Ħŗł"
    ],
    [
      "şŒ",
      "ŗńš"
    ],
    [
      "Ĥįľ",
      "Ű"
    ],
    [
      "ġĹľ",
      "ŖĐ"
    ],
    [
      "ĲŮ",
      "ĻĵŀŕĒ"
    ],
    [
      "ŃĒ",
      "ŗ"
    ],
    [
      "Ŝŗ",
      "Œš"
    ],
    [
      "ħĢ",
      "ĳ"
    ],
    [
      "į",
      "ķŬ"
    ],
    [
      "ĭ",
      "įľ"
    ],
    [
      "œŜ",
      "Łř"
    ],
    [
      "œŘĥŮ",
      "ĸĸŗĐ"
    ],
    [
      "ĵ",
      "őń"
    ],
    [
      "œŃ",
      "ņĖ"
    ],
    [
      "ġĹķ",
      "ŚĐ"
    ],
    [
      "č",
      "ĥ"
    ],
    [
      "ŋ",
      "œ"
    ],
    [
      "Ň",
      "Đ"
    ],
    [
      "ī",
      "Ĵ"
    ],
    [
      "Ŗ",
      "Œ"
    ],
    [
      "ś",
      "ŔĒ"
    ],
    [
      "ĠĠ",
      "ĵŰ"
    ],
    [
      "Ŝ",
      "œĥŮ"
    ],
    [
      "šĹ",
      "ĩĢŗĐ"
    ],
    [
      "Ľ",
      "ŗŞņĖ"
    ],
    [
      "ħġľ",
      "Ľ"
    ],
    [
      "ņşĮĠ",
      "ĿŰ"
    ],
    [
      "Ĵĩ",
      "ĤŰ"
    ],
    [
      "ı",
      "Ļ"
    ],
    [
      "ħĢ",
      "ĵĒ"
    ],
    [
      "ħ",
      "Ġļ"
    ],
    [
      "ŝŘ",
      "šĺĤĵĒ"
    ],
    [
      "œ",
      "œŚ"
    ],
    [
      "Ķ",
      "įľ"
    ],
    [
      "Ĩĭ",
      "ĭľ"
    ],
    [
      "œŃĒ",
      "ŗ"
    ],
    [
      "ŇŘ",
      "ĥŮ"
    ],
    [
      "ŝŁ",
      "įŮ"
    ],
    [
      "Ŀ",
      "ŔŖ"
    ],
    [
      "ą",
      "Ű"
    ],
    [
      "ſ",
      "œ"
    ],
    [
      "Ģ",
      "œŞ"
    ],
    [
      "ľ",
      "ĩĢ"
    ],
    [
      "įŬ",
      "ģ"
    ],
    [
      "ľĵ",
      "Ł"
    ],
    [
      "Ĳĺ",
      "ĩĢ"
    ],
    [
      "ŕŞ",
      "Ė"
    ],
    [
      "į",
      "ĵŁĐ"
    ],
    [
      "Ĥ",
      "Ņş"
    ],
    [
      "œņ",
      "ŗĖ"
    ],
    [
      "ŗŜ",
      "ŋĖ"
    ],
    [
      "Łř",
      "ŕŘ"
    ],
    [
      "ŇŚ",
      "ĥŮ"
    ],
    [
      "ĒŐ",
      "ĳġġŰ"
    ],
    [
      "ĒŁ",
      "ĩħįĸ"
    ],
    [
      "ņŇ",
      "ŝĖ"
    ],
    [
      "Ş",
      "ŝ"
    ],
    [
      "ų",
      "ń"
    ],
    [
      "Ĵ",
      "ŁĐ"
    ],
    [
      "Ġĺ",
      "ĩĢ"
    ],
    [
      "Ģŗ",
      "ő"
    ],
    [
      "ĩ",
      "įĿŰ"
    ],
    [
      "Įĵ",
      "ŗŞ"
    ],
    [
      "ĪĿŀĐ",
      "ņŞĤŮ"
    ],
    [
      "š",
      "ĭģľ"
    ],
    [
      "Ġĭħ",
      "Ű"
    ],
    [
      "ĩĽ",
      "ŐŕŀĖ"
    ],
    [
      "œŚ",
      "ĲġŬ"
    ],
    [
      "š",
      "ę"
    ],
    [
      "Ĥ",
      "Ĩ"
    ],
    [
      "ē",
      "ī"
    ],
    [
      "ĩ",
      "Ŀ"
    ],
    [
      "įĸ",
      "Ĺ"
    ],
    [
      "ŗĳ",
      "ķŬ"
    ],
    [
      "ıŜŔĒ",
      "Ņ"
    ],
    [
      "Łń",
      "ŀŗ"
    ],
    [
      "őł",
      "ĨġĢŰ"
    ],
    [
      "ĹĢ",
      "ŗĐ"
    ],
    [
      "Ŀĸ",
      "śŀ"
    ],
    [
      "ĭĦ",
      "ŗĐ"
    ],
    [
      "ł",
      "şŀł"
    ],
    [
      "ĭ",
      "ĸ"
    ],
    [
      "Ĥ",
      "ŀ"
    ],
    [
      "ļ",
      "ĸ"
    ],
    [
      "ĸ",
      "Ĥ"
    ],
    [
      "Ż",
      "ń"
    ],
    [
      "Ŕ",
      "Ŝ"
    ],
    [
      "š",
      "Ā"
    ],
    [
      "īľ",
      "ģĒ"
    ],
    [
      "Ĭ",
      "īĨŰ"
    ],
    [
      "ĺ",
      "ĵŖĐ"
    ],
    [
      "ĵŜ",
      "Ń"
    ],
    [
      "įľ",
      "ĩĒ"
    ],
    [
      "ĹŜ",
      "Ŕ"
    ],
    [
      "Ş",
      "ŕŁĖ"
    ],
    [
      "į",
      "ĥĢ"
    ],
    [
      "ĮĽ",
      "ĸŰ"
    ],
    [
      "Ēłĩī",
      "ĥĢ"
    ],
    [
      "įĿ",
      "şŝ"
    ],
    [
      "ŕŖĖ",
      "ĵĦĩŰ"
    ],
    [
      "ŀ",
      "ŀœ"
    ],
    [
      "Łř",
      "ŝŘ"
    ],
    [
      "şő",
      "ŜĖ"
    ],
    [
      "ŔşŀĖ",
      "ĵĦĩŰ"
    ],
    [
      "ĵ",
      "įĥľ"
    ],
    [
      "Ħ",
      "ĭĴĒ"
    ],
    [
      "ļ",
      "ıŀń"
    ],
    [
      "ĤŚ",
      "řŁĖ"
    ],
    [
      "šĹ",
      "ĤĹőŘ"
    ],
    [
      "Ŷ",
      "ř"
    ],
    [
      "ŕ",
      "Ŋ"
    ],
    [
      "ŗ",
      "ŉ"
    ],
    [
      "ŧ",
      "Ş"
    ],
    [
      "Ř",
      "ŗĖ"
    ],
    [
      "Ŀ",
      "Ŝŗ"
    ],
    [
      "Ġ",
      "ĭĤ"
    ],
    [
      "Ĩ",
      "īĨŰ"
    ],
    [
      "şį",
      "ĩ"
    ],
    [
      "ŝŃ",
      "ņĖ"
    ],
    [
      "Ňł",
      "ŗĖ"
    ],
    [
      "ĩģ",
      "ŗĐ"
    ],
    [
      "ş",
      "ŕŁĖ"
    ],
    [
      "œŀ",
      "ĤŮ"
    ],
    [
      "ĭĠ",
      "ĥ"
    ],
    [
      "ĴĽ",
      "ĸĢ"
    ],
    [
      "įĤ",
      "śşŜĖ"
    ],
    [
      "Ĳ",
      "ŗŕŜĖ"
    ],
    [
      "śőĩ",
      "ĺŬ"
    ],
    [
      "ł",
      "Ş"
    ],
    [
      "š",
      "ĉ"
    ],
    [
      "Ĉ",
      "ĺŬ"
    ],
    [
      "Ģ",
      "ĵŰ"
    ],
    [
      "Ķ",
      "ŝŅ"
    ],
    [
      "Ēł",
      "ŗŅ"
    ],
    [
      "Ģ",
      "īĿŰ"
    ],
    [
      "łń",
      "Į"
    ],
    [
      "Ŕł",
      "ĤļŬ"
    ],
    [
      "įļ",
      "ŇŔ"
    ],
    [
      "ŗ",
      "őŀĖ"
    ],
    [
      "őşş",
      "ņ"
    ],
    [
      "ĮĻľ",
      "Ű"
    ],
    [
      "ħ",
      "ġ"
    ],
    [
      "ĳ",
      "ģ"
    ],
    [
      "ř",
      "ŕĒ"
    ],
    [
      "ņ",
      "Ĥļ"
    ],
    [
      "ĒńŚœš",
      "ĺ"
    ],
    [
      "őŀ",
      "ń"
    ],
    [
      "ŗĳ",
      "ĪŬ"
    ],
    [
      "Ņš",
      "įĢĴĒ"
    ],
    [
      "Ĳĺ",
      "ľ"
    ],
    [
      "ŗŃ",
      "ŗĖ"
    ],
    [
      "Łř",
      "ŝŘš"
    ],
    [
      "Įģ",
      "ĩŰ"
    ],
    [
      "ő",
      "ŕŁĖ"
    ],
    [
      "Ĭ",
      "įĢŰ"
    ],
    [
      "ĥ",
      "ıŞĐ"
    ],
    [
      "šĬ",
      "ĵŰ"
    ],
    [
      "Ŷ",
      "œ"
    ],
    [
      "Ł",
      "Ś"
    ],
    [
      "ď",
      "Ŭ"
    ],
    [
      "ĨĠ",
      "ĩŰ"
    ],
    [
      "ş",
      "şŀ"
    ],
    [
      "Ņ",
      "řĳ"
    ],
    [
      "įġ",
      "Ġ"
    ],
    [
      "Ŀ",
      "ŅŞ"
    ],
    [
      "ĵ",
      "ļģ"
    ],
    [
      "Ģ",
      "įĢŰ"
    ],
    [
      "ŔřĳŮ",
      "ĸĸŗĐ"
    ],
    [
      "ŁŞ",
      "Ĩľ"
    ],
    [
      "Ā",
      "ĨĸĵŀĐ"
    ],
    [
      "š",
      "Ą"
    ],
    [
      "ī",
      "ĵ"
    ],
    [
      "ĳ",
      "Ī"
    ],
    [
      "Ĳ",
      "ĭ"
    ],
    [
      "ĝ",
      "Ŭ"
    ],
    [
      "Ĭ",
      "ĽŬ"
    ],
    [
      "ħ",
      "īľ"
    ],
    [
      "œŞ",
      "ņĖ"
    ],
    [
      "Įļ",
      "ĸŰ"
    ],
    [
      "ŗŔĒ",
      "ř"
    ],
    [
      "ĩ",
      "ġŬ"
    ],
    [
      "ĳī",
      "Ŀ"
    ],
    [
      "ĒŔ",
      "ĸŮ"
    ],
    [
      "Ĳĺ",
      "ģĢ"
    ],
    [
      "Ēń",
      "ŀŗ"
    ],
    [
      "ŗŃ",
      "ŁĖ"
    ],
    [
      "ĭġ",
      "Ļ"
    ],
    [
      "ĸħ",
      "ŝĐ"
    ],
    [
      "Ĩ",
      "ı"
    ],
    [
      "Ŷ",
      "ş"
    ],
    [
      "Ĭ",
      "ĩŰ"
    ],
    [
      "œń",
      "ĥŮ"
    ],
    [
      "ĩ",
      "īĨŰ"
    ],
    [
      "řŜ",
      "œ"
    ],
    [
      "ĿĤ",
      "ŝł"
    ],
    [
      "ŝŝ",
      "ŗĖ"
    ],
    [
      "ģĽ",
      "ŗĐ"
    ],
    [
      "Ā",
      "ĻĿĤ"
    ],
    [
      "Ż",
      "Ė"
    ],
    [
      "Ĉ",
      "ĵ"
    ],
    [
      "Ł",
      "Ň"
    ],
    [
      "ď",
      "ī"
    ],
    [
      "š",
      "Ė"
    ],
    [
      "œŘ",
      "ĸŮ"
    ],
    [
      "ġ",
      "Ŀŀ"
    ],
    [
      "ł",
      "ŝŃ"
    ],
    [
      "ŕŞ",
      "œ"
    ],
    [
      "Ĩ",
      "ģļ"
    ],
    [
      "œŅ",
      "ĵŮ"
    ],
    [
      "ļ",
      "ŗő"
    ],
    [
      "ġ",
      "ıŜĐ"
    ],
    [
      "ĠĿ",
      "Ņ"
    ],
    [
      "ĭĳ",
      "řĐ"
    ],
    [
      "őř",
      "Ĭľ"
    ],
    [
      "őşş",
      "ś"
    ],
    [
      "ĸĸ",
      "ŝŅŕŞ"
    ],
    [
      "ņŘŗş",
      "ĳŮ"
    ],
    [
      "Ī",
      "ī"
    ],
    [
      "ş",
      "őŜ"
    ],
    [
      "Ēş",
      "ĵŮ"
    ],
    [
      "ő",
      "œĥŮ"
    ],
    [
      "ŝŅ",
      "ĵŮ"
    ],
    [
      "īĢ",
      "ģ"
    ],
    [
      "ģ",
      "Śř"
    ],
    [
      "ĤĢ",
      "ĵŰ"
    ],
    [
      "Ş",
      "ĨĽŬ"
    ],
    [
      "Ň",
      "Ė"
    ],
    [
      "śŞ",
      "Ēŗ"
    ],
    [
      "Įļ",
      "ĸĸ"
    ],
    [
      "š",
      "ġĢŰ"
    ],
    [
      "Ēŕ",
      "Ŋ"
    ],
    [
      "ĿĹ",
      "ŕŞ"
    ],
    [
      "ġ",
      "ĿŜ"
    ],
    [
      "ĩļ",
      "ŋĐ"
    ],
    [
      "Ľ",
      "śŜ"
    ],
    [
      "Ĳħ",
      "īľ"
    ],
    [
      "śŕ",
      "ĠĢŬ"
    ],
    [
      "ĥĢ",
      "Łń"
    ],
    [
      "ŗņ",
      "ŗń"
    ],
    [
      "ő",
      "ŕŜł"
    ],
    [
      "ģī",
      "ĩľ"
    ],
    [
      "őŜ",
      "ŇŒ"
    ],
    [
      "ıŜ",
      "œŗĖ"
    ],
    [
      "ģĥŜ",
      "ŔĒ"
    ],
    [
      "Ŕş",
      "ĳĽĸŰ"
    ],
    [
      "ĨĠ",
      "įļŇŔ"
    ],
    [
      "ř",
      "ř"
    ],
    [
      "ų",
      "ŝ"
    ],
    [
      "Ŧ",
      "ş"
    ],
    [
      "ŀ",
      "ŕĒ"
    ],
    [
      "ģĒ",
      "Ń"
    ],
    [
      "ĹŜ",
      "Ń"
    ],
    [
      "Ś",
      "ŕŀĖ"
    ],
    [
      "įĺ",
      "ĩĢ"
    ],
    [
      "Ł",
      "řŜő"
    ],
    [
      "ĨĢ",
      "Ŭ"
    ],
    [
      "ĶĦ",
      "ģŰ"
    ],
    [
      "ŐŃ",
      "ĵŮ"
    ],
    [
      "ı",
      "ļĩģ"
    ],
    [
      "Ż",
      "Đ"
    ],
    [
      "Ĕ",
      "Ġ"
    ],
    [
      "ű",
      "ŗ"
    ],
    [
      "ŧ",
      "Ř"
    ],
    [
      "Ġ",
      "ģļ"
    ],
    [
      "ģħ",
      "ŜĐ"
    ],
    [
      "ĥĽ",
      "ŗĐ"
    ],
    [
      "šĺĤ",
      "ĹŁĐ"
    ],
    [
      "Śŗ",
      "ķīŬ"
    ],
    [
      "īĢ",
      "ĳŗĐ"
    ],
    [
      "ģĥ",
      "ŀĐ"
    ],
    [
      "ĪĶ",
      "śœ"
    ],
    [
      "Ņ",
      "ĵ"
    ],
    [
      "Ę",
      "ŗĐ"
    ],
    [
      "ī",
      "ĵĒ"
    ],
    [
      "śŘ",
      "ĤŮ"
    ],
    [
      "ĵŀ",
      "ņ"
    ],
    [
      "ĤŚŕĒ",
      "œ"
    ],
    [
      "ņş",
      "Ēŗ"
    ],
    [
      "Ĥļ",
      "ĭļ"
    ],
    [
      "Ġ",
      "ŝŃ"
    ],
    [
      "ıŜŔĒ",
      "ŗ"
    ],
    [
      "ŝś",
      "Ś"
    ],
    [
      "Ēŀ",
      "Şŗ"
    ],
    [
      "ņŁ",
      "ĮŮ"
    ],
    [
      "ĒńŚœ",
      "ĨļŬ"
    ],
    [
      "Ŵ",
      "ş"
    ],
    [
      "ą",
      "ī"
    ],
    [
      "ų",
      "Ř"
    ],
    [
      "ħ",
      "ĺŬ"
    ],
    [
      "ř",
      "ņĖ"
    ],
    [
      "ĩľ",
      "Ŀ"
    ],
    [
      "ĥľ",
      "œŜ"
    ],
    [
      "ŁĐ",
      "ŝŐš"
    ],
    [
      "ĤĠ",
      "ĸģĒ"
    ],
    [
      "őř",
      "įĽ"
    ],
    [
      "Ňő",
      "ĩŮ"
    ],
    [
      "ĮĻĢ",
      "ĴĒ"
    ],
    [
      "ĒŇ",
      "ŚşĢĦŬ"
    ],
    [
      "š",
      "ĩ"
    ],
    [
      "ı",
      "ł"
    ],
    [
      "Ğ",
      "Ŀ"
    ],
    [
      "į",
      "ĳ"
    ],
    [
      "ź",
      "ŕĒ"
    ],
    [
      "œł",
      "ĵ"
    ],
    [
      "ļ",
      "œł"
    ],
    [
      "ŝł",
      "ņŞ"
    ],
    [
      "ş",
      "ŕŖĖ"
    ],
    [
      "įľ",
      "Ļ"
    ],
    [
      "Łł",
      "Įļ"
    ],
    [
      "ħ",
      "Śş"
    ],
    [
      "Ś",
      "őŁĖ"
    ],
    [
      "œ",
      "œņ"
    ],
    [
      "ĨĪ",
      "Ĺ"
    ],
    [
      "śŔ",
      "ŗĖ"
    ],
    [
      "őř",
      "Ĭģ"
    ],
    [
      "śŗŚ",
      "ł"
    ],
    [
      "ĭĶ",
      "ņŕŀĖ"
    ],
    [
      "Œ",
      "ŗœįŮ"
    ],
    [
      "Ĳ",
      "ŗ"
    ],
    [
      "Ŋ",
      "Ė"
    ],
    [
      "ż",
      "ş"
    ],
    [
      "ź",
      "œš"
    ],
    [
      "ļ",
      "œń"
    ],
    [
      "ĭľ",
      "Ĺ"
    ],
    [
      "ģĢ",
      "ņĐ"
    ],
    [
      "řŜ",
      "œš"
    ],
    [
      "ıŀ",
      "ŔĒ"
    ],
    [
      "ĮĠ",
      "ĿŰ"
    ],
    [
      "ŕŜ",
      "Ņ"
    ],
    [
      "šĽ",
      "ĸ"
    ],
    [
      "ĒŇ",
      "œŅ"
    ],
    [
      "ĳħ",
      "ĸĹ"
    ],
    [
      "į",
      "ıŜĐ"
    ],
    [
      "įĪ",
      "Ĥŗł"
    ],
    [
      "Ģ",
      "ĭ"
    ],
    [
      "Ħ",
      "ī"
    ],
    [
      "Ē",
      "ŏ"
    ],
    [
      "š",
      "ą"
    ],
    [
      "ğ",
      "Ű"
    ],
    [
      "Ī",
      "ĽŬ"
    ],
    [
      "ŕŀ",
      "ŀ"
    ],
    [
      "ħĢ",
      "Ĺ"
    ],
    [
      "ĠĠ",
      "ĿŰ"
    ],
    [
      "Ġ",
      "ŀř"
    ],
    [
      "Ĥ",
      "ģļ"
    ],
    [
      "ĭģĒ",
      "ő"
    ],
    [
      "Ēņ",
      "ĭ"
    ],
    [
      "ŗŃĒ",
      "ŗįĪŬ"
    ],
    [
      "Ŕřĳ",
      "ģ"
    ],
    [
      "ħœŃĒ",
      "ŗ"
    ],
    [
      "Ġı",
      "ŋ"
    ],
    [
      "Ĺ",
      "ŞŜ"
    ],
    [
      "ĵĒşŔĖ",
      "ĵĦĩŰ"
    ],
    [
      "Ĵľ",
      "Ŭ"
    ],
    [
      "ĹŜ",
      "œŞŃ"
    ],
    [
      "č",
      "Ĥ"
    ],
    [
      "š",
      "ā"
    ],
    [
      "Ĺ",
      "Ů"
    ],
    [
      "Ţ",
      "ş"
    ],
    [
      "ĝ",
      "œł"
    ],
    [
      "ŀ",
      "ŗń"
    ],
    [
      "Ĥ",
      "įĸ"
    ],
    [
      "ś",
      "ŕŖĖ"
    ],
    [
      "şį",
      "īŬ"
    ],
    [
      "ŝŃ",
      "įĪŬ"
    ],
    [
      "ŕş",
      "Ė"
    ],
    [
      "į",
      "ĵŜń"
    ],
    [
      "Ħ",
      "ĩı"
    ],
    [
      "Ġļ",
      "ŝŇ"
    ],
    [
      "Ĩģ",
      "Ŭ"
    ],
    [
      "Ĥ",
      "śŝ"
    ],
    [
      "ĵŜ",
      "œŗĖ"
    ],
    [
      "ĵŖĐ",
      "Őŏš"
    ],
    [
      "ģĥŜ",
      "Ŕ"
    ],
    [
      "Ģġ",
      "ġĽ"
    ],
    [
      "Ņő",
      "ŋĖ"
    ],
    [
      "ĩįĺ",
      "ĵĒ"
    ],
    [
      "Ŕ",
      "Ņ"
    ],
    [
      "Ĭ",
      "Ļ"
    ],
    [
      "č",
      "ļ"
    ],
    [
      "œ",
      "ŝł"
    ],
    [
      "ő",
      "ŕŖĖ"
    ],
    [
      "ŝŅ",
      "ņŞ"
    ],
    [
      "Ēń",
      "ĤĽ"
    ],
    [
      "Ķ",
      "śŜ"
    ],
    [
      "ŗŘ",
      "ĵĽŬ"
    ],
    [
      "Ĥĸ",
      "ĩľ"
    ],
    [
      "Ĭ",
      "ĹĤ"
    ],
    [
      "ĥŜ",
      "ń"
    ],
    [
      "Ř",
      "ĮĺŬ"
    ],
    [
      "ĢĢ",
      "ĹĴ"
    ],
    [
      "Ŕř",
      "Şś"
    ],
    [
      "ś",
      "Ō"
    ],
    [
      "š",
      "Ş"
    ],
    [
      "ż",
      "œ"
    ],
    [
      "ą",
      "Ĥ"
    ],
    [
      "Ĥļ",
      "Ģ"
    ],
    [
      "ŝł",
      "ņĖ"
    ],
    [
      "ŀř",
      "ņş"
    ],
    [
      "őş",
      "ņ"
    ],
    [
      "ĩ",
      "įľ"
    ],
    [
      "Ĭ",
      "ġĢ"
    ],
    [
      "őŀ",
      "œš"
    ],
    [
      "ĹŜŗ",
      "Ēŗ"
    ],
    [
      "Ī",
      "ħĢķ"
    ],
    [
      "šĹ",
      "ĭģ"
    ],
    [
      "ņş",
      "ĒŔ"
    ],
    [
      "Ĳ",
      "īĿŰ"
    ],
    [
      "ĤĽ",
      "ĩŰ"
    ],
    [
      "ĤĽ",
      "ĿŰ"
    ],
    [
      "ıņĐ",
      "ņŞĤŮ"
    ],
    [
      "Ŗ",
      "řŜőš"
    ],
    [
      "ĭĢ",
      "ģħ"
    ],
    [
      "ıŜŔ",
      "Ēł"
    ],
    [
      "īĿ",
      "ģ"
    ],
    [
      "śř",
      "įĽŬ"
    ],
    [
      "ĠĢ",
      "ĠĩĒ"
    ],
    [
      "Ħ",
      "įĥľ"
    ],
    [
      "ģĒŇ",
      "ŗńĤŮ"
    ],
    [
      "ŀ",
      "őŞş"
    ],
    [
      "łŜœ",
      "ŏ"
    ],
    [
      "Ė",
      "Ħ"
    ],
    [
      "ų",
      "ś"
    ],
    [
      "ř",
      "Ř"
    ],
    [
      "š",
      "ċ"
    ],
    [
      "ŗ",
      "Ŝŗ"
    ],
    [
      "ŜĖ",
      "ĵĦĩŰ"
    ],
    [
      "ĭĢ",
      "ņĐ"
    ],
    [
      "Ľ",
      "ŗŞ"
    ],
    [
      "ŀŕ",
      "ŗĖ"
    ],
    [
      "Ġ",
      "ıŀ"
    ],
    [
      "őŀ",
      "ŝ"
    ],
    [
      "ŗŅ",
      "ĤŮ"
    ],
    [
      "ĤĽ",
      "Ŀ"
    ],
    [
      "š",
      "įĸŰ"
    ],
    [
      "Ř",
      "śŅš"
    ],
    [
      "Ġĺ",
      "ĥĿŜ"
    ],
    [
      "ĒŞ",
      "ĠĪŬ"
    ],
    [
      "ŝ",
      "ŗŘĵŮ"
    ],
    [
      "Ġ",
      "ĨĸĵŀĐ"
    ],
    [
      "ģĢ",
      "ĩŰ"
    ],
    [
      "Łń",
      "ŝń"
    ],
    [
      "ŗŚ",
      "ĸŮ"
    ],
    [
      "śŚ",
      "ĭŮ"
    ],
    [
      "ĨĢ",
      "ĠŰ"
    ],
    [
      "ġĿ",
      "Łń"
    ],
    [
      "Ĥ",
      "įĨŰ"
    ],
    [
      "ĤĠ",
      "įĵĒ"
    ],
    [
      "ŝń",
      "ŚœĳŮ"
    ],
    [
      "Ĭĩ",
      "ĵŜĐ"
    ],
    [
      "Ā",
      "ļ"
    ],
    [
      "Ĥ",
      "ĥ"
    ],
    [
      "Ĺ",
      "Ĳ"
    ],
    [
      "Ţ",
      "ř"
    ],
    [
      "ŁĖ",
      "ĵĦĩŰ"
    ],
    [
      "Ġļ",
      "ĸŰ"
    ],
    [
      "Ēř",
      "Ŝ"
    ],
    [
      "ŝŖ",
      "Ēł"
    ],
    [
      "ł",
      "ŗĳ"
    ],
    [
      "ľĵ",
      "ŗĐ"
    ],
    [
      "ŅŞ",
      "ĮŮ"
    ],
    [
      "Ēń",
      "Ņř"
    ],
    [
      "ĭĴ",
      "ŗĐ"
    ],
    [
      "ģ",
      "ĩľņĐ"
    ],
    [
      "Ĥı",
      "ńŕĒ"
    ],
    [
      "ņşĮĠ",
      "ĭļ"
    ],
    [
      "ĩĦ",
      "ŗŞ"
    ],
    [
      "Śőń",
      "œš"
    ],
    [
      "Ŗśń",
      "ĲĺŬ"
    ],
    [
      "ž",
      "œ"
    ],
    [
      "ž",
      "ŕ"
    ],
    [
      "ģ",
      "Ň"
    ],
    [
      "ę",
      "Ŝ"
    ],
    [
      "Ī",
      "Ĥ"
    ],
    [
      "ď",
      "ı"
    ],
    [
      "ş",
      "ŃĒ"
    ],
    [
      "ł",
      "ŃĒ"
    ],
    [
      "œŞ",
      "ŗ"
    ],
    [
      "Ĥļ",
      "ĢŰ"
    ],
    [
      "ĤŚŕĒ",
      "ņ"
    ],
    [
      "Ēş",
      "į"
    ],
    [
      "ĭľŖĐ",
      "ņŞĤŮ"
    ],
    [
      "řĳ",
      "īŬ"
    ],
    [
      "Ēő",
      "ĒŅ"
    ],
    [
      "Łş",
      "Ħ"
    ],
    [
      "ĮĻ",
      "ĸĸ"
    ],
    [
      "Ĳ",
      "ŗœ"
    ],
    [
      "ŅŘ",
      "ŝĖ"
    ],
    [
      "įĢ",
      "ĳŗĐ"
    ],
    [
      "Ĳľ",
      "ĩĳ"
    ],
    [
      "Ĵģ",
      "Ŭ"
    ],
    [
      "Ř",
      "œŒš"
    ],
    [
      "ĸ",
      "œņŗĖ"
    ],
    [
      "ĀĻĿĤ",
      "ŀőŞş"
    ],
    [
      "Ģ",
      "ļ"
    ],
    [
      "Ŵ",
      "ř"
    ],
    [
      "Į",
      "ĪŬ"
    ],
    [
      "Ŝŗ",
      "Ņš"
    ],
    [
      "ĤŚŕĒ",
      "ŗ"
    ],
    [
      "šĺĤĵĒ",
      "ł"
    ],
    [
      "ĩľ",
      "ĵ"
    ],
    [
      "ĳī",
      "Ģ"
    ],
    [
      "ŝŅ",
      "ŁĖ"
    ],
    [
      "őŀ",
      "ő"
    ],
    [
      "őŀ",
      "Œš"
    ],
    [
      "ģĥ",
      "ņŘ"
    ],
    [
      "Ģŗ",
      "ŕĒ"
    ],
    [
      "Ģŗ",
      "ņ"
    ],
    [
      "ĭĳ",
      "ř"
    ],
    [
      "ĩī",
      "ĢŰ"
    ],
    [
      "œŔ",
      "ŗĖ"
    ],
    [
      "Ĩĸ",
      "ĩĢ"
    ],
    [
      "śœ",
      "œŚš"
    ],
    [
      "Ĩģ",
      "ĩŰ"
    ],
    [
      "ĩľ",
      "őŕĒ"
    ],
    [
      "ĒŖ",
      "ŀřĬŮ"
    ],
    [
      "śş",
      "ŜŅš"
    ],
    [
      "ı",
      "ŕ"
    ],
    [
      "ż",
      "ř"
    ],
    [
      "ŋ",
      "ř"
    ],
    [
      "ų",
      "ł"
    ],
    [
      "Ĥ",
      "ĵŀ"
    ],
    [
      "ĭ",
      "ĺŬ"
    ],
    [
      "ĤŚŕĒ",
      "ś"
    ],
    [
      "Ľ",
      "ŝŞ"
    ],
    [
      "ģ",
      "ŝŞ"
    ],
    [
      "ĥŮ",
      "ĸĸŗĐ"
    ],
    [
      "ĭĤ",
      "ı"
    ],
    [
      "ĠĠ",
      "ĸŰ"
    ],
    [
      "ś",
      "œĥŮ"
    ],
    [
      "š",
      "ĦĩŰ"
    ],
    [
      "ĮĻ",
      "ĿŰ"
    ],
    [
      "œń",
      "ņŗ"
    ],
    [
      "ĳ",
      "Şő"
    ],
    [
      "œŕ",
      "ĪŮ"
    ],
    [
      "ņŕŀ",
      "Ř"
    ],
    [
      "Ş",
      "ĠĪŬ"
    ],
    [
      "ĶŀşşĖ",
      "ĵĦĩŰ"
    ],
    [
      "ĻĿ",
      "ŇŜŖĖ"
    ],
    [
      "č",
      "ľ"
    ],
    [
      "Ű",
      "ő"
    ],
    [
      "Ā",
      "Ĺ"
    ],
    [
      "Ł",
      "Ŝ"
    ],
    [
      "ď",
      "ġ"
    ],
    [
      "ų",
      "Ŝ"
    ],
    [
      "Ā",
      "ĵ"
    ],
    [
      "ģĒ",
      "ő"
    ],
    [
      "ł",
      "Ņš"
    ],
    [
      "ģ",
      "ņş"
    ],
    [
      "ĤŚŕĒ",
      "ń"
    ],
    [
      "ĭĤ",
      "ĒńŚœš"
    ],
    [
      "ģĢ",
      "ņŘ"
    ],
    [
      "řŜ",
      "Œ"
    ],
    [
      "ĥļ",
      "ŗĐ"
    ],
    [
      "Ġģ",
      "ħ"
    ],
    [
      "ħ",
      "ġĠ"
    ],
    [
      "ŝŃ",
      "ĳŮ"
    ],
    [
      "ĥļ",
      "ŞĐ"
    ],
    [
      "šĺ",
      "ĻĿ"
    ],
    [
      "ĢġĢ",
      "ģ"
    ],
    [
      "ĤĪŬ",
      "ĤŚőņĖ"
    ],
    [
      "ļ",
      "ĢŗŃ"
    ],
    [
      "Ķ",
      "įĵŰ"
    ],
    [
      "ģ",
      "ĤŚŕŀĖ"
    ],
    [
      "ĸ",
      "īĭĢ"
    ],
    [
      "Ĉ",
      "Ů"
    ],
    [
      "Į",
      "ķ"
    ],
    [
      "Ā",
      "ĽŬ"
    ],
    [
      "ģ",
      "īľ"
    ],
    [
      "ģľ",
      "ŖĐ"
    ],
    [
      "őş",
      "Ŝ"
    ],
    [
      "ĤĠ",
      "ĨŰ"
    ],
    [
      "ķ",
      "ħĢķ"
    ],
    [
      "Şş",
      "Ņ"
    ],
    [
      "Ĵļ",
      "ĩŰ"
    ],
    [
      "įī",
      "ı"
    ],
    [
      "Ĵ",
      "Ňœ"
    ],
    [
      "ıĢ",
      "ĭĩ"
    ],
    [
      "ńŕŀ",
      "Ņ"
    ],
    [
      "ŕşŔ",
      "ĤļŬ"
    ],
    [
      "Ķġľ",
      "Ļ"
    ],
    [
      "Ĉ",
      "Ġ"
    ],
    [
      "ĺ",
      "Ŀ"
    ],
    [
      "č",
      "Ģ"
    ],
    [
      "į",
      "īľ"
    ],
    [
      "Ŕ",
      "œĳ"
    ],
    [
      "ņŘ",
      "ŀœ"
    ],
    [
      "şį",
      "īĨŰ"
    ],
    [
      "ĨĠ",
      "ĿĤ"
    ],
    [
      "ŝŃ",
      "ĲŮ"
    ],
    [
      "ĵ",
      "ļĩ"
    ],
    [
      "œ",
      "ŗœ"
    ],
    [
      "ĠĽŬ",
      "ı"
    ],
    [
      "ĩģĒ",
      "őŜŒš"
    ],
    [
      "Şŗ",
      "įĪŬ"
    ],
    [
      "ĵħģľ",
      "ĒşŔĖ"
    ],
    [
      "ıņ",
      "ŕŀĖ"
    ],
    [
      "Ĩĺ",
      "ĥĿŜĐ"
    ],
    [
      "ĵŞ",
      "ŕ"
    ],
    [
      "ĤĢ",
      "ĠŰ"
    ],
    [
      "őő",
      "ŜĖ"
    ],
    [
      "œŘ",
      "ĢīŬ"
    ],
    [
      "ļļ",
      "œŉ"
    ],
    [
      "ē",
      "ġ"
    ],
    [
      "ŀ",
      "ŏ"
    ],
    [
      "ş",
      "ņ"
    ],
    [
      "Ŀ",
      "ļ"
    ],
    [
      "ĩ",
      "ĩŰ"
    ],
    [
      "œŚ",
      "ş"
    ],
    [
      "ĭ",
      "įĸ"
    ],
    [
      "ġľ",
      "Ĺ"
    ],
    [
      "ħ",
      "ŝŅ"
    ],
    [
      "ĒŒ",
      "ŗĖ"
    ],
    [
      "ĤĪŬ",
      "ıŁĐ"
    ],
    [
      "ı",
      "őŘ"
    ],
    [
      "ĵļ",
      "ĭļ"
    ],
    [
      "ŇŃ",
      "ŗĖ"
    ],
    [
      "ņ",
      "ŜŋĖ"
    ],
    [
      "ĻĹņŘ",
      "ĒłĩīŬ"
    ],
    [
      "ĒŇ",
      "ŗńĤŮ"
    ],
    [
      "ĤŚŕ",
      "ŋĖ"
    ],
    [
      "śŗŚ",
      "łš"
    ],
    [
      "Ĩĥ",
      "ŀřŜő"
    ],
    [
      "Ţ",
      "ŗ"
    ],
    [
      "ŋ",
      "ş"
    ],
    [
      "č",
      "Ľ"
    ],
    [
      "ĸ",
      "Ľ"
    ],
    [
      "ę",
      "ľ"
    ],
    [
      "Ē",
      "Ů"
    ],
    [
      "Ŀ",
      "Ľ"
    ],
    [
      "Ă",
      "ĵ"
    ],
    [
      "īľ",
      "Ħ"
    ],
    [
      "ŕŀ",
      "ś"
    ],
    [
      "įĢ",
      "ľ"
    ],
    [
      "őŞ",
      "ł"
    ],
    [
      "Ŝ",
      "ŕŖĖ"
    ],
    [
      "ĩĢ",
      "śœ"
    ],
    [
      "Ĭ",
      "īĿŰ"
    ],
    [
      "Ġ",
      "ĵŁĐ"
    ],
    [
      "ĭĢ",
      "őŘ"
    ],
    [
      "ĵŖĐ",
      "ņřš"
    ],
    [
      "ŇŃ",
      "ņń"
    ],
    [
      "ĩļ",
      "ŞĐ"
    ],
    [
      "Ĥģ",
      "Ŭ"
    ],
    [
      "łŗ",
      "œš"
    ],
    [
      "ĹŜń",
      "ŝĖ"
    ],
    [
      "œŖ",
      "ņœĳŮ"
    ],
    [
      "ųŝ",
      "ŗń"
    ],
    [
      "š",
      "Ġ"
    ],
    [
      "đ",
      "ş"
    ],
    [
      "ģĒ",
      "Œ"
    ],
    [
      "Ģ",
      "ŗń"
    ],
    [
      "œŞ",
      "ř"
    ],
    [
      "ŕŀ",
      "Ņ"
    ],
    [
      "Ń",
      "ņĖ"
    ],
    [
      "œŘ",
      "ĵŮ"
    ],
    [
      "Ł",
      "œĳ"
    ],
    [
      "őŜ",
      "ŝ"
    ],
    [
      "œń",
      "ĒłĩīŬ"
    ],
    [
      "Ś",
      "ŕŖĖ"
    ],
    [
      "œ",
      "ŏš"
    ],
    [
      "ĳī",
      "ĩŰ"
    ],
    [
      "Şř",
      "Ķ"
    ],
    [
      "ŅŞ",
      "ł"
    ],
    [
      "ą",
      "Ļľ"
    ],
    [
      "ĸ",
      "ŗő"
    ],
    [
      "Ēń",
      "Ĥĭ"
    ],
    [
      "ĩģĒ",
      "şŔĖ"
    ],
    [
      "š",
      "ĻĢ"
    ],
    [
      "Ķħĸĸ",
      "ĒńŚœš"
    ],
    [
      "ĵīľ",
      "ľ"
    ],
    [
      "Ĺģ",
      "ņł"
    ],
    [
      "ł",
      "ŜŗĖ"
    ],
    [
      "Łŀ",
      "ŗŕ"
    ],
    [
      "ħļģĽ",
      "ĒńŚœš"
    ],
    [
      "šĨ",
      "ľĿşĐ"
    ],
    [
      "ŋ",
      "ŕœń"
    ],
    [
      "Ŕ",
      "ő"
    ],
    [
      "Ŕ",
      "Ĥ"
    ],
    [
      "Ē",
      "ŉ"
    ],
    [
      "ĩ",
      "ĩ"
    ],
    [
      "Ś",
      "Ń"
    ],
    [
      "Ķ",
      "śŞ"
    ],
    [
      "Ā",
      "ĺŬ"
    ],
    [
      "ĸŰ",
      "ņŘŗĖ"
    ],
    [
      "ĭĢ",
      "ņř"
    ],
    [
      "ĭľ",
      "ŋĐ"
    ],
    [
      "ŀŕ",
      "ŁĖ"
    ],
    [
      "Ĩ",
      "ĭħ"
    ],
    [
      "ŝś",
      "ĤŮ"
    ],
    [
      "Ī",
      "ĥģ"
    ],
    [
      "Ł",
      "şįĩŬ"
    ],
    [
      "Ģ",
      "īĢĤ"
    ],
    [
      "Ļĸ",
      "ŝĐ"
    ],
    [
      "ņŃ",
      "ĳ"
    ],
    [
      "ĲŮ",
      "ĘĸŗĐ"
    ],
    [
      "ĭľ",
      "őŕĒ"
    ],
    [
      "šĦ",
      "ĭĴĒ"
    ],
    [
      "įĿŀ",
      "Ŕ"
    ],
    [
      "ħ",
      "Ś"
    ],
    [
      "ģ",
      "ĩ"
    ],
    [
      "đ",
      "ġ"
    ],
    [
      "ĺ",
      "ı"
    ],
    [
      "ă",
      "ī"
    ],
    [
      "Ł",
      "ŉ"
    ],
    [
      "Ą",
      "ĵĒ"
    ],
    [
      "ĤŚŕĒ",
      "Ŵ"
    ],
    [
      "ŀ",
      "ŕŖĖ"
    ],
    [
      "ŗŘ",
      "ĵ"
    ],
    [
      "ĨĠ",
      "ĭļ"
    ],
    [
      "ı",
      "ļĩ"
    ],
    [
      "ĒŞ",
      "ĤŮ"
    ],
    [
      "ŕş",
      "ņ"
    ],
    [
      "ŗĐ",
      "ŝŐš"
    ],
    [
      "ġľ",
      "ĤŚĐ"
    ],
    [
      "ŗŜ",
      "ŞĖ"
    ],
    [
      "Ĭ",
      "įĥľ"
    ],
    [
      "ŗ",
      "ŗĳŮ"
    ],
    [
      "ĩĴĒ",
      "şŜĖ"
    ],
    [
      "ł",
      "őŀł"
    ],
    [
      "Ķśł",
      "Łł"
    ],
    [
      "őŚ",
      "ĴĪ"
    ],
    [
      "Ņşŀ",
      "ŝ"
    ],
    [
      "Š",
      "œ"
    ],
    [
      "ħ",
      "Ļ"
    ],
    [
      "Ğ",
      "ĵ"
    ],
    [
      "Ŵ",
      "ń"
    ],
    [
      "Ē",
      "ī"
    ],
    [
      "ĳ",
      "ĪŬ"
    ],
    [
      "ĳ",
      "œł"
    ],
    [
      "Ħ",
      "ĩĢ"
    ],
    [
      "ś",
      "ŝł"
    ],
    [
      "Ġļ",
      "įĸ"
    ],
    [
      "ĳ",
      "ŗŞ"
    ],
    [
      "řŜ",
      "ŕ"
    ],
    [
      "řŜ",
      "ş"
    ],
    [
      "įľ",
      "Ĺ"
    ],
    [
      "ıŞ",
      "ń"
    ],
    [
      "ĭģ",
      "ļ"
    ],
    [
      "ľ",
      "ĩĒ"
    ],
    [
      "ĵĦ",
      "ľĿ"
    ],
    [
      "őŗ",
      "įŮ"
    ],
    [
      "śł",
      "ĨġĢŰ"
    ],
    [
      "őń",
      "śřįŮ"
    ],
    [
      "Ĵĺ",
      "ĤŰ"
    ],
    [
      "ĩħ",
      "ļŰ"
    ],
    [
      "Łł",
      "ĳĻ"
    ],
    [
      "ņŞĤ",
      "ķŬ"
    ],
    [
      "Ľ",
      "ŝłŗĖ"
    ],
    [
      "Ľ",
      "ĸ"
    ],
    [
      "ĭ",
      "į"
    ],
    [
      "ŵ",
      "ř"
    ],
    [
      "Ą",
      "Ŀ"
    ],
    [
      "ż",
      "ŕ"
    ],
    [
      "Ă",
      "Ŀ"
    ],
    [
      "ğ",
      "ĵ"
    ],
    [
      "Ş",
      "ŃĒ"
    ],
    [
      "ć",
      "ĢŰ"
    ],
    [
      "ŀ",
      "ŝń"
    ],
    [
      "ĵŜ",
      "ŔĒ"
    ],
    [
      "ŗĳ",
      "Ī"
    ],
    [
      "Ş",
      "ŗĳ"
    ],
    [
      "ĭ",
      "įĢĴĒ"
    ],
    [
      "ķ",
      "īĿŰ"
    ],
    [
      "ı",
      "ŁŃ"
    ],
    [
      "Ēŕ",
      "Įģ"
    ],
    [
      "śŚ",
      "ĤŮ"
    ],
    [
      "Ŕş",
      "ŀŕ"
    ],
    [
      "ģĒ",
      "řŜĖ"
    ],
    [
      "įĹ",
      "œŜ"
    ],
    [
      "Ġ",
      "ħľ"
    ],
    [
      "Ēř",
      "Ŝŕ"
    ],
    [
      "ĥĦ",
      "ŗł"
    ],
    [
      "Őŕ",
      "őŗ"
    ],
    [
      "ĸ",
      "ļŋĐ"
    ],
    [
      "ĠĠ",
      "įĵĒ"
    ],
    [
      "ĨĠ",
      "ĸĵŀ"
    ],
    [
      "ŁĖ",
      "ĶīľĵĒ"
    ],
    [
      "ŕő",
      "śŘ"
    ],
    [
      "ĭ",
      "ġĢķ"
    ],
    [
      "Ĺ",
      "Ű"
    ],
    [
      "ħ",
      "ļ"
    ],
    [
      "ŧ",
      "ţ"
    ],
    [
      "Ş",
      "ŀ"
    ],
    [
      "Ŋ",
      "Đ"
    ],
    [
      "ĸ",
      "ĩĢ"
    ],
    [
      "ş",
      "ĵŮ"
    ],
    [
      "ę",
      "ņĐ"
    ],
    [
      "ĿŰ",
      "ņŘŗĖ"
    ],
    [
      "šĺĤĵĒ",
      "œ"
    ],
    [
      "įĢ",
      "ĵŰ"
    ],
    [
      "şį",
      "ħ"
    ],
    [
      "ĵŮ",
      "ģĶ"
    ],
    [
      "ĳ",
      "ġĢ"
    ],
    [
      "Ģŗ",
      "ŗ"
    ],
    [
      "ıŀ",
      "ŉĒ"
    ],
    [
      "ŁĖ",
      "ĵġŬ"
    ],
    [
      "ĸ",
      "œŃĒ"
    ],
    [
      "ıĢ",
      "ĭĳ"
    ],
    [
      "ĸı",
      "śŞ"
    ],
    [
      "ħśńŚĖ",
      "ĵĦĩŰ"
    ],
    [
      "š",
      "ĭģĽ"
    ],
    [
      "ĤĹ",
      "łĐ"
    ],
    [
      "ĵ",
      "ĵœł"
    ],
    [
      "œŐ",
      "ĵīľŰ"
    ],
    [
      "ņŘ",
      "ŗŏš"
    ],
    [
      "Ģ",
      "ķ"
    ],
    [
      "ž",
      "ŗ"
    ],
    [
      "Ā",
      "Ġ"
    ],
    [
      "ŋ",
      "Ņ"
    ],
    [
      "ĕ",
      "ī"
    ],
    [
      "ĭľ",
      "ŁĐ"
    ],
    [
      "Ŝŗ",
      "Œ"
    ],
    [
      "Ŝŗ",
      "Ņ"
    ],
    [
      "ł",
      "ŕŖĖ"
    ],
    [
      "ıŀ",
      "ŝ"
    ],
    [
      "ľĵ",
      "őş"
    ],
    [
      "Ń",
      "Śş"
    ],
    [
      "Ēł",
      "ŗŚ"
    ],
    [
      "ĒŔ",
      "Ĥ"
    ],
    [
      "ģ",
      "ŗœ"
    ],
    [
      "Ēń",
      "ĤĢ"
    ],
    [
      "ĥ",
      "Ļľ"
    ],
    [
      "ĒŐ",
      "Įļ"
    ],
    [
      "ņ",
      "őŞĖ"
    ],
    [
      "śŃĒ",
      "ŗ"
    ],
    [
      "Őŕ",
      "ŗŘ"
    ],
    [
      "ĩľ",
      "ņŃĒ"
    ],
    [
      "ŗŒ",
      "šĺĤıņĐ"
    ],
    [
      "ķīľ",
      "ģ"
    ],
    [
      "šĺĤĵ",
      "ŋĐ"
    ],
    [
      "š",
      "ħĸŰ"
    ],
    [
      "Őŉ",
      "ĒłĩīŬ"
    ],
    [
      "Ġĺ",
      "ĥĿŜŃĒ"
    ],
    [
      "ĸĸ",
      "ŗŉĒ"
    ],
    [
      "ĒńŚ",
      "şĲŮ"
    ],
    [
      "Ņş",
      "ŇŚĥŮ"
    ],
    [
      "Ű",
      "œ"
    ],
    [
      "ĵ",
      "į"
    ],
    [
      "Ġ",
      "Ķ"
    ],
    [
      "š",
      "Đ"
    ],
    [
      "Ÿ",
      "Ń"
    ],
    [
      "Ň",
      "ŕĒ"
    ],
    [
      "ħ",
      "œł"
    ],
    [
      "ŝ",
      "ŔĒ"
    ],
    [
      "ĵŀ",
      "ŝ"
    ],
    [
      "ŕŀ",
      "ř"
    ],
    [
      "ĤŚŕĒ",
      "Ŕ"
    ],
    [
      "Ĭ",
      "įĸ"
    ],
    [
      "ŗŞ",
      "ŖĖ"
    ],
    [
      "ĸ",
      "ĹŜ"
    ],
    [
      "ģĥ",
      "ŁĐ"
    ],
    [
      "ĭ",
      "ħĢķ"
    ],
    [
      "Ģŗ",
      "ŃĒ"
    ],
    [
      "ŁĖ",
      "ĨĠŬ"
    ],
    [
      "ĥĤ",
      "śşŜĖ"
    ],
    [
      "şŗ",
      "įŮ"
    ],
    [
      "ĨĪ",
      "ĩŰ"
    ],
    [
      "ĪĹ",
      "ĳ"
    ],
    [
      "Ġĭ",
      "ĩŰ"
    ],
    [
      "ĩ",
      "ıŀĐ"
    ],
    [
      "ġı",
      "śŞ"
    ],
    [
      "Įĩ",
      "ĒńŚœš"
    ],
    [
      "ŝł",
      "ĩīľŰ"
    ],
    [
      "ģĥ",
      "ŞŔĒ"
    ],
    [
      "Ŕ",
      "ĤīĢŰ"
    ],
    [
      "Ē",
      "Ħ"
    ],
    [
      "Ĺ",
      "ĺ"
    ],
    [
      "š",
      "Ř"
    ],
    [
      "ŝ",
      "ŉ"
    ],
    [
      "ı",
      "ŖĐ"
    ],
    [
      "Ş",
      "Ņš"
    ],
    [
      "ĒńŚ",
      "ń"
    ],
    [
      "őŜ",
      "Ņš"
    ],
    [
      "ıŜ",
      "ŃĒ"
    ],
    [
      "Ī",
      "ĹŜ"
    ],
    [
      "Į",
      "ĭħ"
    ],
    [
      "Ş",
      "őŜŒš"
    ],
    [
      "ŗŃĒ",
      "ŗ"
    ],
    [
      "Ł",
      "ŕŁĖ"
    ],
    [
      "Ŝ",
      "şįĩŬ"
    ],
    [
      "Ķŝł",
      "ĒłĩīŬ"
    ],
    [
      "Őœ",
      "Ģ"
    ],
    [
      "Įļ",
      "ħŰ"
    ],
    [
      "į",
      "ĮĿ"
    ],
    [
      "ŝŒ",
      "Ĵĭ"
    ],
    [
      "ĩļ",
      "ģĥŕŘ"
    ],
    [
      "Ķ",
      "ġĹļŖĐ"
    ],
    [
      "Ĩ",
      "ĥĢŁń"
    ],
    [
      "Ņ",
      "ń"
    ],
    [
      "ŧ",
      "ť"
    ],
    [
      "ą",
      "ħ"
    ],
    [
      "Ţ",
      "ń"
    ],
    [
      "ĵŀ",
      "ş"
    ],
    [
      "ĳ",
      "ĺŬ"
    ],
    [
      "Ľ",
      "ģľ"
    ],
    [
      "ıŜ",
      "Ń"
    ],
    [
      "ĵŜ",
      "œ"
    ],
    [
      "ĨĠ",
      "ĸĿ"
    ],
    [
      "šĹ",
      "Ĥ"
    ],
    [
      "ŝ",
      "şř"
    ],
    [
      "ń",
      "ŕŁĖ"
    ],
    [
      "ĩı",
      "Łń"
    ],
    [
      "Ēł",
      "ŗņ"
    ],
    [
      "Ħĥ",
      "Ľ"
    ],
    [
      "Ģĺ",
      "ģĢ"
    ],
    [
      "ĵĒń",
      "Śœ"
    ],
    [
      "ģĢ",
      "řĐ"
    ],
    [
      "ŗŘ",
      "ĢīŬ"
    ],
    [
      "ĹŜń",
      "ŗń"
    ],
    [
      "ĻĿŀ",
      "ś"
    ],
    [
      "śŘ",
      "ĢĢĹĴ"
    ],
    [
      "ŋ",
      "ŀ"
    ],
    [
      "ĥ",
      "Ĳ"
    ],
    [
      "Ŵ",
      "ł"
    ],
    [
      "ĉ",
      "ġ"
    ],
    [
      "į",
      "Ħ"
    ],
    [
      "Ś",
      "œĳ"
    ],
    [
      "įĢ",
      "ķ"
    ],
    [
      "įĸ",
      "œł"
    ],
    [
      "Ī",
      "īĨŰ"
    ],
    [
      "ĩľ",
      "ŖĐ"
    ],
    [
      "ĿĤ",
      "ŗł"
    ],
    [
      "ı",
      "ġĢ"
    ],
    [
      "ĵħ",
      "ġ"
    ],
    [
      "ņĖ",
      "ĮĨŬ"
    ],
    [
      "ģ",
      "įĿ"
    ],
    [
      "ĳ",
      "Śř"
    ],
    [
      "Ĥ",
      "Ňł"
    ],
    [
      "ĩ",
      "ħĢķ"
    ],
    [
      "ĨĽ",
      "ĸŰ"
    ],
    [
      "Ĵļ",
      "Ģ"
    ],
    [
      "Ĳ",
      "īĢĤ"
    ],
    [
      "ıņ",
      "ŕŁĖ"
    ],
    [
      "įļ",
      "Ġ"
    ],
    [
      "Ēń",
      "śś"
    ],
    [
      "Őœ",
      "ĤĠŬ"
    ],
    [
      "ņş",
      "ĬīŬ"
    ],
    [
      "ĵĦ",
      "ĥģĒ"
    ],
    [
      "ŗŞ",
      "őœš"
    ],
    [
      "œŞ",
      "őœš"
    ],
    [
      "ĵħ",
      "įŰ"
    ],
    [
      "ŝŅ",
      "ŜŒš"
    ],
    [
      "Ĥģ",
      "ĮĵŀĐ"
    ],
    [
      "ŝ",
      "ŏ"
    ],
    [
      "ę",
      "ă"
    ],
    [
      "Š",
      "ŗ"
    ],
    [
      "ģ",
      "ŗł"
    ],
    [
      "őŜ",
      "Ř"
    ],
    [
      "œĥŮ",
      "ĸĸŗĐ"
    ],
    [
      "ŗ",
      "ŝŐ"
    ],
    [
      "ŗŔĒ",
      "Ņ"
    ],
    [
      "ħ",
      "ĨŬ"
    ],
    [
      "ıŀ",
      "ŉ"
    ],
    [
      "ħŮ",
      "ĸĸŗĐ"
    ],
    [
      "ŗĳ",
      "ħ"
    ],
    [
      "ĮĠ",
      "ī"
    ],
    [
      "ģ",
      "Śş"
    ],
    [
      "ŝŃ",
      "įĺ"
    ],
    [
      "ŀ",
      "ŉĒ"
    ],
    [
      "ŝś",
      "Ņ"
    ],
    [
      "ŕŞ",
      "ŏš"
    ],
    [
      "ŗŗ",
      "ĥŮ"
    ],
    [
      "ĸ",
      "śŃ"
    ],
    [
      "ĵŁĐ",
      "œŘĥŮ"
    ],
    [
      "ĥģ",
      "ņĐ"
    ],
    [
      "ĒŃ",
      "ņŗ"
    ],
    [
      "śŜ",
      "ŗĖ"
    ],
    [
      "Ēŀ",
      "ŗń"
    ],
    [
      "ŗ",
      "ĵħģľ"
    ],
    [
      "įī",
      "ĵĒ"
    ],
    [
      "śŒ",
      "ĤŮ"
    ],
    [
      "œœ",
      "ŗĖ"
    ],
    [
      "ģī",
      "įı"
    ],
    [
      "ĪĢŝŝ",
      "ĒłĩīŬ"
    ],
    [
      "ĒŘ",
      "œŒš"
    ],
    [
      "ħĨ",
      "ĥĳ"
    ],
    [
      "ŗś",
      "ģīľŰ"
    ],
    [
      "Ű",
      "łśł"
    ],
    [
      "ĎĢ",
      "śń"
    ],
    [
      "đş",
      "ŕŀş"
    ],
    [
      "ă",
      "ġ"
    ],
    [
      "Ğ",
      "Ĺ"
    ],
    [
      "ć",
      "Ŭ"
    ],
    [
      "ŋ",
      "Ś"
    ],
    [
      "Ĳ",
      "ĥ"
    ],
    [
      "Ĵ",
      "Ű"
    ],
    [
      "ź",
      "ŗ"
    ],
    [
      "ŵ",
      "ş"
    ],
    [
      "šĺĤ",
      "Ģ"
    ],
    [
      "Į",
      "ĵŀ"
    ],
    [
      "ŝń",
      "ĤŮ"
    ],
    [
      "ķ",
      "ŀş"
    ],
    [
      "ľĵ",
      "ŁĐ"
    ],
    [
      "ĥĳ",
      "œŞ"
    ],
    [
      "Ī",
      "ĩģ"
    ],
    [
      "ĩģ",
      "ŁĐ"
    ],
    [
      "Ņş",
      "Ŕ"
    ],
    [
      "ģ",
      "ŗő"
    ],
    [
      "ą",
      "Ŝř"
    ],
    [
      "śŜ",
      "ŞĖ"
    ],
    [
      "šĺ",
      "ľı"
    ],
    [
      "œšĺ",
      "Ĥ"
    ],
    [
      "ĲŮ",
      "ĸĸœń"
    ],
    [
      "Ĥĭ",
      "ĸĹŝŞ"
    ],
    [
      "ħ",
      "Śŕ"
    ],
    [
      "ĺĵŀ",
      "Ń"
    ],
    [
      "ŐŚ",
      "ĤŮ"
    ],
    [
      "Ļ",
      "ıŋĐ"
    ],
    [
      "Ĵļ",
      "ĥľŕĐņŞĤŮ"
    ],
    [
      "Ş",
      "ĠĸĩŰ"
    ],
    [
      "Āģ",
      "ĩĢśœ"
    ],
    [
      "ŋ",
      "Ń"
    ],
    [
      "Ŷ",
      "ŕ"
    ],
    [
      "Ħ",
      "Ģ"
    ],
    [
      "ĸ",
      "ĽŬ"
    ],
    [
      "īľ",
      "Ŀ"
    ],
    [
      "ĵŮ",
      "ĥľ"
    ],
    [
      "ĵ",
      "ņĐ"
    ],
    [
      "ĭ",
      "ħĢ"
    ],
    [
      "ĨĠ",
      "Ĺ"
    ],
    [
      "śń",
      "ŗĖ"
    ],
    [
      "ĩĴĒ",
      "Ń"
    ],
    [
      "ĵŮ",
      "ĸĿ"
    ],
    [
      "ľ",
      "ľĵ"
    ],
    [
      "Ģŗ",
      "Ŝ"
    ],
    [
      "Ēş",
      "įĺ"
    ],
    [
      "Ŕ",
      "ŗŅ"
    ],
    [
      "ĤĽŬ",
      "ĿŔĐ"
    ],
    [
      "ĩĴĒ",
      "őŁĖ"
    ],
    [
      "Ĳħ",
      "Ĩ"
    ],
    [
      "ġĠ",
      "Ŀ"
    ],
    [
      "ĭĳ",
      "ŚĐ"
    ],
    [
      "ĠĹ",
      "ŁŘ"
    ],
    [
      "Ēş",
      "ĵĽŬ"
    ],
    [
      "ņşĮĠŬ",
      "ĿŔĐ"
    ],
    [
      "œŜ",
      "Şŏš"
    ],
    [
      "Ňő",
      "ĩ"
    ],
    [
      "ĸ",
      "śŗŚ"
    ],
    [
      "ńœĳ",
      "Ľ"
    ],
    [
      "ĵĦ",
      "ĩĩĒ"
    ],
    [
      "ĪĹ",
      "Şŝ"
    ],
    [
      "įīı",
      "śŞ"
    ],
    [
      "ŵ",
      "ŕŀś"
    ],
    [
      "Ŧ",
      "œ"
    ],
    [
      "Ű",
      "Ņ"
    ],
    [
      "Ď",
      "Ŀ"
    ],
    [
      "ā",
      "Ĺ"
    ],
    [
      "ż",
      "ő"
    ],
    [
      "ĿŰ",
      "ņş"
    ],
    [
      "ņş",
      "ŜĖ"
    ],
    [
      "ĤŚŕĒ",
      "Ř"
    ],
    [
      "Ħ",
      "ħĢ"
    ],
    [
      "šĺĤĵĒ",
      "Ŗ"
    ],
    [
      "Ēŗ",
      "ĵŮ"
    ],
    [
      "ņŘ",
      "ŀř"
    ],
    [
      "Ħ",
      "īĨŰ"
    ],
    [
      "ĸĸ",
      "ŀş"
    ],
    [
      "Ňń",
      "ĤŮ"
    ],
    [
      "ĵŖĐ",
      "œĖ"
    ],
    [
      "ĸŮ",
      "ĭľŖĐ"
    ],
    [
      "ĹŜŗ",
      "Ēł"
    ],
    [
      "ĤĪŬ",
      "ĿŜĐ"
    ],
    [
      "ĥľŕĐ",
      "ņŞ"
    ],
    [
      "į",
      "īĿŰ"
    ],
    [
      "Ēŀ",
      "œń"
    ],
    [
      "ŗņ",
      "ŗŚ"
    ],
    [
      "śń",
      "śřįŮ"
    ],
    [
      "ľ",
      "ģģ"
    ],
    [
      "ĸ",
      "śŝ"
    ],
    [
      "ĭħ",
      "Ŀĸ"
    ],
    [
      "įĨ",
      "ĵĒ"
    ],
    [
      "ħħ",
      "ĠĽ"
    ],
    [
      "ĒŁ",
      "ĤļĩŰ"
    ],
    [
      "Ģħ",
      "ĭļ"
    ],
    [
      "Łń",
      "ŀŃ"
    ],
    [
      "şŒ",
      "ŗń"
    ],
    [
      "ŝŔ",
      "Ňŕ"
    ],
    [
      "ŗŔ",
      "ĒłĩįĸŰ"
    ],
    [
      "ŁĐ",
      "ŅœĳīŬ"
    ],
    [
      "Ĺ",
      "ĳŚĐ"
    ],
    [
      "Ĕ",
      "ĝŬ"
    ],
    [
      "ź",
      "œ"
    ],
    [
      "ŀ",
      "ŝ"
    ],
    [
      "Ĥ",
      "ġ"
    ],
    [
      "ĩ",
      "Ĳ"
    ],
    [
      "Ĝ",
      "Ŀ"
    ],
    [
      "Ř",
      "ř"
    ],
    [
      "ă",
      "ľ"
    ],
    [
      "Ž",
      "Ř"
    ],
    [
      "ľ",
      "œł"
    ],
    [
      "Ŝŗ",
      "Ř"
    ],
    [
      "įľ",
      "Ŀ"
    ],
    [
      "Łń",
      "œń"
    ],
    [
      "œł",
      "ĤļŬ"
    ],
    [
      "ĥĤ",
      "ŗĐ"
    ],
    [
      "śŘĦŮ",
      "ĸĿ"
    ],
    [
      "ľĿ",
      "Ŝ"
    ],
    [
      "Ņş",
      "Ė"
    ],
    [
      "ĥ",
      "īĢĤ"
    ],
    [
      "ĨĹ",
      "ļ"
    ],
    [
      "ı",
      "ġĿ"
    ],
    [
      "Ē",
      "őŞŚ"
    ],
    [
      "ĥĴ",
      "ŗĐ"
    ],
    [
      "ĸĹ",
      "şŕĒ"
    ],
    [
      "ĮĻĢ",
      "Ĥ"
    ],
    [
      "Ēłĩī",
      "ĵŰ"
    ],
    [
      "ņş",
      "ĢŮ"
    ],
    [
      "ĵħ",
      "ġĵĒ"
    ],
    [
      "ŖŅ",
      "ŀşįĩŬ"
    ],
    [
      "ĵļ",
      "Ĺĳ"
    ],
    [
      "ŀř",
      "ĴĠĨŰ"
    ],
    [
      "ĴĽĸĢ",
      "œŜ"
    ],
    [
      "ş",
      "řĳīŬ"
    ],
    [
      "đ",
      "ŇŃņń"
    ],
    [
      "Łœĳ",
      "ĸ"
    ],
    [
      "ſ",
      "ŕ"
    ],
    [
      "œ",
      "Ŋ"
    ],
    [
      "Č",
      "ħ"
    ],
    [
      "Š",
      "ŕ"
    ],
    [
      "Ĥ",
      "īŬ"
    ],
    [
      "Ĺ",
      "ģĒ"
    ],
    [
      "įŮ",
      "ĥľ"
    ],
    [
      "ĭľ",
      "ņĐ"
    ],
    [
      "ĤŚŕĒ",
      "Ś"
    ],
    [
      "ĵ",
      "ħĢ"
    ],
    [
      "ı",
      "śł"
    ],
    [
      "ĳ",
      "ŀŕ"
    ],
    [
      "Ĩ",
      "ġĹ"
    ],
    [
      "Ĵ",
      "Ňł"
    ],
    [
      "ĸĢ",
      "ŋĐ"
    ],
    [
      "őŜ",
      "łš"
    ],
    [
      "Łŕ",
      "œŅ"
    ],
    [
      "Śŗ",
      "ĲŮ"
    ],
    [
      "Ĵ",
      "ŗŀ"
    ],
    [
      "ĥŀ",
      "ń"
    ],
    [
      "ĲŮ",
      "ģĶĒńŚœš"
    ],
    [
      "Ŕş",
      "ŞŚ"
    ],
    [
      "ņŕ",
      "œś"
    ],
    [
      "Ĵ",
      "ĭĤŰ"
    ],
    [
      "Ļĸ",
      "ŗłŗĖ"
    ],
    [
      "ĿĤ",
      "ŀŅ"
    ],
    [
      "ņş",
      "ķīŬ"
    ],
    [
      "Łņ",
      "Ĥĭ"
    ],
    [
      "Ş",
      "őŀĖ"
    ],
    [
      "ĩĴ",
      "ĒńŚŗĵŮ"
    ],
    [
      "ĮĻĢ",
      "Ĵ"
    ],
    [
      "ĪĿ",
      "ŀœ"
    ],
    [
      "œřŜ",
      "Ņ"
    ],
    [
      "ņŅ",
      "ŀŘ"
    ],
    [
      "Ħ",
      "ĭĦŗĐ"
    ],
    [
      "Ÿ",
      "ř"
    ],
    [
      "Ď",
      "ĥ"
    ],
    [
      "ř",
      "ŃĒ"
    ],
    [
      "Ĳ",
      "ŗń"
    ],
    [
      "Ň",
      "œń"
    ],
    [
      "ĵĦ",
      "ĭľ"
    ],
    [
      "ĤŚŕĒ",
      "Œ"
    ],
    [
      "įĢ",
      "ĳ"
    ],
    [
      "šĺĤĵĒ",
      "Œ"
    ],
    [
      "ř",
      "ŕŖĖ"
    ],
    [
      "ĸ",
      "īĨŰ"
    ],
    [
      "śł",
      "ĤĪŬ"
    ],
    [
      "şį",
      "Ľ"
    ],
    [
      "şŀ",
      "Œ"
    ],
    [
      "śŕ",
      "ĤŮ"
    ],
    [
      "Ĥ",
      "įŬ"
    ],
    [
      "ņř",
      "šĽ"
    ],
    [
      "Ĩĭ",
      "ĩŰ"
    ],
    [
      "Ĳ",
      "Ļľ"
    ],
    [
      "Ņŗ",
      "ĸŮ"
    ],
    [
      "ŗŅš",
      "įĢĴĒ"
    ],
    [
      "ŇŃ",
      "ņĖ"
    ],
    [
      "şő",
      "śŘ"
    ],
    [
      "ņŘ",
      "śŅš"
    ],
    [
      "ĠĪ",
      "ĩŰ"
    ],
    [
      "ŅřņŞ",
      "š"
    ],
    [
      "ņş",
      "ŀĖ"
    ],
    [
      "œŜ",
      "ŐŃ"
    ],
    [
      "ŕ",
      "őŜĖ"
    ],
    [
      "Ļ",
      "ļŰ"
    ],
    [
      "Ł",
      "ĩħįĸ"
    ],
    [
      "ĵħ",
      "ĺĵĒ"
    ],
    [
      "ă",
      "ļĥĤ"
    ],
    [
      "Ĭ",
      "īľĹ"
    ],
    [
      "ņř",
      "şœš"
    ],
    [
      "ř",
      "Ş"
    ],
    [
      "č",
      "ħ"
    ],
    [
      "Ż",
      "ł"
    ],
    [
      "Ž",
      "Ş"
    ],
    [
      "ť",
      "ş"
    ],
    [
      "Ć",
      "ĩŰ"
    ],
    [
      "ĥ",
      "ŁĐ"
    ],
    [
      "Ľ",
      "œń"
    ],
    [
      "Ľ",
      "śŞ"
    ],
    [
      "Į",
      "ĠĠ"
    ],
    [
      "šĺĤĵĒ",
      "Ų"
    ],
    [
      "ĩľ",
      "ņř"
    ],
    [
      "ĵ",
      "ŋĐ"
    ],
    [
      "ġľ",
      "Ĵ"
    ],
    [
      "őş",
      "œ"
    ],
    [
      "ĮŮ",
      "ĸĸŗĐ"
    ],
    [
      "ņŘ",
      "ŝŃ"
    ],
    [
      "ŗĖ",
      "ĠĠĨŰ"
    ],
    [
      "ĵ",
      "ġĢŰ"
    ],
    [
      "ĭħ",
      "ģľ"
    ],
    [
      "Ŭ",
      "ıŜŔĒ"
    ],
    [
      "Śř",
      "ŕŞ"
    ],
    [
      "Ġļ",
      "ĸĹ"
    ],
    [
      "śŃ",
      "Ś"
    ],
    [
      "į",
      "įġ"
    ],
    [
      "ŕ",
      "Įģ"
    ],
    [
      "ĵŖĐ",
      "śŘš"
    ],
    [
      "ī",
      "ıŜĐ"
    ],
    [
      "ĸĸ",
      "śŃĒ"
    ],
    [
      "Ŕřĳ",
      "ĭ"
    ],
    [
      "ħœŃĒ",
      "Ņ"
    ],
    [
      "ĸĵ",
      "œŝ"
    ],
    [
      "ŞŜ",
      "ŝŁ"
    ],
    [
      "ģģ",
      "ģņĐ"
    ],
    [
      "ķħ",
      "ĿĹŝŞ"
    ],
    [
      "Ĳĺ",
      "ľĥ"
    ],
    [
      "ĸĥŀ",
      "Ş"
    ],
    [
      "ĠĬ",
      "ģĥņĐ"
    ],
    [
      "ŕ",
      "Įģļ"
    ],
    [
      "Ĳĺľ",
      "ıŞř"
    ],
    [
      "Ė",
      "ħ"
    ],
    [
      "Ē",
      "ũ"
    ],
    [
      "Ĺ",
      "Ĺ"
    ],
    [
      "ś",
      "ň"
    ],
    [
      "ā",
      "Ŀ"
    ],
    [
      "Ēł",
      "ŗł"
    ],
    [
      "ņř",
      "įŮ"
    ],
    [
      "Ġļ",
      "ĿŰ"
    ],
    [
      "ıŀ",
      "ś"
    ],
    [
      "œĐ",
      "ŀœ"
    ],
    [
      "ŕŜ",
      "ő"
    ],
    [
      "Ĩĺ",
      "ĩĴĒ"
    ],
    [
      "ŗŒš",
      "įŬ"
    ],
    [
      "œŚ",
      "šĽ"
    ],
    [
      "œń",
      "ņœ"
    ],
    [
      "œŅš",
      "įŬ"
    ],
    [
      "ĮĢ",
      "Ŭ"
    ],
    [
      "Ġĩ",
      "ĩŰ"
    ],
    [
      "ġĹ",
      "ĤŚĐ"
    ],
    [
      "ņŞ",
      "ĨĽŬ"
    ],
    [
      "ŝ",
      "œř"
    ],
    [
      "Ħĥ",
      "ķ"
    ],
    [
      "įĹ",
      "ģ"
    ],
    [
      "įĸĹŝŞ",
      "ŁĖ"
    ],
    [
      "Ĥ",
      "įĨ"
    ],
    [
      "Ŀŀń",
      "ŚĖ"
    ],
    [
      "Ą",
      "Śŕ"
    ],
    [
      "Ēř",
      "įīŬ"
    ],
    [
      "ĵĦ",
      "ľĵŗĐ"
    ],
    [
      "ĤŚ",
      "łŗœš"
    ],
    [
      "ı",
      "Ē"
    ],
    [
      "Ŧ",
      "ń"
    ],
    [
      "Ś",
      "Ņ"
    ],
    [
      "ĸ",
      "ľ"
    ],
    [
      "Ř",
      "Ņ"
    ],
    [
      "į",
      "ĸĸ"
    ],
    [
      "œŞ",
      "ŁĖ"
    ],
    [
      "Ġ",
      "ŝł"
    ],
    [
      "œ",
      "ŀœ"
    ],
    [
      "œĥŮ",
      "ĥľ"
    ],
    [
      "ĭģ",
      "ŝŞ"
    ],
    [
      "ŀş",
      "ĵħ"
    ],
    [
      "ŕŜ",
      "ŕ"
    ],
    [
      "Ġ",
      "ĹŜŗ"
    ],
    [
      "Ňł",
      "ĩŮ"
    ],
    [
      "ĒŒ",
      "Ňł"
    ],
    [
      "Ēő",
      "ņł"
    ],
    [
      "ŗŕ",
      "ĮĠ"
    ],
    [
      "Ĳ",
      "œŃ"
    ],
    [
      "ĤĽŬ",
      "ıŜŔĒ"
    ],
    [
      "ĩģ",
      "Ł"
    ],
    [
      "įĢ",
      "ŗő"
    ],
    [
      "ļģ",
      "ģ"
    ],
    [
      "ĩı",
      "şĐ"
    ],
    [
      "Ŕ",
      "łš"
    ],
    [
      "ģ",
      "īĸ"
    ],
    [
      "ĵŮ",
      "ĻıŁĐ"
    ],
    [
      "ĵĒń",
      "Śŗ"
    ],
    [
      "Śř",
      "şĖ"
    ],
    [
      "šĹ",
      "ĤĿ"
    ],
    [
      "Ŀĵ",
      "œŃ"
    ],
    [
      "ıĢ",
      "ĩŰ"
    ],
    [
      "Įĥ",
      "śŜ"
    ],
    [
      "ķīľ",
      "ľ"
    ],
    [
      "Ĥŗ",
      "ŝł"
    ],
    [
      "ŁŅ",
      "łņ"
    ],
    [
      "œńśř",
      "įĽŬ"
    ],
    [
      "ě",
      "ĢĹ"
    ],
    [
      "ť",
      "ř"
    ],
    [
      "ļ",
      "Ĥ"
    ],
    [
      "ľ",
      "Ň"
    ],
    [
      "Ĳ",
      "Ģ"
    ],
    [
      "Ŗ",
      "ŉ"
    ],
    [
      "ĭ",
      "Ĭ"
    ],
    [
      "Ļ",
      "Ů"
    ],
    [
      "īľ",
      "ģ"
    ],
    [
      "ĭĤ",
      "Ĺ"
    ],
    [
      "ıŜ",
      "Ş"
    ],
    [
      "ŀœ",
      "ĲŮ"
    ],
    [
      "ŗŘ",
      "ĥŮ"
    ],
    [
      "Ĺ",
      "şŀ"
    ],
    [
      "ņ",
      "ĳī"
    ],
    [
      "ŝŃ",
      "ŗĖ"
    ],
    [
      "Ŀ",
      "ĹŜŗ"
    ],
    [
      "ĸ",
      "ħĢķ"
    ],
    [
      "ŗĐ",
      "œŘĥŮ"
    ],
    [
      "őŘ",
      "œń"
    ],
    [
      "ű",
      "şş"
    ],
    [
      "ŝ",
      "ņŗ"
    ],
    [
      "Ħ",
      "įĢŰ"
    ],
    [
      "ĵļ",
      "ĵŰ"
    ],
    [
      "Ķŝł",
      "ŗĖ"
    ],
    [
      "ĵ",
      "ġľŰ"
    ],
    [
      "őœ",
      "ĲŮ"
    ],
    [
      "ĵĦ",
      "ĩĽ"
    ],
    [
      "ĭ",
      "ġĿ"
    ],
    [
      "ĭī",
      "ĭģ"
    ],
    [
      "ņ",
      "ĮĽ"
    ],
    [
      "Śş",
      "ĭīŬ"
    ],
    [
      "Ēń",
      "Ĥľ"
    ],
    [
      "ņŃ",
      "ĳīŬ"
    ],
    [
      "ŗŔĒ",
      "ŁĨĺĤŰ"
    ],
    [
      "łŅ",
      "ŐŚ"
    ],
    [
      "Ŀ",
      "ņŘŗńš"
    ],
    [
      "şşŀ",
      "œš"
    ],
    [
      "ĸĸ",
      "ŀŕŗĖ"
    ],
    [
      "šĺĤ",
      "ĢŗŕĒ"
    ],
    [
      "łł",
      "ŝŒĴĭ"
    ],
    [
      "ğ",
      "ĸ"
    ],
    [
      "ŕ",
      "ĩ"
    ],
    [
      "Č",
      "ī"
    ],
    [
      "Ĺ",
      "ķ"
    ],
    [
      "ŗ",
      "ŏ"
    ],
    [
      "ņş",
      "Ēł"
    ],
    [
      "Ĳ",
      "ŝń"
    ],
    [
      "śł",
      "ĤŮ"
    ],
    [
      "ĥ",
      "ķŬ"
    ],
    [
      "Ģ",
      "ŗŞ"
    ],
    [
      "ıŞ",
      "ş"
    ],
    [
      "īĢ",
      "ĵŀ"
    ],
    [
      "ĭ",
      "įŬ"
    ],
    [
      "řĳ",
      "ĺŬ"
    ],
    [
      "ĳ",
      "Şş"
    ],
    [
      "įĺ",
      "ĿŰ"
    ],
    [
      "Ĥ",
      "įĺ"
    ],
    [
      "ĒŔ",
      "śŅ"
    ],
    [
      "ĨĢ",
      "ĩŰ"
    ],
    [
      "ĢĦ",
      "ĭĢ"
    ],
    [
      "Łł",
      "ĳħ"
    ],
    [
      "őŀ",
      "łš"
    ],
    [
      "ņř",
      "ĳŮ"
    ],
    [
      "şř",
      "ĲĺŬ"
    ],
    [
      "ĮĹ",
      "ĥľŕĐ"
    ],
    [
      "ģģ",
      "ŗĐ"
    ],
    [
      "Ş",
      "őŜŒ"
    ],
    [
      "Ġĵ",
      "œŃ"
    ],
    [
      "ĵī",
      "ĭĽ"
    ],
    [
      "ă",
      "ņő"
    ],
    [
      "Ĵĺ",
      "ĩŰ"
    ],
    [
      "ĶĦ",
      "ĩĢŗĐ"
    ],
    [
      "ő",
      "ņşĮĠŬ"
    ],
    [
      "œ",
      "œŚĖ"
    ],
    [
      "Ēř",
      "ņŅš"
    ],
    [
      "ı",
      "Őş"
    ],
    [
      "ġĢ",
      "ļŋĐ"
    ],
    [
      "ĿĠ",
      "ŗœ"
    ],
    [
      "Įġ",
      "ħŰ"
    ],
    [
      "ģ",
      "ġĹĤ"
    ],
    [
      "łŚ",
      "Ġķ"
    ],
    [
      "ĵĦ",
      "ģĥŕŘ"
    ],
    [
      "ńŕ",
      "ŜĖ"
    ],
    [
      "ĮĢ",
      "ģķ"
    ],
    [
      "ųŅ",
      "Łłĳ"
    ],
    [
      "Ĥśŝ",
      "ŗĖ"
    ],
    [
      "ĳ",
      "ļ"
    ],
    [
      "Ň",
      "Ĵ"
    ],
    [
      "Ĳ",
      "ķ"
    ],
    [
      "Ť",
      "ř"
    ],
    [
      "Ŝ",
      "ŕĒ"
    ],
    [
      "Ś",
      "ĤŮ"
    ],
    [
      "Ġ",
      "ģĒ"
    ],
    [
      "śŞ",
      "Ēł"
    ],
    [
      "ı",
      "įĢ"
    ],
    [
      "Ĥļ",
      "ĵŰ"
    ],
    [
      "Ň",
      "śł"
    ],
    [
      "ŗŞ",
      "ŗń"
    ],
    [
      "ĭ",
      "ĨŬ"
    ],
    [
      "ŀŕ",
      "őř"
    ],
    [
      "ĸĿ",
      "ŜĐ"
    ],
    [
      "ŕŜ",
      "Œš"
    ],
    [
      "Ű",
      "œŞŖĖ"
    ],
    [
      "ģĥ",
      "ģ"
    ],
    [
      "Ŀ",
      "ĿŜĐ"
    ],
    [
      "ł",
      "ŗŗ"
    ],
    [
      "ņŗ",
      "ĭŮ"
    ],
    [
      "Ēņ",
      "Ĥļ"
    ],
    [
      "œŒ",
      "ĤŮ"
    ],
    [
      "ĵ",
      "įĠŰ"
    ],
    [
      "ĳ",
      "ŝŜ"
    ],
    [
      "Ķŝł",
      "ş"
    ],
    [
      "ĒńŚœ",
      "ĸŮ"
    ],
    [
      "ģĶ",
      "ĒńŚœ"
    ],
    [
      "ņŘ",
      "ŗś"
    ],
    [
      "įĤ",
      "ŝł"
    ],
    [
      "ĒŸ",
      "ŗĖ"
    ],
    [
      "ŅřņŞ",
      "šĺĤĵĒ"
    ],
    [
      "Ġľ",
      "ļ"
    ],
    [
      "Ŗŕ",
      "Ŕœ"
    ],
    [
      "łŕŀ",
      "ş"
    ],
    [
      "š",
      "ĦĥģĒ"
    ],
    [
      "ı",
      "łŀ"
    ],
    [
      "ĵĻľ",
      "ľ"
    ],
    [
      "ħ",
      "ŗŕŜĖ"
    ],
    [
      "ĠŞő",
      "ŋ"
    ],
    [
      "ņŞ",
      "ĮĻīĸ"
    ],
    [
      "řĳĺ",
      "ĤŰ"
    ],
    [
      "Őŏ",
      "šĺĤĵĒ"
    ],
    [
      "ĲĻ",
      "ļĠ"
    ],
    [
      "ŖŃ",
      "ĳħĢķ"
    ],
    [
      "čĥ",
      "Łńŀŗ"
    ],
    [
      "ŁŞĨľ",
      "Ŭ"
    ],
    [
      "Ł",
      "ŕŀŀ"
    ],
    [
      "ħŝŅ",
      "ŞŒš"
    ],
    [
      "Ĳ",
      "īľĦ"
    ],
    [
      "šĺĤĢ",
      "ŝŅŕŞ"
    ],
    [
      "Ź",
      "ř"
    ],
    [
      "Ĳ",
      "į"
    ],
    [
      "Ř",
      "ş"
    ],
    [
      "Ř",
      "Ń"
    ],
    [
      "ă",
      "Ļ"
    ],
    [
      "ĕ",
      "ġ"
    ],
    [
      "Ī",
      "ħ"
    ],
    [
      "Ł",
      "ŏ"
    ],
    [
      "ś",
      "Œš"
    ],
    [
      "ı",
      "īĨŰ"
    ],
    [
      "œŞ",
      "ŋĖ"
    ],
    [
      "ŗŞ",
      "ņş"
    ],
    [
      "ķ",
      "ŀŕ"
    ],
    [
      "ĿĤ",
      "ŀř"
    ],
    [
      "į",
      "ġŬ"
    ],
    [
      "ĭģ",
      "ĒńŚœš"
    ],
    [
      "ŗŘ",
      "ĵħ"
    ],
    [
      "ĹŜĐ",
      "œĖ"
    ],
    [
      "Ġ",
      "ıŜŔĒ"
    ],
    [
      "ıŁĐ",
      "œĖ"
    ],
    [
      "śŃ",
      "ņĖ"
    ],
    [
      "Œ",
      "ĨĽ"
    ],
    [
      "ŝŝ",
      "ŀ"
    ],
    [
      "şş",
      "Łł"
    ],
    [
      "ĠĹ",
      "Ľ"
    ],
    [
      "ĨĢ",
      "ġŰ"
    ],
    [
      "įį",
      "ĵĒ"
    ],
    [
      "ă",
      "ŗŀ"
    ],
    [
      "ĤĹ",
      "ŕŘ"
    ],
    [
      "ĴĽ",
      "ĸŰ"
    ],
    [
      "ř",
      "řŜőš"
    ],
    [
      "ŅŞ",
      "ĤĠŬ"
    ],
    [
      "Įľ",
      "Ŭ"
    ],
    [
      "Ĥī",
      "ĸŰ"
    ],
    [
      "ĺĹ",
      "ŗŇ"
    ],
    [
      "ķī",
      "ĢŰ"
    ],
    [
      "şŀł",
      "ĩŮ"
    ],
    [
      "Ĳ",
      "Ňŝ"
    ],
    [
      "ĩĴĒŒŋĖ",
      "ĵĦĩŰ"
    ],
    [
      "Ŀ",
      "ĵŀņ"
    ],
    [
      "įĮĿ",
      "Ňń"
    ],
    [
      "Ş",
      "ł"
    ],
    [
      "Ě",
      "Ĺ"
    ],
    [
      "Ď",
      "ĵ"
    ],
    [
      "Ď",
      "ļ"
    ],
    [
      "Ź",
      "ş"
    ],
    [
      "ŋ",
      "ń"
    ],
    [
      "Ĩ",
      "įĢ"
    ],
    [
      "œŚ",
      "ř"
    ],
    [
      "ĩľ",
      "ŗł"
    ],
    [
      "Ł",
      "şį"
    ],
    [
      "ŗł",
      "śŕ"
    ],
    [
      "įŮ",
      "ĭľŖĐ"
    ],
    [
      "őł",
      "ŗŗ"
    ],
    [
      "ıŁĐ",
      "ņŞĤŮ"
    ],
    [
      "ĥĳ",
      "ŗĐ"
    ],
    [
      "ĥģ",
      "ņş"
    ],
    [
      "ĵħ",
      "ĩģĒ"
    ],
    [
      "śŜ",
      "ř"
    ],
    [
      "įĸŰ",
      "ņŘŗĖ"
    ],
    [
      "Ķ",
      "ŝŜ"
    ],
    [
      "ŝŘ",
      "ĭķŬ"
    ],
    [
      "Ēś",
      "ĨĢ"
    ],
    [
      "ĶĦ",
      "ĩľ"
    ],
    [
      "ņő",
      "śŘ"
    ],
    [
      "ģĻ",
      "ĥļ"
    ],
    [
      "ŕŜ",
      "ŕĤŮ"
    ],
    [
      "Ġĺ",
      "ĸļ"
    ],
    [
      "ļĥ",
      "ŐŜ"
    ],
    [
      "Ĥ",
      "įġŰ"
    ],
    [
      "Į",
      "ħĢĤ"
    ],
    [
      "ďī",
      "ĻŰ"
    ],
    [
      "ĳħĸĹ",
      "ŁŘ"
    ],
    [
      "ě",
      "ğŰ"
    ],
    [
      "żŕ",
      "ŅĖ"
    ],
    [
      "ı",
      "ŕőśŘ"
    ],
    [
      "ăŗŀ",
      "ņœ"
    ],
    [
      "ġ",
      "ģ"
    ],
    [
      "Ĉ",
      "Ĺ"
    ],
    [
      "Ű",
      "Ś"
    ],
    [
      "š",
      "ĸ"
    ],
    [
      "ħ",
      "Ĺ"
    ],
    [
      "ĵ",
      "Ġ"
    ],
    [
      "Ť",
      "ş"
    ],
    [
      "Ē",
      "ġ"
    ],
    [
      "ē",
      "ħ"
    ],
    [
      "ŵ",
      "œ"
    ],
    [
      "ė",
      "ŗł"
    ],
    [
      "ħ",
      "śŞ"
    ],
    [
      "őŜ",
      "œ"
    ],
    [
      "ıŜ",
      "ś"
    ],
    [
      "ġ",
      "ĵŖĐ"
    ],
    [
      "őş",
      "ŗ"
    ],
    [
      "ŗŔĒ",
      "Ş"
    ],
    [
      "ĹŜ",
      "ņ"
    ],
    [
      "Ĩĺ",
      "ĩŰ"
    ],
    [
      "Ģŗ",
      "Ŕ"
    ],
    [
      "őń",
      "ŝń"
    ],
    [
      "śŞŕĖ",
      "ĵġŬ"
    ],
    [
      "ņœ",
      "ĲŮ"
    ],
    [
      "Ēŀ",
      "ŀœ"
    ],
    [
      "ĮĢ",
      "ĨŰ"
    ],
    [
      "ĠĽ",
      "ģľ"
    ],
    [
      "őş",
      "ŇŘ"
    ],
    [
      "şŔĖ",
      "ĵĦĩŰ"
    ],
    [
      "ŝŀ",
      "ĤļŬ"
    ],
    [
      "Ēł",
      "ŗś"
    ],
    [
      "Ēŵ",
      "ĩ"
    ],
    [
      "ŝń",
      "ĪŮ"
    ],
    [
      "Ŀĵ",
      "őş"
    ],
    [
      "ĿŜ",
      "ŜŋĖ"
    ],
    [
      "ĠĢ",
      "Įĥ"
    ],
    [
      "ŝŅ",
      "ŜŒ"
    ],
    [
      "ĸĸ",
      "ŗŝ"
    ],
    [
      "ŐŅ",
      "śŚ"
    ],
    [
      "Ġħ",
      "ĨŰ"
    ],
    [
      "Ĳħ",
      "įŰ"
    ],
    [
      "ģļ",
      "ŝŗ"
    ],
    [
      "ĭĹŜ",
      "ŕŖĖ"
    ],
    [
      "Ĭġ",
      "ĿĤ"
    ],
    [
      "ħ",
      "ġĹĢ"
    ],
    [
      "ĒşŜĖ",
      "ĵĦĩŰ"
    ],
    [
      "ħĢĳ",
      "ŞŅ"
    ],
    [
      "ņŘŀœ",
      "ĤŮ"
    ],
    [
      "Ŝ",
      "ŅşŔ"
    ],
    [
      "œŜŐŃ",
      "ĬŮ"
    ],
    [
      "ų",
      "Ş"
    ],
    [
      "Ā",
      "ĭ"
    ],
    [
      "Ĩ",
      "Ķ"
    ],
    [
      "ĤŚ",
      "ř"
    ],
    [
      "ŝ",
      "Œš"
    ],
    [
      "ħĢ",
      "ĵ"
    ],
    [
      "ĭĤ",
      "Ŀ"
    ],
    [
      "ŝŘ",
      "ĥŮ"
    ],
    [
      "őŜ",
      "Ņ"
    ],
    [
      "őŞ",
      "ř"
    ],
    [
      "ĩľ",
      "ı"
    ],
    [
      "įľ",
      "ĵ"
    ],
    [
      "ŗŔĒ",
      "Ŕ"
    ],
    [
      "ŝŖ",
      "Ēŗ"
    ],
    [
      "ĭģ",
      "Ŭ"
    ],
    [
      "őł",
      "ņ"
    ],
    [
      "śŘ",
      "ĤĽŬ"
    ],
    [
      "ĥ",
      "īĿŰ"
    ],
    [
      "Ŕ",
      "śŅ"
    ],
    [
      "įĸ",
      "ĵŁĐ"
    ],
    [
      "Ŕ",
      "ŅŞ"
    ],
    [
      "ĤĢ",
      "ĨŰ"
    ],
    [
      "ļ",
      "ĿŜ"
    ],
    [
      "ĩħ",
      "īĸ"
    ],
    [
      "ŀŕ",
      "Şœ"
    ],
    [
      "ĩĳ",
      "ŝŞ"
    ],
    [
      "šľ",
      "ĩĢ"
    ],
    [
      "ĴĽ",
      "ĩŰ"
    ],
    [
      "ĥŀ",
      "ŕĒ"
    ],
    [
      "Ġ",
      "ĭĤŰ"
    ],
    [
      "Ĥģ",
      "ĩľņĐ"
    ],
    [
      "ħ",
      "œŉ"
    ],
    [
      "ŕł",
      "ŝŃ"
    ],
    [
      "ĭĲ",
      "ŞŕĒ"
    ],
    [
      "ĪĿ",
      "Ňł"
    ],
    [
      "ı",
      "ŕŕĒ"
    ],
    [
      "ġ",
      "ĸĸŗł"
    ],
    [
      "ĿŰ",
      "Ņŕŀœš"
    ],
    [
      "Ĵ",
      "ŗŖ"
    ],
    [
      "ĭĲ",
      "ŝŅņĖ"
    ],
    [
      "ĩĴĒ",
      "ŇśłĩŮ"
    ],
    [
      "Ľ",
      "ŝŃņĖ"
    ],
    [
      "ĤŚ",
      "łŝŃ"
    ],
    [
      "ĮĢ",
      "ĠĿŅ"
    ],
    [
      "ĭķ",
      "œřŜŅ"
    ],
    [
      "ŋ",
      "Ŝ"
    ],
    [
      "Ŝ",
      "Ř"
    ],
    [
      "ť",
      "ŗ"
    ],
    [
      "ĵ",
      "ķ"
    ],
    [
      "Ę",
      "Ŀ"
    ],
    [
      "Ő",
      "Đ"
    ],
    [
      "Ţ",
      "ł"
    ],
    [
      "Ŵ",
      "ŕ"
    ],
    [
      "ś",
      "ŕĒ"
    ],
    [
      "ķ",
      "œŞ"
    ],
    [
      "ĵŀ",
      "ł"
    ],
    [
      "Ş",
      "ŝń"
    ],
    [
      "ĳ",
      "œŜ"
    ],
    [
      "ŗŔĒ",
      "ş"
    ],
    [
      "ĳī",
      "ĿŰ"
    ],
    [
      "ıŞ",
      "Œ"
    ],
    [
      "Ĵ",
      "ļĩ"
    ],
    [
      "ĲŮ",
      "ľĵ"
    ],
    [
      "Ģ",
      "Ļľ"
    ],
    [
      "Ĵ",
      "ĩĤ"
    ],
    [
      "ŀŕ",
      "şŗ"
    ],
    [
      "Łŕ",
      "őř"
    ],
    [
      "ĤĪŬ",
      "Ķŝł"
    ],
    [
      "Ļ",
      "Ŝş"
    ],
    [
      "ĮĹ",
      "ĩĢ"
    ],
    [
      "ģħ",
      "ŗł"
    ],
    [
      "œŔ",
      "ĭīŬ"
    ],
    [
      "ŝŞ",
      "Şŏš"
    ],
    [
      "ĻĹņŘ",
      "Ēŗ"
    ],
    [
      "šĬ",
      "ĹĤ"
    ],
    [
      "Ģ",
      "ġĹľ"
    ],
    [
      "ĺĵŀ",
      "őŞĖ"
    ],
    [
      "įī",
      "ĻŰ"
    ],
    [
      "ĥ",
      "įĵŰ"
    ],
    [
      "ŗń",
      "ĨīĿŰ"
    ],
    [
      "Ňń",
      "ĨĠīŰņŘŗĖ"
    ],
    [
      "őŜ",
      "ŕĤŮ"
    ],
    [
      "ĨľĿşĐ",
      "ņŞĤŮ"
    ],
    [
      "Őő",
      "ņł"
    ],
    [
      "Ĥĺ",
      "Ļĵ"
    ],
    [
      "ģĒşŔĖ",
      "ĵĦĩŰ"
    ],
    [
      "œńśř",
      "įįĠŰ"
    ],
    [
      "ĥŜ",
      "Ŕŗń"
    ],
    [
      "ĭĹŜ",
      "ŃņĖ"
    ],
    [
      "ųŃ",
      "ĲĺľıŞř"
    ],
    [
      "įĠ",
      "ĲŇŝ"
    ],
    [
      "ăŗŀņœ",
      "ĬĬĩĢ"
    ],
    [
      "ĤĺĻĵ",
      "ŗŞ"
    ],
    [
      "į",
      "Ķ"
    ],
    [
      "Ć",
      "Ŀ"
    ],
    [
      "ŀ",
      "ŉ"
    ],
    [
      "ĵ",
      "ģ"
    ],
    [
      "š",
      "ŗ"
    ],
    [
      "ű",
      "ő"
    ],
    [
      "Ő",
      "Ė"
    ],
    [
      "ŋ",
      "ņ"
    ],
    [
      "Ÿ",
      "ş"
    ],
    [
      "ŀ",
      "œń"
    ],
    [
      "ļ",
      "ĭľ"
    ],
    [
      "Ő",
      "ŕŀ"
    ],
    [
      "Ĥ",
      "ŀş"
    ],
    [
      "Łń",
      "œł"
    ],
    [
      "Łń",
      "ŀş"
    ],
    [
      "ĭļ",
      "Ő"
    ],
    [
      "Ĥļ",
      "ĩĴĒ"
    ],
    [
      "ļĩ",
      "ĵĒ"
    ],
    [
      "śœ",
      "ŗĖ"
    ],
    [
      "ņş",
      "ĒŅ"
    ],
    [
      "ĭ",
      "īľŰ"
    ],
    [
      "ĩľ",
      "ņł"
    ],
    [
      "śŅ",
      "ĵŮ"
    ],
    [
      "ĒŒ",
      "ĨĽ"
    ],
    [
      "ĺ",
      "ĵŜń"
    ],
    [
      "ķ",
      "ġĠ"
    ],
    [
      "ĵŞ",
      "ŔĒ"
    ],
    [
      "łş",
      "Łş"
    ],
    [
      "ĮĨŬĤŚŕĒ",
      "Ņ"
    ],
    [
      "ĒŤ",
      "Śœ"
    ],
    [
      "Őœ",
      "ĨĠīŰ"
    ],
    [
      "ĵī",
      "ĢŰ"
    ],
    [
      "Įĺ",
      "ĤŰ"
    ],
    [
      "Ĥĸ",
      "ĩļ"
    ],
    [
      "ĭ",
      "įĢĴ"
    ],
    [
      "ŝŅ",
      "ŀĖ"
    ],
    [
      "Ĥĭ",
      "ĸĵŖĐ"
    ],
    [
      "ĤĹ",
      "ŞŕĒ"
    ],
    [
      "č",
      "īĿ"
    ],
    [
      "ĳŝŞ",
      "Łş"
    ],
    [
      "ĳŝŞ",
      "ņń"
    ],
    [
      "ŁĐ",
      "ŦŞĤŮ"
    ],
    [
      "śŘ",
      "ĵīľ"
    ],
    [
      "ĵĺ",
      "ĩĢ"
    ],
    [
      "ĳ",
      "įĥľ"
    ],
    [
      "Ģ",
      "ļĥ"
    ],
    [
      "Şŉ",
      "Ēŗ"
    ],
    [
      "śŞ",
      "ņœĳ"
    ],
    [
      "Ķī",
      "ĩľ"
    ],
    [
      "ņř",
      "őĖ"
    ],
    [
      "Ŕłŝś",
      "šĺĤĵĒ"
    ],
    [
      "Įı",
      "ņń"
    ],
    [
      "ģĿ",
      "řĐ"
    ],
    [
      "ĩĤ",
      "Ņŕ"
    ],
    [
      "ĒőŜŒ",
      "šĺĤĵĒ"
    ],
    [
      "ł",
      "řĳĺ"
    ],
    [
      "śőĩ",
      "ĺ"
    ],
    [
      "ĴĠ",
      "ĨĵŀĐ"
    ],
    [
      "ĵĹ",
      "ĩĵŜĐ"
    ],
    [
      "Ľ",
      "œŔŗĖ"
    ],
    [
      "Ī",
      "Ġģħ"
    ],
    [
      "ĪĿ",
      "ŞŜŝŁ"
    ],
    [
      "ųŅŁłĳ",
      "įĠĹ"
    ],
    [
      "čĽ",
      "ŗłśŕ"
    ],
    [
      "Č",
      "ġ"
    ],
    [
      "č",
      "Ŭ"
    ],
    [
      "Ł",
      "Ł"
    ],
    [
      "Ĝ",
      "Ģ"
    ],
    [
      "ľ",
      "ĵĒ"
    ],
    [
      "ļ",
      "œŞ"
    ],
    [
      "ĤŚŕĒ",
      "ŷ"
    ],
    [
      "ĤŚŕĒ",
      "ŵ"
    ],
    [
      "ŝŘ",
      "Ħ"
    ],
    [
      "ĤĪŬ",
      "ģ"
    ],
    [
      "ł",
      "şŀ"
    ],
    [
      "ġĹ",
      "Ŝŗ"
    ],
    [
      "ļ",
      "ĵŀĐ"
    ],
    [
      "ĒŔ",
      "ŗŅ"
    ],
    [
      "ıŜŔĒ",
      "ś"
    ],
    [
      "śŘ",
      "ĵġŬ"
    ],
    [
      "œŞ",
      "Ēœ"
    ],
    [
      "ņş",
      "ĤĽŬ"
    ],
    [
      "ĨĽ",
      "Ĥ"
    ],
    [
      "Ĩ",
      "ĥļ"
    ],
    [
      "Ġļ",
      "ľĹ"
    ],
    [
      "Ĳĺ",
      "ľĹ"
    ],
    [
      "ŁĐ",
      "śŘš"
    ],
    [
      "ŝŜ",
      "ŖĖ"
    ],
    [
      "łń",
      "ĤĽ"
    ],
    [
      "ŗŔĒ",
      "ŗįĪŬ"
    ],
    [
      "Ť",
      "Śœ"
    ],
    [
      "Ēń",
      "Ĥĺ"
    ],
    [
      "ĵī",
      "ġĠ"
    ],
    [
      "ĤŮ",
      "ģĶĒńŚœš"
    ],
    [
      "ņŕ",
      "ĩŮ"
    ],
    [
      "ŗŞ",
      "ņŅš"
    ],
    [
      "Ġļ",
      "ĠĩĒ"
    ],
    [
      "Ğ",
      "ŗŇ"
    ],
    [
      "Őř",
      "ĴĺŬ"
    ],
    [
      "ĥ",
      "łĐ"
    ],
    [
      "ņ",
      "ŚĸŮ"
    ],
    [
      "Ķī",
      "Ġļ"
    ],
    [
      "ķī",
      "ĠĿ"
    ],
    [
      "şŜĖ",
      "ĵĦĩŰ"
    ],
    [
      "ŗŔĒ",
      "ŐĮļŬ"
    ],
    [
      "ŗŔĒŔĸŮ",
      "ĸĸŗĐ"
    ],
    [
      "ģ",
      "įįĻ"
    ],
    [
      "ŗŒš",
      "ĹĥĤŚĐ"
    ],
    [
      "ĠĢ",
      "ĠĵŖĐ"
    ],
    [
      "ģņł",
      "Ňŕ"
    ],
    [
      "Ģŗœ",
      "ŝń"
    ],
    [
      "ĢġĢĤ",
      "śŞ"
    ],
    [
      "Ņř",
      "ĴĢĨŰ"
    ],
    [
      "ŝŚ",
      "ĭġĻ"
    ],
    [
      "ĶśŜ",
      "şĖ"
    ],
    [
      "Ĳŗń",
      "Ņœ"
    ],
    [
      "Ġĩ",
      "ĭĹŜŃņĖ"
    ],
    [
      "čīĿ",
      "ľœł"
    ],
    [
      "ř",
      "ő"
    ],
    [
      "ĵ",
      "ń"
    ],
    [
      "Ċ",
      "Ĺ"
    ],
    [
      "ĵ",
      "Ľ"
    ],
    [
      "Ă",
      "ı"
    ],
    [
      "ĥŮ",
      "ĥľ"
    ],
    [
      "Ć",
      "īľ"
    ],
    [
      "ĳ",
      "ŝł"
    ],
    [
      "ŁĐ",
      "ņŞĤŮ"
    ],
    [
      "ı",
      "ŀŕ"
    ],
    [
      "ĳī",
      "ĭĤ"
    ],
    [
      "ĤļŬ",
      "ĿŔĐ"
    ],
    [
      "ł",
      "ŕŀĖ"
    ],
    [
      "Ĳ",
      "Şř"
    ],
    [
      "śł",
      "ŗŕ"
    ],
    [
      "Ħ",
      "īĿŰ"
    ],
    [
      "ĭĤ",
      "őŘ"
    ],
    [
      "Ħ",
      "ĭģĒ"
    ],
    [
      "ľĵ",
      "ŁŃ"
    ],
    [
      "Ş",
      "şįĩŬ"
    ],
    [
      "ľ",
      "ľĹ"
    ],
    [
      "Ľ",
      "ŝņ"
    ],
    [
      "ĨĽ",
      "ĥĿŜĐ"
    ],
    [
      "ť",
      "Ŝş"
    ],
    [
      "ĨģĢ",
      "ĒńŚœš"
    ],
    [
      "ı",
      "Ēŝ"
    ],
    [
      "Ġ",
      "ĻĿ"
    ],
    [
      "š",
      "įĢĴ"
    ],
    [
      "Ēş",
      "ŀĖ"
    ],
    [
      "ĩĽ",
      "ŗŞņĖ"
    ],
    [
      "ģĠ",
      "ŗł"
    ],
    [
      "ĨġĢ",
      "ģĒ"
    ],
    [
      "šĺĤĵ",
      "şĐ"
    ],
    [
      "Ēř",
      "įŮĸĸŗĐ"
    ],
    [
      "Ŝ",
      "ŚĸŮ"
    ],
    [
      "Ġŀş",
      "ŖŃ"
    ],
    [
      "Ŀ",
      "łŕŀ"
    ],
    [
      "ġĹĤ",
      "ŗĐ"
    ],
    [
      "ĵŊ",
      "ń"
    ],
    [
      "ĳ",
      "ŞŅ"
    ],
    [
      "ĤĵĒ",
      "ŇœŅš"
    ],
    [
      "ĩĴĒřŜĖ",
      "ĵĦĩŰ"
    ],
    [
      "ş",
      "ņŞĤļŬ"
    ],
    [
      "Ķśł",
      "Łłš"
    ],
    [
      "Ő",
      "őőŝ"
    ],
    [
      "ĥĿ",
      "ŇŃĒ"
    ],
    [
      "ĭĤśş",
      "ŜŅš"
    ],
    [
      "Ēł",
      "ĶġŬ"
    ],
    [
      "ĤŚ",
      "ŕşĖ"
    ],
    [
      "Ġ",
      "ıņŕŀĖ"
    ],
    [
      "ųŝŗń",
      "Ĩĭĭľ"
    ],
    [
      "ĳī",
      "ĠĵœŃ"
    ],
    [
      "ľĹ",
      "ĲŞř"
    ],
    [
      "ĉ",
      "ī"
    ],
    [
      "ű",
      "Ś"
    ],
    [
      "Ę",
      "Ģ"
    ],
    [
      "Ē",
      "ľ"
    ],
    [
      "Ĩ",
      "īŬ"
    ],
    [
      "Ŕ",
      "ŕŀ"
    ],
    [
      "ŕŀ",
      "ŗ"
    ],
    [
      "ĭ",
      "ĭĢ"
    ],
    [
      "Ŀ",
      "ĵŖĐ"
    ],
    [
      "ŀœ",
      "Ņ"
    ],
    [
      "ş",
      "şį"
    ],
    [
      "ġĹ",
      "Ŝ"
    ],
    [
      "īĢ",
      "ĳ"
    ],
    [
      "īĢ",
      "ķ"
    ],
    [
      "īĢ",
      "ĴĒ"
    ],
    [
      "ŗŒš",
      "Ľ"
    ],
    [
      "ĤŮ",
      "ĭŰ"
    ],
    [
      "ĤŮ",
      "ľĵ"
    ],
    [
      "ŗ",
      "őń"
    ],
    [
      "œŅ",
      "Ĳ"
    ],
    [
      "Œ",
      "ĤĽ"
    ],
    [
      "ĿĹ",
      "Ĺ"
    ],
    [
      "ē",
      "ŝŝ"
    ],
    [
      "ĩļ",
      "ŗœ"
    ],
    [
      "įġ",
      "Ļľ"
    ],
    [
      "ĤĹ",
      "şĐ"
    ],
    [
      "Śş",
      "ĬŮ"
    ],
    [
      "š",
      "įĢŰ"
    ],
    [
      "Ĭ",
      "īĸ"
    ],
    [
      "Į",
      "ĹĢ"
    ],
    [
      "ņř",
      "ŗŅš"
    ],
    [
      "ŗņ",
      "ŗńš"
    ],
    [
      "ģģ",
      "Ħ"
    ],
    [
      "Ŀ",
      "ĥŀ"
    ],
    [
      "ńœ",
      "įĺ"
    ],
    [
      "Ĥ",
      "ŀő"
    ],
    [
      "ĵĦĭĤ",
      "ĒńŚœš"
    ],
    [
      "ĤĪŬ",
      "ħśńŚĖ"
    ],
    [
      "Ŀĵ",
      "ńŕŀ"
    ],
    [
      "ņœĳ",
      "ĽŬ"
    ],
    [
      "ŝŜ",
      "ŝő"
    ],
    [
      "ıļģ",
      "Ħ"
    ],
    [
      "ļĵŀ",
      "Ŗŝń"
    ],
    [
      "ıīľ",
      "Ĺ"
    ],
    [
      "ņř",
      "ĳķŬ"
    ],
    [
      "Ŀ",
      "ńŕŀĖ"
    ],
    [
      "ĵġŬ",
      "ĲŗĐ"
    ],
    [
      "ıŔń",
      "ŗńš"
    ],
    [
      "ıŔń",
      "ŗń"
    ],
    [
      "ĳ",
      "ġĹķŚĐ"
    ],
    [
      "Ř",
      "œŀĤŮ"
    ],
    [
      "Ħįĥľ",
      "Łń"
    ],
    [
      "ŇŅ",
      "ĵļĭļ"
    ],
    [
      "ď",
      "ġľĤŚĐ"
    ],
    [
      "Űłśł",
      "ĨĽĤŰ"
    ],
    [
      "ăļĥĤ",
      "śŃŚĖ"
    ],
    [
      "ģīĸ",
      "ħŗŕŜĖ"
    ],
    [
      "ıŞŒ",
      "Ňś"
    ],
    [
      "Ĩ",
      "ġ"
    ],
    [
      "Ŗ",
      "Ŕ"
    ],
    [
      "Ŷ",
      "Ņ"
    ],
    [
      "ņ",
      "Ŝ"
    ],
    [
      "Į",
      "Ű"
    ],
    [
      "Ď",
      "ı"
    ],
    [
      "ğ",
      "ĳ"
    ],
    [
      "ł",
      "ŕĒ"
    ],
    [
      "ĒńŚ",
      "ŗ"
    ],
    [
      "ĵŀ",
      "Ń"
    ],
    [
      "ŀ",
      "Œš"
    ],
    [
      "ŕ",
      "şį"
    ],
    [
      "ŗŔĒ",
      "ť"
    ],
    [
      "ĿĤ",
      "œł"
    ],
    [
      "Ġĺ",
      "įĸ"
    ],
    [
      "œĥŮ",
      "ĸĿ"
    ],
    [
      "ſ",
      "ŗĳ"
    ],
    [
      "řĳ",
      "Ī"
    ],
    [
      "ő",
      "ĒŅ"
    ],
    [
      "śŘĦŮ",
      "ĭŰ"
    ],
    [
      "ŗŒš",
      "įĿŰ"
    ],
    [
      "Ĝ",
      "ŗŃ"
    ],
    [
      "ĨĠ",
      "ĩģĒ"
    ]
  ],
  "vocab": {
    "<pad>": 0,
    "<bos>": 1,
    "<eos>": 2,
    "<unk>": 3,
    "Ā": 4,
    "ā": 5,
    "Ă": 6,
    "ă": 7,
    "Ą": 8,
    "ą": 9,
    "Ć": 10,
    "ć": 11,
    "Ĉ": 12,
    "ĉ": 13,
    "Ċ": 14,
    "ċ": 15,
    "Č": 16,
    "č": 17,
    "Ď": 18,
    "ď": 19,
    "Đ": 20,
    "đ": 21,
    "Ē": 22,
    "ē": 23,
    "Ĕ": 24,
    "ĕ": 25,
    "Ė": 26,
    "ė": 27,
    "Ę": 28,
    "ę": 29,
    "Ě": 30,
    "ě": 31,
    "Ĝ": 32,
    "ĝ": 33,
    "Ğ": 34,
    "ğ": 35,
    "Ġ": 36,
    "ġ": 37,
    "Ģ": 38,
    "ģ": 39,
    "Ĥ": 40,
    "ĥ": 41,
    "Ħ": 42,
    "ħ": 43,
    "Ĩ": 44,
    "ĩ": 45,
    "Ī": 46,
    "ī": 47,
    "Ĭ": 48,
    "ĭ": 49,
    "Į": 50,
    "į": 51,
    "İ": 52,
    "ı": 53,
    "Ĳ": 54,
    "ĳ": 55,
    "Ĵ": 56,
    "ĵ": 57,
    "Ķ": 58,
    "ķ": 59,
    "ĸ": 60,
    "Ĺ": 61,
    "ĺ": 62,
    "Ļ": 63,
    "ļ": 64,
    "Ľ": 65,
    "ľ": 66,
    "Ŀ": 67,
    "ŀ": 68,
    "Ł": 69,
    "ł": 70,
    "Ń": 71,
    "ń": 72,
    "Ņ": 73,
    "ņ": 74,
    "Ň": 75,
    "ň": 76,
    "ŉ": 77,
    "Ŋ": 78,
    "ŋ": 79,
    "Ō": 80,
    "Ŏ": 81,
    "ŏ": 82,
    "Ő": 83,
    "ő": 84,
    "Œ": 85,
    "œ": 86,
    "Ŕ": 87,
    "ŕ": 88,
    "Ŗ": 89,
    "ŗ": 90,
    "Ř": 91,
    "ř": 92,
    "Ś": 93,
    "ś": 94,
    "Ŝ": 95,
    "ŝ": 96,
    "Ş": 97,
    "ş": 98,
    "Š": 99,
    "š": 100,
    "Ţ": 101,
    "ţ": 102,
    "Ť": 103,
    "ť": 104,
    "Ŧ": 105,
    "ŧ": 106,
    "Ũ": 107,
    "ũ": 108,
    "Ū": 109,
    "ū": 110,
    "Ŭ": 111,
    "Ů": 112,
    "ů": 113,
    "Ű": 114,
    "ű": 115,
    "Ų": 116,
    "ų": 117,
    "Ŵ": 118,
    "ŵ": 119,
    "Ŷ": 120,
    "ŷ": 121,
    "Ÿ": 122,
    "Ź": 123,
    "ź": 124,
    "Ż": 125,
    "ż": 126,
    "Ž": 127,
    "ž": 128,
    "ſ": 129,
    "ĩŰ": 130,
    "ŕĒ": 131,
    "ŗĖ": 132,
    "ĤŮ": 133,
    "ŗĐ": 134,
    "ĵĒ": 135,
    "īŬ": 136,
    "œš": 137,
    "Ēń": 138,
    "Ēł": 139,
    "ŁĖ": 140,
    "ĲŮ": 141,
    "ĿŰ": 142,
    "ĽŬ": 143,
    "ŁĐ": 144,
    "šĺ": 145,
    "ĤŚ": 146,
    "ņŞ": 147,
    "ņŘ": 148,
    "ĸĸ": 149,
    "ĵĦ": 150,
    "ĪŬ": 151,
    "ĨŰ": 152,
    "ŖĖ": 153,
    "ģĒ": 154,
    "ŖĐ": 155,
    "ĥŮ": 156,
    "ŃĒ": 157,
    "ĠŬ": 158,
    "Ņš": 159,
    "ĢŰ": 160,
    "įŮ": 161,
    "ŜĖ": 162,
    "œł": 163,
    "ŜĐ": 164,
    "ŗń": 165,
    "œń": 166,
    "ĥľ": 167,
    "ŗł": 168,
    "śŘ": 169,
    "śŞ": 170,
    "ŔĒ": 171,
    "ĴĒ": 172,
    "ĒńŚ": 173,
    "œŞ": 174,
    "ĭľ": 175,
    "šĺĤ": 176,
    "īľ": 177,
    "ĩĢ": 178,
    "ĵŀ": 179,
    "ĩīŬ": 180,
    "Ĥļ": 181,
    "ņř": 182,
    "ŕŀ": 183,
    "Œš": 184,
    "ņş": 185,
    "œŘ": 186,
    "ĺŬ": 187,
    "ņĖ": 188,
    "ĵŮ": 189,
    "ĸŰ": 190,
    "ņĐ": 191,
    "Ŝŗ": 192,
    "ĤŚŕĒ": 193,
    "ņŘŗĖ": 194,
    "œĳ": 195,
    "ĵĦĩŰ": 196,
    "ŝł": 197,
    "ŝŞ": 198,
    "įĢ": 199,
    "ħĢ": 200,
    "ĸĸŗĐ": 201,
    "ĭĤ": 202,
    "ĨĠ": 203,
    "ģľ": 204,
    "Ġļ": 205,
    "ĭĢ": 206,
    "ŝŘ": 207,
    "ĠĠ": 208,
    "őŜ": 209,
    "šĺĤĵĒ": 210,
    "ņŞĤŮ": 211,
    "œŚ": 212,
    "Ēŗ": 213,
    "őŞ": 214,
    "ĒńŚœš": 215,
    "ıŜ": 216,
    "Ēř": 217,
    "Ēş": 218,
    "ŝń": 219,
    "įĸ": 220,
    "ĒłĩīŬ": 221,
    "ĤĪŬ": 222,
    "Įļ": 223,
    "ŕŖĖ": 224,
    "ŀř": 225,
    "īĨŰ": 226,
    "ŀş": 227,
    "ĵŖĐ": 228,
    "ĵŰ": 229,
    "ģĢ": 230,
    "ŋĖ": 231,
    "ĩľ": 232,
    "śł": 233,
    "ķŬ": 234,
    "śń": 235,
    "ĸŮ": 236,
    "ŋĐ": 237,
    "ŀœ": 238,
    "ġľ": 239,
    "őş": 240,
    "ŗŞ": 241,
    "řŜ": 242,
    "ŗŘ": 243,
    "ŀŕ": 244,
    "œĥŮ": 245,
    "įľ": 246,
    "ĠĢ": 247,
    "Ŀŀ": 248,
    "œŜ": 249,
    "ŏš": 250,
    "ŝŐ": 251,
    "şį": 252,
    "ŗŔĒ": 253,
    "Łń": 254,
    "Łł": 255,
    "şŀ": 256,
    "ĿĤ": 257,
    "ģŰ": 258,
    "ġŬ": 259,
    "ĳī": 260,
    "Ēő": 261,
    "ĭļ": 262,
    "ĮŮ": 263,
    "ĩĴĒ": 264,
    "ŝĖ": 265,
    "ıŞ": 266,
    "įĪŬ": 267,
    "ŝĐ": 268,
    "ĨŬ": 269,
    "ġĹ": 270,
    "ıŀ": 271,
    "ŝŅ": 272,
    "īĢ": 273,
    "ŝŃ": 274,
    "ŝŖ": 275,
    "ĪŰ": 276,
    "ŔĐ": 277,
    "ħŮ": 278,
    "ŔĖ": 279,
    "őř": 280,
    "ģĶ": 281,
    "Ġĺ": 282,
    "ĵŜ": 283,
    "ĭģ": 284,
    "śŕ": 285,
    "ġĢ": 286,
    "ĵħ": 287,
    "ĮĨŬ": 288,
    "įĠ": 289,
    "ĩĒ": 290,
    "ŗŒš": 291,
    "őŀ": 292,
    "įĿ": 293,
    "ĸĿ": 294,
    "ŗĳ": 295,
    "ĿŔĐ": 296,
    "ĹŜ": 297,
    "ĤĠ": 298,
    "ġĪŰ": 299,
    "ļĩ": 300,
    "ĮĠ": 301,
    "ĭŰ": 302,
    "œĐ": 303,
    "Ňń": 304,
    "ĠĠĨŰ": 305,
    "œĖ": 306,
    "Śř": 307,
    "ĭľŖĐ": 308,
    "ŕŜ": 309,
    "ĦŮ": 310,
    "Ĩĺ": 311,
    "ŕĐ": 312,
    "ĠŮ": 313,
    "ĵŀĐ": 314,
    "œŞŖĖ": 315,
    "īŰ": 316,
    "įŬ": 317,
    "ĩŬ": 318,
    "Ňł": 319,
    "ģĥ": 320,
    "ľĵ": 321,
    "ŕĖ": 322,
    "řĳ": 323,
    "ĤļŬ": 324,
    "ĦĩŰ": 325,
    "śœ": 326,
    "ĒŅ": 327,
    "ġĢŰ": 328,
    "Łş": 329,
    "ĹŜŗ": 330,
    "ŕŀĖ": 331,
    "īľŰ": 332,
    "ħĢķ": 333,
    "Łř": 334,
    "ĭŮ": 335,
    "Şş": 336,
    "Ģŗ": 337,
    "Śş": 338,
    "ĮĠŬ": 339,
    "ĩŮ": 340,
    "ĿŜĐ": 341,
    "įĺ": 342,
    "ĨĠŬ": 343,
    "ŉĒ": 344,
    "ĩħ": 345,
    "ĭħ": 346,
    "Şř": 347,
    "œŘĥŮ": 348,
    "šĹ": 349,
    "ĮĻ": 350,
    "ŗŅ": 351,
    "ĥľŕĐ": 352,
    "őń": 353,
    "ĹŜĐ": 354,
    "ĥĤ": 355,
    "ħĢŰ": 356,
    "ŗŚ": 357,
    "ĨĠīŰ": 358,
    "ĒŔ": 359,
    "œĳŮ": 360,
    "ıŜŔĒ": 361,
    "šĽ": 362,
    "śŞŕĖ": 363,
    "ĒŃ": 364,
    "įĢĴĒ": 365,
    "śş": 366,
    "Ĳĺ": 367,
    "ŝś": 368,
    "ĒŒ": 369,
    "ĕĦĩŰ": 370,
    "ĤĹ": 371,
    "ĵġŬ": 372,
    "őł": 373,
    "ņń": 374,
    "ĒŁ": 375,
    "ŕŞ": 376,
    "śř": 377,
    "ŗŗ": 378,
    "ıŁĐ": 379,
    "ĸĹ": 380,
    "ņł": 381,
    "ĤŝĐ": 382,
    "śŘĦŮ": 383,
    "ŗœ": 384,
    "ľĿ": 385,
    "Ēœ": 386,
    "įĿŰ": 387,
    "ŗŕ": 388,
    "Ēŕ": 389,
    "ģļ": 390,
    "ĠĽŬ": 391,
    "œŃ": 392,
    "œŅ": 393,
    "ĒŇ": 394,
    "řŜő": 395,
    "őŜŒš": 396,
    "ĒŞ": 397,
    "śŃ": 398,
    "ĤĽŬ": 399,
    "īĿŰ": 400,
    "ĥĳ": 401,
    "ĩģ": 402,
    "śŅ": 403,
    "ŗŒ": 404,
    "įġ": 405,
    "ĤĽ": 406,
    "ĒŘ": 407,
    "ĨĽ": 408,
    "ŀŗ": 409,
    "ĵŁĐ": 410,
    "őŘ": 411,
    "ĿĹ": 412,
    "ŗŃ": 413,
    "ĤŰ": 414,
    "ĳġ": 415,
    "Ņş": 416,
    "ĨĢ": 417,
    "ŅŞ": 418,
    "ŗńš": 419,
    "ĥģ": 420,
    "Łœ": 421,
    "ņœ": 422,
    "ŝŝ": 423,
    "šĺģŰ": 424,
    "şş": 425,
    "Ĩĭ": 426,
    "œŃĒ": 427,
    "Ŗœ": 428,
    "ĭģĒ": 429,
    "őŁĖ": 430,
    "ĤĢ": 431,
    "ĠĹ": 432,
    "ŝŘš": 433,
    "ĒńŝĖ": 434,
    "Ĵļ": 435,
    "ņŗ": 436,
    "ĿŜ": 437,
    "ĩļ": 438,
    "ĩģĒ": 439,
    "śŗ": 440,
    "ĥļ": 441,
    "śŜ": 442,
    "ŁŅ": 443,
    "Ļľ": 444,
    "Şŗ": 445,
    "ŗŃĒ": 446,
    "ĒşŔĖ": 447,
    "Ĳħ": 448,
    "ŗő": 449,
    "ŚĖ": 450,
    "şř": 451,
    "Ņŗ": 452,
    "Ġģ": 453,
    "ĢĦ": 454,
    "ŁŃ": 455,
    "ĳħ": 456,
    "ļģ": 457,
    "Ēņ": 458,
    "şĐ": 459,
    "œś": 460,
    "œŅš": 461,
    "śő": 462,
    "ĬŮ": 463,
    "ĤĵĒ": 464,
    "ĒłĮŮ": 465,
    "Įģ": 466,
    "Ēŀ": 467,
    "Ŗř": 468,
    "ĸĢ": 469,
    "ŕŁĖ": 470,
    "Ŝő": 471,
    "ŗŔ": 472,
    "Ŗş": 473,
    "ŕş": 474,
    "şįĩŬ": 475,
    "ĮĢ": 476,
    "Ŕř": 477,
    "ĵŜń": 478,
    "śŚ": 479,
    "ĩı": 480,
    "ĠĽ": 481,
    "œŒ": 482,
    "ľĹ": 483,
    "ŝŐš": 484,
    "Ņř": 485,
    "įĢŰ": 486,
    "ĠĠŬ": 487,
    "Ŝœ": 488,
    "łš": 489,
    "ĒŐ": 490,
    "őŞĖ": 491,
    "ĭĽ": 492,
    "œŝ": 493,
    "Ġĩ": 494,
    "ĵļ": 495,
    "ŇŞ": 496,
    "ŇŘ": 497,
    "őŗ": 498,
    "ĒřħŮ": 499,
    "ĭĳ": 500,
    "ĵħģľ": 501,
    "ĩī": 502,
    "Ŕş": 503,
    "řŜĖ": 504,
    "ĴĠ": 505,
    "ĠĢŬ": 506,
    "ņřš": 507,
    "įĪ": 508,
    "ĠĺŬ": 509,
    "Śœš": 510,
    "ĩĤ": 511,
    "īĢĤ": 512,
    "œŔ": 513,
    "śŘš": 514,
    "īĸ": 515,
    "ĨġĢŰ": 516,
    "ĤŚĐ": 517,
    "ıŜĐ": 518,
    "ŝņ": 519,
    "Şő": 520,
    "ġŰ": 521,
    "įĠŰ": 522,
    "śşŜĖ": 523,
    "ġĠ": 524,
    "ŚĐ": 525,
    "łł": 526,
    "Ĩĸ": 527,
    "įį": 528,
    "ĩĴ": 529,
    "œņ": 530,
    "ıņ": 531,
    "śŀ": 532,
    "įĸŰ": 533,
    "ĨĽŬ": 534,
    "ĒŖ": 535,
    "ıņĐ": 536,
    "ŗŜ": 537,
    "Ĥĭ": 538,
    "ŝŜ": 539,
    "łń": 540,
    "ĒŗįĪŬ": 541,
    "ıŞĐ": 542,
    "ĒŤ": 543,
    "ĥĿŜĐ": 544,
    "şŗ": 545,
    "ĹĢ": 546,
    "śņ": 547,
    "şŔĖ": 548,
    "Łŕ": 549,
    "ĿŀĐ": 550,
    "ĳŮ": 551,
    "Ķŝł": 552,
    "şįŮ": 553,
    "łř": 554,
    "Śŗ": 555,
    "ŗŅš": 556,
    "ġľŰ": 557,
    "ĵĦŬ": 558,
    "ĮļŬ": 559,
    "ĵŞ": 560,
    "ĒŢ": 561,
    "įī": 562,
    "ĨĹ": 563,
    "ĥĢ": 564,
    "įļ": 565,
    "įħ": 566,
    "įĩŬ": 567,
    "ŝŚ": 568,
    "ŗņ": 569,
    "ŝŀ": 570,
    "ĲĺŬ": 571,
    "ŁŘ": 572,
    "Ģĥ": 573,
    "œŀ": 574,
    "ŚŕĒ": 575,
    "ĒńŚœ": 576,
    "łş": 577,
    "ĠŰ": 578,
    "Ŝş": 579,
    "ĨĪ": 580,
    "ĭķŬ": 581,
    "ĸŗĐ": 582,
    "ŝŇ": 583,
    "śřįŮ": 584,
    "ŁŞ": 585,
    "Ēű": 586,
    "ŅŘ": 587,
    "ĮĹ": 588,
    "šĬ": 589,
    "śŃĒ": 590,
    "ŅőŁĖ": 591,
    "ĵīĨŰ": 592,
    "ģģ": 593,
    "Ĩļ": 594,
    "őœ": 595,
    "ĨģĢ": 596,
    "Şœ": 597,
    "řħŮ": 598,
    "šġĪŰ": 599,
    "œŕ": 600,
    "ĻıŁĐ": 601,
    "őņĖ": 602,
    "ĩĳ": 603,
    "Ēŷ": 604,
    "œř": 605,
    "Ēś": 606,
    "ĶįĿŰ": 607,
    "śś": 608,
    "ŗŀ": 609,
    "ĭĠ": 610,
    "Ŕşŀ": 611,
    "Ŝř": 612,
    "őő": 613,
    "šľ": 614,
    "Ŗŕ": 615,
    "ŗįĪŬ": 616,
    "ŕŘ": 617,
    "ĵĒń": 618,
    "Ħĥ": 619,
    "Ŕń": 620,
    "ŦŞ": 621,
    "śŒ": 622,
    "ŗś": 623,
    "ĥī": 624,
    "ŇŚ": 625,
    "įĹ": 626,
    "Ŕřĳ": 627,
    "ŝŁ": 628,
    "Ēť": 629,
    "ĴĽ": 630,
    "ŅŗĲŮ": 631,
    "ĩĽ": 632,
    "Ĩĵ": 633,
    "Ļĸ": 634,
    "ŦŘ": 635,
    "ŕĒł": 636,
    "ħľ": 637,
    "Ēţ": 638,
    "ĥŀ": 639,
    "ŞĖ": 640,
    "Ēŝ": 641,
    "Ģĺ": 642,
    "őŜŒ": 643,
    "şĖ": 644,
    "ĪĹ": 645,
    "śŔ": 646,
    "ńœ": 647,
    "řŜőš": 648,
    "ĵĽŬ": 649,
    "œŘš": 650,
    "ŇŃ": 651,
    "ĮĨŬĤŚŕĒ": 652,
    "ģħ": 653,
    "ŞĐ": 654,
    "ĥħ": 655,
    "įĤ": 656,
    "şő": 657,
    "Śœ": 658,
    "ĠĿ": 659,
    "ġĿ": 660,
    "Ġĵ": 661,
    "Őœ": 662,
    "Ĥĺ": 663,
    "ńř": 664,
    "Ŝŕ": 665,
    "śŅš": 666,
    "ŕŜł": 667,
    "ĒřŜĖ": 668,
    "ĴĢ": 669,
    "ĵŜĐ": 670,
    "ĻĢ": 671,
    "ıņř": 672,
    "Ŝł": 673,
    "Ĥģ": 674,
    "ĵī": 675,
    "ĤĠŬ": 676,
    "Ēŵ": 677,
    "ĒŲ": 678,
    "œŚš": 679,
    "Ĩģ": 680,
    "ĭī": 681,
    "ħœŃĒ": 682,
    "ŇŅ": 683,
    "Ŕł": 684,
    "ĭĴ": 685,
    "Ġĭ": 686,
    "ĹŝŞ": 687,
    "ńş": 688,
    "ŇŜ": 689,
    "ĮĽ": 690,
    "ŀő": 691,
    "śŝ": 692,
    "ĒőŜŒš": 693,
    "ĠĪ": 694,
    "ĥĦ": 695,
    "Ēų": 696,
    "Ŀĸ": 697,
    "įĻ": 698,
    "ņœĥŮ": 699,
    "ņŅ": 700,
    "ĻĹ": 701,
    "Ĳī": 702,
    "ĤĿ": 703,
    "Őŕ": 704,
    "ĒŴ": 705,
    "Şŕ": 706,
    "įĺŬ": 707,
    "ĭġ": 708,
    "şœ": 709,
    "ĭīŬ": 710,
    "Įĵ": 711,
    "Ķħ": 712,
    "ľı": 713,
    "ĲĽ": 714,
    "řĐ": 715,
    "ĒŸ": 716,
    "ĪŮ": 717,
    "ĶĦ": 718,
    "ŝŖĒłĩīŬ": 719,
    "œšĺ": 720,
    "ģĶĒńŚœš": 721,
    "ĒşįŮ": 722,
    "Ŀĵ": 723,
    "ĒŽ": 724,
    "Ģġ": 725,
    "ĒŻ": 726,
    "ņŃ": 727,
    "ĿŔĐņŞĤŮ": 728,
    "Įĺ": 729,
    "Ĥĸ": 730,
    "Ēłĩ": 731,
    "ņő": 732,
    "Ġı": 733,
    "ŗĵŮ": 734,
    "ŜŋĖ": 735,
    "ıŜŔ": 736,
    "őŞŚ": 737,
    "ŝŐšĺĤĵĒ": 738,
    "ĚĤĵĒ": 739,
    "Ĭľ": 740,
    "ĥĽ": 741,
    "Ēž": 742,
    "Ĺľ": 743,
    "ĻĿ": 744,
    "ĈĠŬ": 745,
    "ĸģĒ": 746,
    "ņŃĒ": 747,
    "ıĢ": 748,
    "šįĢĴĒ": 749,
    "ĦĦ": 750,
    "Ŗŝń": 751,
    "ņŕŖĖ": 752,
    "ļĢ": 753,
    "ŅřņŞ": 754,
    "łœ": 755,
    "ĲĦ": 756,
    "ģī": 757,
    "ĹŁĐ": 758,
    "ĥķ": 759,
    "ĭĻ": 760,
    "œłš": 761,
    "ķħ": 762,
    "ģĽ": 763,
    "ĢġĢ": 764,
    "ĿĿ": 765,
    "ŞŚ": 766,
    "ŦŘŗĖ": 767,
    "Ĵĺ": 768,
    "įĢĴ": 769,
    "ĭķ": 770,
    "ĩĢŗĐ": 771,
    "ņşĮĠŬ": 772,
    "ĒŹ": 773,
    "ħśń": 774,
    "įĵ": 775,
    "œŚĖ": 776,
    "ĢīŬ": 777,
    "ŀĖ": 778,
    "ĸĵŖĐ": 779,
    "ĤŚőņĖ": 780,
    "įĽ": 781,
    "ņŕ": 782,
    "őŕ": 783,
    "ĭĤŰ": 784,
    "Ĥı": 785,
    "įĭ": 786,
    "ĥĴ": 787,
    "Įľ": 788,
    "ĄŚŕĒ": 789,
    "šĪ": 790,
    "įĸĹŝŞ": 791,
    "įĨ": 792,
    "ħħ": 793,
    "Şŏš": 794,
    "Ňœ": 795,
    "ņŅš": 796,
    "Įĥ": 797,
    "ĸı": 798,
    "ĘĸŗĐ": 799,
    "ĒŚ": 800,
    "įĿŜ": 801,
    "Ĥī": 802,
    "ĸĸœń": 803,
    "ĢĦŬ": 804,
    "ĩĹ": 805,
    "ĭĹ": 806,
    "ĻĹņŘ": 807,
    "ŞŕĒ": 808,
    "ŜŒ": 809,
    "œœ": 810,
    "īĿ": 811,
    "šħĢŰ": 812,
    "ĺĹ": 813,
    "Ķħĸĸ": 814,
    "ĵĦĭĤ": 815,
    "Ēź": 816,
    "Ħŗł": 817,
    "įĠļ": 818,
    "ŗŝ": 819,
    "Ġĸ": 820,
    "ĵīŬ": 821,
    "œő": 822,
    "Ĥŗł": 823,
    "ĳŝŞ": 824,
    "ŗŞņĖ": 825,
    "ĸĹŝŞ": 826,
    "ŦŞĤŮ": 827,
    "őŕĒ": 828,
    "ĤļĩŰ": 829,
    "ĥĤŚĐ": 830,
    "Ĩĥ": 831,
    "ĲĻ": 832,
    "ĬīŬ": 833,
    "ĸĵ": 834,
    "ŕř": 835,
    "šĦ": 836,
    "ŝŔ": 837,
    "Őř": 838,
    "ĨĺĤŰ": 839,
    "ŗłŗĖ": 840,
    "ħġľŰ": 841,
    "ĪĢ": 842,
    "Ēſ": 843,
    "ĵīľ": 844,
    "ŞŜ": 845,
    "Įĸ": 846,
    "ŔşŀĖ": 847,
    "łŗ": 848,
    "ħśńŚĖ": 849,
    "ĲīŬ": 850,
    "ģķŬ": 851,
    "ŀŅ": 852,
    "Ģħ": 853,
    "įĽŬ": 854,
    "ĭĢŬ": 855,
    "ŀŃ": 856,
    "ĪĿŀĐ": 857,
    "ŝŒ": 858,
    "ŝř": 859,
    "ŗş": 860,
    "ĠĩĒ": 861,
    "ĤĠĸŰ": 862,
    "ĵĺ": 863,
    "ĩľņĐ": 864,
    "ĥģĒ": 865,
    "įı": 866,
    "ŜŅ": 867,
    "ŐŃ": 868,
    "ĩħĿŰ": 869,
    "ĵīľŰ": 870,
    "łŚ": 871,
    "ģĻ": 872,
    "ĠĵĒ": 873,
    "ķīŬ": 874,
    "ŗńĤŮ": 875,
    "įĥľ": 876,
    "ņŕŀ": 877,
    "šĹĭģĒ": 878,
    "Ĭħ": 879,
    "šģ": 880,
    "Ēż": 881,
    "ŅĖ": 882,
    "ĥĿŜ": 883,
    "ĭģľ": 884,
    "šĺĤıņĐ": 885,
    "Ŀĥ": 886,
    "ĲŋĐ": 887,
    "Ĺģ": 888,
    "őś": 889,
    "Ŗŗ": 890,
    "Ĥľ": 891,
    "Ŀŀń": 892,
    "ĒŁĠĽŬ": 893,
    "ņŞĠĺŬ": 894,
    "Ġľ": 895,
    "šĨ": 896,
    "ĨĠŬĤŚŕĒ": 897,
    "Şœš": 898,
    "ĒŜ": 899,
    "ŗř": 900,
    "ģĠ": 901,
    "ĵŀŕĒ": 902,
    "ĨġĢ": 903,
    "ŔřĳŮ": 904,
    "ĬĬ": 905,
    "ŗŇ": 906,
    "œĳīŬ": 907,
    "ļļ": 908,
    "Őş": 909,
    "ĳīŬ": 910,
    "ġĪŰņŘŗĖ": 911,
    "ĲŮĭľŖĐ": 912,
    "Ňő": 913,
    "ŕŗ": 914,
    "ņœĳŮ": 915,
    "ĩġ": 916,
    "īľĵĒ": 917,
    "įĩ": 918,
    "ŝş": 919,
    "ŕń": 920,
    "ıŀĐ": 921,
    "şŕĒ": 922,
    "įĨŰ": 923,
    "ĹĤ": 924,
    "ŇŒ": 925,
    "Ņœ": 926,
    "Łłš": 927,
    "Śő": 928,
    "şŒ": 929,
    "ŅĐ": 930,
    "ġı": 931,
    "ļŋĐ": 932,
    "ĥŜ": 933,
    "Łņ": 934,
    "ļĿ": 935,
    "śłĩŮ": 936,
    "ĳŗĐ": 937,
    "Śŕ": 938,
    "ŐŅ": 939,
    "Ňś": 940,
    "ŇŔ": 941,
    "őŜĖ": 942,
    "őŀĖ": 943,
    "ŅşĵĦŬ": 944,
    "ĭĩ": 945,
    "ŖŅ": 946,
    "ŝœ": 947,
    "ńŕĒ": 948,
    "śŘšĺĤĵĒ": 949,
    "ŖŃ": 950,
    "ĥľĒńŚœš": 951,
    "Ňŕ": 952,
    "ĒńŚŗĵŮ": 953,
    "ħĿŰ": 954,
    "ķīľ": 955,
    "ńŕŀ": 956,
    "Ĥįľ": 957,
    "ġĹľ": 958,
    "ļģĽ": 959,
    "œŉ": 960,
    "įĵĒ": 961,
    "ĠĪŬ": 962,
    "śŞĒłĩīŬ": 963,
    "ħġľ": 964,
    "ļĥ": 965,
    "ĤŚŕ": 966,
    "ŗŘĵŮ": 967,
    "ņŕŀĖ": 968,
    "šįŬ": 969,
    "ĒłĩįĸŰ": 970,
    "Ġĥ": 971,
    "ŁŕĒ": 972,
    "Şŉ": 973,
    "őŚ": 974,
    "Ĳľ": 975,
    "ņœĳ": 976,
    "ĠļŬ": 977,
    "ĵķŬ": 978,
    "ŜŗĖ": 979,
    "ŕŀœš": 980,
    "ĶŮ": 981,
    "ĴĺŬ": 982,
    "ĭĴĒ": 983,
    "įĥ": 984,
    "Ĭģ": 985,
    "Łŗ": 986,
    "ģņĐ": 987,
    "ĺĵŀ": 988,
    "őşş": 989,
    "ġĵ": 990,
    "ņœš": 991,
    "šĺĤĵ": 992,
    "ĩĢŁĐ": 993,
    "ĹŜń": 994,
    "ĮģŬ": 995,
    "ĭĤśşŜĖ": 996,
    "įŮĸĸŗĐ": 997,
    "ĤĵŀĐ": 998,
    "Ĩĩ": 999,
    "ŕł": 1000,
    "ĢĢ": 1001,
    "ĒŠ": 1002,
    "Ķŀş": 1003,
    "Łŀ": 1004,
    "ĭĥ": 1005,
    "ĭģĽ": 1006,
    "Ĥĵ": 1007,
    "Ġħ": 1008,
    "ĒŇœŅš": 1009,
    "ıġ": 1010,
    "šĝ": 1011,
    "ŀĐ": 1012,
    "œŔĒ": 1013,
    "ĢŗŃ": 1014,
    "ĹŜĐņŞĤŮ": 1015,
    "ĬīĢĤ": 1016,
    "ĭĪŬ": 1017,
    "ĸĵŀ": 1018,
    "ĬĵŰ": 1019,
    "ıī": 1020,
    "ĻŰ": 1021,
    "őœš": 1022,
    "Łœš": 1023,
    "ĒŃĒ": 1024,
    "ĤļĿŰ": 1025,
    "šļĩ": 1026,
    "ļĹ": 1027,
    "łĐ": 1028,
    "Śń": 1029,
    "ŚĸŮ": 1030,
    "įīŬ": 1031,
    "įŰ": 1032,
    "Ŕœ": 1033,
    "ĮĻĢ": 1034,
    "Ňŗ": 1035,
    "ĭĲ": 1036,
    "Ġŀş": 1037,
    "ŚřŁĖ": 1038,
    "ŞŉĒ": 1039,
    "šď": 1040,
    "şŕ": 1041,
    "Ēłĩī": 1042,
    "łŕ": 1043,
    "ĠĬ": 1044,
    "ĤĹŁĐ": 1045,
    "ĪĿ": 1046,
    "ĵĢ": 1047,
    "ġĲ": 1048,
    "ıŮ": 1049,
    "šĺĤĵĒŃ": 1050,
    "ħŰ": 1051,
    "ĒŦ": 1052,
    "ĤŚŕĒŅ": 1053,
    "ŔĸŮ": 1054,
    "ĮĿ": 1055,
    "ħĺ": 1056,
    "ĤĪŬĤŝĐ": 1057,
    "ĳġġŰ": 1058,
    "ĵĒşŔĖ": 1059,
    "ĭĦ": 1060,
    "Ĵģ": 1061,
    "ŝő": 1062,
    "ħļģĽ": 1063,
    "šĢ": 1064,
    "ŝŕ": 1065,
    "ŒŋĖ": 1066,
    "Ķī": 1067,
    "ĒşŔĖĵĦĩŰ": 1068,
    "ŝŗ": 1069,
    "ĨĺŬ": 1070,
    "ıŀń": 1071,
    "ĒřħŮĸĸŗĐ": 1072,
    "Įĩ": 1073,
    "ŕŅ": 1074,
    "ľĿşĐ": 1075,
    "ħŗłŗĖ": 1076,
    "ģĒŇ": 1077,
    "ĠķŬ": 1078,
    "ġĵŜń": 1079,
    "œŗĖ": 1080,
    "ŗłŁĖ": 1081,
    "ņŏš": 1082,
    "ĩīľŰ": 1083,
    "Īĥ": 1084,
    "őĐ": 1085,
    "ĶŀşşĖ": 1086,
    "Őŏš": 1087,
    "œŗ": 1088,
    "ĢĿ": 1089,
    "ĵŁń": 1090,
    "śŗŚ": 1091,
    "Őŗ": 1092,
    "ŐŚ": 1093,
    "ļŰ": 1094,
    "ĸśŃĒ": 1095,
    "œş": 1096,
    "œńśřįŮ": 1097,
    "ĩĠ": 1098,
    "ĒŅš": 1099,
    "ĪĢŝŝ": 1100,
    "Ŀģ": 1101,
    "ıŞŜ": 1102,
    "ĤĶ": 1103,
    "ıľ": 1104,
    "ĭĺ": 1105,
    "ĦīŬ": 1106,
    "łŕŀ": 1107,
    "įĵŰ": 1108,
    "ŗŔĒŗ": 1109,
    "ŗĳŮ": 1110,
    "ĶīľĵĒ": 1111,
    "ıŖ": 1112,
    "ĵġ": 1113,
    "ĢŮ": 1114,
    "ĤŮģĶ": 1115,
    "ŕŕĒ": 1116,
    "ĵœł": 1117,
    "ŚşĲŮ": 1118,
    "ıļģ": 1119,
    "Ĭī": 1120,
    "ĩĨ": 1121,
    "ŗň": 1122,
    "ńœĳ": 1123,
    "ĨīĿŰ": 1124,
    "Ĩľ": 1125,
    "ķī": 1126,
    "œŒš": 1127,
    "œłĨġĢŰ": 1128,
    "ĠĺĥĿŜĐ": 1129,
    "ŗńĲŮ": 1130,
    "įľĤ": 1131,
    "šč": 1132,
    "őĖ": 1133,
    "ŔŐ": 1134,
    "Ŕłŝś": 1135,
    "łĖ": 1136,
    "ņşĮĠ": 1137,
    "ĻĵŀŕĒ": 1138,
    "Ňņ": 1139,
    "şŀł": 1140,
    "şŜĖ": 1141,
    "ĳŚ": 1142,
    "ĩĦ": 1143,
    "ĿĠ": 1144,
    "ĒőŁĖ": 1145,
    "ŕŜłš": 1146,
    "Įġ": 1147,
    "ŁŕŖĖ": 1148,
    "ĵħĢķ": 1149,
    "ŕő": 1150,
    "ĩŰŝŖ": 1151,
    "ħĢŰņŘŗĖ": 1152,
    "ŕœ": 1153,
    "ŗŐ": 1154,
    "ĸĸŗł": 1155,
    "ĵĦĩĢ": 1156,
    "ġĹĤ": 1157,
    "ĲīĨŰ": 1158,
    "ħŚř": 1159,
    "ŕŃ": 1160,
    "ĥĻ": 1161,
    "ĒŖŝń": 1162,
    "ŅœĳīŬ": 1163,
    "řĖ": 1164,
    "ŗŎ": 1165,
    "łő": 1166,
    "ŗŁ": 1167,
    "Įı": 1168,
    "űř": 1169,
    "ļĵŀ": 1170,
    "ŇŗŚ": 1171,
    "ŀřĬŮ": 1172,
    "ĦĥģĒ": 1173,
    "ŔŖ": 1174,
    "ıīľ": 1175,
    "Ĵľ": 1176,
    "ģĥŜ": 1177,
    "ĲŮģĶ": 1178,
    "ĪĶ": 1179,
    "ŗŒšĺģŰ": 1180,
    "Ņŕŀœš": 1181,
    "ŔńĮģŬ": 1182,
    "Ňŀ": 1183,
    "ļĩģ": 1184,
    "ŜŅš": 1185,
    "ĲŮĥľ": 1186,
    "ĳķŬ": 1187,
    "ĭĹŜ": 1188,
    "ıħ": 1189,
    "Ēĺ": 1190,
    "śŐ": 1191,
    "Ŀĳ": 1192,
    "łŀ": 1193,
    "ĳĻ": 1194,
    "ĠħĢ": 1195,
    "ŁĠĽŬ": 1196,
    "Ĥĩ": 1197,
    "ņřŝŘ": 1198,
    "ĸĿĒńŚœš": 1199,
    "ĩĴĒńŝĖ": 1200,
    "Ňŝ": 1201,
    "įĸĵŖĐ": 1202,
    "šġĪŰņŘŗĖ": 1203,
    "śŖ": 1204,
    "ŝŅŕŞ": 1205,
    "ĨĭŬ": 1206,
    "ąľ": 1207,
    "ģĤ": 1208,
    "ĽœŞ": 1209,
    "ŁœĥŮ": 1210,
    "ĮĩĒ": 1211,
    "ŐŉĒ": 1212,
    "šĹĥĤŚĐ": 1213,
    "šĭ": 1214,
    "řŁĖ": 1215,
    "ĨĺĵŰ": 1216,
    "ĸĥ": 1217,
    "ŚœĳŮ": 1218,
    "ņŉ": 1219,
    "ĵŊ": 1220,
    "ħĸŰ": 1221,
    "őŞş": 1222,
    "ĥīĨŰ": 1223,
    "ņŘœłš": 1224,
    "ŞŅ": 1225,
    "ĵĻľ": 1226,
    "ħī": 1227,
    "ĵĒŃ": 1228,
    "ĥĽŬ": 1229,
    "ĠĴĒ": 1230,
    "ĲŮĸĸŗĐ": 1231,
    "ĒłĩīŬģ": 1232,
    "śŕŁĖ": 1233,
    "ģĿ": 1234,
    "ģĳ": 1235,
    "ņŞĤ": 1236,
    "ŗŘš": 1237,
    "ħĨ": 1238,
    "řħŮĸĸŗĐ": 1239,
    "űş": 1240,
    "ġĢķ": 1241,
    "Ĥŗ": 1242,
    "Ĭġ": 1243,
    "ĀŮ": 1244,
    "ŐĮļŬ": 1245,
    "ĵŀŃĒ": 1246,
    "ĥħĢķ": 1247,
    "ıņřŝŘ": 1248,
    "ĒŰ": 1249,
    "ŃŅ": 1250,
    "ĩŰņŘŗĖ": 1251,
    "Ľĥ": 1252,
    "ĒŶ": 1253,
    "Ĭĩ": 1254,
    "ĹņĐ": 1255,
    "ĪĿŀ": 1256,
    "ĮĻľ": 1257,
    "Ŕŗ": 1258,
    "şŝ": 1259,
    "Ġŗł": 1260,
    "ĤĪŬĤŚŕĒ": 1261,
    "ġĹĢ": 1262,
    "ĵĒńŚœš": 1263,
    "Šř": 1264,
    "ŻŘ": 1265,
    "Ġķ": 1266,
    "śĐ": 1267,
    "Ņŕ": 1268,
    "šī": 1269,
    "ĭĶ": 1270,
    "ĨĹŜŗ": 1271,
    "ņřŜő": 1272,
    "łņ": 1273,
    "ĵĹ": 1274,
    "Ēŧ": 1275,
    "İĻ": 1276,
    "śńŋĖ": 1277,
    "şŀĖ": 1278,
    "ķīľŰ": 1279,
    "ĥīŬ": 1280,
    "ŞŒš": 1281,
    "ĢĥŬ": 1282,
    "šĽŬ": 1283,
    "œĳĽŬ": 1284,
    "įľŰ": 1285,
    "ĨĠīŰņŘŗĖ": 1286,
    "ıņřŝŘš": 1287,
    "ŗŔĒŔĸŮ": 1288,
    "ŢĩīŬ": 1289,
    "ĒşŜĖ": 1290,
    "ĤŚŕŀĖ": 1291,
    "ĵġŬĤŚŕĒ": 1292,
    "ĨĩĤ": 1293,
    "ĒőŜŒ": 1294,
    "Ŗő": 1295,
    "šă": 1296,
    "ŻŞ": 1297,
    "ņŘœł": 1298,
    "œńŗĖ": 1299,
    "ıŜń": 1300,
    "ĹĭģĒ": 1301,
    "ŇœŅš": 1302,
    "ŗŔĒłĮŮ": 1303,
    "ĠĤ": 1304,
    "ŃŃ": 1305,
    "įĢĤ": 1306,
    "Ĵŗł": 1307,
    "Ńĳ": 1308,
    "Őŉ": 1309,
    "ĨŮ": 1310,
    "Ŝœš": 1311,
    "ĲĽŬ": 1312,
    "ŞŔĒ": 1313,
    "ņřšĺĤĵĒ": 1314,
    "ġľĤ": 1315,
    "œřŜ": 1316,
    "įĿĤ": 1317,
    "ĳŚĐ": 1318,
    "ļĵ": 1319,
    "Ĵĭ": 1320,
    "Łő": 1321,
    "ĴĽŬ": 1322,
    "řĳŮ": 1323,
    "ĩħįĸ": 1324,
    "ĒŤŚœš": 1325,
    "ĩĴĒŒŋĖ": 1326,
    "ıŋĐ": 1327,
    "ĿŰœŞŖĖ": 1328,
    "ģīľŰ": 1329,
    "ŕĤŮ": 1330,
    "ŖŕŖĖ": 1331,
    "łŜœ": 1332,
    "ıņŕŖĖ": 1333,
    "ĂĦ": 1334,
    "ĵġľ": 1335,
    "ŚőŖĖ": 1336,
    "Ģĵ": 1337,
    "ĭĤŗĐ": 1338,
    "ĿĹŝŞ": 1339,
    "Ĳħģľ": 1340,
    "ĩĴĒřŜĖ": 1341,
    "ĤĪŬĲŋĐ": 1342,
    "šČ": 1343,
    "ĸĩ": 1344,
    "őŅ": 1345,
    "œŖ": 1346,
    "ĒńŚœšĽ": 1347,
    "ņşĒłĩīŬ": 1348,
    "įįĻ": 1349,
    "ĲŮĭŰ": 1350,
    "ĥľŕĐņŞĤŮ": 1351,
    "őŝ": 1352,
    "ŀœš": 1353,
    "ŇŃĒ": 1354,
    "ŖœĥŮ": 1355,
    "ŁĖĠĠĨŰ": 1356,
    "śœŚĖ": 1357,
    "ĨľĿşĐ": 1358,
    "Ĺļ": 1359,
    "Ĩī": 1360,
    "ĹĽ": 1361,
    "Ŭģ": 1362,
    "Ēš": 1363,
    "Ňř": 1364,
    "ĭĩĒ": 1365,
    "œœř": 1366,
    "ŜŃ": 1367,
    "ħľŰ": 1368,
    "ĩįĨŰ": 1369,
    "Őń": 1370,
    "Őł": 1371,
    "őŀł": 1372,
    "ņşįĩŬ": 1373,
    "ĮĪ": 1374,
    "Őő": 1375,
    "ĎĠŬ": 1376,
    "œŝŘ": 1377,
    "Ŕŕ": 1378,
    "īļ": 1379,
    "ņŇ": 1380,
    "ŖŅš": 1381,
    "šł": 1382,
    "Ļĵ": 1383,
    "ŞŒ": 1384,
    "ĤŮĸĸŗĐ": 1385,
    "įįĸ": 1386,
    "ŗŕŜĖ": 1387,
    "ŤŚœš": 1388,
    "ıņŕĒ": 1389,
    "šĚĤĵĒ": 1390,
    "ŁĨĺĤŰ": 1391,
    "űŘ": 1392,
    "Ŗń": 1393,
    "ďĿ": 1394,
    "ĵĻ": 1395,
    "ġĵĒ": 1396,
    "ĭĽŬ": 1397,
    "ŜŒš": 1398,
    "ģĒşŔĖ": 1399,
    "ŗŔĒşįŮ": 1400,
    "ĥĦŗĐ": 1401,
    "ſŗ": 1402,
    "łŅ": 1403,
    "ŖŕĒ": 1404,
    "ŖŃĒ": 1405,
    "ĥĵŁĐ": 1406,
    "ĹĩĢŗĐ": 1407,
    "ĤīĢŰ": 1408,
    "šĚ": 1409,
    "ĤĪ": 1410,
    "ľĥ": 1411,
    "œĳħ": 1412,
    "ĠŞő": 1413,
    "ĨĸĵŀĐ": 1414,
    "įĭĩŰ": 1415,
    "šń": 1416,
    "şŃ": 1417,
    "šć": 1418,
    "ņŁ": 1419,
    "ĥĤŋĐ": 1420,
    "œńśř": 1421,
    "ĮĸĩĢ": 1422,
    "ĒřŁĖ": 1423,
    "ĨĵŖĐ": 1424,
    "ĮĻīĸ": 1425,
    "ŕĒłĩīŬ": 1426,
    "ĨĿ": 1427,
    "ĤŮĥľ": 1428,
    "řĳĺ": 1429,
    "ďĸ": 1430,
    "ſş": 1431,
    "śŘĦŮĸĸŗĐ": 1432,
    "ŀřŜő": 1433,
    "ģĥŕŘ": 1434,
    "ģġ": 1435,
    "ĕĦ": 1436,
    "ŀŏš": 1437,
    "ĸĹŜŗ": 1438,
    "Ġĭħ": 1439,
    "ŕŀŅš": 1440,
    "śłĸŮ": 1441,
    "ĻĿĤ": 1442,
    "ŗœįŮ": 1443,
    "ĨįĢŰ": 1444,
    "ĸĥŀ": 1445,
    "Şŏ": 1446,
    "Ňş": 1447,
    "ŁĤļĩŰ": 1448,
    "ĻĸśœŚĖ": 1449,
    "őŃ": 1450,
    "ıĺ": 1451,
    "ıŞř": 1452,
    "ņŞĤļŬ": 1453,
    "ŐŕŀĖ": 1454,
    "ĒŢĩīŬ": 1455,
    "ńŗ": 1456,
    "Ŀı": 1457,
    "ĮĺŬ": 1458,
    "šħĢ": 1459,
    "œŝś": 1460,
    "ĒńĤ": 1461,
    "ĩıŀ": 1462,
    "ĸĵŀĐ": 1463,
    "ĳŝ": 1464,
    "ńœš": 1465,
    "ŝŞŗĖ": 1466,
    "ŅŘśŕ": 1467,
    "ĥīľ": 1468,
    "ĠļĵŰ": 1469,
    "ĒœŝŘ": 1470,
    "ĨĸĩŰ": 1471,
    "ĤĹŬ": 1472,
    "ĵĒńŝĖ": 1473,
    "Ŗœš": 1474,
    "ĭĢĵŰ": 1475,
    "ĥĳŚĐ": 1476,
    "ĬĬĩĢ": 1477,
    "ĳĽ": 1478,
    "ĺĵĒ": 1479,
    "ŗįŮ": 1480,
    "řŜł": 1481,
    "ņřŝŘš": 1482,
    "œšĺĤĵĒ": 1483,
    "ħŚřőŞ": 1484,
    "łŜ": 1485,
    "ĤŮĭľŖĐ": 1486,
    "œŜŞĖ": 1487,
    "ļŖĐ": 1488,
    "œłŋĖ": 1489,
    "œŚĭŮ": 1490,
    "ĹĥĤŚĐ": 1491,
    "ĥĿŜŃĒ": 1492,
    "Ĵħ": 1493,
    "ĤĺŬ": 1494,
    "ŗĐņŞĤŮ": 1495,
    "ńŕŀĖ": 1496,
    "ĦĦĸŰ": 1497,
    "Ĳġ": 1498,
    "ĩķ": 1499,
    "ĴĬ": 1500,
    "ĵŮĸĸŗĐ": 1501,
    "Ķśł": 1502,
    "ŁĐœŘĥŮ": 1503,
    "œŝŗĖ": 1504,
    "ŚŗĥŮ": 1505,
    "ĠĢĠŰ": 1506,
    "ĸļ": 1507,
    "şŅ": 1508,
    "īĥ": 1509,
    "ĤıŖĐ": 1510,
    "Ħļ": 1511,
    "ņŚ": 1512,
    "ĤŚŕĒł": 1513,
    "ĠĵŖĐ": 1514,
    "ġĹķ": 1515,
    "įĠĹ": 1516,
    "ĮĻĸŰ": 1517,
    "ĤĪŬĹŜĐ": 1518,
    "šįĿŰ": 1519,
    "ĨļŬ": 1520,
    "ŗŒšĬĵŰ": 1521,
    "Ġŀŕ": 1522,
    "ĠĺĩŰ": 1523,
    "ģľŕĐ": 1524,
    "ĮĠīŰ": 1525,
    "őőł": 1526,
    "ĶĦĥĳŚĐ": 1527,
    "œŐ": 1528,
    "ġĽ": 1529,
    "ĥĪ": 1530,
    "ĩĶ": 1531,
    "śńŁĖ": 1532,
    "śőŜĖ": 1533,
    "ğĤ": 1534,
    "ŕœš": 1535,
    "ĿŰŝŖ": 1536,
    "ĵŜŔ": 1537,
    "ŗŅĵŮ": 1538,
    "śņŗĖ": 1539,
    "ĨĭĤŰ": 1540,
    "ĠĴ": 1541,
    "űŞ": 1542,
    "ŇŅš": 1543,
    "ĸĩĒ": 1544,
    "įįĤ": 1545,
    "ĸœŔĒ": 1546,
    "Şń": 1547,
    "ĵŀř": 1548,
    "ŕŀş": 1549,
    "įĿģ": 1550,
    "śőĩ": 1551,
    "ńŕ": 1552,
    "ŐĮļ": 1553,
    "ĩĴĒńŚœš": 1554,
    "ĭĪ": 1555,
    "őŞŅ": 1556,
    "ŗŔĒłĩīŬ": 1557,
    "ĥŬ": 1558,
    "ŗŖ": 1559,
    "ŗĖĵĦĩŰ": 1560,
    "ĠģĤ": 1561,
    "şŕŜł": 1562,
    "ĥġ": 1563,
    "őŜł": 1564,
    "Ēŗš": 1565,
    "ĿŇń": 1566,
    "ŗŉĒ": 1567,
    "Ņő": 1568,
    "ſř": 1569,
    "ĲŇń": 1570,
    "ģņł": 1571,
    "ļĿŀń": 1572,
    "łŃ": 1573,
    "ŖşįĩŬ": 1574,
    "ĢĻ": 1575,
    "ģľŗĐ": 1576,
    "ĺĵŀĐ": 1577,
    "ĩŰœŞŖĖ": 1578,
    "ĹŜŗĒłĩīŬ": 1579,
    "Ŕşŀś": 1580,
    "šġ": 1581,
    "řįŮ": 1582,
    "īĭĢ": 1583,
    "ŝŅņĖ": 1584,
    "ŕĮĠ": 1585,
    "ĨĵŀĐ": 1586,
    "ĤŝĐņŞĤŮ": 1587,
    "ĤĽĸŰ": 1588,
    "œįĺŬ": 1589,
    "łŘ": 1590,
    "īı": 1591,
    "ņŕĒ": 1592,
    "śŘĦ": 1593,
    "ŗőŀ": 1594,
    "ħħľ": 1595,
    "ĭļŞĐ": 1596,
    "Łś": 1597,
    "şĲŮ": 1598,
    "łœĳ": 1599,
    "ŝŞŕĖ": 1600,
    "ıĒŃ": 1601,
    "Őŏ": 1602,
    "ĤįĿ": 1603,
    "ļĥĤ": 1604,
    "ĳŝŝ": 1605,
    "őőŝ": 1606,
    "ŖŀřĬŮ": 1607,
    "ĨĩĤĤ": 1608,
    "šĆ": 1609,
    "ŀœĥŮ": 1610,
    "şįĺ": 1611,
    "ģŝĐ": 1612,
    "ĠĠĨŰņŘŗĖ": 1613,
    "ĠĸĩŰ": 1614,
    "ĒŁĨĺĤŰ": 1615,
    "ıļ": 1616,
    "įĢĹ": 1617,
    "įĸĤ": 1618,
    "įĿŀ": 1619,
    "ņŉĒ": 1620,
    "įĸĵĒ": 1621,
    "ĭīĨŰ": 1622,
    "śŗįŮ": 1623,
    "ĒřŜĖĵĦĩŰ": 1624,
    "ĤĸĩĢ": 1625,
    "Ħħ": 1626,
    "ĨģĒ": 1627,
    "ĩŰśŞ": 1628,
    "ŃŝĖ": 1629,
    "ĢĹ": 1630,
    "ĹĠ": 1631,
    "ųŅ": 1632,
    "ģīŬ": 1633,
    "īľĹ": 1634,
    "ģĥņĐ": 1635,
    "œłĨġĢ": 1636,
    "ŔŚ": 1637,
    "ĩĴĒő": 1638,
    "ġĢŰņŘŗĖ": 1639,
    "įġĸŰ": 1640,
    "ĤĹőŘ": 1641,
    "ĒŞĨĽŬ": 1642,
    "ĹĴ": 1643,
    "œłĤŮ": 1644,
    "ĥıŜĐ": 1645,
    "ŝņŗń": 1646,
    "ĥĿ": 1647,
    "šĜ": 1648,
    "šĂ": 1649,
    "œĲŮ": 1650,
    "ģĭľ": 1651,
    "ŞŕŖĖ": 1652,
    "ĭĢŋĐ": 1653,
    "ŇśłĩŮ": 1654,
    "ĥı": 1655,
    "īĹ": 1656,
    "ųŃ": 1657,
    "ŁŅš": 1658,
    "œłŗĖ": 1659,
    "ľŝń": 1660,
    "įġĵĒ": 1661,
    "ŕşŔ": 1662,
    "Ħġ": 1663,
    "ĶĠŬ": 1664,
    "ĲġŬ": 1665,
    "Įģļ": 1666,
    "Ģī": 1667,
    "ļĠ": 1668,
    "ĸĿŀ": 1669,
    "ıġľĤ": 1670,
    "ŅŘśŕĩŮ": 1671,
    "ļı": 1672,
    "Šş": 1673,
    "ĩĵ": 1674,
    "ġĥ": 1675,
    "Ġœł": 1676,
    "ĠļĩŰ": 1677,
    "œłĤĪŬ": 1678,
    "įīĨŰ": 1679,
    "ŗĳĺ": 1680,
    "ĿŜŕĒ": 1681,
    "ĒŐĮļŬ": 1682,
    "šĨģĢ": 1683,
    "Īĵ": 1684,
    "Şŝł": 1685,
    "ĭĤņ": 1686,
    "śŞŕĖĵĦĩŰ": 1687,
    "ĭĽŗĐ": 1688,
    "šœ": 1689,
    "ŐŜ": 1690,
    "őşĖ": 1691,
    "ŕŜŒ": 1692,
    "ĮĵŀĐ": 1693,
    "ĳį": 1694,
    "ĒŗĲŮ": 1695,
    "ıŀŕĒ": 1696,
    "ĤŮĸĿ": 1697,
    "įġŰ": 1698,
    "ĵŞĐ": 1699,
    "Ĵĩ": 1700,
    "ĭĢŗĐ": 1701,
    "ĳīĨŰ": 1702,
    "ŁĖĮĨŬ": 1703,
    "œŉĒ": 1704,
    "ĵħģľŁĐ": 1705,
    "ĴĪ": 1706,
    "ĲŗĐ": 1707,
    "ŁŃĒ": 1708,
    "ńŕŖĖ": 1709,
    "ńœĳŮ": 1710,
    "įįĠŰ": 1711,
    "ĒşįŮĸĸŗĐ": 1712,
    "ģľĒńŚœš": 1713,
    "ĤķŬ": 1714,
    "ļĩĳ": 1715,
    "ŜŗĭŮ": 1716,
    "ıőń": 1717,
    "ĭĤśş": 1718,
    "ŇŞŖĖ": 1719,
    "śŀĤŮ": 1720,
    "ĦĦŬ": 1721,
    "ŚşĢĦŬ": 1722,
    "ŗřŀĖ": 1723,
    "ŐŜŗĖ": 1724,
    "şŕŜłš": 1725,
    "Ĩĵŀ": 1726,
    "ĒőņĖ": 1727,
    "ŕĒłĮŮ": 1728,
    "ġĲŗł": 1729,
    "ŐĳġġŰ": 1730,
    "ŀń": 1731,
    "šĈ": 1732,
    "ĳĺ": 1733,
    "Łŝ": 1734,
    "ĿĵĒ": 1735,
    "ŗŏš": 1736,
    "ĩĩĒ": 1737,
    "ľľĿ": 1738,
    "ĩģņĐ": 1739,
    "ĮĹĢŰ": 1740,
    "ĲĦŬ": 1741,
    "šř": 1742,
    "šŕ": 1743,
    "ĩŰņş": 1744,
    "ńœĥŮ": 1745,
    "ĨĺĿŰ": 1746,
    "ŗŒšĺĤĵĒ": 1747,
    "řŜĖĵĦĩŰ": 1748,
    "œšĺģŰ": 1749,
    "ŔřŀŅ": 1750,
    "ģŬ": 1751,
    "ŀś": 1752,
    "ĨĬ": 1753,
    "ŕœń": 1754,
    "šĺģŰņŘŗĖ": 1755,
    "őőŞĖ": 1756,
    "ŀşįĩŬ": 1757,
    "œŚĭķŬ": 1758,
    "ŞŃ": 1759,
    "şœš": 1760,
    "ĥľŗĐ": 1761,
    "ĨįŬ": 1762,
    "ŕŞŚ": 1763,
    "ĭīĿŰ": 1764,
    "ŀŞŗ": 1765,
    "şįŮĸĸŗĐ": 1766,
    "ĪĿŀŝ": 1767,
    "ńĤ": 1768,
    "ſő": 1769,
    "ĨĪŬ": 1770,
    "ġıŜ": 1771,
    "ŀŀř": 1772,
    "ŕŘņĖ": 1773,
    "ĀĢ": 1774,
    "Įĭ": 1775,
    "ħŝł": 1776,
    "ģĢŗĐ": 1777,
    "ĲġĢŰ": 1778,
    "ĥīľŰ": 1779,
    "ŗŃņĖ": 1780,
    "ĵŞŜ": 1781,
    "ģĻĸŰ": 1782,
    "ŅŞĨĭĤŰ": 1783,
    "ĸĸŗřŀĖ": 1784,
    "ĥŰ": 1785,
    "ĥĶ": 1786,
    "ĸģ": 1787,
    "ĸħ": 1788,
    "ıĦ": 1789,
    "ĩīľ": 1790,
    "ĨĩĢ": 1791,
    "ĮļĩŰ": 1792,
    "įľĵĒ": 1793,
    "īĿĤ": 1794,
    "īĢĴ": 1795,
    "ŝŘĦŮ": 1796,
    "śœĲŮ": 1797,
    "ŗĭŮ": 1798,
    "ĥĳœŜ": 1799,
    "ĨįĠŰ": 1800,
    "őŞŚĸŮ": 1801,
    "ĒŇśłĩŮ": 1802,
    "ĮĬ": 1803,
    "Űř": 1804,
    "Ĺĳ": 1805,
    "ĨĵĒ": 1806,
    "ĳįĢ": 1807,
    "ħĢĤ": 1808,
    "ĳħĢķ": 1809,
    "ĢġġĠ": 1810,
    "ıŞŃŝĖ": 1811,
    "ģķ": 1812,
    "ĢĺŬ": 1813,
    "ħœŃ": 1814,
    "ĠģĩŰ": 1815,
    "őşŜł": 1816,
    "śĖ": 1817,
    "ĠĻ": 1818,
    "Āģ": 1819,
    "Ģġľ": 1820,
    "Ķġľ": 1821,
    "ĮĠĩŰ": 1822,
    "ŖŕŀĖ": 1823,
    "Ģŗœ": 1824,
    "Ēŀŀř": 1825,
    "śőŞĖ": 1826,
    "ģņ": 1827,
    "ĴīŬ": 1828,
    "ĭĢŖĐ": 1829,
    "ĒŅĵ": 1830,
    "Śőń": 1831,
    "ıņń": 1832,
    "ņŘŗńš": 1833,
    "ŁŘśņ": 1834,
    "ĩĹŀĐ": 1835,
    "řş": 1836,
    "ĨĴ": 1837,
    "čŰ": 1838,
    "ķŗĐ": 1839,
    "Ŗŕŀ": 1840,
    "ĮļŗĐ": 1841,
    "łśł": 1842,
    "ŞœĥŮ": 1843,
    "ĒŕĮĠ": 1844,
    "ĲĦĥ": 1845,
    "įĿŜŃ": 1846,
    "ĮĵĒ": 1847,
    "ĒřįŮ": 1848,
    "Ņşŀ": 1849,
    "ĠħĢŰ": 1850,
    "ĒŘśŅš": 1851,
    "ıŞŜŋĖ": 1852,
    "ĥķŚń": 1853,
    "ĦĻ": 1854,
    "œŁ": 1855,
    "ņĭ": 1856,
    "ĺĵ": 1857,
    "ĨĠī": 1858,
    "ĵŖĐņŞĤŮ": 1859,
    "œńŗŒš": 1860,
    "ĒłĮŮĸĸŗĐ": 1861,
    "ĩįĸŰ": 1862,
    "šħĿŰ": 1863,
    "ŞŔ": 1864,
    "Űń": 1865,
    "ųĖ": 1866,
    "ĿŰśŞ": 1867,
    "ŝŘĤŮ": 1868,
    "ĢīĨŰ": 1869,
    "ŇŗŚĖ": 1870,
    "ĳŝŝł": 1871,
    "ġĹļŖĐ": 1872,
    "ćĢ": 1873,
    "Şś": 1874,
    "ųĐ": 1875,
    "ĤŚş": 1876,
    "œńĤŮ": 1877,
    "śŞŕ": 1878,
    "ĒşĲŮ": 1879,
    "őşœš": 1880,
    "ŗŗĳ": 1881,
    "ĴĠĨŰ": 1882,
    "ĠĢĿĿ": 1883,
    "ģĴ": 1884,
    "œńĸŮ": 1885,
    "ĭļŁş": 1886,
    "ĩįĺ": 1887,
    "ŝŐœĳŮ": 1888,
    "ņĳġ": 1889,
    "ĠģŬ": 1890,
    "ĠĽĸŰ": 1891,
    "ıŔń": 1892,
    "ĩĦŗł": 1893,
    "ıįľĤ": 1894,
    "ŔřŀŅĵŮ": 1895,
    "ĵĦĩĹŀĐ": 1896,
    "ĩĻ": 1897,
    "ĤŚŕĒŐ": 1898,
    "ĤŚŕĒŕ": 1899,
    "ĭģņĐ": 1900,
    "ĲħĢķ": 1901,
    "ĢĺĥĿŜĐ": 1902,
    "ıŜŔĒłĩīŬ": 1903,
    "śŞŗĖ": 1904,
    "ķīĨŰ": 1905,
    "őŀŒ": 1906,
    "ĴśŃ": 1907,
    "įĪĩĢ": 1908,
    "ģņő": 1909,
    "ŐŅņĖ": 1910,
    "ĤŚŕśń": 1911,
    "Īı": 1912,
    "ĎĢ": 1913,
    "ıĽŬ": 1914,
    "őŜş": 1915,
    "ĭĹŜĐ": 1916,
    "ŇŜŖĖ": 1917,
    "šş": 1918,
    "žş": 1919,
    "āı": 1920,
    "Őœš": 1921,
    "šĺĤĵĒń": 1922,
    "ġĢĵĒ": 1923,
    "ĥĤŁĐ": 1924,
    "śĤĠĸŰ": 1925,
    "ĥĵ": 1926,
    "ņŏ": 1927,
    "žř": 1928,
    "ĬħĢ": 1929,
    "ĭĤŗł": 1930,
    "ĒřņĖ": 1931,
    "ĭĤŗŔĒ": 1932,
    "ıŀł": 1933,
    "įĿşŀ": 1934,
    "ŁşĮĠŬ": 1935,
    "ŕŞĵŮ": 1936,
    "ĨĽĤŰ": 1937,
    "ĭĽģŰ": 1938,
    "ĨļĿĤ": 1939,
    "ĢġĢĤ": 1940,
    "ŀŃņĖ": 1941,
    "šļ": 1942,
    "Ÿŗ": 1943,
    "Ŧř": 1944,
    "ęŜĐ": 1945,
    "Ŝŗŗ": 1946,
    "ŝłŗĖ": 1947,
    "ĬįĢ": 1948,
    "Ŗśń": 1949,
    "Łłĳ": 1950,
    "ĲŮĸĿ": 1951,
    "ŗĳīŬ": 1952,
    "ŁřįŮ": 1953,
    "ŖœĳŮ": 1954,
    "Ēœŝś": 1955,
    "ĴļŬ": 1956,
    "œřŜĖ": 1957,
    "œœřĖ": 1958,
    "ĴŮ": 1959,
    "Īļ": 1960,
    "źř": 1961,
    "ŔŃ": 1962,
    "įľĢ": 1963,
    "ĳŝŅ": 1964,
    "őŀŏš": 1965,
    "ĹŜŕĒ": 1966,
    "ĿŜĐņŞĤŮ": 1967,
    "ĮĹŬ": 1968,
    "šľľĿ": 1969,
    "ħĺĩĢ": 1970,
    "ēŚ": 1971,
    "źş": 1972,
    "œŇ": 1973,
    "őŜő": 1974,
    "ĶġŬ": 1975,
    "ŝŃĵŮ": 1976,
    "ģĒőŜŒš": 1977,
    "įĠļŋĐ": 1978,
    "ħġľŰņŘŗĖ": 1979,
    "ĮĺĤĵŀĐ": 1980,
    "šĊ": 1981,
    "ŀł": 1982,
    "ĨĨ": 1983,
    "Ĥħ": 1984,
    "Ģı": 1985,
    "ŐŕĒ": 1986,
    "ĉīŬ": 1987,
    "ņŘŗń": 1988,
    "ŗŒšħĢŰ": 1989,
    "śŃŚĖ": 1990,
    "īĸņĐ": 1991,
    "ŝŇŜĖ": 1992,
    "ĒřŜł": 1993,
    "ĢĿņĐ": 1994,
    "įĠģŝĐ": 1995,
    "œŏ": 1996,
    "ńő": 1997,
    "šĞ": 1998,
    "Ģļĩ": 1999,
    "ģĥļ": 2000,
    "ŁşŜĖ": 2001,
    "œįĺ": 2002,
    "ĒŒŋĖ": 2003,
    "œśĤŮ": 2004,
    "ĩĵŜĐ": 2005,
    "šħĢŰņŘŗĖ": 2006,
    "őşŜŅ": 2007,
    "ņŞĤħľŰ": 2008,
    "ŀŘ": 2009,
    "ĸŗł": 2010,
    "œŞŃ": 2011,
    "ĭľĵ": 2012,
    "śłĲŮ": 2013,
    "ŖřŜő": 2014,
    "śŗĭŮ": 2015,
    "ņŘŗş": 2016,
    "šĺĤĵśł": 2017,
    "ĪīŬ": 2018,
    "ıŜř": 2019,
    "įıŞĐ": 2020,
    "œŗŗĖ": 2021,
    "ĠļĨŰ": 2022,
    "őŜŕ": 2023,
    "Ĭġľ": 2024,
    "ĠĺĩĴĒ": 2025,
    "įħĢķ": 2026,
    "ĤĢŬ": 2027,
    "łłŗŅ": 2028,
    "ĳĽĸŰ": 2029,
    "ħħľģņĐ": 2030,
    "Ęĸ": 2031,
    "Űş": 2032,
    "řœ": 2033,
    "ŝŞĒłĩīŬ": 2034,
    "ĻĿŀ": 2035,
    "ĵīĿŰ": 2036,
    "Ĩĭĭļ": 2037,
    "ĥģŚĐ": 2038,
    "ĤŮĻıŁĐ": 2039,
    "įĿŜń": 2040,
    "ĵĹģŰ": 2041,
    "ĪĹŀŃņĖ": 2042,
    "ĥĠ": 2043,
    "ŕŕ": 2044,
    "Űŗ": 2045,
    "ŀŒ": 2046,
    "żŗ": 2047,
    "ŕŀœ": 2048,
    "Ŗœĳ": 2049,
    "œŚŗ": 2050,
    "ĮĠŬĤŚŕĒ": 2051,
    "Ēņĳġ": 2052,
    "őŗĭŮ": 2053,
    "ĢįĠŰ": 2054,
    "ŃĒŗįĪŬ": 2055,
    "ĴĢĨŰ": 2056,
    "ħĸģĒ": 2057,
    "ĮĥņĐ": 2058,
    "ųŚ": 2059,
    "Ŗł": 2060,
    "Ŕŗń": 2061,
    "ĥľŕ": 2062,
    "őřįĺ": 2063,
    "Ēłŗŕ": 2064,
    "ŗŔĒł": 2065,
    "ĵĢĵŰ": 2066,
    "őŞŅĮŮ": 2067,
    "ĲĦĥĠ": 2068,
    "śŊ": 2069,
    "ĸĵĒ": 2070,
    "ĳĽŬ": 2071,
    "œłŖĖ": 2072,
    "ĤĪŬı": 2073,
    "ĴŗŃ": 2074,
    "ĵħģľœŜ": 2075,
    "ŜşņĖ": 2076,
    "ĭķŗĐ": 2077,
    "ŝŃĭĪŬ": 2078,
    "ĒőŜĖ": 2079,
    "ıŀŔ": 2080,
    "őŀŗ": 2081,
    "ĿŔĐņŞ": 2082,
    "ĤıŁĐ": 2083,
    "śŅĩŮ": 2084,
    "ŜřĵŮ": 2085,
    "ĹņŃĒ": 2086,
    "įĢĴĒńŚœš": 2087,
    "ŇŗńĤŮ": 2088,
    "ĮĻĠĴĒ": 2089,
    "řŕ": 2090,
    "ģĲ": 2091,
    "Ăġ": 2092,
    "œŞĒŗ": 2093,
    "œŞŖĖĵĦĩŰ": 2094,
    "ŕŖĖĵġŬ": 2095,
    "ĒŘŗĖ": 2096,
    "ĒńŝĖĵĦĩŰ": 2097,
    "ģĦŗł": 2098,
    "şŒŗńš": 2099,
    "ĤįľŰ": 2100,
    "ġĹľŖĐ": 2101,
    "ĲŮĻĵŀŕĒ": 2102,
    "ŃĒŗ": 2103,
    "ŜŗŒš": 2104,
    "ħĢĳ": 2105,
    "įķŬ": 2106,
    "ĭįľ": 2107,
    "œŜŁř": 2108,
    "œŘĥŮĸĸŗĐ": 2109,
    "ĵőń": 2110,
    "œŃņĖ": 2111,
    "ġĹķŚĐ": 2112,
    "čĥ": 2113,
    "ŋœ": 2114,
    "ŇĐ": 2115,
    "īĴ": 2116,
    "ŖŒ": 2117,
    "śŔĒ": 2118,
    "ĠĠĵŰ": 2119,
    "ŜœĥŮ": 2120,
    "šĹĩĢŗĐ": 2121,
    "ĽŗŞņĖ": 2122,
    "ħġľĽ": 2123,
    "ņşĮĠĿŰ": 2124,
    "ĴĩĤŰ": 2125,
    "ıĻ": 2126,
    "ħĢĵĒ": 2127,
    "ħĠļ": 2128,
    "ŝŘšĺĤĵĒ": 2129,
    "œœŚ": 2130,
    "Ķįľ": 2131,
    "Ĩĭĭľ": 2132,
    "œŃĒŗ": 2133,
    "ŇŘĥŮ": 2134,
    "ŝŁįŮ": 2135,
    "ĿŔŖ": 2136,
    "ąŰ": 2137,
    "ſœ": 2138,
    "ĢœŞ": 2139,
    "ľĩĢ": 2140,
    "įŬģ": 2141,
    "ľĵŁ": 2142,
    "ĲĺĩĢ": 2143,
    "ŕŞĖ": 2144,
    "įĵŁĐ": 2145,
    "ĤŅş": 2146,
    "œņŗĖ": 2147,
    "ŗŜŋĖ": 2148,
    "ŁřŕŘ": 2149,
    "ŇŚĥŮ": 2150,
    "ĒŐĳġġŰ": 2151,
    "ĒŁĩħįĸ": 2152,
    "ņŇŝĖ": 2153,
    "Şŝ": 2154,
    "ųń": 2155,
    "ĴŁĐ": 2156,
    "ĠĺĩĢ": 2157,
    "Ģŗő": 2158,
    "ĩįĿŰ": 2159,
    "ĮĵŗŞ": 2160,
    "ĪĿŀĐņŞĤŮ": 2161,
    "šĭģľ": 2162,
    "ĠĭħŰ": 2163,
    "ĩĽŐŕŀĖ": 2164,
    "œŚĲġŬ": 2165,
    "šę": 2166,
    "ĤĨ": 2167,
    "ēī": 2168,
    "ĩĿ": 2169,
    "įĸĹ": 2170,
    "ŗĳķŬ": 2171,
    "ıŜŔĒŅ": 2172,
    "Łńŀŗ": 2173,
    "őłĨġĢŰ": 2174,
    "ĹĢŗĐ": 2175,
    "Ŀĸśŀ": 2176,
    "ĭĦŗĐ": 2177,
    "łşŀł": 2178,
    "ĭĸ": 2179,
    "Ĥŀ": 2180,
    "ļĸ": 2181,
    "ĸĤ": 2182,
    "Żń": 2183,
    "ŔŜ": 2184,
    "šĀ": 2185,
    "īľģĒ": 2186,
    "ĬīĨŰ": 2187,
    "ĺĵŖĐ": 2188,
    "ĵŜŃ": 2189,
    "įľĩĒ": 2190,
    "ĹŜŔ": 2191,
    "ŞŕŁĖ": 2192,
    "įĥĢ": 2193,
    "ĮĽĸŰ": 2194,
    "ĒłĩīĥĢ": 2195,
    "įĿşŝ": 2196,
    "ŕŖĖĵĦĩŰ": 2197,
    "ŀŀœ": 2198,
    "ŁřŝŘ": 2199,
    "şőŜĖ": 2200,
    "ŔşŀĖĵĦĩŰ": 2201,
    "ĵįĥľ": 2202,
    "ĦĭĴĒ": 2203,
    "ļıŀń": 2204,
    "ĤŚřŁĖ": 2205,
    "šĹĤĹőŘ": 2206,
    "Ŷř": 2207,
    "ŕŊ": 2208,
    "ŗŉ": 2209,
    "ŧŞ": 2210,
    "ŘŗĖ": 2211,
    "ĿŜŗ": 2212,
    "ĠĭĤ": 2213,
    "ĨīĨŰ": 2214,
    "şįĩ": 2215,
    "ŝŃņĖ": 2216,
    "ŇłŗĖ": 2217,
    "ĩģŗĐ": 2218,
    "şŕŁĖ": 2219,
    "œŀĤŮ": 2220,
    "ĭĠĥ": 2221,
    "ĴĽĸĢ": 2222,
    "įĤśşŜĖ": 2223,
    "ĲŗŕŜĖ": 2224,
    "śőĩĺŬ": 2225,
    "łŞ": 2226,
    "šĉ": 2227,
    "ĈĺŬ": 2228,
    "ĢĵŰ": 2229,
    "ĶŝŅ": 2230,
    "ĒłŗŅ": 2231,
    "ĢīĿŰ": 2232,
    "łńĮ": 2233,
    "ŔłĤļŬ": 2234,
    "įļŇŔ": 2235,
    "ŗőŀĖ": 2236,
    "őşşņ": 2237,
    "ĮĻľŰ": 2238,
    "ħġ": 2239,
    "ĳģ": 2240,
    "řŕĒ": 2241,
    "ņĤļ": 2242,
    "ĒńŚœšĺ": 2243,
    "őŀń": 2244,
    "ŗĳĪŬ": 2245,
    "ŅšįĢĴĒ": 2246,
    "Ĳĺľ": 2247,
    "ŗŃŗĖ": 2248,
    "ŁřŝŘš": 2249,
    "ĮģĩŰ": 2250,
    "őŕŁĖ": 2251,
    "ĬįĢŰ": 2252,
    "ĥıŞĐ": 2253,
    "šĬĵŰ": 2254,
    "Ŷœ": 2255,
    "ŁŚ": 2256,
    "ďŬ": 2257,
    "ĨĠĩŰ": 2258,
    "şşŀ": 2259,
    "Ņřĳ": 2260,
    "įġĠ": 2261,
    "ĿŅŞ": 2262,
    "ĵļģ": 2263,
    "ĢįĢŰ": 2264,
    "ŔřĳŮĸĸŗĐ": 2265,
    "ŁŞĨľ": 2266,
    "ĀĨĸĵŀĐ": 2267,
    "šĄ": 2268,
    "īĵ": 2269,
    "ĳĪ": 2270,
    "Ĳĭ": 2271,
    "ĝŬ": 2272,
    "ĬĽŬ": 2273,
    "ħīľ": 2274,
    "œŞņĖ": 2275,
    "ĮļĸŰ": 2276,
    "ŗŔĒř": 2277,
    "ĩġŬ": 2278,
    "ĳīĿ": 2279,
    "ĒŔĸŮ": 2280,
    "ĲĺģĢ": 2281,
    "Ēńŀŗ": 2282,
    "ŗŃŁĖ": 2283,
    "ĭġĻ": 2284,
    "ĸħŝĐ": 2285,
    "Ĩı": 2286,
    "Ŷş": 2287,
    "ĬĩŰ": 2288,
    "œńĥŮ": 2289,
    "ĩīĨŰ": 2290,
    "řŜœ": 2291,
    "ĿĤŝł": 2292,
    "ŝŝŗĖ": 2293,
    "ģĽŗĐ": 2294,
    "ĀĻĿĤ": 2295,
    "ŻĖ": 2296,
    "Ĉĵ": 2297,
    "ŁŇ": 2298,
    "ďī": 2299,
    "šĖ": 2300,
    "œŘĸŮ": 2301,
    "ġĿŀ": 2302,
    "łŝŃ": 2303,
    "ŕŞœ": 2304,
    "Ĩģļ": 2305,
    "œŅĵŮ": 2306,
    "ļŗő": 2307,
    "ġıŜĐ": 2308,
    "ĠĿŅ": 2309,
    "ĭĳřĐ": 2310,
    "őřĬľ": 2311,
    "őşşś": 2312,
    "ĸĸŝŅŕŞ": 2313,
    "ņŘŗşĳŮ": 2314,
    "Īī": 2315,
    "şőŜ": 2316,
    "ĒşĵŮ": 2317,
    "őœĥŮ": 2318,
    "ŝŅĵŮ": 2319,
    "īĢģ": 2320,
    "ģŚř": 2321,
    "ĤĢĵŰ": 2322,
    "ŞĨĽŬ": 2323,
    "ŇĖ": 2324,
    "śŞĒŗ": 2325,
    "Įļĸĸ": 2326,
    "šġĢŰ": 2327,
    "ĒŕŊ": 2328,
    "ĿĹŕŞ": 2329,
    "ġĿŜ": 2330,
    "ĩļŋĐ": 2331,
    "ĽśŜ": 2332,
    "Ĳħīľ": 2333,
    "śŕĠĢŬ": 2334,
    "ĥĢŁń": 2335,
    "ŗņŗń": 2336,
    "őŕŜł": 2337,
    "ģīĩľ": 2338,
    "őŜŇŒ": 2339,
    "ıŜœŗĖ": 2340,
    "ģĥŜŔĒ": 2341,
    "ŔşĳĽĸŰ": 2342,
    "ĨĠįļŇŔ": 2343,
    "řř": 2344,
    "ųŝ": 2345,
    "Ŧş": 2346,
    "ŀŕĒ": 2347,
    "ģĒŃ": 2348,
    "ĹŜŃ": 2349,
    "ŚŕŀĖ": 2350,
    "įĺĩĢ": 2351,
    "ŁřŜő": 2352,
    "ĨĢŬ": 2353,
    "ĶĦģŰ": 2354,
    "ŐŃĵŮ": 2355,
    "ıļĩģ": 2356,
    "ŻĐ": 2357,
    "ĔĠ": 2358,
    "űŗ": 2359,
    "ŧŘ": 2360,
    "Ġģļ": 2361,
    "ģħŜĐ": 2362,
    "ĥĽŗĐ": 2363,
    "šĺĤĹŁĐ": 2364,
    "ŚŗķīŬ": 2365,
    "īĢĳŗĐ": 2366,
    "ģĥŀĐ": 2367,
    "ĪĶśœ": 2368,
    "Ņĵ": 2369,
    "ĘŗĐ": 2370,
    "īĵĒ": 2371,
    "śŘĤŮ": 2372,
    "ĵŀņ": 2373,
    "ĤŚŕĒœ": 2374,
    "ņşĒŗ": 2375,
    "Ĥļĭļ": 2376,
    "ĠŝŃ": 2377,
    "ıŜŔĒŗ": 2378,
    "ŝśŚ": 2379,
    "ĒŀŞŗ": 2380,
    "ņŁĮŮ": 2381,
    "ĒńŚœĨļŬ": 2382,
    "Ŵş": 2383,
    "ąī": 2384,
    "ųŘ": 2385,
    "ħĺŬ": 2386,
    "řņĖ": 2387,
    "ĩľĿ": 2388,
    "ĥľœŜ": 2389,
    "ŁĐŝŐš": 2390,
    "ĤĠĸģĒ": 2391,
    "őřįĽ": 2392,
    "ŇőĩŮ": 2393,
    "ĮĻĢĴĒ": 2394,
    "ĒŇŚşĢĦŬ": 2395,
    "šĩ": 2396,
    "ıł": 2397,
    "ĞĿ": 2398,
    "įĳ": 2399,
    "źŕĒ": 2400,
    "œłĵ": 2401,
    "ļœł": 2402,
    "ŝłņŞ": 2403,
    "şŕŖĖ": 2404,
    "įľĻ": 2405,
    "ŁłĮļ": 2406,
    "ħŚş": 2407,
    "ŚőŁĖ": 2408,
    "œœņ": 2409,
    "ĨĪĹ": 2410,
    "śŔŗĖ": 2411,
    "őřĬģ": 2412,
    "śŗŚł": 2413,
    "ĭĶņŕŀĖ": 2414,
    "ŒŗœįŮ": 2415,
    "Ĳŗ": 2416,
    "ŊĖ": 2417,
    "żş": 2418,
    "źœš": 2419,
    "ļœń": 2420,
    "ĭľĹ": 2421,
    "ģĢņĐ": 2422,
    "řŜœš": 2423,
    "ıŀŔĒ": 2424,
    "ĮĠĿŰ": 2425,
    "ŕŜŅ": 2426,
    "šĽĸ": 2427,
    "ĒŇœŅ": 2428,
    "ĳħĸĹ": 2429,
    "įıŜĐ": 2430,
    "įĪĤŗł": 2431,
    "Ģĭ": 2432,
    "Ħī": 2433,
    "Ēŏ": 2434,
    "šą": 2435,
    "ğŰ": 2436,
    "ĪĽŬ": 2437,
    "ŕŀŀ": 2438,
    "ħĢĹ": 2439,
    "ĠĠĿŰ": 2440,
    "Ġŀř": 2441,
    "Ĥģļ": 2442,
    "ĭģĒő": 2443,
    "Ēņĭ": 2444,
    "ŗŃĒŗįĪŬ": 2445,
    "Ŕřĳģ": 2446,
    "ħœŃĒŗ": 2447,
    "Ġıŋ": 2448,
    "ĹŞŜ": 2449,
    "ĵĒşŔĖĵĦĩŰ": 2450,
    "ĴľŬ": 2451,
    "ĹŜœŞŃ": 2452,
    "čĤ": 2453,
    "šā": 2454,
    "ĹŮ": 2455,
    "Ţş": 2456,
    "ĝœł": 2457,
    "ŀŗń": 2458,
    "Ĥįĸ": 2459,
    "śŕŖĖ": 2460,
    "şįīŬ": 2461,
    "ŝŃįĪŬ": 2462,
    "ŕşĖ": 2463,
    "įĵŜń": 2464,
    "Ħĩı": 2465,
    "ĠļŝŇ": 2466,
    "ĨģŬ": 2467,
    "Ĥśŝ": 2468,
    "ĵŜœŗĖ": 2469,
    "ĵŖĐŐŏš": 2470,
    "ģĥŜŔ": 2471,
    "ĢġġĽ": 2472,
    "ŅőŋĖ": 2473,
    "ĩįĺĵĒ": 2474,
    "ŔŅ": 2475,
    "ĬĻ": 2476,
    "čļ": 2477,
    "œŝł": 2478,
    "őŕŖĖ": 2479,
    "ŝŅņŞ": 2480,
    "ĒńĤĽ": 2481,
    "ĶśŜ": 2482,
    "ŗŘĵĽŬ": 2483,
    "Ĥĸĩľ": 2484,
    "ĬĹĤ": 2485,
    "ĥŜń": 2486,
    "ŘĮĺŬ": 2487,
    "ĢĢĹĴ": 2488,
    "ŔřŞś": 2489,
    "śŌ": 2490,
    "šŞ": 2491,
    "żœ": 2492,
    "ąĤ": 2493,
    "ĤļĢ": 2494,
    "ŝłņĖ": 2495,
    "ŀřņş": 2496,
    "őşņ": 2497,
    "ĩįľ": 2498,
    "ĬġĢ": 2499,
    "őŀœš": 2500,
    "ĹŜŗĒŗ": 2501,
    "ĪħĢķ": 2502,
    "šĹĭģ": 2503,
    "ņşĒŔ": 2504,
    "ĲīĿŰ": 2505,
    "ĤĽĩŰ": 2506,
    "ĤĽĿŰ": 2507,
    "ıņĐņŞĤŮ": 2508,
    "ŖřŜőš": 2509,
    "ĭĢģħ": 2510,
    "ıŜŔĒł": 2511,
    "īĿģ": 2512,
    "śřįĽŬ": 2513,
    "ĠĢĠĩĒ": 2514,
    "Ħįĥľ": 2515,
    "ģĒŇŗńĤŮ": 2516,
    "ŀőŞş": 2517,
    "łŜœŏ": 2518,
    "ĖĦ": 2519,
    "ųś": 2520,
    "řŘ": 2521,
    "šċ": 2522,
    "ŗŜŗ": 2523,
    "ŜĖĵĦĩŰ": 2524,
    "ĭĢņĐ": 2525,
    "ĽŗŞ": 2526,
    "ŀŕŗĖ": 2527,
    "Ġıŀ": 2528,
    "őŀŝ": 2529,
    "ŗŅĤŮ": 2530,
    "ĤĽĿ": 2531,
    "šįĸŰ": 2532,
    "ŘśŅš": 2533,
    "ĠĺĥĿŜ": 2534,
    "ĒŞĠĪŬ": 2535,
    "ŝŗŘĵŮ": 2536,
    "ĠĨĸĵŀĐ": 2537,
    "ģĢĩŰ": 2538,
    "Łńŝń": 2539,
    "ŗŚĸŮ": 2540,
    "śŚĭŮ": 2541,
    "ĨĢĠŰ": 2542,
    "ġĿŁń": 2543,
    "ĤįĨŰ": 2544,
    "ĤĠįĵĒ": 2545,
    "ŝńŚœĳŮ": 2546,
    "ĬĩĵŜĐ": 2547,
    "Āļ": 2548,
    "Ĥĥ": 2549,
    "ĹĲ": 2550,
    "Ţř": 2551,
    "ŁĖĵĦĩŰ": 2552,
    "ĠļĸŰ": 2553,
    "ĒřŜ": 2554,
    "ŝŖĒł": 2555,
    "łŗĳ": 2556,
    "ľĵŗĐ": 2557,
    "ŅŞĮŮ": 2558,
    "ĒńŅř": 2559,
    "ĭĴŗĐ": 2560,
    "ģĩľņĐ": 2561,
    "ĤıńŕĒ": 2562,
    "ņşĮĠĭļ": 2563,
    "ĩĦŗŞ": 2564,
    "Śőńœš": 2565,
    "ŖśńĲĺŬ": 2566,
    "žœ": 2567,
    "žŕ": 2568,
    "ģŇ": 2569,
    "ęŜ": 2570,
    "ĪĤ": 2571,
    "ďı": 2572,
    "şŃĒ": 2573,
    "łŃĒ": 2574,
    "œŞŗ": 2575,
    "ĤļĢŰ": 2576,
    "ĤŚŕĒņ": 2577,
    "Ēşį": 2578,
    "ĭľŖĐņŞĤŮ": 2579,
    "řĳīŬ": 2580,
    "ĒőĒŅ": 2581,
    "ŁşĦ": 2582,
    "ĮĻĸĸ": 2583,
    "Ĳŗœ": 2584,
    "ŅŘŝĖ": 2585,
    "įĢĳŗĐ": 2586,
    "Ĳľĩĳ": 2587,
    "ĴģŬ": 2588,
    "ŘœŒš": 2589,
    "ĸœņŗĖ": 2590,
    "ĀĻĿĤŀőŞş": 2591,
    "Ģļ": 2592,
    "Ŵř": 2593,
    "ĮĪŬ": 2594,
    "ŜŗŅš": 2595,
    "ĤŚŕĒŗ": 2596,
    "šĺĤĵĒł": 2597,
    "ĩľĵ": 2598,
    "ĳīĢ": 2599,
    "ŝŅŁĖ": 2600,
    "őŀő": 2601,
    "őŀŒš": 2602,
    "ģĥņŘ": 2603,
    "ĢŗŕĒ": 2604,
    "Ģŗņ": 2605,
    "ĭĳř": 2606,
    "ĩīĢŰ": 2607,
    "œŔŗĖ": 2608,
    "ĨĸĩĢ": 2609,
    "śœœŚš": 2610,
    "ĨģĩŰ": 2611,
    "ĩľőŕĒ": 2612,
    "ĒŖŀřĬŮ": 2613,
    "śşŜŅš": 2614,
    "ıŕ": 2615,
    "żř": 2616,
    "ŋř": 2617,
    "ųł": 2618,
    "Ĥĵŀ": 2619,
    "ĭĺŬ": 2620,
    "ĤŚŕĒś": 2621,
    "ĽŝŞ": 2622,
    "ģŝŞ": 2623,
    "ĥŮĸĸŗĐ": 2624,
    "ĭĤı": 2625,
    "ĠĠĸŰ": 2626,
    "śœĥŮ": 2627,
    "šĦĩŰ": 2628,
    "ĮĻĿŰ": 2629,
    "œńņŗ": 2630,
    "ĳŞő": 2631,
    "œŕĪŮ": 2632,
    "ņŕŀŘ": 2633,
    "ŞĠĪŬ": 2634,
    "ĶŀşşĖĵĦĩŰ": 2635,
    "ĻĿŇŜŖĖ": 2636,
    "čľ": 2637,
    "Űő": 2638,
    "ĀĹ": 2639,
    "ŁŜ": 2640,
    "ďġ": 2641,
    "ųŜ": 2642,
    "Āĵ": 2643,
    "ģĒő": 2644,
    "łŅš": 2645,
    "ģņş": 2646,
    "ĤŚŕĒń": 2647,
    "ĭĤĒńŚœš": 2648,
    "ģĢņŘ": 2649,
    "řŜŒ": 2650,
    "ĥļŗĐ": 2651,
    "Ġģħ": 2652,
    "ħġĠ": 2653,
    "ŝŃĳŮ": 2654,
    "ĥļŞĐ": 2655,
    "šĺĻĿ": 2656,
    "ĢġĢģ": 2657,
    "ĤĪŬĤŚőņĖ": 2658,
    "ļĢŗŃ": 2659,
    "ĶįĵŰ": 2660,
    "ģĤŚŕŀĖ": 2661,
    "ĸīĭĢ": 2662,
    "ĈŮ": 2663,
    "Įķ": 2664,
    "ĀĽŬ": 2665,
    "ģīľ": 2666,
    "ģľŖĐ": 2667,
    "őşŜ": 2668,
    "ĤĠĨŰ": 2669,
    "ķħĢķ": 2670,
    "ŞşŅ": 2671,
    "ĴļĩŰ": 2672,
    "įīı": 2673,
    "ĴŇœ": 2674,
    "ıĢĭĩ": 2675,
    "ńŕŀŅ": 2676,
    "ŕşŔĤļŬ": 2677,
    "ĶġľĻ": 2678,
    "ĈĠ": 2679,
    "ĺĿ": 2680,
    "čĢ": 2681,
    "įīľ": 2682,
    "Ŕœĳ": 2683,
    "ņŘŀœ": 2684,
    "şįīĨŰ": 2685,
    "ĨĠĿĤ": 2686,
    "ŝŃĲŮ": 2687,
    "ĵļĩ": 2688,
    "œŗœ": 2689,
    "ĠĽŬı": 2690,
    "ĩģĒőŜŒš": 2691,
    "ŞŗįĪŬ": 2692,
    "ĵħģľĒşŔĖ": 2693,
    "ıņŕŀĖ": 2694,
    "ĨĺĥĿŜĐ": 2695,
    "ĵŞŕ": 2696,
    "ĤĢĠŰ": 2697,
    "őőŜĖ": 2698,
    "œŘĢīŬ": 2699,
    "ļļœŉ": 2700,
    "ēġ": 2701,
    "ŀŏ": 2702,
    "şņ": 2703,
    "Ŀļ": 2704,
    "ĩĩŰ": 2705,
    "œŚş": 2706,
    "ĭįĸ": 2707,
    "ġľĹ": 2708,
    "ħŝŅ": 2709,
    "ĒŒŗĖ": 2710,
    "ĤĪŬıŁĐ": 2711,
    "ıőŘ": 2712,
    "ĵļĭļ": 2713,
    "ŇŃŗĖ": 2714,
    "ņŜŋĖ": 2715,
    "ĻĹņŘĒłĩīŬ": 2716,
    "ĒŇŗńĤŮ": 2717,
    "ĤŚŕŋĖ": 2718,
    "śŗŚłš": 2719,
    "ĨĥŀřŜő": 2720,
    "Ţŗ": 2721,
    "ŋş": 2722,
    "čĽ": 2723,
    "ĸĽ": 2724,
    "ęľ": 2725,
    "ĒŮ": 2726,
    "ĿĽ": 2727,
    "Ăĵ": 2728,
    "īľĦ": 2729,
    "ŕŀś": 2730,
    "įĢľ": 2731,
    "őŞł": 2732,
    "ŜŕŖĖ": 2733,
    "ĩĢśœ": 2734,
    "ĬīĿŰ": 2735,
    "ĠĵŁĐ": 2736,
    "ĭĢőŘ": 2737,
    "ĵŖĐņřš": 2738,
    "ŇŃņń": 2739,
    "ĩļŞĐ": 2740,
    "ĤģŬ": 2741,
    "łŗœš": 2742,
    "ĹŜńŝĖ": 2743,
    "œŖņœĳŮ": 2744,
    "ųŝŗń": 2745,
    "šĠ": 2746,
    "đş": 2747,
    "ģĒŒ": 2748,
    "Ģŗń": 2749,
    "œŞř": 2750,
    "ŕŀŅ": 2751,
    "ŃņĖ": 2752,
    "œŘĵŮ": 2753,
    "Łœĳ": 2754,
    "őŜŝ": 2755,
    "œńĒłĩīŬ": 2756,
    "ŚŕŖĖ": 2757,
    "œŏš": 2758,
    "ĳīĩŰ": 2759,
    "ŞřĶ": 2760,
    "ŅŞł": 2761,
    "ąĻľ": 2762,
    "ĸŗő": 2763,
    "ĒńĤĭ": 2764,
    "ĩģĒşŔĖ": 2765,
    "šĻĢ": 2766,
    "ĶħĸĸĒńŚœš": 2767,
    "ĵīľľ": 2768,
    "Ĺģņł": 2769,
    "łŜŗĖ": 2770,
    "Łŀŗŕ": 2771,
    "ħļģĽĒńŚœš": 2772,
    "šĨľĿşĐ": 2773,
    "ŋŕœń": 2774,
    "Ŕő": 2775,
    "ŔĤ": 2776,
    "Ēŉ": 2777,
    "ĩĩ": 2778,
    "ŚŃ": 2779,
    "ĶśŞ": 2780,
    "ĀĺŬ": 2781,
    "ĸŰņŘŗĖ": 2782,
    "ĭĢņř": 2783,
    "ĭľŋĐ": 2784,
    "ŀŕŁĖ": 2785,
    "Ĩĭħ": 2786,
    "ŝśĤŮ": 2787,
    "Īĥģ": 2788,
    "ŁşįĩŬ": 2789,
    "ĢīĢĤ": 2790,
    "ĻĸŝĐ": 2791,
    "ņŃĳ": 2792,
    "ĲŮĘĸŗĐ": 2793,
    "ĭľőŕĒ": 2794,
    "šĦĭĴĒ": 2795,
    "įĿŀŔ": 2796,
    "ħŚ": 2797,
    "ģĩ": 2798,
    "đġ": 2799,
    "ĺı": 2800,
    "ăī": 2801,
    "Łŉ": 2802,
    "ĄĵĒ": 2803,
    "ĤŚŕĒŴ": 2804,
    "ŀŕŖĖ": 2805,
    "ŗŘĵ": 2806,
    "ĨĠĭļ": 2807,
    "ıļĩ": 2808,
    "ĒŞĤŮ": 2809,
    "ŕşņ": 2810,
    "ŗĐŝŐš": 2811,
    "ġľĤŚĐ": 2812,
    "ŗŜŞĖ": 2813,
    "Ĭįĥľ": 2814,
    "ŗŗĳŮ": 2815,
    "ĩĴĒşŜĖ": 2816,
    "łőŀł": 2817,
    "ĶśłŁł": 2818,
    "őŚĴĪ": 2819,
    "Ņşŀŝ": 2820,
    "Šœ": 2821,
    "ħĻ": 2822,
    "Ğĵ": 2823,
    "Ŵń": 2824,
    "Ēī": 2825,
    "ĳĪŬ": 2826,
    "ĳœł": 2827,
    "ĦĩĢ": 2828,
    "śŝł": 2829,
    "Ġļįĸ": 2830,
    "ĳŗŞ": 2831,
    "řŜŕ": 2832,
    "řŜş": 2833,
    "įľĹ": 2834,
    "ıŞń": 2835,
    "ĭģļ": 2836,
    "ľĩĒ": 2837,
    "ĵĦľĿ": 2838,
    "őŗįŮ": 2839,
    "śłĨġĢŰ": 2840,
    "őńśřįŮ": 2841,
    "ĴĺĤŰ": 2842,
    "ĩħļŰ": 2843,
    "ŁłĳĻ": 2844,
    "ņŞĤķŬ": 2845,
    "ĽŝłŗĖ": 2846,
    "Ľĸ": 2847,
    "ĭį": 2848,
    "ŵř": 2849,
    "ĄĿ": 2850,
    "żŕ": 2851,
    "ĂĿ": 2852,
    "ğĵ": 2853,
    "ŞŃĒ": 2854,
    "ćĢŰ": 2855,
    "ŀŝń": 2856,
    "ĵŜŔĒ": 2857,
    "ŗĳĪ": 2858,
    "Şŗĳ": 2859,
    "ĭįĢĴĒ": 2860,
    "ķīĿŰ": 2861,
    "ıŁŃ": 2862,
    "ĒŕĮģ": 2863,
    "śŚĤŮ": 2864,
    "Ŕşŀŕ": 2865,
    "ģĒřŜĖ": 2866,
    "įĹœŜ": 2867,
    "Ġħľ": 2868,
    "ĒřŜŕ": 2869,
    "ĥĦŗł": 2870,
    "Őŕőŗ": 2871,
    "ĸļŋĐ": 2872,
    "ĠĠįĵĒ": 2873,
    "ĨĠĸĵŀ": 2874,
    "ŁĖĶīľĵĒ": 2875,
    "ŕőśŘ": 2876,
    "ĭġĢķ": 2877,
    "ĹŰ": 2878,
    "ħļ": 2879,
    "ŧţ": 2880,
    "Şŀ": 2881,
    "ŊĐ": 2882,
    "ĸĩĢ": 2883,
    "şĵŮ": 2884,
    "ęņĐ": 2885,
    "ĿŰņŘŗĖ": 2886,
    "šĺĤĵĒœ": 2887,
    "įĢĵŰ": 2888,
    "şįħ": 2889,
    "ĵŮģĶ": 2890,
    "ĳġĢ": 2891,
    "Ģŗŗ": 2892,
    "ıŀŉĒ": 2893,
    "ŁĖĵġŬ": 2894,
    "ĸœŃĒ": 2895,
    "ıĢĭĳ": 2896,
    "ĸıśŞ": 2897,
    "ħśńŚĖĵĦĩŰ": 2898,
    "šĭģĽ": 2899,
    "ĤĹłĐ": 2900,
    "ĵĵœł": 2901,
    "œŐĵīľŰ": 2902,
    "ņŘŗŏš": 2903,
    "Ģķ": 2904,
    "žŗ": 2905,
    "ĀĠ": 2906,
    "ŋŅ": 2907,
    "ĕī": 2908,
    "ĭľŁĐ": 2909,
    "ŜŗŒ": 2910,
    "ŜŗŅ": 2911,
    "łŕŖĖ": 2912,
    "ıŀŝ": 2913,
    "ľĵőş": 2914,
    "ŃŚş": 2915,
    "ĒłŗŚ": 2916,
    "ĒŔĤ": 2917,
    "ģŗœ": 2918,
    "ĒńĤĢ": 2919,
    "ĥĻľ": 2920,
    "ĒŐĮļ": 2921,
    "ņőŞĖ": 2922,
    "śŃĒŗ": 2923,
    "ŐŕŗŘ": 2924,
    "ĩľņŃĒ": 2925,
    "ŗŒšĺĤıņĐ": 2926,
    "ķīľģ": 2927,
    "šĺĤĵŋĐ": 2928,
    "šħĸŰ": 2929,
    "ŐŉĒłĩīŬ": 2930,
    "ĠĺĥĿŜŃĒ": 2931,
    "ĸĸŗŉĒ": 2932,
    "ĒńŚşĲŮ": 2933,
    "ŅşŇŚĥŮ": 2934,
    "Űœ": 2935,
    "ĵį": 2936,
    "ĠĶ": 2937,
    "šĐ": 2938,
    "ŸŃ": 2939,
    "ŇŕĒ": 2940,
    "ħœł": 2941,
    "ŝŔĒ": 2942,
    "ĵŀŝ": 2943,
    "ŕŀř": 2944,
    "ĤŚŕĒŔ": 2945,
    "Ĭįĸ": 2946,
    "ŗŞŖĖ": 2947,
    "ĸĹŜ": 2948,
    "ģĥŁĐ": 2949,
    "ĭħĢķ": 2950,
    "ĢŗŃĒ": 2951,
    "ŁĖĨĠŬ": 2952,
    "ĥĤśşŜĖ": 2953,
    "şŗįŮ": 2954,
    "ĨĪĩŰ": 2955,
    "ĪĹĳ": 2956,
    "ĠĭĩŰ": 2957,
    "ĩıŀĐ": 2958,
    "ġıśŞ": 2959,
    "ĮĩĒńŚœš": 2960,
    "ŝłĩīľŰ": 2961,
    "ģĥŞŔĒ": 2962,
    "ŔĤīĢŰ": 2963,
    "ĒĦ": 2964,
    "Ĺĺ": 2965,
    "šŘ": 2966,
    "ŝŉ": 2967,
    "ıŖĐ": 2968,
    "ŞŅš": 2969,
    "ĒńŚń": 2970,
    "őŜŅš": 2971,
    "ıŜŃĒ": 2972,
    "ĪĹŜ": 2973,
    "Įĭħ": 2974,
    "ŞőŜŒš": 2975,
    "ŗŃĒŗ": 2976,
    "ŁŕŁĖ": 2977,
    "ŜşįĩŬ": 2978,
    "ĶŝłĒłĩīŬ": 2979,
    "ŐœĢ": 2980,
    "ĮļħŰ": 2981,
    "įĮĿ": 2982,
    "ŝŒĴĭ": 2983,
    "ĩļģĥŕŘ": 2984,
    "ĶġĹļŖĐ": 2985,
    "ĨĥĢŁń": 2986,
    "Ņń": 2987,
    "ŧť": 2988,
    "ąħ": 2989,
    "Ţń": 2990,
    "ĵŀş": 2991,
    "ĳĺŬ": 2992,
    "Ľģľ": 2993,
    "ıŜŃ": 2994,
    "ĵŜœ": 2995,
    "ĨĠĸĿ": 2996,
    "šĹĤ": 2997,
    "ŝşř": 2998,
    "ńŕŁĖ": 2999,
    "ĩıŁń": 3000,
    "Ēłŗņ": 3001,
    "ĦĥĽ": 3002,
    "ĢĺģĢ": 3003,
    "ĵĒńŚœ": 3004,
    "ģĢřĐ": 3005,
    "ŗŘĢīŬ": 3006,
    "ĹŜńŗń": 3007,
    "ĻĿŀś": 3008,
    "śŘĢĢĹĴ": 3009,
    "ŋŀ": 3010,
    "ĥĲ": 3011,
    "Ŵł": 3012,
    "ĉġ": 3013,
    "įĦ": 3014,
    "Śœĳ": 3015,
    "įĢķ": 3016,
    "įĸœł": 3017,
    "ĪīĨŰ": 3018,
    "ĩľŖĐ": 3019,
    "ĿĤŗł": 3020,
    "ıġĢ": 3021,
    "ĵħġ": 3022,
    "ņĖĮĨŬ": 3023,
    "ģįĿ": 3024,
    "ĳŚř": 3025,
    "ĤŇł": 3026,
    "ĩħĢķ": 3027,
    "ĨĽĸŰ": 3028,
    "ĴļĢ": 3029,
    "ĲīĢĤ": 3030,
    "ıņŕŁĖ": 3031,
    "įļĠ": 3032,
    "Ēńśś": 3033,
    "ŐœĤĠŬ": 3034,
    "ņşĬīŬ": 3035,
    "ĵĦĥģĒ": 3036,
    "ŗŞőœš": 3037,
    "œŞőœš": 3038,
    "ĵħįŰ": 3039,
    "ŝŅŜŒš": 3040,
    "ĤģĮĵŀĐ": 3041,
    "ŝŏ": 3042,
    "ęă": 3043,
    "Šŗ": 3044,
    "ģŗł": 3045,
    "őŜŘ": 3046,
    "œĥŮĸĸŗĐ": 3047,
    "ŗŝŐ": 3048,
    "ŗŔĒŅ": 3049,
    "ħĨŬ": 3050,
    "ıŀŉ": 3051,
    "ħŮĸĸŗĐ": 3052,
    "ŗĳħ": 3053,
    "ĮĠī": 3054,
    "ģŚş": 3055,
    "ŝŃįĺ": 3056,
    "ŀŉĒ": 3057,
    "ŝśŅ": 3058,
    "ŕŞŏš": 3059,
    "ŗŗĥŮ": 3060,
    "ĸśŃ": 3061,
    "ĵŁĐœŘĥŮ": 3062,
    "ĥģņĐ": 3063,
    "ĒŃņŗ": 3064,
    "śŜŗĖ": 3065,
    "Ēŀŗń": 3066,
    "ŗĵħģľ": 3067,
    "įīĵĒ": 3068,
    "śŒĤŮ": 3069,
    "œœŗĖ": 3070,
    "ģīįı": 3071,
    "ĪĢŝŝĒłĩīŬ": 3072,
    "ĒŘœŒš": 3073,
    "ħĨĥĳ": 3074,
    "ŗśģīľŰ": 3075,
    "Űłśł": 3076,
    "ĎĢśń": 3077,
    "đşŕŀş": 3078,
    "ăġ": 3079,
    "ĞĹ": 3080,
    "ćŬ": 3081,
    "ŋŚ": 3082,
    "Ĳĥ": 3083,
    "ĴŰ": 3084,
    "źŗ": 3085,
    "ŵş": 3086,
    "šĺĤĢ": 3087,
    "Įĵŀ": 3088,
    "ŝńĤŮ": 3089,
    "ķŀş": 3090,
    "ľĵŁĐ": 3091,
    "ĥĳœŞ": 3092,
    "Īĩģ": 3093,
    "ĩģŁĐ": 3094,
    "ŅşŔ": 3095,
    "ģŗő": 3096,
    "ąŜř": 3097,
    "śŜŞĖ": 3098,
    "šĺľı": 3099,
    "œšĺĤ": 3100,
    "ĲŮĸĸœń": 3101,
    "ĤĭĸĹŝŞ": 3102,
    "ħŚŕ": 3103,
    "ĺĵŀŃ": 3104,
    "ŐŚĤŮ": 3105,
    "ĻıŋĐ": 3106,
    "ĴļĥľŕĐņŞĤŮ": 3107,
    "ŞĠĸĩŰ": 3108,
    "ĀģĩĢśœ": 3109,
    "ŋŃ": 3110,
    "Ŷŕ": 3111,
    "ĦĢ": 3112,
    "ĸĽŬ": 3113,
    "īľĿ": 3114,
    "ĵŮĥľ": 3115,
    "ĵņĐ": 3116,
    "ĭħĢ": 3117,
    "ĨĠĹ": 3118,
    "śńŗĖ": 3119,
    "ĩĴĒŃ": 3120,
    "ĵŮĸĿ": 3121,
    "ľľĵ": 3122,
    "ĢŗŜ": 3123,
    "Ēşįĺ": 3124,
    "ŔŗŅ": 3125,
    "ĤĽŬĿŔĐ": 3126,
    "ĩĴĒőŁĖ": 3127,
    "ĲħĨ": 3128,
    "ġĠĿ": 3129,
    "ĭĳŚĐ": 3130,
    "ĠĹŁŘ": 3131,
    "ĒşĵĽŬ": 3132,
    "ņşĮĠŬĿŔĐ": 3133,
    "œŜŞŏš": 3134,
    "Ňőĩ": 3135,
    "ĸśŗŚ": 3136,
    "ńœĳĽ": 3137,
    "ĵĦĩĩĒ": 3138,
    "ĪĹŞŝ": 3139,
    "įīıśŞ": 3140,
    "ŵŕŀś": 3141,
    "Ŧœ": 3142,
    "ŰŅ": 3143,
    "ĎĿ": 3144,
    "āĹ": 3145,
    "żő": 3146,
    "ĿŰņş": 3147,
    "ņşŜĖ": 3148,
    "ĤŚŕĒŘ": 3149,
    "ĦħĢ": 3150,
    "šĺĤĵĒŖ": 3151,
    "ĒŗĵŮ": 3152,
    "ņŘŀř": 3153,
    "ĦīĨŰ": 3154,
    "ĸĸŀş": 3155,
    "ŇńĤŮ": 3156,
    "ĵŖĐœĖ": 3157,
    "ĸŮĭľŖĐ": 3158,
    "ĹŜŗĒł": 3159,
    "ĤĪŬĿŜĐ": 3160,
    "ĥľŕĐņŞ": 3161,
    "įīĿŰ": 3162,
    "Ēŀœń": 3163,
    "ŗņŗŚ": 3164,
    "śńśřįŮ": 3165,
    "ľģģ": 3166,
    "ĸśŝ": 3167,
    "ĭħĿĸ": 3168,
    "įĨĵĒ": 3169,
    "ħħĠĽ": 3170,
    "ĒŁĤļĩŰ": 3171,
    "Ģħĭļ": 3172,
    "ŁńŀŃ": 3173,
    "şŒŗń": 3174,
    "ŝŔŇŕ": 3175,
    "ŗŔĒłĩįĸŰ": 3176,
    "ŁĐŅœĳīŬ": 3177,
    "ĹĳŚĐ": 3178,
    "ĔĝŬ": 3179,
    "źœ": 3180,
    "ŀŝ": 3181,
    "Ĥġ": 3182,
    "ĩĲ": 3183,
    "ĜĿ": 3184,
    "Řř": 3185,
    "ăľ": 3186,
    "ŽŘ": 3187,
    "ľœł": 3188,
    "ŜŗŘ": 3189,
    "įľĿ": 3190,
    "Łńœń": 3191,
    "œłĤļŬ": 3192,
    "ĥĤŗĐ": 3193,
    "śŘĦŮĸĿ": 3194,
    "ľĿŜ": 3195,
    "ŅşĖ": 3196,
    "ĥīĢĤ": 3197,
    "ĨĹļ": 3198,
    "ıġĿ": 3199,
    "ĒőŞŚ": 3200,
    "ĥĴŗĐ": 3201,
    "ĸĹşŕĒ": 3202,
    "ĮĻĢĤ": 3203,
    "ĒłĩīĵŰ": 3204,
    "ņşĢŮ": 3205,
    "ĵħġĵĒ": 3206,
    "ŖŅŀşįĩŬ": 3207,
    "ĵļĹĳ": 3208,
    "ŀřĴĠĨŰ": 3209,
    "ĴĽĸĢœŜ": 3210,
    "şřĳīŬ": 3211,
    "đŇŃņń": 3212,
    "Łœĳĸ": 3213,
    "ſŕ": 3214,
    "œŊ": 3215,
    "Čħ": 3216,
    "Šŕ": 3217,
    "ĤīŬ": 3218,
    "ĹģĒ": 3219,
    "įŮĥľ": 3220,
    "ĭľņĐ": 3221,
    "ĤŚŕĒŚ": 3222,
    "ĵħĢ": 3223,
    "ıśł": 3224,
    "ĳŀŕ": 3225,
    "ĨġĹ": 3226,
    "ĴŇł": 3227,
    "ĸĢŋĐ": 3228,
    "őŜłš": 3229,
    "ŁŕœŅ": 3230,
    "ŚŗĲŮ": 3231,
    "Ĵŗŀ": 3232,
    "ĥŀń": 3233,
    "ĲŮģĶĒńŚœš": 3234,
    "ŔşŞŚ": 3235,
    "ņŕœś": 3236,
    "ĴĭĤŰ": 3237,
    "ĻĸŗłŗĖ": 3238,
    "ĿĤŀŅ": 3239,
    "ņşķīŬ": 3240,
    "ŁņĤĭ": 3241,
    "ŞőŀĖ": 3242,
    "ĩĴĒńŚŗĵŮ": 3243,
    "ĮĻĢĴ": 3244,
    "ĪĿŀœ": 3245,
    "œřŜŅ": 3246,
    "ņŅŀŘ": 3247,
    "ĦĭĦŗĐ": 3248,
    "Ÿř": 3249,
    "Ďĥ": 3250,
    "řŃĒ": 3251,
    "Ĳŗń": 3252,
    "Ňœń": 3253,
    "ĵĦĭľ": 3254,
    "ĤŚŕĒŒ": 3255,
    "įĢĳ": 3256,
    "šĺĤĵĒŒ": 3257,
    "řŕŖĖ": 3258,
    "ĸīĨŰ": 3259,
    "śłĤĪŬ": 3260,
    "şįĽ": 3261,
    "şŀŒ": 3262,
    "śŕĤŮ": 3263,
    "ĤįŬ": 3264,
    "ņřšĽ": 3265,
    "ĨĭĩŰ": 3266,
    "ĲĻľ": 3267,
    "ŅŗĸŮ": 3268,
    "ŗŅšįĢĴĒ": 3269,
    "ŇŃņĖ": 3270,
    "şőśŘ": 3271,
    "ņŘśŅš": 3272,
    "ĠĪĩŰ": 3273,
    "ŅřņŞš": 3274,
    "ņşŀĖ": 3275,
    "œŜŐŃ": 3276,
    "ŕőŜĖ": 3277,
    "ĻļŰ": 3278,
    "Łĩħįĸ": 3279,
    "ĵħĺĵĒ": 3280,
    "ăļĥĤ": 3281,
    "ĬīľĹ": 3282,
    "ņřşœš": 3283,
    "řŞ": 3284,
    "čħ": 3285,
    "Żł": 3286,
    "ŽŞ": 3287,
    "ťş": 3288,
    "ĆĩŰ": 3289,
    "ĥŁĐ": 3290,
    "Ľœń": 3291,
    "ĽśŞ": 3292,
    "ĮĠĠ": 3293,
    "šĺĤĵĒŲ": 3294,
    "ĩľņř": 3295,
    "ĵŋĐ": 3296,
    "ġľĴ": 3297,
    "őşœ": 3298,
    "ĮŮĸĸŗĐ": 3299,
    "ņŘŝŃ": 3300,
    "ŗĖĠĠĨŰ": 3301,
    "ĵġĢŰ": 3302,
    "ĭħģľ": 3303,
    "ŬıŜŔĒ": 3304,
    "ŚřŕŞ": 3305,
    "ĠļĸĹ": 3306,
    "śŃŚ": 3307,
    "įįġ": 3308,
    "ŕĮģ": 3309,
    "ĵŖĐśŘš": 3310,
    "īıŜĐ": 3311,
    "ĸĸśŃĒ": 3312,
    "Ŕřĳĭ": 3313,
    "ħœŃĒŅ": 3314,
    "ĸĵœŝ": 3315,
    "ŞŜŝŁ": 3316,
    "ģģģņĐ": 3317,
    "ķħĿĹŝŞ": 3318,
    "Ĳĺľĥ": 3319,
    "ĸĥŀŞ": 3320,
    "ĠĬģĥņĐ": 3321,
    "ŕĮģļ": 3322,
    "ĲĺľıŞř": 3323,
    "Ėħ": 3324,
    "Ēũ": 3325,
    "ĹĹ": 3326,
    "śň": 3327,
    "āĿ": 3328,
    "Ēłŗł": 3329,
    "ņřįŮ": 3330,
    "ĠļĿŰ": 3331,
    "ıŀś": 3332,
    "œĐŀœ": 3333,
    "ŕŜő": 3334,
    "ĨĺĩĴĒ": 3335,
    "ŗŒšįŬ": 3336,
    "œŚšĽ": 3337,
    "œńņœ": 3338,
    "œŅšįŬ": 3339,
    "ĮĢŬ": 3340,
    "ĠĩĩŰ": 3341,
    "ġĹĤŚĐ": 3342,
    "ņŞĨĽŬ": 3343,
    "ŝœř": 3344,
    "Ħĥķ": 3345,
    "įĹģ": 3346,
    "įĸĹŝŞŁĖ": 3347,
    "ĤįĨ": 3348,
    "ĿŀńŚĖ": 3349,
    "ĄŚŕ": 3350,
    "ĒřįīŬ": 3351,
    "ĵĦľĵŗĐ": 3352,
    "ĤŚłŗœš": 3353,
    "ıĒ": 3354,
    "Ŧń": 3355,
    "ŚŅ": 3356,
    "ĸľ": 3357,
    "ŘŅ": 3358,
    "įĸĸ": 3359,
    "œŞŁĖ": 3360,
    "Ġŝł": 3361,
    "œŀœ": 3362,
    "œĥŮĥľ": 3363,
    "ĭģŝŞ": 3364,
    "ŀşĵħ": 3365,
    "ŕŜŕ": 3366,
    "ĠĹŜŗ": 3367,
    "ŇłĩŮ": 3368,
    "ĒŒŇł": 3369,
    "Ēőņł": 3370,
    "ŗŕĮĠ": 3371,
    "ĲœŃ": 3372,
    "ĤĽŬıŜŔĒ": 3373,
    "ĩģŁ": 3374,
    "įĢŗő": 3375,
    "ļģģ": 3376,
    "ĩışĐ": 3377,
    "Ŕłš": 3378,
    "ģīĸ": 3379,
    "ĵŮĻıŁĐ": 3380,
    "ĵĒńŚŗ": 3381,
    "ŚřşĖ": 3382,
    "šĹĤĿ": 3383,
    "ĿĵœŃ": 3384,
    "ıĢĩŰ": 3385,
    "ĮĥśŜ": 3386,
    "ķīľľ": 3387,
    "Ĥŗŝł": 3388,
    "ŁŅłņ": 3389,
    "œńśřįĽŬ": 3390,
    "ěĢĹ": 3391,
    "ťř": 3392,
    "ļĤ": 3393,
    "ľŇ": 3394,
    "ĲĢ": 3395,
    "Ŗŉ": 3396,
    "ĭĬ": 3397,
    "ĻŮ": 3398,
    "īľģ": 3399,
    "ĭĤĹ": 3400,
    "ıŜŞ": 3401,
    "ŀœĲŮ": 3402,
    "ŗŘĥŮ": 3403,
    "Ĺşŀ": 3404,
    "ņĳī": 3405,
    "ŝŃŗĖ": 3406,
    "ĿĹŜŗ": 3407,
    "ĸħĢķ": 3408,
    "ŗĐœŘĥŮ": 3409,
    "őŘœń": 3410,
    "űşş": 3411,
    "ŝņŗ": 3412,
    "ĦįĢŰ": 3413,
    "ĵļĵŰ": 3414,
    "ĶŝłŗĖ": 3415,
    "ĵġľŰ": 3416,
    "őœĲŮ": 3417,
    "ĵĦĩĽ": 3418,
    "ĭġĿ": 3419,
    "ĭīĭģ": 3420,
    "ņĮĽ": 3421,
    "ŚşĭīŬ": 3422,
    "ĒńĤľ": 3423,
    "ņŃĳīŬ": 3424,
    "ŗŔĒŁĨĺĤŰ": 3425,
    "łŅŐŚ": 3426,
    "ĿņŘŗńš": 3427,
    "şşŀœš": 3428,
    "ĸĸŀŕŗĖ": 3429,
    "šĺĤĢŗŕĒ": 3430,
    "łłŝŒĴĭ": 3431,
    "ğĸ": 3432,
    "ŕĩ": 3433,
    "Čī": 3434,
    "Ĺķ": 3435,
    "ŗŏ": 3436,
    "ņşĒł": 3437,
    "Ĳŝń": 3438,
    "śłĤŮ": 3439,
    "ĥķŬ": 3440,
    "ĢŗŞ": 3441,
    "ıŞş": 3442,
    "īĢĵŀ": 3443,
    "ĭįŬ": 3444,
    "řĳĺŬ": 3445,
    "ĳŞş": 3446,
    "įĺĿŰ": 3447,
    "Ĥįĺ": 3448,
    "ĒŔśŅ": 3449,
    "ĨĢĩŰ": 3450,
    "ĢĦĭĢ": 3451,
    "Łłĳħ": 3452,
    "őŀłš": 3453,
    "ņřĳŮ": 3454,
    "şřĲĺŬ": 3455,
    "ĮĹĥľŕĐ": 3456,
    "ģģŗĐ": 3457,
    "ŞőŜŒ": 3458,
    "ĠĵœŃ": 3459,
    "ĵīĭĽ": 3460,
    "ăņő": 3461,
    "ĴĺĩŰ": 3462,
    "ĶĦĩĢŗĐ": 3463,
    "őņşĮĠŬ": 3464,
    "œœŚĖ": 3465,
    "ĒřņŅš": 3466,
    "ıŐş": 3467,
    "ġĢļŋĐ": 3468,
    "ĿĠŗœ": 3469,
    "ĮġħŰ": 3470,
    "ģġĹĤ": 3471,
    "łŚĠķ": 3472,
    "ĵĦģĥŕŘ": 3473,
    "ńŕŜĖ": 3474,
    "ĮĢģķ": 3475,
    "ųŅŁłĳ": 3476,
    "ĤśŝŗĖ": 3477,
    "ĳļ": 3478,
    "ŇĴ": 3479,
    "Ĳķ": 3480,
    "Ťř": 3481,
    "ŜŕĒ": 3482,
    "ŚĤŮ": 3483,
    "ĠģĒ": 3484,
    "śŞĒł": 3485,
    "ıįĢ": 3486,
    "ĤļĵŰ": 3487,
    "Ňśł": 3488,
    "ŗŞŗń": 3489,
    "ĭĨŬ": 3490,
    "ŀŕőř": 3491,
    "ĸĿŜĐ": 3492,
    "ŕŜŒš": 3493,
    "ŰœŞŖĖ": 3494,
    "ģĥģ": 3495,
    "ĿĿŜĐ": 3496,
    "łŗŗ": 3497,
    "ņŗĭŮ": 3498,
    "ĒņĤļ": 3499,
    "œŒĤŮ": 3500,
    "ĵįĠŰ": 3501,
    "ĳŝŜ": 3502,
    "Ķŝłş": 3503,
    "ĒńŚœĸŮ": 3504,
    "ģĶĒńŚœ": 3505,
    "ņŘŗś": 3506,
    "įĤŝł": 3507,
    "ĒŸŗĖ": 3508,
    "ŅřņŞšĺĤĵĒ": 3509,
    "Ġľļ": 3510,
    "ŖŕŔœ": 3511,
    "łŕŀş": 3512,
    "šĦĥģĒ": 3513,
    "ıłŀ": 3514,
    "ĵĻľľ": 3515,
    "ħŗŕŜĖ": 3516,
    "ĠŞőŋ": 3517,
    "ņŞĮĻīĸ": 3518,
    "řĳĺĤŰ": 3519,
    "ŐŏšĺĤĵĒ": 3520,
    "ĲĻļĠ": 3521,
    "ŖŃĳħĢķ": 3522,
    "čĥŁńŀŗ": 3523,
    "ŁŞĨľŬ": 3524,
    "Łŕŀŀ": 3525,
    "ħŝŅŞŒš": 3526,
    "ĲīľĦ": 3527,
    "šĺĤĢŝŅŕŞ": 3528,
    "Źř": 3529,
    "Ĳį": 3530,
    "Řş": 3531,
    "ŘŃ": 3532,
    "ăĻ": 3533,
    "ĕġ": 3534,
    "Īħ": 3535,
    "Łŏ": 3536,
    "śŒš": 3537,
    "ıīĨŰ": 3538,
    "œŞŋĖ": 3539,
    "ŗŞņş": 3540,
    "ķŀŕ": 3541,
    "ĿĤŀř": 3542,
    "įġŬ": 3543,
    "ĭģĒńŚœš": 3544,
    "ŗŘĵħ": 3545,
    "ĹŜĐœĖ": 3546,
    "ĠıŜŔĒ": 3547,
    "ıŁĐœĖ": 3548,
    "śŃņĖ": 3549,
    "ŒĨĽ": 3550,
    "ŝŝŀ": 3551,
    "şşŁł": 3552,
    "ĠĹĽ": 3553,
    "ĨĢġŰ": 3554,
    "įįĵĒ": 3555,
    "ăŗŀ": 3556,
    "ĤĹŕŘ": 3557,
    "ĴĽĸŰ": 3558,
    "řřŜőš": 3559,
    "ŅŞĤĠŬ": 3560,
    "ĮľŬ": 3561,
    "ĤīĸŰ": 3562,
    "ĺĹŗŇ": 3563,
    "ķīĢŰ": 3564,
    "şŀłĩŮ": 3565,
    "ĲŇŝ": 3566,
    "ĩĴĒŒŋĖĵĦĩŰ": 3567,
    "Ŀĵŀņ": 3568,
    "įĮĿŇń": 3569,
    "Şł": 3570,
    "ĚĹ": 3571,
    "Ďĵ": 3572,
    "Ďļ": 3573,
    "Źş": 3574,
    "ŋń": 3575,
    "ĨįĢ": 3576,
    "œŚř": 3577,
    "ĩľŗł": 3578,
    "Łşį": 3579,
    "ŗłśŕ": 3580,
    "įŮĭľŖĐ": 3581,
    "őłŗŗ": 3582,
    "ıŁĐņŞĤŮ": 3583,
    "ĥĳŗĐ": 3584,
    "ĥģņş": 3585,
    "ĵħĩģĒ": 3586,
    "śŜř": 3587,
    "įĸŰņŘŗĖ": 3588,
    "ĶŝŜ": 3589,
    "ŝŘĭķŬ": 3590,
    "ĒśĨĢ": 3591,
    "ĶĦĩľ": 3592,
    "ņőśŘ": 3593,
    "ģĻĥļ": 3594,
    "ŕŜŕĤŮ": 3595,
    "Ġĺĸļ": 3596,
    "ļĥŐŜ": 3597,
    "ĤįġŰ": 3598,
    "ĮħĢĤ": 3599,
    "ďīĻŰ": 3600,
    "ĳħĸĹŁŘ": 3601,
    "ěğŰ": 3602,
    "żŕŅĖ": 3603,
    "ıŕőśŘ": 3604,
    "ăŗŀņœ": 3605,
    "ġģ": 3606,
    "ĈĹ": 3607,
    "ŰŚ": 3608,
    "šĸ": 3609,
    "ħĹ": 3610,
    "ĵĠ": 3611,
    "Ťş": 3612,
    "Ēġ": 3613,
    "ēħ": 3614,
    "ŵœ": 3615,
    "ėŗł": 3616,
    "ħśŞ": 3617,
    "őŜœ": 3618,
    "ıŜś": 3619,
    "ġĵŖĐ": 3620,
    "őşŗ": 3621,
    "ŗŔĒŞ": 3622,
    "ĹŜņ": 3623,
    "ĨĺĩŰ": 3624,
    "ĢŗŔ": 3625,
    "őńŝń": 3626,
    "śŞŕĖĵġŬ": 3627,
    "ņœĲŮ": 3628,
    "Ēŀŀœ": 3629,
    "ĮĢĨŰ": 3630,
    "ĠĽģľ": 3631,
    "őşŇŘ": 3632,
    "şŔĖĵĦĩŰ": 3633,
    "ŝŀĤļŬ": 3634,
    "Ēłŗś": 3635,
    "Ēŵĩ": 3636,
    "ŝńĪŮ": 3637,
    "Ŀĵőş": 3638,
    "ĿŜŜŋĖ": 3639,
    "ĠĢĮĥ": 3640,
    "ŝŅŜŒ": 3641,
    "ĸĸŗŝ": 3642,
    "ŐŅśŚ": 3643,
    "ĠħĨŰ": 3644,
    "ĲħįŰ": 3645,
    "ģļŝŗ": 3646,
    "ĭĹŜŕŖĖ": 3647,
    "ĬġĿĤ": 3648,
    "ħġĹĢ": 3649,
    "ĒşŜĖĵĦĩŰ": 3650,
    "ħĢĳŞŅ": 3651,
    "ņŘŀœĤŮ": 3652,
    "ŜŅşŔ": 3653,
    "œŜŐŃĬŮ": 3654,
    "ųŞ": 3655,
    "Āĭ": 3656,
    "ĨĶ": 3657,
    "ĤŚř": 3658,
    "ŝŒš": 3659,
    "ħĢĵ": 3660,
    "ĭĤĿ": 3661,
    "ŝŘĥŮ": 3662,
    "őŜŅ": 3663,
    "őŞř": 3664,
    "ĩľı": 3665,
    "įľĵ": 3666,
    "ŗŔĒŔ": 3667,
    "ŝŖĒŗ": 3668,
    "ĭģŬ": 3669,
    "őłņ": 3670,
    "śŘĤĽŬ": 3671,
    "ĥīĿŰ": 3672,
    "ŔśŅ": 3673,
    "įĸĵŁĐ": 3674,
    "ŔŅŞ": 3675,
    "ĤĢĨŰ": 3676,
    "ļĿŜ": 3677,
    "ĩħīĸ": 3678,
    "ŀŕŞœ": 3679,
    "ĩĳŝŞ": 3680,
    "šľĩĢ": 3681,
    "ĴĽĩŰ": 3682,
    "ĥŀŕĒ": 3683,
    "ĠĭĤŰ": 3684,
    "ĤģĩľņĐ": 3685,
    "ħœŉ": 3686,
    "ŕłŝŃ": 3687,
    "ĭĲŞŕĒ": 3688,
    "ĪĿŇł": 3689,
[...]
