{
  "vocab_size": 400,
  "special_tokens": [
    "<pad>",
    "<bos>",
    "<eos>",
    "<unk>"
  ],
  "split_pattern": "[ ]?[a-zA-Z]+|[ ]?[0-9]+|[^ a-zA-Z0-9]+|\\s+",
  "merges": [
    [
      " ",
      "t"
    ],
    [
      "h",
      "e"
    ],
    [
      " ",
      "a"
    ],
    [
      "i",
      "n"
    ],
    [
      " t",
      "he"
    ],
    [
      "e",
      "r"
    ],
    [
      "o",
      "n"
    ],
    [
      " ",
      "s"
    ],
    [
      "e",
      "d"
    ],
    [
      "r",
      "e"
    ],
    [
      " ",
      "w"
    ],
    [
      " ",
      "o"
    ],
    [
      "n",
      "d"
    ],
    [
      "a",
      "t"
    ],
    [
      "o",
      "r"
    ],
    [
      "i",
      "t"
    ],
    [
      "e",
      "n"
    ],
    [
      " ",
      "f"
    ],
    [
      " ",
      "c"
    ],
    [
      "e",
      "s"
    ],
    [
      "a",
      "n"
    ],
    [
      "a",
      "r"
    ],
    [
      " o",
      "f"
    ],
    [
      "i",
      "s"
    ],
    [
      " ",
      "in"
    ],
    [
      " ",
      "b"
    ],
    [
      "a",
      "l"
    ],
    [
      "in",
      "g"
    ],
    [
      " ",
      "p"
    ],
    [
      "a",
      "s"
    ],
    [
      " a",
      "nd"
    ],
    [
      " t",
      "o"
    ],
    [
      "r",
      "o"
    ],
    [
      " ",
      "m"
    ],
    [
      "i",
      "c"
    ],
    [
      " ",
      "d"
    ],
    [
      " ",
      "h"
    ],
    [
      "i",
      "on"
    ],
    [
      "o",
      "u"
    ],
    [
      "l",
      "e"
    ],
    [
      " ",
      "T"
    ],
    [
      " ",
      "re"
    ],
    [
      "i",
      "l"
    ],
    [
      " ",
      "S"
    ],
    [
      " t",
      "h"
    ],
    [
      " ",
      "A"
    ],
    [
      "en",
      "t"
    ],
    [
      "s",
      "t"
    ],
    [
      "a",
      "d"
    ],
    [
      " ",
      "l"
    ],
    [
      " ",
      "C"
    ],
    [
      " ",
      "e"
    ],
    [
      "a",
      "c"
    ],
    [
      " ",
      "n"
    ],
    [
      "a",
      "m"
    ],
    [
      "o",
      "m"
    ],
    [
      " w",
      "as"
    ],
    [
      "l",
      "y"
    ],
    [
      "u",
      "r"
    ],
    [
      " ",
      "M"
    ],
    [
      " ",
      "on"
    ],
    [
      " ",
      "B"
    ],
    [
      "o",
      "l"
    ],
    [
      " b",
      "e"
    ],
    [
      "i",
      "r"
    ],
    [
      "i",
      "d"
    ],
    [
      " ",
      "g"
    ],
    [
      "v",
      "e"
    ],
    [
      "i",
      "g"
    ],
    [
      "i",
      "m"
    ],
    [
      "t",
      "er"
    ],
    [
      " f",
      "or"
    ],
    [
      "c",
      "t"
    ],
    [
      " T",
      "he"
    ],
    [
      "v",
      "er"
    ],
    [
      "o",
      "t"
    ],
    [
      " ",
      "I"
    ],
    [
      "u",
      "t"
    ],
    [
      " a",
      "s"
    ],
    [
      "o",
      "w"
    ],
    [
      " s",
      "t"
    ],
    [
      "a",
      "y"
    ],
    [
      "it",
      "h"
    ],
    [
      "e",
      "l"
    ],
    [
      "e",
      "t"
    ],
    [
      "u",
      "s"
    ],
    [
      " ",
      "H"
    ],
    [
      "at",
      "ion"
    ],
    [
      " ",
      "he"
    ],
    [
      " w",
      "ith"
    ],
    [
      "c",
      "e"
    ],
    [
      " ",
      "R"
    ],
    [
      " ",
      "N"
    ],
    [
      " th",
      "at"
    ],
    [
      "u",
      "n"
    ],
    [
      " ",
      "P"
    ],
    [
      "c",
      "h"
    ],
    [
      "u",
      "l"
    ],
    [
      " a",
      "t"
    ],
    [
      " a",
      "l"
    ],
    [
      " b",
      "y"
    ],
    [
      "e",
      "m"
    ],
    [
      " ",
      "D"
    ],
    [
      " c",
      "on"
    ],
    [
      " w",
      "h"
    ],
    [
      " ",
      "F"
    ],
    [
      "o",
      "s"
    ],
    [
      "a",
      "in"
    ],
    [
      "a",
      "nd"
    ],
    [
      "t",
      "h"
    ],
    [
      " ",
      "J"
    ],
    [
      " ",
      "is"
    ],
    [
      " ",
      "L"
    ],
    [
      " d",
      "e"
    ],
    [
      " ",
      "W"
    ],
    [
      " ",
      "G"
    ],
    [
      "r",
      "i"
    ],
    [
      "ro",
      "m"
    ],
    [
      " a",
      "n"
    ],
    [
      " s",
      "e"
    ],
    [
      "u",
      "m"
    ],
    [
      " ",
      "it"
    ],
    [
      "a",
      "g"
    ],
    [
      "is",
      "t"
    ],
    [
      "er",
      "e"
    ],
    [
      "er",
      "s"
    ],
    [
      "he",
      "r"
    ],
    [
      " ",
      "r"
    ],
    [
      "es",
      "t"
    ],
    [
      " w",
      "ere"
    ],
    [
      "a",
      "p"
    ],
    [
      " f",
      "rom"
    ],
    [
      "o",
      "d"
    ],
    [
      " ",
      "E"
    ],
    [
      " c",
      "om"
    ],
    [
      "or",
      "t"
    ],
    [
      " h",
      "is"
    ],
    [
      "at",
      "e"
    ],
    [
      "re",
      "s"
    ],
    [
      "il",
      "l"
    ],
    [
      "o",
      "p"
    ],
    [
      "ig",
      "h"
    ],
    [
      "u",
      "p"
    ],
    [
      "i",
      "v"
    ],
    [
      "b",
      "er"
    ],
    [
      " ",
      "O"
    ],
    [
      "l",
      "d"
    ],
    [
      "on",
      "g"
    ],
    [
      "o",
      "re"
    ],
    [
      "i",
      "f"
    ],
    [
      "i",
      "an"
    ],
    [
      " p",
      "ro"
    ],
    [
      "e",
      "w"
    ],
    [
      "i",
      "es"
    ],
    [
      "ic",
      "h"
    ],
    [
      "a",
      "k"
    ],
    [
      "i",
      "p"
    ],
    [
      "al",
      "l"
    ],
    [
      " ",
      "U"
    ],
    [
      "at",
      "ed"
    ],
    [
      "it",
      "y"
    ],
    [
      " ",
      "K"
    ],
    [
      "p",
      "e"
    ],
    [
      "s",
      "e"
    ],
    [
      "ar",
      "t"
    ],
    [
      " ",
      "v"
    ],
    [
      "q",
      "u"
    ],
    [
      " p",
      "l"
    ],
    [
      "ar",
      "d"
    ],
    [
      " s",
      "h"
    ],
    [
      "o",
      "c"
    ],
    [
      "g",
      "h"
    ],
    [
      "an",
      "t"
    ],
    [
      "i",
      "ve"
    ],
    [
      "u",
      "st"
    ],
    [
      " h",
      "ad"
    ],
    [
      "a",
      "b"
    ],
    [
      " S",
      "t"
    ],
    [
      "ou",
      "r"
    ],
    [
      " o",
      "r"
    ],
    [
      "u",
      "d"
    ],
    [
      "ac",
      "k"
    ],
    [
      "m",
      "ent"
    ],
    [
      "u",
      "nd"
    ],
    [
      " e",
      "x"
    ],
    [
      "a",
      "v"
    ],
    [
      " ",
      "k"
    ],
    [
      "es",
      "s"
    ],
    [
      "am",
      "e"
    ],
    [
      "g",
      "e"
    ],
    [
      "c",
      "l"
    ],
    [
      "as",
      "t"
    ],
    [
      " I",
      "n"
    ],
    [
      " wh",
      "ich"
    ],
    [
      "r",
      "a"
    ],
    [
      " s",
      "u"
    ],
    [
      " a",
      "re"
    ],
    [
      "i",
      "al"
    ],
    [
      " c",
      "h"
    ],
    [
      "igh",
      "t"
    ],
    [
      "o",
      "st"
    ],
    [
      " C",
      "h"
    ],
    [
      "ou",
      "t"
    ],
    [
      "or",
      "d"
    ],
    [
      "ar",
      "y"
    ],
    [
      "i",
      "a"
    ],
    [
      " n",
      "ot"
    ],
    [
      "is",
      "h"
    ],
    [
      " a",
      "r"
    ],
    [
      "r",
      "it"
    ],
    [
      "p",
      "t"
    ],
    [
      "in",
      "e"
    ],
    [
      "e",
      "ar"
    ],
    [
      "ou",
      "n"
    ],
    [
      " ",
      "le"
    ],
    [
      "ct",
      "ion"
    ],
    [
      " ",
      "un"
    ],
    [
      " ",
      "y"
    ],
    [
      "id",
      "e"
    ],
    [
      "a",
      "ve"
    ],
    [
      "o",
      "g"
    ],
    [
      " in",
      "t"
    ],
    [
      "f",
      "ter"
    ],
    [
      "as",
      "s"
    ],
    [
      "s",
      "o"
    ],
    [
      "ow",
      "n"
    ],
    [
      " H",
      "e"
    ],
    [
      "r",
      "u"
    ],
    [
      "on",
      "d"
    ],
    [
      " ",
      "ro"
    ],
    [
      "el",
      "l"
    ],
    [
      "w",
      "o"
    ],
    [
      "ic",
      "al"
    ],
    [
      " con",
      "t"
    ],
    [
      "r",
      "y"
    ],
    [
      "ig",
      "n"
    ],
    [
      " the",
      "ir"
    ],
    [
      "p",
      "er"
    ],
    [
      "p",
      "l"
    ],
    [
      "t",
      "her"
    ],
    [
      " ",
      "V"
    ],
    [
      "ir",
      "st"
    ],
    [
      "ou",
      "ld"
    ],
    [
      "p",
      "ort"
    ],
    [
      "m",
      "er"
    ],
    [
      " al",
      "so"
    ],
    [
      "f",
      "f"
    ],
    [
      "c",
      "c"
    ],
    [
      "i",
      "e"
    ],
    [
      "T",
      "he"
    ],
    [
      "ou",
      "s"
    ],
    [
      "it",
      "ion"
    ],
    [
      "om",
      "e"
    ],
    [
      " it",
      "s"
    ],
    [
      "u",
      "re"
    ],
    [
      " b",
      "ut"
    ],
    [
      "u",
      "e"
    ],
    [
      " w",
      "he"
    ],
    [
      "l",
      "ow"
    ],
    [
      "or",
      "k"
    ],
    [
      "im",
      "e"
    ],
    [
      "m",
      "an"
    ],
    [
      "r",
      "an"
    ],
    [
      " c",
      "l"
    ],
    [
      " f",
      "irst"
    ],
    [
      "t",
      "ed"
    ],
    [
      " p",
      "er"
    ],
    [
      "t",
      "e"
    ],
    [
      "i",
      "re"
    ],
    [
      "ur",
      "ing"
    ],
    [
      "ag",
      "e"
    ],
    [
      "re",
      "e"
    ],
    [
      " a",
      "g"
    ],
    [
      " re",
      "s"
    ],
    [
      " t",
      "wo"
    ],
    [
      " on",
      "e"
    ],
    [
      "he",
      "d"
    ],
    [
      " a",
      "b"
    ],
    [
      " com",
      "p"
    ],
    [
      "at",
      "er"
    ],
    [
      "o",
      "k"
    ],
    [
      " a",
      "d"
    ],
    [
      "v",
      "ed"
    ],
    [
      " be",
      "en"
    ],
    [
      "u",
      "gh"
    ],
    [
      " s",
      "c"
    ],
    [
      "i",
      "k"
    ],
    [
      " h",
      "ave"
    ],
    [
      "u",
      "b"
    ],
    [
      "ac",
      "h"
    ],
    [
      "en",
      "s"
    ],
    [
      " h",
      "as"
    ],
    [
      "i",
      "z"
    ],
    [
      "i",
      "le"
    ],
    [
      " ",
      "us"
    ],
    [
      "t",
      "s"
    ],
    [
      " t",
      "e"
    ],
    [
      " ",
      "j"
    ],
    [
      " a",
      "p"
    ],
    [
      " re",
      "c"
    ],
    [
      "ou",
      "gh"
    ],
    [
      " of",
      "f"
    ],
    [
      "o",
      "ver"
    ],
    [
      " a",
      "fter"
    ],
    [
      "r",
      "al"
    ],
    [
      " p",
      "art"
    ],
    [
      " ",
      "im"
    ],
    [
      " o",
      "ver"
    ],
    [
      "i",
      "b"
    ],
    [
      "en",
      "ce"
    ],
    [
      " th",
      "is"
    ],
    [
      " ",
      "Y"
    ],
    [
      "cl",
      "ud"
    ],
    [
      " T",
      "h"
    ],
    [
      "al",
      "ly"
    ],
    [
      "re",
      "n"
    ],
    [
      " wh",
      "o"
    ],
    [
      "ou",
      "nd"
    ],
    [
      " d",
      "es"
    ],
    [
      " at",
      "t"
    ],
    [
      "a",
      "w"
    ],
    [
      " he",
      "r"
    ],
    [
      "ac",
      "e"
    ],
    [
      " be",
      "c"
    ],
    [
      " d",
      "is"
    ],
    [
      "ation",
      "s"
    ],
    [
      "at",
      "t"
    ],
    [
      "r",
      "on"
    ],
    [
      " ",
      "en"
    ],
    [
      "or",
      "m"
    ],
    [
      "e",
      "ct"
    ],
    [
      " ",
      "up"
    ],
    [
      " pl",
      "ay"
    ],
    [
      "ar",
      "k"
    ],
    [
      "res",
      "s"
    ],
    [
      " the",
      "y"
    ],
    [
      "ad",
      "e"
    ],
    [
      " o",
      "ut"
    ],
    [
      " I",
      "t"
    ],
    [
      "ul",
      "t"
    ],
    [
      " in",
      "clud"
    ],
    [
      "ur",
      "n"
    ],
    [
      "ic",
      "e"
    ]
  ],
  "vocab": {
    "<pad>": 0,
    "<bos>": 1,
    "<eos>": 2,
    "<unk>": 3,
    " ": 4,
    "A": 5,
    "B": 6,
    "C": 7,
    "D": 8,
    "E": 9,
    "F": 10,
    "G": 11,
    "H": 12,
    "I": 13,
    "J": 14,
    "K": 15,
    "L": 16,
    "M": 17,
    "N": 18,
    "O": 19,
    "P": 20,
    "Q": 21,
    "R": 22,
    "S": 23,
    "T": 24,
    "U": 25,
    "V": 26,
    "W": 27,
    "X": 28,
    "Y": 29,
    "Z": 30,
    "a": 31,
    "b": 32,
    "c": 33,
    "d": 34,
    "e": 35,
    "f": 36,
    "g": 37,
    "h": 38,
    "i": 39,
    "j": 40,
    "k": 41,
    "l": 42,
    "m": 43,
    "n": 44,
    "o": 45,
    "p": 46,
    "q": 47,
    "r": 48,
    "s": 49,
    "t": 50,
    "u": 51,
    "v": 52,
    "w": 53,
    "x": 54,
    "y": 55,
    "z": 56,
    " t": 57,
    "he": 58,
    " a": 59,
    "in": 60,
    " the": 61,
    "er": 62,
    "on": 63,
    " s": 64,
    "ed": 65,
    "re": 66,
    " w": 67,
    " o": 68,
    "nd": 69,
    "at": 70,
    "or": 71,
    "it": 72,
    "en": 73,
    " f": 74,
    " c": 75,
    "es": 76,
    "an": 77,
    "ar": 78,
    " of": 79,
    "is": 80,
    " in": 81,
    " b": 82,
    "al": 83,
    "ing": 84,
    " p": 85,
    "as": 86,
    " and": 87,
    " to": 88,
    "ro": 89,
    " m": 90,
    "ic": 91,
    " d": 92,
    " h": 93,
    "ion": 94,
    "ou": 95,
    "le": 96,
    " T": 97,
    " re": 98,
    "il": 99,
    " S": 100,
    " th": 101,
    " A": 102,
    "ent": 103,
    "st": 104,
    "ad": 105,
    " l": 106,
    " C": 107,
    " e": 108,
    "ac": 109,
    " n": 110,
    "am": 111,
    "om": 112,
    " was": 113,
    "ly": 114,
    "ur": 115,
    " M": 116,
    " on": 117,
    " B": 118,
    "ol": 119,
    " be": 120,
    "ir": 121,
    "id": 122,
    " g": 123,
    "ve": 124,
    "ig": 125,
    "im": 126,
    "ter": 127,
    " for": 128,
    "ct": 129,
    " The": 130,
    "ver": 131,
    "ot": 132,
    " I": 133,
    "ut": 134,
    " as": 135,
    "ow": 136,
    " st": 137,
    "ay": 138,
    "ith": 139,
    "el": 140,
    "et": 141,
    "us": 142,
    " H": 143,
    "ation": 144,
    " he": 145,
    " with": 146,
    "ce": 147,
    " R": 148,
    " N": 149,
    " that": 150,
    "un": 151,
    " P": 152,
    "ch": 153,
    "ul": 154,
    " at": 155,
    " al": 156,
    " by": 157,
    "em": 158,
    " D": 159,
    " con": 160,
    " wh": 161,
    " F": 162,
    "os": 163,
    "ain": 164,
    "and": 165,
    "th": 166,
    " J": 167,
    " is": 168,
    " L": 169,
    " de": 170,
    " W": 171,
    " G": 172,
    "ri": 173,
    "rom": 174,
    " an": 175,
    " se": 176,
    "um": 177,
    " it": 178,
    "ag": 179,
    "ist": 180,
    "ere": 181,
    "ers": 182,
    "her": 183,
    " r": 184,
    "est": 185,
    " were": 186,
    "ap": 187,
    " from": 188,
    "od": 189,
    " E": 190,
    " com": 191,
    "ort": 192,
    " his": 193,
    "ate": 194,
    "res": 195,
    "ill": 196,
    "op": 197,
    "igh": 198,
    "up": 199,
    "iv": 200,
    "ber": 201,
    " O": 202,
    "ld": 203,
    "ong": 204,
    "ore": 205,
    "if": 206,
    "ian": 207,
    " pro": 208,
    "ew": 209,
    "ies": 210,
    "ich": 211,
    "ak": 212,
    "ip": 213,
    "all": 214,
    " U": 215,
    "ated": 216,
    "ity": 217,
    " K": 218,
    "pe": 219,
    "se": 220,
    "art": 221,
    " v": 222,
    "qu": 223,
    " pl": 224,
    "ard": 225,
    " sh": 226,
    "oc": 227,
    "gh": 228,
    "ant": 229,
    "ive": 230,
    "ust": 231,
    " had": 232,
    "ab": 233,
    " St": 234,
    "our": 235,
    " or": 236,
    "ud": 237,
    "ack": 238,
    "ment": 239,
    "und": 240,
    " ex": 241,
    "av": 242,
    " k": 243,
    "ess": 244,
    "ame": 245,
    "ge": 246,
    "cl": 247,
    "ast": 248,
    " In": 249,
    " which": 250,
    "ra": 251,
    " su": 252,
    " are": 253,
    "ial": 254,
    " ch": 255,
    "ight": 256,
    "ost": 257,
    " Ch": 258,
    "out": 259,
    "ord": 260,
    "ary": 261,
    "ia": 262,
    " not": 263,
    "ish": 264,
    " ar": 265,
    "rit": 266,
    "pt": 267,
    "ine": 268,
    "ear": 269,
    "oun": 270,
    " le": 271,
    "ction": 272,
    " un": 273,
    " y": 274,
    "ide": 275,
    "ave": 276,
    "og": 277,
    " int": 278,
    "fter": 279,
    "ass": 280,
    "so": 281,
    "own": 282,
    " He": 283,
    "ru": 284,
    "ond": 285,
    " ro": 286,
    "ell": 287,
    "wo": 288,
    "ical": 289,
    " cont": 290,
    "ry": 291,
    "ign": 292,
    " their": 293,
    "per": 294,
    "pl": 295,
    "ther": 296,
    " V": 297,
    "irst": 298,
    "ould": 299,
    "port": 300,
    "mer": 301,
    " also": 302,
    "ff": 303,
    "cc": 304,
    "ie": 305,
    "The": 306,
    "ous": 307,
    "ition": 308,
    "ome": 309,
    " its": 310,
    "ure": 311,
    " but": 312,
    "ue": 313,
    " whe": 314,
    "low": 315,
    "ork": 316,
    "ime": 317,
    "man": 318,
    "ran": 319,
    " cl": 320,
    " first": 321,
    "ted": 322,
    " per": 323,
    "te": 324,
    "ire": 325,
    "uring": 326,
    "age": 327,
    "ree": 328,
    " ag": 329,
    " res": 330,
    " two": 331,
    " one": 332,
    "hed": 333,
    " ab": 334,
    " comp": 335,
    "ater": 336,
    "ok": 337,
    " ad": 338,
    "ved": 339,
    " been": 340,
    "ugh": 341,
    " sc": 342,
    "ik": 343,
    " have": 344,
    "ub": 345,
    "ach": 346,
    "ens": 347,
    " has": 348,
    "iz": 349,
    "ile": 350,
    " us": 351,
    "ts": 352,
    " te": 353,
    " j": 354,
    " ap": 355,
    " rec": 356,
    "ough": 357,
    " off": 358,
    "over": 359,
    " after": 360,
    "ral": 361,
    " part": 362,
    " im": 363,
    " over": 364,
    "ib": 365,
    "ence": 366,
    " this": 367,
    " Y": 368,
    "clud": 369,
    " Th": 370,
    "ally": 371,
    "ren": 372,
    " who": 373,
    "ound": 374,
    " des": 375,
    " att": 376,
    "aw": 377,
    " her": 378,
    "ace": 379,
    " bec": 380,
    " dis": 381,
    "ations": 382,
    "att": 383,
    "ron": 384,
    " en": 385,
    "orm": 386,
    "ect": 387,
    " up": 388,
    " play": 389,
    "ark": 390,
    "ress": 391,
    " they": 392,
    "ade": 393,
    " out": 394,
    " It": 395,
    "ult": 396,
    " includ": 397,
    "urn": 398,
    "ice": 399
  }
}