{
  "vocab_size": 4000,
  "special_tokens": [
    "<pad>",
    "<bos>",
    "<eos>",
    "<unk>"
  ],
  "split_pattern": "[ ]?[a-zA-Z]+|[ ]?[0-9]+|[^ a-zA-Z0-9]+|\\s+",
  "merges": [
    [
      " ",
      "t"
    ],
    [
      "h",
      "e"
    ],
    [
      " ",
      "a"
    ],
    [
      "i",
      "n"
    ],
    [
      " t",
      "he"
    ],
    [
      "e",
      "r"
    ],
    [
      "o",
      "n"
    ],
    [
      " ",
      "s"
    ],
    [
      "e",
      "d"
    ],
    [
      "r",
      "e"
    ],
    [
      " ",
      "w"
    ],
    [
      " ",
      "o"
    ],
    [
      "n",
      "d"
    ],
    [
      "a",
      "t"
    ],
    [
      "o",
      "r"
    ],
    [
      "i",
      "t"
    ],
    [
      "e",
      "n"
    ],
    [
      " ",
      "f"
    ],
    [
      " ",
      "c"
    ],
    [
      "e",
      "s"
    ],
    [
      "a",
      "n"
    ],
    [
      "a",
      "r"
    ],
    [
      " o",
      "f"
    ],
    [
      "i",
      "s"
    ],
    [
      " ",
      "in"
    ],
    [
      " ",
      "b"
    ],
    [
      "a",
      "l"
    ],
    [
      "in",
      "g"
    ],
    [
      " ",
      "p"
    ],
    [
      "a",
      "s"
    ],
    [
      " a",
      "nd"
    ],
    [
      " t",
      "o"
    ],
    [
      "r",
      "o"
    ],
    [
      " ",
      "m"
    ],
    [
      "i",
      "c"
    ],
    [
      " ",
      "d"
    ],
    [
      " ",
      "h"
    ],
    [
      "i",
      "on"
    ],
    [
      "o",
      "u"
    ],
    [
      "l",
      "e"
    ],
    [
      " ",
      "T"
    ],
    [
      " ",
      "re"
    ],
    [
      "i",
      "l"
    ],
    [
      " ",
      "S"
    ],
    [
      " t",
      "h"
    ],
    [
      " ",
      "A"
    ],
    [
      "en",
      "t"
    ],
    [
      "s",
      "t"
    ],
    [
      "a",
      "d"
    ],
    [
      " ",
      "l"
    ],
    [
      " ",
      "C"
    ],
    [
      " ",
      "e"
    ],
    [
      "a",
      "c"
    ],
    [
      " ",
      "n"
    ],
    [
      "a",
      "m"
    ],
    [
      "o",
      "m"
    ],
    [
      " w",
      "as"
    ],
    [
      "l",
      "y"
    ],
    [
      "u",
      "r"
    ],
    [
      " ",
      "M"
    ],
    [
      " ",
      "on"
    ],
    [
      " ",
      "B"
    ],
    [
      "o",
      "l"
    ],
    [
      " b",
      "e"
    ],
    [
      "i",
      "r"
    ],
    [
      "i",
      "d"
    ],
    [
      " ",
      "g"
    ],
    [
      "v",
      "e"
    ],
    [
      "i",
      "g"
    ],
    [
      "i",
      "m"
    ],
    [
      "t",
      "er"
    ],
    [
      " f",
      "or"
    ],
    [
      "c",
      "t"
    ],
    [
      " T",
      "he"
    ],
    [
      "v",
      "er"
    ],
    [
      "o",
      "t"
    ],
    [
      " ",
      "I"
    ],
    [
      "u",
      "t"
    ],
    [
      " a",
      "s"
    ],
    [
      "o",
      "w"
    ],
    [
      " s",
      "t"
    ],
    [
      "a",
      "y"
    ],
    [
      "it",
      "h"
    ],
    [
      "e",
      "l"
    ],
    [
      "e",
      "t"
    ],
    [
      "u",
      "s"
    ],
    [
      " ",
      "H"
    ],
    [
      "at",
      "ion"
    ],
    [
      " ",
      "he"
    ],
    [
      " w",
      "ith"
    ],
    [
      "c",
      "e"
    ],
    [
      " ",
      "R"
    ],
    [
      " ",
      "N"
    ],
    [
      " th",
      "at"
    ],
    [
      "u",
      "n"
    ],
    [
      " ",
      "P"
    ],
    [
      "c",
      "h"
    ],
    [
      "u",
      "l"
    ],
    [
      " a",
      "t"
    ],
    [
      " a",
      "l"
    ],
    [
      " b",
      "y"
    ],
    [
      "e",
      "m"
    ],
    [
      " ",
      "D"
    ],
    [
      " c",
      "on"
    ],
    [
      " w",
      "h"
    ],
    [
      " ",
      "F"
    ],
    [
      "o",
      "s"
    ],
    [
      "a",
      "in"
    ],
    [
      "a",
      "nd"
    ],
    [
      "t",
      "h"
    ],
    [
      " ",
      "J"
    ],
    [
      " ",
      "is"
    ],
    [
      " ",
      "L"
    ],
    [
      " d",
      "e"
    ],
    [
      " ",
      "W"
    ],
    [
      " ",
      "G"
    ],
    [
      "r",
      "i"
    ],
    [
      "ro",
      "m"
    ],
    [
      " a",
      "n"
    ],
    [
      " s",
      "e"
    ],
    [
      "u",
      "m"
    ],
    [
      " ",
      "it"
    ],
    [
      "a",
      "g"
    ],
    [
      "is",
      "t"
    ],
    [
      "er",
      "e"
    ],
    [
      "er",
      "s"
    ],
    [
      "he",
      "r"
    ],
    [
      " ",
      "r"
    ],
    [
      "es",
      "t"
    ],
    [
      " w",
      "ere"
    ],
    [
      "a",
      "p"
    ],
    [
      " f",
      "rom"
    ],
    [
      "o",
      "d"
    ],
    [
      " ",
      "E"
    ],
    [
      " c",
      "om"
    ],
    [
      "or",
      "t"
    ],
    [
      " h",
      "is"
    ],
    [
      "at",
      "e"
    ],
    [
      "re",
      "s"
    ],
    [
      "il",
      "l"
    ],
    [
      "o",
      "p"
    ],
    [
      "ig",
      "h"
    ],
    [
      "u",
      "p"
    ],
    [
      "i",
      "v"
    ],
    [
      "b",
      "er"
    ],
    [
      " ",
      "O"
    ],
    [
      "l",
      "d"
    ],
    [
      "on",
      "g"
    ],
    [
      "o",
      "re"
    ],
    [
      "i",
      "f"
    ],
    [
      "i",
      "an"
    ],
    [
      " p",
      "ro"
    ],
    [
      "e",
      "w"
    ],
    [
      "i",
      "es"
    ],
    [
      "ic",
      "h"
    ],
    [
      "a",
      "k"
    ],
    [
      "i",
      "p"
    ],
    [
      "al",
      "l"
    ],
    [
      " ",
      "U"
    ],
    [
      "at",
      "ed"
    ],
    [
      "it",
      "y"
    ],
    [
      " ",
      "K"
    ],
    [
      "p",
      "e"
    ],
    [
      "s",
      "e"
    ],
    [
      "ar",
      "t"
    ],
    [
      " ",
      "v"
    ],
    [
      "q",
      "u"
    ],
    [
      " p",
      "l"
    ],
    [
      "ar",
      "d"
    ],
    [
      " s",
      "h"
    ],
    [
      "o",
      "c"
    ],
    [
      "g",
      "h"
    ],
    [
      "an",
      "t"
    ],
    [
      "i",
      "ve"
    ],
    [
      "u",
      "st"
    ],
    [
      " h",
      "ad"
    ],
    [
      "a",
      "b"
    ],
    [
      " S",
      "t"
    ],
    [
      "ou",
      "r"
    ],
    [
      " o",
      "r"
    ],
    [
      "u",
      "d"
    ],
    [
      "ac",
      "k"
    ],
    [
      "m",
      "ent"
    ],
    [
      "u",
      "nd"
    ],
    [
      " e",
      "x"
    ],
    [
      "a",
      "v"
    ],
    [
      " ",
      "k"
    ],
    [
      "es",
      "s"
    ],
    [
      "am",
      "e"
    ],
    [
      "g",
      "e"
    ],
    [
      "c",
      "l"
    ],
    [
      "as",
      "t"
    ],
    [
      " I",
      "n"
    ],
    [
      " wh",
      "ich"
    ],
    [
      "r",
      "a"
    ],
    [
      " s",
      "u"
    ],
    [
      " a",
      "re"
    ],
    [
      "i",
      "al"
    ],
    [
      " c",
      "h"
    ],
    [
      "igh",
      "t"
    ],
    [
      "o",
      "st"
    ],
    [
      " C",
      "h"
    ],
    [
      "ou",
      "t"
    ],
    [
      "or",
      "d"
    ],
    [
      "ar",
      "y"
    ],
    [
      "i",
      "a"
    ],
    [
      " n",
      "ot"
    ],
    [
      "is",
      "h"
    ],
    [
      " a",
      "r"
    ],
    [
      "r",
      "it"
    ],
    [
      "p",
      "t"
    ],
    [
      "in",
      "e"
    ],
    [
      "e",
      "ar"
    ],
    [
      "ou",
      "n"
    ],
    [
      " ",
      "le"
    ],
    [
      "ct",
      "ion"
    ],
    [
      " ",
      "un"
    ],
    [
      " ",
      "y"
    ],
    [
      "id",
      "e"
    ],
    [
      "a",
      "ve"
    ],
    [
      "o",
      "g"
    ],
    [
      " in",
      "t"
    ],
    [
      "f",
      "ter"
    ],
    [
      "as",
      "s"
    ],
    [
      "s",
      "o"
    ],
    [
      "ow",
      "n"
    ],
    [
      " H",
      "e"
    ],
    [
      "r",
      "u"
    ],
    [
      "on",
      "d"
    ],
    [
      " ",
      "ro"
    ],
    [
      "el",
      "l"
    ],
    [
      "w",
      "o"
    ],
    [
      "ic",
      "al"
    ],
    [
      " con",
      "t"
    ],
    [
      "r",
      "y"
    ],
    [
      "ig",
      "n"
    ],
    [
      " the",
      "ir"
    ],
    [
      "p",
      "er"
    ],
    [
      "p",
      "l"
    ],
    [
      "t",
      "her"
    ],
    [
      " ",
      "V"
    ],
    [
      "ir",
      "st"
    ],
    [
      "ou",
      "ld"
    ],
    [
      "p",
      "ort"
    ],
    [
      "m",
      "er"
    ],
    [
      " al",
      "so"
    ],
    [
      "f",
      "f"
    ],
    [
      "c",
      "c"
    ],
    [
      "i",
      "e"
    ],
    [
      "T",
      "he"
    ],
    [
      "ou",
      "s"
    ],
    [
      "it",
      "ion"
    ],
    [
      "om",
      "e"
    ],
    [
      " it",
      "s"
    ],
    [
      "u",
      "re"
    ],
    [
      " b",
      "ut"
    ],
    [
      "u",
      "e"
    ],
    [
      " w",
      "he"
    ],
    [
      "l",
      "ow"
    ],
    [
      "or",
      "k"
    ],
    [
      "im",
      "e"
    ],
    [
      "m",
      "an"
    ],
    [
      "r",
      "an"
    ],
    [
      " c",
      "l"
    ],
    [
      " f",
      "irst"
    ],
    [
      "t",
      "ed"
    ],
    [
      " p",
      "er"
    ],
    [
      "t",
      "e"
    ],
    [
      "i",
      "re"
    ],
    [
      "ur",
      "ing"
    ],
    [
      "ag",
      "e"
    ],
    [
      "re",
      "e"
    ],
    [
      " a",
      "g"
    ],
    [
      " re",
      "s"
    ],
    [
      " t",
      "wo"
    ],
    [
      " on",
      "e"
    ],
    [
      "he",
      "d"
    ],
    [
      " a",
      "b"
    ],
    [
      " com",
      "p"
    ],
    [
      "at",
      "er"
    ],
    [
      "o",
      "k"
    ],
    [
      " a",
      "d"
    ],
    [
      "v",
      "ed"
    ],
    [
      " be",
      "en"
    ],
    [
      "u",
      "gh"
    ],
    [
      " s",
      "c"
    ],
    [
      "i",
      "k"
    ],
    [
      " h",
      "ave"
    ],
    [
      "u",
      "b"
    ],
    [
      "ac",
      "h"
    ],
    [
      "en",
      "s"
    ],
    [
      " h",
      "as"
    ],
    [
      "i",
      "z"
    ],
    [
      "i",
      "le"
    ],
    [
      " ",
      "us"
    ],
    [
      "t",
      "s"
    ],
    [
      " t",
      "e"
    ],
    [
      " ",
      "j"
    ],
    [
      " a",
      "p"
    ],
    [
      " re",
      "c"
    ],
    [
      "ou",
      "gh"
    ],
    [
      " of",
      "f"
    ],
    [
      "o",
      "ver"
    ],
    [
      " a",
      "fter"
    ],
    [
      "r",
      "al"
    ],
    [
      " p",
      "art"
    ],
    [
      " ",
      "im"
    ],
    [
      " o",
      "ver"
    ],
    [
      "i",
      "b"
    ],
    [
      "en",
      "ce"
    ],
    [
      " th",
      "is"
    ],
    [
      " ",
      "Y"
    ],
    [
      "cl",
      "ud"
    ],
    [
      " T",
      "h"
    ],
    [
      "al",
      "ly"
    ],
    [
      "re",
      "n"
    ],
    [
      " wh",
      "o"
    ],
    [
      "ou",
      "nd"
    ],
    [
      " d",
      "es"
    ],
    [
      " at",
      "t"
    ],
    [
      "a",
      "w"
    ],
    [
      " he",
      "r"
    ],
    [
      "ac",
      "e"
    ],
    [
      " be",
      "c"
    ],
    [
      " d",
      "is"
    ],
    [
      "ation",
      "s"
    ],
    [
      "at",
      "t"
    ],
    [
      "r",
      "on"
    ],
    [
      " ",
      "en"
    ],
    [
      "or",
      "m"
    ],
    [
      "e",
      "ct"
    ],
    [
      " ",
      "up"
    ],
    [
      " pl",
      "ay"
    ],
    [
      "ar",
      "k"
    ],
    [
      "res",
      "s"
    ],
    [
      " the",
      "y"
    ],
    [
      "ad",
      "e"
    ],
    [
      " o",
      "ut"
    ],
    [
      " I",
      "t"
    ],
    [
      "ul",
      "t"
    ],
    [
      " in",
      "clud"
    ],
    [
      "ur",
      "n"
    ],
    [
      "ic",
      "e"
    ],
    [
      " s",
      "er"
    ],
    [
      "w",
      "ard"
    ],
    [
      " com",
      "m"
    ],
    [
      " int",
      "o"
    ],
    [
      "in",
      "d"
    ],
    [
      "c",
      "es"
    ],
    [
      " y",
      "ear"
    ],
    [
      "or",
      "th"
    ],
    [
      "c",
      "ed"
    ],
    [
      "ion",
      "s"
    ],
    [
      "l",
      "and"
    ],
    [
      "i",
      "ed"
    ],
    [
      " t",
      "ime"
    ],
    [
      " m",
      "an"
    ],
    [
      " S",
      "e"
    ],
    [
      "is",
      "s"
    ],
    [
      "ac",
      "t"
    ],
    [
      " n",
      "e"
    ],
    [
      "d",
      "u"
    ],
    [
      "ic",
      "an"
    ],
    [
      "ro",
      "ugh"
    ],
    [
      " e",
      "v"
    ],
    [
      "l",
      "l"
    ],
    [
      "o",
      "in"
    ],
    [
      "os",
      "e"
    ],
    [
      "ol",
      "d"
    ],
    [
      "it",
      "ed"
    ],
    [
      " o",
      "ther"
    ],
    [
      " U",
      "n"
    ],
    [
      "p",
      "h"
    ],
    [
      " f",
      "il"
    ],
    [
      " p",
      "re"
    ],
    [
      " re",
      "m"
    ],
    [
      " A",
      "ust"
    ],
    [
      "o",
      "ve"
    ],
    [
      "ic",
      "k"
    ],
    [
      "it",
      "e"
    ],
    [
      " ",
      "und"
    ],
    [
      "w",
      "e"
    ],
    [
      "an",
      "ce"
    ],
    [
      "oun",
      "t"
    ],
    [
      " t",
      "r"
    ],
    [
      "ou",
      "th"
    ],
    [
      " d",
      "uring"
    ],
    [
      "ro",
      "und"
    ],
    [
      "a",
      "il"
    ],
    [
      "f",
      "t"
    ],
    [
      " w",
      "ould"
    ],
    [
      "l",
      "es"
    ],
    [
      "v",
      "i"
    ],
    [
      " A",
      "n"
    ],
    [
      " ag",
      "ain"
    ],
    [
      " in",
      "ter"
    ],
    [
      " m",
      "ore"
    ],
    [
      "on",
      "e"
    ],
    [
      " w",
      "e"
    ],
    [
      " R",
      "e"
    ],
    [
      "as",
      "ed"
    ],
    [
      " al",
      "l"
    ],
    [
      " h",
      "im"
    ],
    [
      "er",
      "ed"
    ],
    [
      "a",
      "re"
    ],
    [
      " D",
      "e"
    ],
    [
      "or",
      "s"
    ],
    [
      "g",
      "an"
    ],
    [
      "ic",
      "t"
    ],
    [
      "w",
      "ay"
    ],
    [
      "or",
      "y"
    ],
    [
      "at",
      "es"
    ],
    [
      " A",
      "r"
    ],
    [
      "n",
      "e"
    ],
    [
      " und",
      "er"
    ],
    [
      " se",
      "c"
    ],
    [
      "h",
      "ip"
    ],
    [
      "am",
      "p"
    ],
    [
      " fil",
      "m"
    ],
    [
      "i",
      "ver"
    ],
    [
      "on",
      "s"
    ],
    [
      "as",
      "e"
    ],
    [
      " e",
      "ar"
    ],
    [
      "o",
      "y"
    ],
    [
      "in",
      "es"
    ],
    [
      "e",
      "nd"
    ],
    [
      "an",
      "g"
    ],
    [
      " s",
      "he"
    ],
    [
      "c",
      "k"
    ],
    [
      " s",
      "pe"
    ],
    [
      " con",
      "s"
    ],
    [
      "s",
      "s"
    ],
    [
      "ab",
      "le"
    ],
    [
      "w",
      "n"
    ],
    [
      "u",
      "il"
    ],
    [
      " U",
      "S"
    ],
    [
      "ol",
      "low"
    ],
    [
      "ve",
      "l"
    ],
    [
      " w",
      "ork"
    ],
    [
      " the",
      "m"
    ],
    [
      " re",
      "t"
    ],
    [
      "ent",
      "s"
    ],
    [
      " de",
      "f"
    ],
    [
      " B",
      "rit"
    ],
    [
      " on",
      "ly"
    ],
    [
      " A",
      "mer"
    ],
    [
      " m",
      "ost"
    ],
    [
      " th",
      "ree"
    ],
    [
      " C",
      "om"
    ],
    [
      " s",
      "up"
    ],
    [
      "n",
      "ing"
    ],
    [
      "is",
      "ion"
    ],
    [
      "ation",
      "al"
    ],
    [
      " e",
      "nd"
    ],
    [
      " p",
      "os"
    ],
    [
      " c",
      "ent"
    ],
    [
      " Aust",
      "ral"
    ],
    [
      " f",
      "l"
    ],
    [
      " be",
      "t"
    ],
    [
      " f",
      "e"
    ],
    [
      " as",
      "s"
    ],
    [
      " n",
      "um"
    ],
    [
      "as",
      "on"
    ],
    [
      "ri",
      "b"
    ],
    [
      " N",
      "ew"
    ],
    [
      "ter",
      "n"
    ],
    [
      " th",
      "rough"
    ],
    [
      "re",
      "at"
    ],
    [
      "f",
      "er"
    ],
    [
      "oc",
      "k"
    ],
    [
      " s",
      "p"
    ],
    [
      "r",
      "ed"
    ],
    [
      " a",
      "ir"
    ],
    [
      " n",
      "ew"
    ],
    [
      "ub",
      "l"
    ],
    [
      "o",
      "od"
    ],
    [
      "in",
      "al"
    ],
    [
      " su",
      "b"
    ],
    [
      "ol",
      "og"
    ],
    [
      " whe",
      "n"
    ],
    [
      "ot",
      "h"
    ],
    [
      "ct",
      "ed"
    ],
    [
      " he",
      "ad"
    ],
    [
      "an",
      "k"
    ],
    [
      " k",
      "n"
    ],
    [
      "ro",
      "p"
    ],
    [
      "a",
      "us"
    ],
    [
      "ter",
      "s"
    ],
    [
      " re",
      "g"
    ],
    [
      "f",
      "ore"
    ],
    [
      " c",
      "ol"
    ],
    [
      "i",
      "x"
    ],
    [
      "ing",
      "s"
    ],
    [
      "an",
      "s"
    ],
    [
      " f",
      "our"
    ],
    [
      "we",
      "en"
    ],
    [
      "u",
      "al"
    ],
    [
      " w",
      "ar"
    ],
    [
      " ab",
      "out"
    ],
    [
      "a",
      "z"
    ],
    [
      " m",
      "e"
    ],
    [
      " M",
      "ar"
    ],
    [
      "m",
      "ber"
    ],
    [
      "u",
      "g"
    ],
    [
      " wh",
      "ile"
    ],
    [
      "a",
      "id"
    ],
    [
      " sh",
      "ip"
    ],
    [
      " d",
      "ay"
    ],
    [
      "b",
      "um"
    ],
    [
      "ak",
      "e"
    ],
    [
      "o",
      "b"
    ],
    [
      " f",
      "ollow"
    ],
    [
      "en",
      "er"
    ],
    [
      " l",
      "ater"
    ],
    [
      " te",
      "am"
    ],
    [
      " g",
      "ro"
    ],
    [
      " whe",
      "re"
    ],
    [
      "at",
      "ing"
    ],
    [
      " G",
      "er"
    ],
    [
      " ",
      "Z"
    ],
    [
      " l",
      "ar"
    ],
    [
      " S",
      "h"
    ],
    [
      " a",
      "ct"
    ],
    [
      " b",
      "uil"
    ],
    [
      " bet",
      "ween"
    ],
    [
      " s",
      "ome"
    ],
    [
      " p",
      "e"
    ],
    [
      " in",
      "v"
    ],
    [
      " s",
      "ong"
    ],
    [
      "em",
      "ber"
    ],
    [
      "I",
      "n"
    ],
    [
      " m",
      "on"
    ],
    [
      " O",
      "n"
    ],
    [
      " m",
      "ade"
    ],
    [
      " al",
      "bum"
    ],
    [
      " a",
      "m"
    ],
    [
      "it",
      "ies"
    ],
    [
      " pro",
      "du"
    ],
    [
      " th",
      "an"
    ],
    [
      " ar",
      "m"
    ],
    [
      "ain",
      "ed"
    ],
    [
      " h",
      "igh"
    ],
    [
      " rec",
      "ord"
    ],
    [
      " Brit",
      "ish"
    ],
    [
      " o",
      "p"
    ],
    [
      " for",
      "m"
    ],
    [
      " I",
      "nd"
    ],
    [
      " W",
      "ar"
    ],
    [
      " sec",
      "ond"
    ],
    [
      " Amer",
      "ican"
    ],
    [
      " se",
      "ver"
    ],
    [
      " again",
      "st"
    ],
    [
      " num",
      "ber"
    ],
    [
      " re",
      "l"
    ],
    [
      "ik",
      "e"
    ],
    [
      "p",
      "ed"
    ],
    [
      " Ger",
      "man"
    ],
    [
      " S",
      "c"
    ],
    [
      " g",
      "ame"
    ],
    [
      "a",
      "j"
    ],
    [
      " c",
      "ar"
    ],
    [
      " be",
      "fore"
    ],
    [
      " be",
      "ing"
    ],
    [
      " re",
      "le"
    ],
    [
      " se",
      "ason"
    ],
    [
      " in",
      "c"
    ],
    [
      "over",
      "n"
    ],
    [
      "or",
      "ld"
    ],
    [
      " A",
      "l"
    ],
    [
      "t",
      "on"
    ],
    [
      "he",
      "s"
    ],
    [
      "ul",
      "l"
    ],
    [
      " c",
      "ity"
    ],
    [
      "i",
      "ent"
    ],
    [
      " s",
      "ur"
    ],
    [
      "o",
      "ok"
    ],
    [
      "at",
      "h"
    ],
    [
      " per",
      "f"
    ],
    [
      " e",
      "m"
    ],
    [
      " ch",
      "ar"
    ],
    [
      " ap",
      "p"
    ],
    [
      " l",
      "oc"
    ],
    [
      "i",
      "o"
    ],
    [
      " p",
      "r"
    ],
    [
      " the",
      "re"
    ],
    [
      "ul",
      "ar"
    ],
    [
      " b",
      "ack"
    ],
    [
      " a",
      "cc"
    ],
    [
      " M",
      "an"
    ],
    [
      "e",
      "ver"
    ],
    [
      " in",
      "f"
    ],
    [
      " a",
      "c"
    ],
    [
      " cont",
      "in"
    ],
    [
      "y",
      "l"
    ],
    [
      "ran",
      "s"
    ],
    [
      "if",
      "ic"
    ],
    [
      " o",
      "per"
    ],
    [
      "am",
      "es"
    ],
    [
      " M",
      "ay"
    ],
    [
      " s",
      "o"
    ],
    [
      "i",
      "el"
    ],
    [
      "c",
      "ial"
    ],
    [
      "ow",
      "er"
    ],
    [
      " b",
      "att"
    ],
    [
      " sever",
      "al"
    ],
    [
      " L",
      "es"
    ],
    [
      " us",
      "ed"
    ],
    [
      "e",
      "k"
    ],
    [
      " c",
      "o"
    ],
    [
      " m",
      "il"
    ],
    [
      "ap",
      "an"
    ],
    [
      " att",
      "ack"
    ],
    [
      " A",
      "t"
    ],
    [
      " ",
      "ent"
    ],
    [
      "ian",
      "s"
    ],
    [
      "ro",
      "ss"
    ],
    [
      "in",
      "ce"
    ],
    [
      "av",
      "y"
    ],
    [
      " J",
      "apan"
    ],
    [
      " in",
      "d"
    ],
    [
      "ic",
      "s"
    ],
    [
      "i",
      "ous"
    ],
    [
      " Un",
      "ited"
    ],
    [
      " c",
      "ap"
    ],
    [
      " de",
      "c"
    ],
    [
      " A",
      "s"
    ],
    [
      " bec",
      "ame"
    ],
    [
      "e",
      "y"
    ],
    [
      " m",
      "et"
    ],
    [
      " al",
      "ong"
    ],
    [
      " des",
      "ign"
    ],
    [
      "i",
      "er"
    ],
    [
      " ",
      "ver"
    ],
    [
      "is",
      "hed"
    ],
    [
      " b",
      "oth"
    ],
    [
      " m",
      "at"
    ],
    [
      " g",
      "un"
    ],
    [
      "ot",
      "her"
    ],
    [
      " ",
      "qu"
    ],
    [
      " includ",
      "ing"
    ],
    [
      " the",
      "n"
    ],
    [
      " s",
      "y"
    ],
    [
      " re",
      "p"
    ],
    [
      "th",
      "ough"
    ],
    [
      "o",
      "v"
    ],
    [
      " w",
      "ell"
    ],
    [
      "is",
      "ed"
    ],
    [
      " C",
      "l"
    ],
    [
      "a",
      "ir"
    ],
    [
      "s",
      "on"
    ],
    [
      " B",
      "e"
    ],
    [
      " p",
      "ol"
    ],
    [
      " su",
      "ch"
    ],
    [
      " p",
      "ubl"
    ],
    [
      "d",
      "er"
    ],
    [
      " m",
      "ill"
    ],
    [
      "vel",
      "op"
    ],
    [
      "er",
      "o"
    ],
    [
      "ur",
      "y"
    ],
    [
      "em",
      "b"
    ],
    [
      " m",
      "ain"
    ],
    [
      " ap",
      "pe"
    ],
    [
      " be",
      "gan"
    ],
    [
      "al",
      "s"
    ],
    [
      " N",
      "orth"
    ],
    [
      "ow",
      "ever"
    ],
    [
      " c",
      "all"
    ],
    [
      " s",
      "m"
    ],
    [
      " the",
      "se"
    ],
    [
      "er",
      "t"
    ],
    [
      "us",
      "ic"
    ],
    [
      "it",
      "s"
    ],
    [
      "u",
      "ch"
    ],
    [
      "un",
      "e"
    ],
    [
      "u",
      "res"
    ],
    [
      " Th",
      "is"
    ],
    [
      " n",
      "o"
    ],
    [
      " de",
      "p"
    ],
    [
      "u",
      "ed"
    ],
    [
      "id",
      "ent"
    ],
    [
      " L",
      "e"
    ],
    [
      " k",
      "m"
    ],
    [
      " g",
      "overn"
    ],
    [
      "r",
      "ap"
    ],
    [
      "at",
      "ive"
    ],
    [
      "p",
      "r"
    ],
    [
      " b",
      "l"
    ],
    [
      "j",
      "ect"
    ],
    [
      " S",
      "he"
    ],
    [
      " w",
      "rit"
    ],
    [
      " c",
      "ould"
    ],
    [
      " f",
      "ound"
    ],
    [
      " t",
      "rans"
    ],
    [
      "ut",
      "e"
    ],
    [
      " man",
      "y"
    ],
    [
      " p",
      "o"
    ],
    [
      " e",
      "le"
    ],
    [
      " ad",
      "d"
    ],
    [
      "t",
      "en"
    ],
    [
      "ist",
      "s"
    ],
    [
      "ac",
      "ed"
    ],
    [
      "iv",
      "ed"
    ],
    [
      " s",
      "ign"
    ],
    [
      " year",
      "s"
    ],
    [
      "es",
      "e"
    ],
    [
      "r",
      "am"
    ],
    [
      " ret",
      "urn"
    ],
    [
      "v",
      "en"
    ],
    [
      "t",
      "ing"
    ],
    [
      " m",
      "in"
    ],
    [
      "el",
      "f"
    ],
    [
      " kn",
      "own"
    ],
    [
      " c",
      "an"
    ],
    [
      "f",
      "ul"
    ],
    [
      " d",
      "id"
    ],
    [
      " d",
      "own"
    ],
    [
      "a",
      "h"
    ],
    [
      " l",
      "ong"
    ],
    [
      " ar",
      "t"
    ],
    [
      " C",
      "ol"
    ],
    [
      " Com",
      "m"
    ],
    [
      " de",
      "velop"
    ],
    [
      " s",
      "ing"
    ],
    [
      "il",
      "y"
    ],
    [
      " ",
      "est"
    ],
    [
      " p",
      "res"
    ],
    [
      "o",
      "ber"
    ],
    [
      " d",
      "ire"
    ],
    [
      "ur",
      "ed"
    ],
    [
      " Se",
      "pt"
    ],
    [
      "he",
      "n"
    ],
    [
      "ment",
      "s"
    ],
    [
      "st",
      "ru"
    ],
    [
      " Sept",
      "ember"
    ],
    [
      " comp",
      "le"
    ],
    [
      "er",
      "n"
    ],
    [
      " d",
      "o"
    ],
    [
      "p",
      "os"
    ],
    [
      " l",
      "and"
    ],
    [
      " J",
      "an"
    ],
    [
      "ar",
      "ed"
    ],
    [
      " off",
      "ic"
    ],
    [
      " gro",
      "up"
    ],
    [
      " le",
      "ad"
    ],
    [
      " l",
      "ike"
    ],
    [
      "e",
      "p"
    ],
    [
      " c",
      "re"
    ],
    [
      "et",
      "s"
    ],
    [
      "iel",
      "d"
    ],
    [
      " h",
      "ist"
    ],
    [
      " s",
      "aid"
    ],
    [
      " t",
      "er"
    ],
    [
      "ar",
      "s"
    ],
    [
      "al",
      "e"
    ],
    [
      "n",
      "ar"
    ],
    [
      "is",
      "e"
    ],
    [
      " re",
      "ce"
    ],
    [
      " lar",
      "ge"
    ],
    [
      " fe",
      "at"
    ],
    [
      "aus",
      "e"
    ],
    [
      "or",
      "n"
    ],
    [
      " n",
      "orth"
    ],
    [
      "o",
      "h"
    ],
    [
      "er",
      "v"
    ],
    [
      " n",
      "ear"
    ],
    [
      "ur",
      "ch"
    ],
    [
      " an",
      "y"
    ],
    [
      " ear",
      "ly"
    ],
    [
      " b",
      "ro"
    ],
    [
      "p",
      "an"
    ],
    [
      "o",
      "ol"
    ],
    [
      " p",
      "op"
    ],
    [
      "iz",
      "ed"
    ],
    [
      "p",
      "le"
    ],
    [
      " o",
      "b"
    ],
    [
      "id",
      "ed"
    ],
    [
      "iv",
      "ision"
    ],
    [
      "x",
      "t"
    ],
    [
      " s",
      "et"
    ],
    [
      " sm",
      "all"
    ],
    [
      " sh",
      "ow"
    ],
    [
      " sup",
      "port"
    ],
    [
      "cc",
      "ess"
    ],
    [
      "ra",
      "ft"
    ],
    [
      " A",
      "ug"
    ],
    [
      " f",
      "in"
    ],
    [
      " B",
      "l"
    ],
    [
      "an",
      "ge"
    ],
    [
      " Aug",
      "ust"
    ],
    [
      " b",
      "r"
    ],
    [
      " P",
      "ol"
    ],
    [
      " p",
      "ers"
    ],
    [
      " st",
      "art"
    ],
    [
      " or",
      "ig"
    ],
    [
      " ser",
      "ies"
    ],
    [
      " st",
      "r"
    ],
    [
      " t",
      "em"
    ],
    [
      "os",
      "p"
    ],
    [
      " a",
      "round"
    ],
    [
      "ir",
      "ed"
    ],
    [
      "o",
      "ot"
    ],
    [
      "op",
      "le"
    ],
    [
      "ak",
      "ing"
    ],
    [
      "b",
      "all"
    ],
    [
      "aj",
      "or"
    ],
    [
      "t",
      "il"
    ],
    [
      "at",
      "her"
    ],
    [
      "k",
      "e"
    ],
    [
      "os",
      "s"
    ],
    [
      " g",
      "od"
    ],
    [
      " J",
      "une"
    ],
    [
      "iver",
      "s"
    ],
    [
      "in",
      "t"
    ],
    [
      " P",
      "h"
    ],
    [
      " S",
      "outh"
    ],
    [
      " w",
      "in"
    ],
    [
      "her",
      "n"
    ],
    [
      " st",
      "ate"
    ],
    [
      " dis",
      "c"
    ],
    [
      " char",
      "ac"
    ],
    [
      " are",
      "a"
    ],
    [
      "ir",
      "on"
    ],
    [
      "r",
      "ist"
    ],
    [
      "s",
      "ide"
    ],
    [
      " Les",
      "nar"
    ],
    [
      "ct",
      "or"
    ],
    [
      " p",
      "ass"
    ],
    [
      "ib",
      "le"
    ],
    [
      " pos",
      "ition"
    ],
    [
      " e",
      "p"
    ],
    [
      "vi",
      "ew"
    ],
    [
      " O",
      "ct"
    ],
    [
      " call",
      "ed"
    ],
    [
      " un",
      "til"
    ],
    [
      "an",
      "n"
    ],
    [
      " g",
      "o"
    ],
    [
      " A",
      "fter"
    ],
    [
      " follow",
      "ing"
    ],
    [
      "ener",
      "al"
    ],
    [
      "ain",
      "ing"
    ],
    [
      "qu",
      "ad"
    ],
    [
      "u",
      "ally"
    ],
    [
      " con",
      "c"
    ],
    [
      " p",
      "rom"
    ],
    [
      " d",
      "if"
    ],
    [
      " A",
      "ll"
    ],
    [
      "e",
      "b"
    ],
    [
      "g",
      "est"
    ],
    [
      "rop",
      "ical"
    ],
    [
      " g",
      "u"
    ],
    [
      " to",
      "ok"
    ],
    [
      "it",
      "t"
    ],
    [
      "ain",
      "s"
    ],
    [
      "r",
      "ic"
    ],
    [
      "l",
      "ed"
    ],
    [
      "if",
      "ied"
    ],
    [
      "at",
      "s"
    ],
    [
      " c",
      "rit"
    ],
    [
      "un",
      "g"
    ],
    [
      " Japan",
      "ese"
    ],
    [
      " C",
      "on"
    ],
    [
      " E",
      "n"
    ],
    [
      "ip",
      "p"
    ],
    [
      "oc",
      "i"
    ],
    [
      " s",
      "outh"
    ],
    [
      "ch",
      "ool"
    ],
    [
      "or",
      "ed"
    ],
    [
      "is",
      "m"
    ],
    [
      " in",
      "st"
    ],
    [
      " N",
      "ove"
    ],
    [
      " Y",
      "ork"
    ],
    [
      " for",
      "ces"
    ],
    [
      "iss",
      "ion"
    ],
    [
      " s",
      "ix"
    ],
    [
      " Oct",
      "ober"
    ],
    [
      "in",
      "a"
    ],
    [
      " o",
      "wn"
    ],
    [
      "o",
      "ad"
    ],
    [
      " B",
      "att"
    ],
    [
      " comm",
      "and"
    ],
    [
      "im",
      "es"
    ],
    [
      "ward",
      "s"
    ],
    [
      " Austral",
      "ian"
    ],
    [
      " rele",
      "ased"
    ],
    [
      " Nove",
      "mber"
    ],
    [
      "id",
      "ge"
    ],
    [
      " b",
      "o"
    ],
    [
      "am",
      "ed"
    ],
    [
      "u",
      "ary"
    ],
    [
      " m",
      "usic"
    ],
    [
      " d",
      "am"
    ],
    [
      " su",
      "ccess"
    ],
    [
      "if",
      "e"
    ],
    [
      "o",
      "ved"
    ],
    [
      "c",
      "rib"
    ],
    [
      "o",
      "on"
    ],
    [
      " d",
      "ist"
    ],
    [
      " cl",
      "ass"
    ],
    [
      " ad",
      "v"
    ],
    [
      " e",
      "ff"
    ],
    [
      "as",
      "k"
    ],
    [
      " F",
      "or"
    ],
    [
      " J",
      "u"
    ],
    [
      " pro",
      "v"
    ],
    [
      "ord",
      "an"
    ],
    [
      " op",
      "en"
    ],
    [
      " t",
      "ro"
    ],
    [
      " k",
      "ill"
    ],
    [
      " re",
      "port"
    ],
    [
      "m",
      "y"
    ],
    [
      " I",
      "s"
    ],
    [
      " p",
      "ort"
    ],
    [
      "t",
      "y"
    ],
    [
      " r",
      "un"
    ],
    [
      " St",
      "e"
    ],
    [
      " p",
      "oin"
    ],
    [
      "on",
      "es"
    ],
    [
      " ",
      "ri"
    ],
    [
      " includ",
      "ed"
    ],
    [
      " o",
      "cc"
    ],
    [
      "olog",
      "y"
    ],
    [
      " mill",
      "ion"
    ],
    [
      " C",
      "ar"
    ],
    [
      " buil",
      "t"
    ],
    [
      " Jan",
      "uary"
    ],
    [
      "l",
      "er"
    ],
    [
      " f",
      "ive"
    ],
    [
      "ren",
      "ch"
    ],
    [
      " w",
      "ind"
    ],
    [
      " to",
      "p"
    ],
    [
      "quad",
      "ron"
    ],
    [
      "u",
      "es"
    ],
    [
      " re",
      "f"
    ],
    [
      " e",
      "ach"
    ],
    [
      " pl",
      "ace"
    ],
    [
      "as",
      "h"
    ],
    [
      " g",
      "r"
    ],
    [
      "ate",
      "ly"
    ],
    [
      " play",
      "ed"
    ],
    [
      " N",
      "ero"
    ],
    [
      " A",
      "d"
    ],
    [
      " M",
      "e"
    ],
    [
      "op",
      "s"
    ],
    [
      " St",
      "ates"
    ],
    [
      " W",
      "orld"
    ],
    [
      " s",
      "ince"
    ],
    [
      " govern",
      "ment"
    ],
    [
      " be",
      "l"
    ],
    [
      "ir",
      "d"
    ],
    [
      "od",
      "e"
    ],
    [
      " st",
      "ud"
    ],
    [
      " pe",
      "ople"
    ],
    [
      "iv",
      "es"
    ],
    [
      "ur",
      "ther"
    ],
    [
      " F",
      "rench"
    ],
    [
      "a",
      "x"
    ],
    [
      "em",
      "pt"
    ],
    [
      " cons",
      "id"
    ],
    [
      "a",
      "i"
    ],
    [
      "it",
      "ary"
    ],
    [
      " ship",
      "s"
    ],
    [
      " publ",
      "ic"
    ],
    [
      "e",
      "c"
    ],
    [
      "oh",
      "n"
    ],
    [
      "ion",
      "al"
    ],
    [
      "us",
      "s"
    ],
    [
      " an",
      "n"
    ],
    [
      " th",
      "ough"
    ],
    [
      " mat",
      "ch"
    ],
    [
      " B",
      "r"
    ],
    [
      " The",
      "y"
    ],
    [
      " W",
      "h"
    ],
    [
      " m",
      "od"
    ],
    [
      "il",
      "ity"
    ],
    [
      " st",
      "ru"
    ],
    [
      " us",
      "e"
    ],
    [
      "il",
      "a"
    ],
    [
      " d",
      "est"
    ],
    [
      " s",
      "ame"
    ],
    [
      " Sc",
      "ient"
    ],
    [
      " bec",
      "ause"
    ],
    [
      " Ch",
      "rist"
    ],
    [
      "ction",
      "s"
    ],
    [
      " we",
      "ek"
    ],
    [
      " des",
      "crib"
    ],
    [
      "in",
      "s"
    ],
    [
      "ar",
      "r"
    ],
    [
      "id",
      "es"
    ],
    [
      "ag",
      "ed"
    ],
    [
      " E",
      "d"
    ],
    [
      " J",
      "ordan"
    ],
    [
      "g",
      "y"
    ],
    [
      "v",
      "ent"
    ],
    [
      "out",
      "e"
    ],
    [
      "or",
      "man"
    ],
    [
      " c",
      "ount"
    ],
    [
      "ent",
      "ly"
    ],
    [
      " spe",
      "c"
    ],
    [
      "u",
      "ro"
    ],
    [
      " N",
      "o"
    ],
    [
      " v",
      "ar"
    ],
    [
      " v",
      "i"
    ],
    [
      " Ju",
      "ly"
    ],
    [
      "in",
      "ed"
    ],
    [
      " m",
      "ay"
    ],
    [
      "ar",
      "ch"
    ],
    [
      " con",
      "f"
    ],
    [
      " app",
      "ro"
    ],
    [
      " sing",
      "le"
    ],
    [
      " ep",
      "is"
    ],
    [
      "av",
      "ing"
    ],
    [
      " part",
      "ic"
    ],
    [
      " st",
      "orm"
    ],
    [
      " De",
      "ce"
    ],
    [
      "c",
      "raft"
    ],
    [
      "our",
      "t"
    ],
    [
      " ",
      "iron"
    ],
    [
      " J",
      "ohn"
    ],
    [
      " Dece",
      "mber"
    ],
    [
      " h",
      "al"
    ],
    [
      " ser",
      "v"
    ],
    [
      " im",
      "p"
    ],
    [
      " t",
      "urn"
    ],
    [
      " An",
      "g"
    ],
    [
      " f",
      "inal"
    ],
    [
      " al",
      "though"
    ],
    [
      " rece",
      "ived"
    ],
    [
      " Ph",
      "il"
    ],
    [
      " cont",
      "ro"
    ],
    [
      "en",
      "e"
    ],
    [
      "st",
      "em"
    ],
    [
      " t",
      "ri"
    ],
    [
      " att",
      "empt"
    ],
    [
      " G",
      "u"
    ],
    [
      " ex",
      "t"
    ],
    [
      " le",
      "ft"
    ],
    [
      "vi",
      "ous"
    ],
    [
      " buil",
      "d"
    ],
    [
      " m",
      "ajor"
    ],
    [
      " ",
      "ed"
    ],
    [
      " T",
      "e"
    ],
    [
      "em",
      "ent"
    ],
    [
      " j",
      "ust"
    ],
    [
      "ron",
      "t"
    ],
    [
      "ut",
      "ion"
    ],
    [
      "ce",
      "pt"
    ],
    [
      " re",
      "pl"
    ],
    [
      " p",
      "ower"
    ],
    [
      " R",
      "oute"
    ],
    [
      " A",
      "m"
    ],
    [
      "en",
      "n"
    ],
    [
      " m",
      "en"
    ],
    [
      " he",
      "ld"
    ],
    [
      " e",
      "ver"
    ],
    [
      " e",
      "ast"
    ],
    [
      "ord",
      "ing"
    ],
    [
      " res",
      "p"
    ],
    [
      "ac",
      "hed"
    ],
    [
      "emb",
      "ers"
    ],
    [
      "ay",
      "s"
    ],
    [
      " l",
      "ine"
    ],
    [
      " t",
      "y"
    ],
    [
      "al",
      "k"
    ],
    [
      "ro",
      "w"
    ],
    [
      "om",
      "in"
    ],
    [
      " M",
      "c"
    ],
    [
      " w",
      "est"
    ],
    [
      " d",
      "ue"
    ],
    [
      " en",
      "g"
    ],
    [
      " N",
      "ational"
    ],
    [
      " A",
      "pr"
    ],
    [
      " Apr",
      "il"
    ],
    [
      "g",
      "er"
    ],
    [
      " re",
      "st"
    ],
    [
      "ut",
      "h"
    ],
    [
      " b",
      "and"
    ],
    [
      " f",
      "ire"
    ],
    [
      " contin",
      "ued"
    ],
    [
      "um",
      "ent"
    ],
    [
      "ist",
      "ed"
    ],
    [
      "pe",
      "ct"
    ],
    [
      " re",
      "qu"
    ],
    [
      "b",
      "y"
    ],
    [
      "ur",
      "al"
    ],
    [
      " p",
      "ost"
    ],
    [
      " tr",
      "ack"
    ],
    [
      " l",
      "ed"
    ],
    [
      "el",
      "s"
    ],
    [
      " t",
      "ra"
    ],
    [
      " an",
      "other"
    ],
    [
      "y",
      "s"
    ],
    [
      "il",
      "d"
    ],
    [
      "ant",
      "ry"
    ],
    [
      " pers",
      "on"
    ],
    [
      " A",
      "ir"
    ],
    [
      " with",
      "in"
    ],
    [
      "ag",
      "ue"
    ],
    [
      " or",
      "gan"
    ],
    [
      " cent",
      "ury"
    ],
    [
      "g",
      "ed"
    ],
    [
      " inv",
      "ol"
    ],
    [
      " H",
      "owever"
    ],
    [
      " charac",
      "ter"
    ],
    [
      " p",
      "h"
    ],
    [
      " f",
      "am"
    ],
    [
      " c",
      "ame"
    ],
    [
      " s",
      "ide"
    ],
    [
      " s",
      "old"
    ],
    [
      " in",
      "s"
    ],
    [
      "ro",
      "y"
    ],
    [
      "h",
      "am"
    ],
    [
      " h",
      "and"
    ],
    [
      "ical",
      "ly"
    ],
    [
      " ev",
      "en"
    ],
    [
      " ne",
      "xt"
    ],
    [
      " mil",
      "itary"
    ],
    [
      " n",
      "ow"
    ],
    [
      " f",
      "urther"
    ],
    [
      " perf",
      "orman"
    ],
    [
      "n",
      "er"
    ],
    [
      "re",
      "t"
    ],
    [
      " c",
      "r"
    ],
    [
      " s",
      "im"
    ],
    [
      " for",
      "mer"
    ],
    [
      " epis",
      "ode"
    ],
    [
      " con",
      "stru"
    ],
    [
      " n",
      "amed"
    ],
    [
      " air",
      "craft"
    ],
    [
      "m",
      "ed"
    ],
    [
      " h",
      "ome"
    ],
    [
      " Austral",
      "ia"
    ],
    [
      " D",
      "ivision"
    ],
    [
      " tro",
      "ops"
    ],
    [
      "in",
      "k"
    ],
    [
      " I",
      "m"
    ],
    [
      "iv",
      "ing"
    ],
    [
      "ak",
      "en"
    ],
    [
      "ard",
      "s"
    ],
    [
      " m",
      "uch"
    ],
    [
      " wh",
      "at"
    ],
    [
      " K",
      "ore"
    ],
    [
      " Man",
      "ila"
    ],
    [
      " pre",
      "vious"
    ],
    [
      " m",
      "embers"
    ],
    [
      "p",
      "or"
    ],
    [
      "ri",
      "v"
    ],
    [
      "i",
      "od"
    ],
    [
      " inc",
      "re"
    ],
    [
      "a",
      "im"
    ],
    [
      "ut",
      "ed"
    ],
    [
      " R",
      "iver"
    ],
    [
      " gun",
      "s"
    ],
    [
      " w",
      "on"
    ],
    [
      "ic",
      "a"
    ],
    [
      " d",
      "em"
    ],
    [
      " l",
      "ast"
    ],
    [
      "te",
      "nd"
    ],
    [
      " he",
      "l"
    ],
    [
      "ial",
      "ly"
    ],
    [
      " T",
      "own"
    ],
    [
      " F",
      "ran"
    ],
    [
      " s",
      "chool"
    ],
    [
      " th",
      "ird"
    ],
    [
      " hal",
      "f"
    ],
    [
      "a",
      "e"
    ],
    [
      "re",
      "st"
    ],
    [
      "om",
      "et"
    ],
    [
      "i",
      "us"
    ],
    [
      "ou",
      "se"
    ],
    [
      "ide",
      "o"
    ],
    [
      " al",
      "low"
    ],
    [
      "itt",
      "le"
    ],
    [
      " f",
      "t"
    ],
    [
      "re",
      "ad"
    ],
    [
      " for",
      "ce"
    ],
    [
      " n",
      "ort"
    ],
    [
      "c",
      "ess"
    ],
    [
      " c",
      "are"
    ],
    [
      "m",
      "s"
    ],
    [
      " s",
      "l"
    ],
    [
      "am",
      "b"
    ],
    [
      " M",
      "er"
    ],
    [
      " n",
      "ame"
    ],
    [
      "er",
      "y"
    ],
    [
      "is",
      "on"
    ],
    [
      "l",
      "ing"
    ],
    [
      "b",
      "le"
    ],
    [
      " l",
      "ate"
    ],
    [
      " bel",
      "ie"
    ],
    [
      " j",
      "oin"
    ],
    [
      " de",
      "ath"
    ],
    [
      "ond",
      "yl"
    ],
    [
      "re",
      "w"
    ],
    [
      " pl",
      "an"
    ],
    [
      " b",
      "ased"
    ],
    [
      " Mar",
      "ch"
    ],
    [
      " Ch",
      "urch"
    ],
    [
      " t",
      "ropical"
    ],
    [
      " En",
      "g"
    ],
    [
      "it",
      "al"
    ],
    [
      " st",
      "e"
    ],
    [
      " is",
      "s"
    ],
    [
      "res",
      "ent"
    ],
    [
      " M",
      "ich"
    ],
    [
      " ex",
      "p"
    ],
    [
      "pl",
      "oy"
    ],
    [
      " def",
      "e"
    ],
    [
      " w",
      "orld"
    ],
    [
      "c",
      "y"
    ],
    [
      "ul",
      "ation"
    ],
    [
      " c",
      "over"
    ],
    [
      "ren",
      "t"
    ],
    [
      " pos",
      "s"
    ],
    [
      " I",
      "I"
    ],
    [
      " perf",
      "orm"
    ],
    [
      " s",
      "ent"
    ],
    [
      " d",
      "el"
    ],
    [
      " sy",
      "stem"
    ],
    [
      "al",
      "ion"
    ],
    [
      " P",
      "l"
    ],
    [
      " ro",
      "le"
    ],
    [
      "ro",
      "te"
    ],
    [
      " res",
      "ult"
    ],
    [
      " Ar",
      "my"
    ],
    [
      "ab",
      "l"
    ],
    [
      " or",
      "d"
    ],
    [
      " mon",
      "th"
    ],
    [
      " cap",
      "t"
    ],
    [
      " m",
      "id"
    ],
    [
      " C",
      "ity"
    ],
    [
      "ant",
      "s"
    ],
    [
      "av",
      "es"
    ],
    [
      " l",
      "ight"
    ],
    [
      " inf",
      "l"
    ],
    [
      " hist",
      "ory"
    ],
    [
      " G",
      "eneral"
    ],
    [
      "a",
      "u"
    ],
    [
      "c",
      "hed"
    ],
    [
      " ev",
      "ent"
    ],
    [
      "ad",
      "s"
    ],
    [
      " f",
      "ew"
    ],
    [
      "se",
      "qu"
    ],
    [
      " c",
      "ross"
    ],
    [
      " add",
      "ition"
    ],
    [
      " dest",
      "roy"
    ],
    [
      "osp",
      "ondyl"
    ],
    [
      " s",
      "k"
    ],
    [
      " describ",
      "ed"
    ],
    [
      " per",
      "iod"
    ],
    [
      " F",
      "eb"
    ],
    [
      " Feb",
      "ru"
    ],
    [
      " Febru",
      "ary"
    ],
    [
      "le",
      "y"
    ],
    [
      " w",
      "ay"
    ],
    [
      " h",
      "um"
    ],
    [
      "p",
      "ite"
    ],
    [
      " p",
      "at"
    ],
    [
      "im",
      "ent"
    ],
    [
      "av",
      "al"
    ],
    [
      "ens",
      "ive"
    ],
    [
      " g",
      "ames"
    ],
    [
      "ed",
      "er"
    ],
    [
      "is",
      "c"
    ],
    [
      " C",
      "an"
    ],
    [
      "ot",
      "s"
    ],
    [
      " o",
      "ld"
    ],
    [
      "n",
      "ess"
    ],
    [
      "y",
      "cl"
    ],
    [
      " Scient",
      "ology"
    ],
    [
      "on",
      "t"
    ],
    [
      " st",
      "ill"
    ],
    [
      " r",
      "ight"
    ],
    [
      " th",
      "ose"
    ],
    [
      " god",
      "s"
    ],
    [
      "ivers",
      "ity"
    ],
    [
      " re",
      "view"
    ],
    [
      "i",
      "or"
    ],
    [
      "pe",
      "nd"
    ],
    [
      " dif",
      "fer"
    ],
    [
      " l",
      "ife"
    ],
    [
      " B",
      "ut"
    ],
    [
      "ag",
      "es"
    ],
    [
      " K",
      "ing"
    ],
    [
      "O",
      "n"
    ],
    [
      "i",
      "am"
    ],
    [
      " be",
      "g"
    ],
    [
      "et",
      "r"
    ],
    [
      "et",
      "y"
    ],
    [
      " kill",
      "ed"
    ],
    [
      " ",
      "Q"
    ],
    [
      "at",
      "ter"
    ],
    [
      "le",
      "ct"
    ],
    [
      " batt",
      "le"
    ],
    [
      " or",
      "der"
    ],
    [
      "s",
      "elf"
    ],
    [
      "e",
      "ter"
    ],
    [
      "ul",
      "u"
    ],
    [
      " ",
      "if"
    ],
    [
      " sh",
      "ort"
    ],
    [
      " ex",
      "pl"
    ],
    [
      "l",
      "s"
    ],
    [
      "he",
      "st"
    ],
    [
      " be",
      "h"
    ],
    [
      " E",
      "m"
    ],
    [
      " g",
      "ener"
    ],
    [
      "m",
      "in"
    ],
    [
      " c",
      "ur"
    ],
    [
      "iv",
      "en"
    ],
    [
      "iv",
      "il"
    ],
    [
      " e",
      "qu"
    ],
    [
      " cont",
      "r"
    ],
    [
      "hip",
      "s"
    ],
    [
      " m",
      "oved"
    ],
    [
      " rep",
      "resent"
    ],
    [
      "g",
      "et"
    ],
    [
      " The",
      "se"
    ],
    [
      " comm",
      "un"
    ],
    [
      " appe",
      "ar"
    ],
    [
      " str",
      "ong"
    ],
    [
      " R",
      "oad"
    ],
    [
      " est",
      "abl"
    ],
    [
      "int",
      "ulu"
    ],
    [
      "p",
      "s"
    ],
    [
      " S",
      "p"
    ],
    [
      "ri",
      "ed"
    ],
    [
      "en",
      "se"
    ],
    [
      " s",
      "out"
    ],
    [
      "amp",
      "ions"
    ],
    [
      " g",
      "reat"
    ],
    [
      " day",
      "s"
    ],
    [
      " loc",
      "al"
    ],
    [
      "rap",
      "h"
    ],
    [
      "le",
      "et"
    ],
    [
      " r",
      "ed"
    ],
    [
      " comp",
      "an"
    ],
    [
      "iz",
      "ation"
    ],
    [
      " m",
      "ark"
    ],
    [
      "p",
      "ing"
    ],
    [
      "at",
      "ic"
    ],
    [
      "re",
      "am"
    ],
    [
      "a",
      "ul"
    ],
    [
      " com",
      "b"
    ],
    [
      "id",
      "ian"
    ],
    [
      "ak",
      "es"
    ],
    [
      " m",
      "ake"
    ],
    [
      " he",
      "avy"
    ],
    [
      " f",
      "ront"
    ],
    [
      "A",
      "A"
    ],
    [
      "al",
      "es"
    ],
    [
      " R",
      "ich"
    ],
    [
      " c",
      "amp"
    ],
    [
      "u",
      "c"
    ],
    [
      "re",
      "et"
    ],
    [
      " d",
      "iv"
    ],
    [
      " h",
      "our"
    ],
    [
      " In",
      "f"
    ],
    [
      "oy",
      "al"
    ],
    [
      "as",
      "tern"
    ],
    [
      " c",
      "aus"
    ],
    [
      " Phil",
      "ipp"
    ],
    [
      " t",
      "it"
    ],
    [
      " B",
      "y"
    ],
    [
      "us",
      "e"
    ],
    [
      " B",
      "intulu"
    ],
    [
      "b",
      "o"
    ],
    [
      "t",
      "he"
    ],
    [
      "od",
      "y"
    ],
    [
      " St",
      "ate"
    ],
    [
      " Ch",
      "ar"
    ],
    [
      "gy",
      "pt"
    ],
    [
      " cl",
      "aim"
    ],
    [
      " in",
      "it"
    ],
    [
      " to",
      "t"
    ],
    [
      "il",
      "ar"
    ],
    [
      " P",
      "ro"
    ],
    [
      " W",
      "ill"
    ],
    [
      " pro",
      "g"
    ],
    [
      " w",
      "ater"
    ],
    [
      "ress",
      "ion"
    ],
    [
      "c",
      "hes"
    ],
    [
      " orig",
      "inal"
    ],
    [
      " consid",
      "ered"
    ],
    [
      "ol",
      "l"
    ],
    [
      "ot",
      "t"
    ],
    [
      " de",
      "b"
    ],
    [
      " f",
      "ight"
    ],
    [
      " m",
      "ove"
    ],
    [
      " Re",
      "g"
    ],
    [
      " of",
      "ten"
    ],
    [
      " E",
      "uro"
    ],
    [
      " C",
      "ent"
    ],
    [
      "om",
      "b"
    ],
    [
      " l",
      "im"
    ],
    [
      "el",
      "t"
    ],
    [
      "re",
      "ak"
    ],
    [
      " n",
      "ight"
    ],
    [
      " ar",
      "ch"
    ],
    [
      " w",
      "rote"
    ],
    [
      "ir",
      "c"
    ],
    [
      "us",
      "ed"
    ],
    [
      " oper",
      "ations"
    ],
    [
      " return",
      "ed"
    ],
    [
      " E",
      "gypt"
    ],
    [
      " Euro",
      "pe"
    ],
    [
      " ",
      "es"
    ],
    [
      "p",
      "ar"
    ],
    [
      "at",
      "ure"
    ],
    [
      " iron",
      "cl"
    ],
    [
      " c",
      "ycl"
    ],
    [
      " The",
      "re"
    ],
    [
      "ver",
      "s"
    ],
    [
      " f",
      "ore"
    ],
    [
      " su",
      "ff"
    ],
    [
      "es",
      "tern"
    ],
    [
      " t",
      "ank"
    ],
    [
      " b",
      "ook"
    ],
    [
      "n",
      "ospondyl"
    ],
    [
      "a",
      "ut"
    ],
    [
      "em",
      "or"
    ],
    [
      " W",
      "e"
    ],
    [
      " l",
      "ost"
    ],
    [
      "it",
      "ted"
    ],
    [
      " produ",
      "ced"
    ],
    [
      " v",
      "ideo"
    ],
    [
      " infl",
      "u"
    ],
    [
      "n",
      "ed"
    ],
    [
      " p",
      "ar"
    ],
    [
      "il",
      "le"
    ],
    [
      " G",
      "e"
    ],
    [
      "i",
      "ers"
    ],
    [
      " b",
      "est"
    ],
    [
      "v",
      "ision"
    ],
    [
      " Ind",
      "ian"
    ],
    [
      " loc",
      "ated"
    ],
    [
      " t",
      "w"
    ],
    [
      " m",
      "m"
    ],
    [
      "i",
      "um"
    ],
    [
      " v",
      "is"
    ],
    [
      "ik",
      "al"
    ],
    [
      " a",
      "way"
    ],
    [
      " h",
      "owever"
    ],
    [
      "f",
      "ield"
    ],
    [
      " Pol",
      "ish"
    ],
    [
      "os",
      "ed"
    ],
    [
      "a",
      "ugh"
    ],
    [
      " s",
      "ite"
    ],
    [
      " C",
      "ount"
    ],
    [
      " ac",
      "ross"
    ],
    [
      " met",
      "res"
    ],
    [
      " pol",
      "it"
    ],
    [
      " ch",
      "ild"
    ],
    [
      "o",
      "x"
    ],
    [
      " le",
      "g"
    ],
    [
      " ne",
      "ver"
    ],
    [
      " rem",
      "ained"
    ],
    [
      " pro",
      "ject"
    ],
    [
      " care",
      "er"
    ],
    [
      "c",
      "ing"
    ],
    [
      " pr",
      "im"
    ],
    [
      " ver",
      "s"
    ],
    [
      " h",
      "aving"
    ],
    [
      "en",
      "g"
    ],
    [
      " b",
      "as"
    ],
    [
      " m",
      "ar"
    ],
    [
      "us",
      "h"
    ],
    [
      " st",
      "and"
    ],
    [
      " w",
      "ill"
    ],
    [
      "se",
      "nd"
    ],
    [
      "qu",
      "e"
    ],
    [
      " su",
      "g"
    ],
    [
      "iz",
      "e"
    ],
    [
      "in",
      "ally"
    ],
    [
      " spe",
      "cial"
    ],
    [
      " pres",
      "ent"
    ],
    [
      " Un",
      "iversity"
    ],
    [
      "er",
      "ing"
    ],
    [
      "r",
      "um"
    ],
    [
      "he",
      "ast"
    ],
    [
      " with",
      "out"
    ],
    [
      "en",
      "ces"
    ],
    [
      " to",
      "wn"
    ],
    [
      " dire",
      "ct"
    ],
    [
      " eff",
      "ect"
    ],
    [
      " Mer",
      "idian"
    ],
    [
      " tot",
      "al"
    ],
    [
      "m",
      "e"
    ],
    [
      " s",
      "it"
    ],
    [
      " f",
      "re"
    ],
    [
      " b",
      "ar"
    ],
    [
      " m",
      "ed"
    ],
    [
      " p",
      "ur"
    ],
    [
      " l",
      "ow"
    ],
    [
      " de",
      "cl"
    ],
    [
      " im",
      "port"
    ],
    [
      " mil",
      "es"
    ],
    [
      " T",
      "ikal"
    ],
    [
      "c",
      "on"
    ],
    [
      "e",
      "ad"
    ],
    [
      "ist",
      "r"
    ],
    [
      " sh",
      "ot"
    ],
    [
      " develop",
      "ed"
    ],
    [
      "pan",
      "y"
    ],
    [
      " report",
      "ed"
    ],
    [
      " S",
      "quadron"
    ],
    [
      " performan",
      "ce"
    ],
    [
      " sug",
      "gest"
    ],
    [
      " re",
      "al"
    ],
    [
      " ex",
      "per"
    ],
    [
      "ne",
      "y"
    ],
    [
      " ver",
      "y"
    ],
    [
      " re",
      "ached"
    ],
    [
      "re",
      "en"
    ],
    [
      "m",
      "as"
    ],
    [
      " st",
      "ar"
    ],
    [
      "ay",
      "ing"
    ],
    [
      "in",
      "ation"
    ],
    [
      " st",
      "ated"
    ],
    [
      "ab",
      "ly"
    ],
    [
      " ro",
      "ad"
    ],
    [
      "ific",
      "ant"
    ],
    [
      " N",
      "avy"
    ],
    [
      "at",
      "or"
    ],
    [
      "an",
      "e"
    ],
    [
      " m",
      "y"
    ],
    [
      " S",
      "an"
    ],
    [
      " st",
      "at"
    ],
    [
      " act",
      "iv"
    ],
    [
      " hist",
      "or"
    ],
    [
      " C",
      "o"
    ],
    [
      " B",
      "ur"
    ],
    [
      " p",
      "ain"
    ],
    [
      " st",
      "ri"
    ],
    [
      " ro",
      "und"
    ],
    [
      " D",
      "uring"
    ],
    [
      "v",
      "ens"
    ],
    [
      " p",
      "ress"
    ],
    [
      "pos",
      "ed"
    ],
    [
      " vi",
      "ew"
    ],
    [
      " g",
      "iven"
    ],
    [
      "s",
      "h"
    ],
    [
      "st",
      "it"
    ],
    [
      " H",
      "is"
    ],
    [
      " se",
      "en"
    ],
    [
      " O",
      "r"
    ],
    [
      " ser",
      "ved"
    ],
    [
      " n",
      "ational"
    ],
    [
      "fer",
      "red"
    ],
    [
      " em",
      "b"
    ],
    [
      " differ",
      "ent"
    ],
    [
      "ampions",
      "hip"
    ],
    [
      "A",
      "S"
    ],
    [
      " f",
      "r"
    ],
    [
      " A",
      "nd"
    ],
    [
      "is",
      "ter"
    ],
    [
      " P",
      "ar"
    ],
    [
      " F",
      "l"
    ],
    [
      "al",
      "th"
    ],
    [
      " J",
      "ack"
    ],
    [
      " O",
      "ff"
    ],
    [
      "end",
      "ed"
    ],
    [
      " rele",
      "ase"
    ],
    [
      " sign",
      "ificant"
    ],
    [
      "re",
      "g"
    ],
    [
      " P",
      "r"
    ],
    [
      "oun",
      "g"
    ],
    [
      "r",
      "ican"
    ],
    [
      " high",
      "way"
    ],
    [
      " Batt",
      "le"
    ],
    [
      " partic",
      "ular"
    ],
    [
      " ever",
      "y"
    ],
    [
      "ic",
      "es"
    ],
    [
      " f",
      "ig"
    ],
    [
      "it",
      "her"
    ],
    [
      "ough",
      "t"
    ],
    [
      "act",
      "ion"
    ],
    [
      " A",
      "ss"
    ],
    [
      " R",
      "uss"
    ],
    [
      "f",
      "e"
    ],
    [
      "b",
      "or"
    ],
    [
      "m",
      "ar"
    ],
    [
      " p",
      "it"
    ],
    [
      " l",
      "a"
    ],
    [
      "ap",
      "e"
    ],
    [
      " v",
      "ict"
    ],
    [
      " le",
      "vel"
    ],
    [
      " am",
      "ong"
    ],
    [
      " form",
      "ed"
    ],
    [
      " count",
      "ry"
    ],
    [
      " A",
      "g"
    ],
    [
      "ent",
      "ion"
    ],
    [
      "ur",
      "g"
    ],
    [
      " R",
      "h"
    ],
    [
      " H",
      "igh"
    ],
    [
      " Inf",
      "antry"
    ],
    [
      " Town",
      "send"
    ],
    [
      "y",
      "n"
    ],
    [
      " ",
      "er"
    ],
    [
      " m",
      "i"
    ],
    [
      " A",
      "f"
    ],
    [
      " is",
      "land"
    ],
    [
      " sur",
      "v"
    ],
    [
      " est",
      "im"
    ],
    [
      " W",
      "hen"
    ],
    [
      " m",
      "aking"
    ],
    [
      "im",
      "ately"
    ],
    [
      "ur",
      "t"
    ],
    [
      " p",
      "ut"
    ],
    [
      " play",
      "er"
    ],
    [
      " g",
      "round"
    ],
    [
      " un",
      "its"
    ],
    [
      " sim",
      "ilar"
    ],
    [
      " C",
      "al"
    ],
    [
      "in",
      "ess"
    ],
    [
      " te",
      "le"
    ],
    [
      "en",
      "ced"
    ],
    [
      " pl",
      "aced"
    ],
    [
      " f",
      "oot"
    ],
    [
      " build",
      "ing"
    ],
    [
      " him",
      "self"
    ],
    [
      " c",
      "as"
    ],
    [
      "om",
      "an"
    ],
    [
      "a",
      "ur"
    ],
    [
      "ber",
      "t"
    ],
    [
      " pro",
      "f"
    ],
    [
      " success",
      "ful"
    ],
    [
      " Is",
      "land"
    ],
    [
      "le",
      "t"
    ],
    [
      " T",
      "r"
    ],
    [
      "ri",
      "pt"
    ],
    [
      "a",
      "ign"
    ],
    [
      " cl",
      "ose"
    ],
    [
      " b",
      "ase"
    ],
    [
      " r",
      "ange"
    ],
    [
      " fam",
      "ily"
    ],
    [
      " a",
      "v"
    ],
    [
      "it",
      "er"
    ],
    [
      "v",
      "es"
    ],
    [
      " P",
      "er"
    ],
    [
      "ive",
      "ly"
    ],
    [
      "d",
      "ition"
    ],
    [
      " tr",
      "ad"
    ],
    [
      " t",
      "ake"
    ],
    [
      " German",
      "y"
    ],
    [
      " t",
      "imes"
    ],
    [
      " dam",
      "age"
    ],
    [
      " a",
      "uth"
    ],
    [
      " c",
      "irc"
    ],
    [
      " Count",
      "y"
    ],
    [
      " ",
      "ve"
    ],
    [
      " G",
      "r"
    ],
    [
      " f",
      "av"
    ],
    [
      "l",
      "ess"
    ],
    [
      "ree",
      "k"
    ],
    [
      " us",
      "ing"
    ],
    [
      " m",
      "iss"
    ],
    [
      " rel",
      "ig"
    ],
    [
      "cc",
      "ording"
    ],
    [
      " constru",
      "ction"
    ],
    [
      " beh",
      "ind"
    ],
    [
      "n",
      "a"
    ],
    [
      " B",
      "ro"
    ],
    [
      "el",
      "a"
    ],
    [
      " N",
      "Y"
    ],
    [
      " col",
      "le"
    ],
    [
      " produ",
      "ction"
    ],
    [
      " prom",
      "ot"
    ],
    [
      " Will",
      "iam"
    ],
    [
      " ",
      "nd"
    ],
    [
      " c",
      "le"
    ],
    [
      " c",
      "ut"
    ],
    [
      "et",
      "h"
    ],
    [
      " W",
      "ith"
    ],
    [
      " r",
      "ul"
    ],
    [
      " E",
      "l"
    ],
    [
      " H",
      "ill"
    ],
    [
      " g",
      "ave"
    ],
    [
      " pro",
      "te"
    ],
    [
      " comp",
      "et"
    ],
    [
      " tem",
      "nospondyl"
    ],
    [
      " Com",
      "pany"
    ],
    [
      "y",
      "r"
    ],
    [
      " to",
      "o"
    ],
    [
      "f",
      "ic"
    ],
    [
      " w",
      "ent"
    ],
    [
      " e",
      "y"
    ],
    [
      "ac",
      "es"
    ],
    [
      " h",
      "ig"
    ],
    [
      " Re",
      "p"
    ],
    [
      " through",
      "out"
    ],
    [
      " mod",
      "ern"
    ],
    [
      " sub",
      "sequ"
    ],
    [
      " Christ",
      "mas"
    ],
    [
      " Ste",
      "vens"
    ],
    [
      "d",
      "om"
    ],
    [
      " d",
      "et"
    ],
    [
      " a",
      "ction"
    ],
    [
      " y",
      "ou"
    ],
    [
      "a",
      "ff"
    ],
    [
      "g",
      "round"
    ],
    [
      "ri",
      "end"
    ],
    [
      " follow",
      "ed"
    ],
    [
      " poin",
      "t"
    ],
    [
      " ann",
      "oun"
    ],
    [
      "nd",
      "er"
    ],
    [
      " M",
      "ad"
    ],
    [
      " H",
      "ar"
    ],
    [
      "ra",
      "w"
    ],
    [
      "h",
      "aw"
    ],
    [
      " Se",
      "c"
    ],
    [
      " st",
      "ory"
    ],
    [
      " O",
      "ne"
    ],
    [
      " ro",
      "ute"
    ],
    [
      " St",
      "reet"
    ],
    [
      " R",
      "oyal"
    ],
    [
      "g",
      "es"
    ],
    [
      "ap",
      "p"
    ],
    [
      " e",
      "ight"
    ],
    [
      "i",
      "ence"
    ],
    [
      " g",
      "old"
    ],
    [
      " ear",
      "l"
    ],
    [
      " sy",
      "n"
    ],
    [
      " ob",
      "s"
    ],
    [
      "eder",
      "al"
    ],
    [
      "y",
      "le"
    ],
    [
      "ac",
      "y"
    ],
    [
      " r",
      "ad"
    ],
    [
      " w",
      "ant"
    ],
    [
      " w",
      "ide"
    ],
    [
      " He",
      "ad"
    ],
    [
      "er",
      "ry"
    ],
    [
      " c",
      "ult"
    ],
    [
      " fe",
      "et"
    ],
    [
      " offic",
      "ial"
    ],
    [
      " wind",
      "s"
    ],
    [
      " hum",
      "an"
    ],
    [
      "en",
      "es"
    ],
    [
      " e",
      "l"
    ],
    [
      " M",
      "al"
    ],
    [
      " g",
      "l"
    ],
    [
      " D",
      "es"
    ],
    [
      "um",
      "b"
    ],
    [
      " l",
      "aw"
    ],
    [
      "ail",
      "ed"
    ],
    [
      " record",
      "ed"
    ],
    [
      "ing",
      "ton"
    ],
    [
      " batt",
      "les"
    ],
    [
      " Al",
      "though"
    ],
    [
      " cre",
      "w"
    ],
    [
      " invol",
      "ved"
    ],
    [
      " Amer",
      "ica"
    ],
    [
      " to",
      "ur"
    ],
    [
      " B",
      "o"
    ],
    [
      "ri",
      "e"
    ],
    [
      "oun",
      "ter"
    ],
    [
      "port",
      "s"
    ],
    [
      " R",
      "ock"
    ],
    [
      " writ",
      "ten"
    ],
    [
      " start",
      "ed"
    ],
    [
      " c",
      "ourt"
    ],
    [
      " Church",
      "ill"
    ],
    [
      " Batt",
      "alion"
    ],
    [
      " Philipp",
      "ines"
    ],
    [
      " sold",
      "iers"
    ],
    [
      "m",
      "b"
    ],
    [
      " h",
      "it"
    ],
    [
      "c",
      "ent"
    ],
    [
      "at",
      "ch"
    ],
    [
      "ie",
      "f"
    ],
    [
      " reg",
      "ion"
    ],
    [
      " disc",
      "over"
    ],
    [
      "at",
      "ives"
    ],
    [
      "g",
      "r"
    ],
    [
      " S",
      "l"
    ],
    [
      " b",
      "us"
    ],
    [
      " D",
      "u"
    ],
    [
      "t",
      "ain"
    ],
    [
      "ri",
      "or"
    ],
    [
      " a",
      "ff"
    ],
    [
      " ag",
      "re"
    ],
    [
      " f",
      "ace"
    ],
    [
      " P",
      "ark"
    ],
    [
      " ev",
      "ac"
    ],
    [
      " h",
      "old"
    ],
    [
      " develop",
      "ment"
    ],
    [
      " N",
      "B"
    ],
    [
      "l",
      "ine"
    ],
    [
      "m",
      "ond"
    ],
    [
      " s",
      "ound"
    ],
    [
      " ne",
      "ed"
    ],
    [
      " De",
      "p"
    ],
    [
      " ri",
      "ver"
    ],
    [
      " contro",
      "l"
    ],
    [
      " Le",
      "ague"
    ],
    [
      " n",
      "aval"
    ],
    [
      "k",
      "i"
    ],
    [
      " c",
      "or"
    ],
    [
      "ar",
      "a"
    ],
    [
      "u",
      "ation"
    ],
    [
      " E",
      "ast"
    ],
    [
      "w",
      "ork"
    ],
    [
      " st",
      "age"
    ],
    [
      " M",
      "ark"
    ],
    [
      " m",
      "ph"
    ],
    [
      " pe",
      "ak"
    ],
    [
      " stru",
      "ct"
    ],
    [
      "og",
      "raph"
    ],
    [
      "ic",
      "o"
    ],
    [
      "ig",
      "an"
    ],
    [
      " N",
      "e"
    ],
    [
      " W",
      "est"
    ],
    [
      " l",
      "ess"
    ],
    [
      " le",
      "ast"
    ],
    [
      " sh",
      "ould"
    ],
    [
      "ran",
      "g"
    ],
    [
      " import",
      "ant"
    ],
    [
      "t",
      "o"
    ],
    [
      "g",
      "o"
    ],
    [
      "t",
      "ar"
    ],
    [
      "is",
      "ing"
    ],
    [
      "ad",
      "o"
    ],
    [
      "v",
      "ol"
    ],
    [
      "p",
      "ir"
    ],
    [
      "ch",
      "n"
    ],
    [
      " L",
      "ond"
    ],
    [
      " int",
      "ens"
    ],
    [
      " s",
      "aw"
    ],
    [
      " f",
      "ind"
    ],
    [
      " ",
      "ident"
    ],
    [
      " appe",
      "ared"
    ],
    [
      "ask",
      "et"
    ],
    [
      "it",
      "ar"
    ],
    [
      "ut",
      "es"
    ],
    [
      "f",
      "ord"
    ],
    [
      " Y",
      "ear"
    ],
    [
      " bec",
      "ome"
    ],
    [
      " includ",
      "e"
    ],
    [
      "ro",
      "du"
    ],
    [
      "way",
      "s"
    ],
    [
      " c",
      "ase"
    ],
    [
      " ro",
      "ck"
    ],
    [
      " Brit",
      "ain"
    ],
    [
      "fer",
      "ence"
    ],
    [
      " head",
      "s"
    ],
    [
      " dec",
      "ided"
    ],
    [
      " f",
      "elt"
    ],
    [
      "g",
      "a"
    ],
    [
      " re",
      "b"
    ],
    [
      " S",
      "en"
    ],
    [
      "st",
      "r"
    ],
    [
      " g",
      "et"
    ],
    [
      "od",
      "es"
    ],
    [
      "art",
      "ment"
    ],
    [
      " com",
      "mer"
    ],
    [
      " d",
      "ied"
    ],
    [
      " crit",
      "ic"
    ],
    [
      " resp",
      "ons"
    ],
    [
      " Mc",
      "C"
    ],
    [
      " pop",
      "ulation"
    ],
    [
      " c",
      "ivil"
    ],
    [
      " t",
      "en"
    ],
    [
      " S",
      "o"
    ],
    [
      " C",
      "or"
    ],
    [
      "em",
      "s"
    ],
    [
      " an",
      "t"
    ],
    [
      "c",
      "her"
    ],
    [
      " J",
      "ew"
    ],
    [
      " c",
      "our"
    ],
    [
      "at",
      "ors"
    ],
    [
      " f",
      "ather"
    ],
    [
      " poin",
      "ts"
    ],
    [
      "en",
      "cy"
    ],
    [
      " ord",
      "ered"
    ],
    [
      "e",
      "pend"
    ],
    [
      " d",
      "oll"
    ],
    [
      " Lond",
      "on"
    ],
    [
      "v",
      "in"
    ],
    [
      "ac",
      "ing"
    ],
    [
      "om",
      "es"
    ],
    [
      "om",
      "en"
    ],
    [
      " M",
      "in"
    ],
    [
      " B",
      "est"
    ],
    [
      " P",
      "ort"
    ],
    [
      " S",
      "up"
    ],
    [
      "f",
      "all"
    ],
    [
      " l",
      "ack"
    ],
    [
      "m",
      "ost"
    ],
    [
      "ul",
      "pt"
    ],
    [
      " O",
      "per"
    ],
    [
      " F",
      "ey"
    ],
    [
      " pop",
      "ular"
    ],
    [
      " s",
      "quadron"
    ],
    [
      " var",
      "ious"
    ],
    [
      " tit",
      "le"
    ],
    [
      "asket",
      "ball"
    ],
    [
      " re",
      "n"
    ],
    [
      "ar",
      "ly"
    ],
    [
      "em",
      "y"
    ],
    [
      " t",
      "est"
    ],
    [
      "ap",
      "s"
    ],
    [
      " k",
      "e"
    ],
    [
      " ch",
      "art"
    ],
    [
      " not",
      "ed"
    ],
    [
      " f",
      "ull"
    ],
    [
      " pol",
      "ice"
    ],
    [
      " S",
      "pan"
    ],
    [
      " l",
      "oss"
    ],
    [
      " orig",
      "inally"
    ],
    [
      " sc",
      "ulpt"
    ],
    [
      " s",
      "w"
    ],
    [
      " t",
      "re"
    ],
    [
      " m",
      "or"
    ],
    [
      " f",
      "un"
    ],
    [
      " p",
      "ra"
    ],
    [
      " ",
      "ide"
    ],
    [
      "ress",
      "ed"
    ],
    [
      " cent",
      "ral"
    ],
    [
      " serv",
      "ice"
    ],
    [
      " mon",
      "ument"
    ],
    [
      " nort",
      "hern"
    ],
    [
      " camp",
      "aign"
    ],
    [
      " temnospondyl",
      "s"
    ],
    [
      " in",
      "j"
    ],
    [
      "y",
      "ing"
    ],
    [
      "or",
      "ing"
    ],
    [
      "as",
      "ter"
    ],
    [
      " with",
      "d"
    ],
    [
      "ist",
      "ic"
    ],
    [
      "op",
      "h"
    ],
    [
      " M",
      "ount"
    ],
    [
      " fl",
      "o"
    ],
    [
      " song",
      "s"
    ],
    [
      " Les",
      "ter"
    ],
    [
      "ph",
      "oon"
    ],
    [
      " though",
      "t"
    ],
    [
      " spec",
      "ies"
    ],
    [
      " join",
      "ed"
    ],
    [
      " beg",
      "in"
    ],
    [
      " auth",
      "or"
    ],
    [
      "y",
      "d"
    ],
    [
      "v",
      "ing"
    ],
    [
      "al",
      "and"
    ],
    [
      " r",
      "ain"
    ],
    [
      " S",
      "ome"
    ],
    [
      "end",
      "es"
    ],
    [
      " m",
      "ember"
    ],
    [
      " J",
      "ames"
    ],
    [
      " design",
      "ed"
    ],
    [
      " m",
      "ov"
    ],
    [
      " bl",
      "ock"
    ],
    [
      " po",
      "et"
    ],
    [
      " comple",
      "ted"
    ],
    [
      " ass",
      "oci"
    ],
    [
      "med",
      "i"
    ],
    [
      " Can",
      "ad"
    ],
    [
      " b",
      "omb"
    ],
    [
      " f",
      "riend"
    ],
    [
      " Mich",
      "igan"
    ],
    [
      " S",
      "m"
    ],
    [
      " m",
      "ur"
    ],
    [
      "ri",
      "es"
    ],
    [
      "iv",
      "id"
    ],
    [
      " v",
      "ol"
    ],
    [
      "it",
      "ive"
    ],
    [
      " are",
      "as"
    ],
    [
      "rough",
      "t"
    ],
    [
      " w",
      "ood"
    ],
    [
      " ent",
      "ire"
    ],
    [
      " Bl",
      "ack"
    ],
    [
      " For",
      "ce"
    ],
    [
      " Kore",
      "an"
    ],
    [
      " caus",
      "ed"
    ],
    [
      " announ",
      "ced"
    ],
    [
      "ers",
      "haw"
    ],
    [
      "al",
      "d"
    ],
    [
      "it",
      "ing"
    ],
    [
      "ay",
      "er"
    ],
    [
      " on",
      "ce"
    ],
    [
      "ur",
      "ity"
    ],
    [
      "ord",
      "s"
    ],
    [
      " comple",
      "te"
    ],
    [
      " feat",
      "ures"
    ],
    [
      " d",
      "ivision"
    ],
    [
      " to",
      "wards"
    ],
    [
      " Me",
      "x"
    ],
    [
      " s",
      "omet"
    ],
    [
      " perform",
      "ed"
    ],
    [
      "v",
      "ille"
    ],
    [
      " polit",
      "ical"
    ],
    [
      "R",
      "A"
    ],
    [
      "ly",
      "ing"
    ],
    [
      " se",
      "e"
    ],
    [
      " l",
      "ist"
    ],
    [
      " E",
      "x"
    ],
    [
      " O",
      "l"
    ],
    [
      " ar",
      "ri"
    ],
    [
      " p",
      "ie"
    ],
    [
      " a",
      "ward"
    ],
    [
      " inter",
      "n"
    ],
    [
      " V",
      "ict"
    ],
    [
      " ch",
      "ang"
    ],
    [
      "ollow",
      "ing"
    ],
    [
      " de",
      "ities"
    ],
    [
      "ann",
      "ed"
    ],
    [
      " f",
      "leet"
    ],
    [
      "ly",
      "the"
    ],
    [
      " Span",
      "ish"
    ],
    [
      "n",
      "y"
    ],
    [
      "b",
      "r"
    ],
    [
      "ad",
      "es"
    ],
    [
      "id",
      "s"
    ],
    [
      " T",
      "em"
    ],
    [
      "an",
      "ces"
    ],
    [
      " col",
      "l"
    ],
    [
      " Comm",
      "and"
    ],
    [
      " cre",
      "ated"
    ],
    [
      " feat",
      "ured"
    ],
    [
      " bro",
      "ad"
    ],
    [
      " eff",
      "ort"
    ],
    [
      " establ",
      "ished"
    ],
    [
      " compan",
      "y"
    ],
    [
      " Ge",
      "or"
    ],
    [
      " A",
      "ccording"
    ],
    [
      "he",
      "re"
    ],
    [
      " f",
      "ar"
    ],
    [
      "r",
      "ing"
    ],
    [
      "on",
      "ic"
    ],
    [
      "as",
      "ion"
    ],
    [
      " for",
      "t"
    ],
    [
      "a",
      "el"
    ],
    [
      " h",
      "ost"
    ],
    [
      "o",
      "ff"
    ],
    [
      " play",
      "ers"
    ],
    [
      "s",
      "hip"
    ],
    [
      " cent",
      "er"
    ],
    [
      " publ",
      "ished"
    ],
    [
      " trans",
      "port"
    ],
    [
      " Comm",
      "ission"
    ],
    [
      " h",
      "ouse"
    ],
    [
      " destroy",
      "ed"
    ],
    [
      " sout",
      "hern"
    ],
    [
      "fic",
      "ult"
    ],
    [
      " Rep",
      "ubl"
    ],
    [
      "on",
      "y"
    ],
    [
      "m",
      "en"
    ],
    [
      "as",
      "ing"
    ],
    [
      " h",
      "ow"
    ],
    [
      " H",
      "er"
    ],
    [
      "ri",
      "a"
    ],
    [
      " m",
      "ag"
    ],
    [
      "ab",
      "or"
    ],
    [
      " com",
      "ment"
    ],
    [
      " It",
      "al"
    ],
    [
      "ll",
      "ed"
    ],
    [
      "u",
      "ck"
    ],
    [
      " occ",
      "up"
    ],
    [
      " repl",
      "aced"
    ],
    [
      " vers",
      "ion"
    ],
    [
      " estim",
      "ated"
    ],
    [
      "c",
      "er"
    ],
    [
      "at",
      "a"
    ],
    [
      "o",
      "le"
    ],
    [
      "c",
      "om"
    ],
    [
      "ur",
      "b"
    ],
    [
      "h",
      "ib"
    ],
    [
      " ab",
      "ove"
    ],
    [
      "ines",
      "e"
    ],
    [
      " sc",
      "ene"
    ],
    [
      " st",
      "yle"
    ],
    [
      "ivid",
      "ual"
    ],
    [
      " dif",
      "ficult"
    ],
    [
      "u",
      "z"
    ],
    [
      "d",
      "le"
    ],
    [
      " D",
      "o"
    ],
    [
      " W",
      "W"
    ],
    [
      " l",
      "ive"
    ],
    [
      "wo",
      "od"
    ],
    [
      "ign",
      "ed"
    ],
    [
      " M",
      "iss"
    ],
    [
      " other",
      "s"
    ],
    [
      " m",
      "ount"
    ],
    [
      " work",
      "s"
    ],
    [
      " ev",
      "ents"
    ],
    [
      " r",
      "ank"
    ],
    [
      " co",
      "ast"
    ],
    [
      " sign",
      "ed"
    ],
    [
      " occ",
      "ur"
    ],
    [
      " Wh",
      "ile"
    ],
    [
      " at",
      "tend"
    ],
    [
      " Rich",
      "mond"
    ],
    [
      " M",
      "endes"
    ],
    [
      " Ch",
      "inese"
    ],
    [
      "f",
      "or"
    ],
    [
      "am",
      "ent"
    ],
    [
      " a",
      "ver"
    ],
    [
      " P",
      "e"
    ],
    [
      "ul",
      "f"
    ],
    [
      " w",
      "all"
    ],
    [
      " a",
      "ud"
    ],
    [
      "per",
      "or"
    ],
    [
      " s",
      "low"
    ],
    [
      " ab",
      "le"
    ],
    [
      "ound",
      "ed"
    ],
    [
      " me",
      "et"
    ],
    [
      " l",
      "ook"
    ],
    [
      " tr",
      "aining"
    ],
    [
      " t",
      "aken"
    ],
    [
      " L",
      "ittle"
    ],
    [
      " month",
      "s"
    ],
    [
      " inst",
      "ead"
    ],
    [
      " tele",
      "vision"
    ],
    [
      " King",
      "dom"
    ],
    [
      " int",
      "rodu"
    ],
    [
      "m",
      "a"
    ],
    [
      " ",
      "X"
    ],
    [
      "en",
      "ed"
    ],
    [
      " h",
      "on"
    ],
    [
      " A",
      "c"
    ],
    [
      " R",
      "ad"
    ],
    [
      " se",
      "le"
    ],
    [
      "or",
      "ies"
    ],
    [
      "ra",
      "f"
    ],
    [
      " f",
      "ell"
    ],
    [
      "pl",
      "es"
    ],
    [
      "ach",
      "ing"
    ],
    [
      " con",
      "du"
    ],
    [
      " g",
      "ood"
    ],
    [
      " arm",
      "y"
    ],
    [
      " qu",
      "ick"
    ],
    [
      " add",
      "ed"
    ],
    [
      " g",
      "eneral"
    ],
    [
      " bo",
      "ats"
    ],
    [
      " stud",
      "io"
    ],
    [
      " dam",
      "aged"
    ],
    [
      " pro",
      "cess"
    ],
    [
      " e",
      "astern"
    ],
    [
      " C",
      "reek"
    ],
    [
      " NB",
      "A"
    ],
    [
      "c",
      "o"
    ],
    [
      "v",
      "al"
    ],
    [
      "op",
      "e"
    ],
    [
      " pro",
      "b"
    ],
    [
      " v",
      "oc"
    ],
    [
      " A",
      "ward"
    ],
    [
      " f",
      "act"
    ],
    [
      " c",
      "oin"
    ],
    [
      "olog",
      "ical"
    ],
    [
      " m",
      "ix"
    ],
    [
      " Austral",
      "ians"
    ],
    [
      " l",
      "ittle"
    ],
    [
      " prog",
      "ram"
    ],
    [
      " e",
      "ither"
    ],
    [
      " trad",
      "ition"
    ],
    [
      " te",
      "chn"
    ],
    [
      " Vict",
      "or"
    ],
    [
      "st",
      "er"
    ],
    [
      " B",
      "ar"
    ],
    [
      " F",
      "il"
    ],
    [
      " s",
      "um"
    ],
    [
      "w",
      "est"
    ],
    [
      " a",
      "ge"
    ],
    [
      " c",
      "ast"
    ],
    [
      "ish",
      "ing"
    ],
    [
      "pl",
      "ay"
    ],
    [
      " G",
      "reat"
    ],
    [
      "ific",
      "ation"
    ],
    [
      "pe",
      "cial"
    ],
    [
      " c",
      "ert"
    ],
    [
      " writ",
      "ing"
    ],
    [
      " se",
      "ven"
    ],
    [
      " Ch",
      "ina"
    ],
    [
      " partic",
      "ip"
    ],
    [
      "bo",
      "ard"
    ],
    [
      "aut",
      "y"
    ],
    [
      " T",
      "y"
    ],
    [
      " H",
      "ol"
    ],
    [
      " F",
      "u"
    ],
    [
      "i",
      "ber"
    ],
    [
      "t",
      "ies"
    ],
    [
      "art",
      "y"
    ],
    [
      " v",
      "al"
    ],
    [
      " se",
      "ction"
    ],
    [
      " T",
      "wo"
    ],
    [
      "per",
      "ial"
    ],
    [
      " inv",
      "est"
    ],
    [
      " out",
      "side"
    ],
    [
      " em",
      "ploy"
    ],
    [
      " defe",
      "ated"
    ],
    [
      " contr",
      "act"
    ],
    [
      "use",
      "um"
    ],
    [
      " la",
      "un"
    ],
    [
      " bus",
      "iness"
    ],
    [
      " commer",
      "cial"
    ],
    [
      " ind",
      "ividual"
    ],
    [
      "ou",
      "l"
    ],
    [
      "ir",
      "al"
    ],
    [
      " as",
      "k"
    ],
    [
      "n",
      "el"
    ],
    [
      " pro",
      "t"
    ],
    [
      " c",
      "ru"
    ],
    [
      " be",
      "low"
    ],
    [
      " im",
      "age"
    ],
    [
      " Un",
      "ion"
    ],
    [
      " C",
      "are"
    ],
    [
      " arm",
      "our"
    ],
    [
      " stru",
      "ck"
    ],
    [
      " de",
      "ploy"
    ],
    [
      "emor",
      "ial"
    ],
    [
      " B",
      "lythe"
    ],
    [
      " c",
      "e"
    ],
    [
      " c",
      "al"
    ],
    [
      " M",
      "on"
    ],
    [
      "id",
      "ing"
    ],
    [
      " P",
      "ac"
    ],
    [
      " G",
      "l"
    ],
    [
      "ill",
      "o"
    ],
    [
      "qu",
      "ar"
    ],
    [
      " un",
      "it"
    ],
    [
      " en",
      "c"
    ],
    [
      "f",
      "orm"
    ],
    [
      " app",
      "oin"
    ],
    [
      " go",
      "al"
    ],
    [
      " open",
      "ing"
    ],
    [
      " hour",
      "s"
    ],
    [
      "i",
      "que"
    ],
    [
      " subsequ",
      "ently"
    ],
    [
      " al",
      "most"
    ],
    [
      " b",
      "asketball"
    ],
    [
      " WW",
      "E"
    ],
    [
      "in",
      "o"
    ],
    [
      " c",
      "he"
    ],
    [
      " s",
      "ol"
    ],
    [
      " g",
      "en"
    ],
    [
      " k",
      "ing"
    ],
    [
      "ent",
      "ial"
    ],
    [
      "ight",
      "s"
    ],
    [
      "ren",
      "g"
    ],
    [
      " up",
      "on"
    ],
    [
      " four",
      "th"
    ],
    [
      "ull",
      "s"
    ],
    [
      " sur",
      "round"
    ],
    [
      " ind",
      "ic"
    ],
    [
      " C",
      "ourt"
    ],
    [
      " belie",
      "ved"
    ],
    [
      " car",
      "ried"
    ],
    [
      "AA",
      "F"
    ],
    [
      " b",
      "rought"
    ],
    [
      "s",
      "p"
    ],
    [
      "is",
      "er"
    ],
    [
      "ad",
      "ed"
    ],
    [
      " B",
      "el"
    ],
    [
      "un",
      "k"
    ],
    [
      " D",
      "ay"
    ],
    [
      " U",
      "B"
    ],
    [
      "og",
      "n"
    ],
    [
      "ass",
      "y"
    ],
    [
      " st",
      "one"
    ],
    [
      " N",
      "az"
    ],
    [
      " imp",
      "ro"
    ],
    [
      "em",
      "eter"
    ],
    [
      " es",
      "c"
    ],
    [
      " f",
      "if"
    ],
    [
      " f",
      "oc"
    ],
    [
      "c",
      "ast"
    ],
    [
      " T",
      "ru"
    ],
    [
      "it",
      "ect"
    ],
    [
      " G",
      "overn"
    ],
    [
      " lead",
      "ing"
    ],
    [
      " b",
      "orn"
    ],
    [
      " previous",
      "ly"
    ],
    [
      " Eng",
      "land"
    ],
    [
      " poss",
      "ible"
    ],
    [
      "etr",
      "arch"
    ],
    [
      " suff",
      "ered"
    ],
    [
      " R",
      "AAF"
    ],
    [
      "a",
      "f"
    ],
    [
      "o",
      "o"
    ],
    [
      "u",
      "k"
    ],
    [
      " A",
      "b"
    ],
    [
      "ce",
      "ed"
    ],
    [
      " de",
      "ad"
    ],
    [
      " an",
      "c"
    ],
    [
      " B",
      "ill"
    ],
    [
      " v",
      "ill"
    ],
    [
      " k",
      "il"
    ],
    [
      "ran",
      "ch"
    ],
    [
      "a",
      "ult"
    ],
    [
      " inter",
      "est"
    ],
    [
      " Z",
      "e"
    ],
    [
      " comple",
      "x"
    ],
    [
      "erv",
      "a"
    ],
    [
      " ex",
      "ec"
    ],
    [
      "ill",
      "ery"
    ],
    [
      " P",
      "aul"
    ],
    [
      " fight",
      "ing"
    ],
    [
      " Ch",
      "ampionship"
    ],
    [
      " con",
      "dition"
    ],
    [
      " T",
      "etrarch"
    ],
    [
      "t",
      "r"
    ],
    [
      " re",
      "ad"
    ],
    [
      " C",
      "ro"
    ],
    [
      " re",
      "ve"
    ],
    [
      " M",
      "et"
    ],
    [
      " r",
      "a"
    ],
    [
      "iv",
      "a"
    ],
    [
      "ore",
      "n"
    ],
    [
      " K",
      "e"
    ],
    [
      "se",
      "c"
    ],
    [
      "ab",
      "b"
    ],
    [
      "a",
      "ud"
    ],
    [
      " ex",
      "c"
    ],
    [
      " G",
      "ib"
    ],
    [
      "id",
      "ence"
    ],
    [
      " for",
      "ced"
    ],
    [
      " l",
      "ines"
    ],
    [
      " R",
      "aj"
    ],
    [
      " ind",
      "ust"
    ],
    [
      " sh",
      "oot"
    ],
    [
      " requ",
      "est"
    ],
    [
      " But",
      "ler"
    ],
    [
      " commun",
      "ity"
    ],
    [
      " appear",
      "ance"
    ],
    [
      " av",
      "ail"
    ],
    [
      " earl",
      "ier"
    ],
    [
      "o",
      "e"
    ],
    [
      "ent",
      "h"
    ],
    [
      " G",
      "A"
    ],
    [
      " d",
      "ri"
    ],
    [
      "at",
      "ers"
    ],
    [
      "ry",
      "ing"
    ],
    [
      " res",
      "ul"
    ],
    [
      " Y",
      "ou"
    ],
    [
      " comm",
      "on"
    ],
    [
      "amp",
      "le"
    ],
    [
      " th",
      "reat"
    ],
    [
      " oper",
      "ation"
    ],
    [
      " qu",
      "al"
    ],
    [
      " crit",
      "ics"
    ],
    [
      " prov",
      "ided"
    ],
    [
      " ac",
      "cept"
    ],
    [
      " allow",
      "ed"
    ],
    [
      " des",
      "pite"
    ],
    [
      " W",
      "ales"
    ],
    [
      " lim",
      "ited"
    ],
    [
      "ur",
      "rican"
    ],
    [
      " re",
      "action"
    ],
    [
      "if",
      "fe"
    ],
    [
      " Jew",
      "ish"
    ],
    [
      " mur",
      "der"
    ],
    [
      " Mex",
      "ico"
    ],
    [
      " arri",
      "ved"
    ],
    [
      " st",
      "reng"
    ],
    [
      "r",
      "is"
    ],
    [
      "u",
      "le"
    ],
    [
      " M",
      "ed"
    ],
    [
      " D",
      "an"
    ],
    [
      "ist",
      "ing"
    ],
    [
      " f",
      "all"
    ],
    [
      " U",
      "K"
    ],
    [
      " n",
      "ine"
    ],
    [
      " O",
      "ther"
    ],
    [
      " m",
      "ult"
    ],
    [
      " acc",
      "om"
    ],
    [
      " attack",
      "ed"
    ],
    [
      " offic",
      "ers"
    ],
    [
      " charac",
      "ters"
    ],
    [
      " lar",
      "gest"
    ],
    [
      " pre",
      "vent"
    ],
    [
      " requ",
      "ired"
    ],
    [
      " p",
      "riv"
    ],
    [
      " Reg",
      "iment"
    ],
    [
      " b",
      "reak"
    ],
    [
      " se",
      "par"
    ],
    [
      " rec",
      "ogn"
    ],
    [
      " emb",
      "assy"
    ],
    [
      " Sh",
      "iva"
    ],
    [
      "urrican",
      "e"
    ],
    [
      "A",
      "R"
    ],
    [
      "k",
      "en"
    ],
    [
      "m",
      "ing"
    ],
    [
      " c",
      "ou"
    ],
    [
      " d",
      "ou"
    ],
    [
      " M",
      "or"
    ],
    [
      "im",
      "b"
    ],
    [
      " m",
      "ot"
    ],
    [
      "u",
      "el"
    ],
    [
      " un",
      "s"
    ],
    [
      "ell",
      "ig"
    ],
    [
      " Re",
      "c"
    ],
    [
      "ar",
      "ily"
    ],
    [
      " position",
      "s"
    ],
    [
      " sc",
      "ored"
    ],
    [
      "ib",
      "ility"
    ],
    [
      " vi",
      "ol"
    ],
    [
      " Cent",
      "er"
    ],
    [
      " s",
      "aying"
    ],
    [
      " cons",
      "pir"
    ],
    [
      " T",
      "o"
    ],
    [
      " l",
      "o"
    ],
    [
      " n",
      "on"
    ],
    [
      "n",
      "ow"
    ],
    [
      " P",
      "at"
    ],
    [
      " an",
      "im"
    ],
    [
      " st",
      "op"
    ],
    [
      " M",
      "ong"
    ],
    [
      " pl",
      "at"
    ],
    [
      "A",
      "fter"
    ],
    [
      " V",
      "i"
    ],
    [
      " F",
      "irst"
    ],
    [
      " f",
      "ree"
    ],
    [
      "o",
      "ice"
    ],
    [
      " fl",
      "ood"
    ],
    [
      " pr",
      "in"
    ],
    [
      " do",
      "es"
    ],
    [
      " set",
      "t"
    ],
    [
      " r",
      "ather"
    ],
    [
      " rem",
      "oved"
    ],
    [
      " turn",
      "ed"
    ],
    [
      " cur",
      "rent"
    ],
    [
      " init",
      "ially"
    ],
    [
      " ironcl",
      "ads"
    ],
    [
      " tank",
      "s"
    ],
    [
      " Ass",
      "oci"
    ],
    [
      " prof",
      "ess"
    ],
    [
      "j",
      "illo"
    ],
    [
      " Ze",
      "aland"
    ],
    [
      "h",
      "u"
    ],
    [
      " t",
      "or"
    ],
    [
      "al",
      "ed"
    ],
    [
      "om",
      "as"
    ],
    [
      " de",
      "ter"
    ],
    [
      " r",
      "ap"
    ],
    [
      "ord",
      "er"
    ],
    [
      " m",
      "ass"
    ],
    [
      "p",
      "ire"
    ],
    [
      " m",
      "ater"
    ],
    [
      " play",
      "ing"
    ],
    [
      " work",
      "ing"
    ],
    [
      " cont",
      "rib"
    ],
    [
      " c",
      "reat"
    ],
    [
      " col",
      "on"
    ],
    [
      "az",
      "ine"
    ],
    [
      " Mar",
      "ine"
    ],
    [
      " group",
      "s"
    ],
    [
      " command",
      "er"
    ],
    [
      " week",
      "s"
    ],
    [
      " capt",
      "ured"
    ],
    [
      " begin",
      "ning"
    ],
    [
      " art",
      "illery"
    ],
    [
      " ex",
      "ample"
    ],
    [
      " Mong",
      "ol"
    ],
    [
      " ",
      "z"
    ],
    [
      "le",
      "g"
    ],
    [
      " p",
      "il"
    ],
    [
      " B",
      "all"
    ],
    [
      "n",
      "ect"
    ],
    [
      "ph",
      "ib"
    ],
    [
      " inter",
      "se"
    ],
    [
      " work",
      "ed"
    ],
    [
      " kn",
      "ow"
    ],
    [
      " p",
      "air"
    ],
    [
      " pro",
      "ble"
    ],
    [
      " b",
      "ody"
    ],
    [
      " deb",
      "ut"
    ],
    [
      " f",
      "ederal"
    ],
    [
      " Pac",
      "ific"
    ],
    [
      "cl",
      "iffe"
    ],
    [
      "b",
      "e"
    ],
    [
      "M",
      "A"
    ],
    [
      "ed",
      "y"
    ],
    [
      "c",
      "an"
    ],
    [
      "v",
      "an"
    ],
    [
      " d",
      "en"
    ],
    [
      " S",
      "ch"
    ],
    [
      "iv",
      "al"
    ],
    [
      " pro",
      "p"
    ],
    [
      " U",
      "p"
    ],
    [
      " rem",
      "ain"
    ],
    [
      " wh",
      "ite"
    ],
    [
      " s",
      "ail"
    ],
    [
      " In",
      "tern"
    ],
    [
      "pe",
      "cted"
    ],
    [
      "il",
      "ities"
    ],
    [
      " Ind",
      "ia"
    ],
    [
      " M",
      "usic"
    ],
    [
      " bl",
      "ack"
    ],
    [
      "olog",
      "ists"
    ],
    [
      " rem",
      "aining"
    ],
    [
      " r",
      "idge"
    ],
    [
      " Ang",
      "le"
    ],
    [
      " eng",
      "ine"
    ],
    [
      " Sc",
      "ott"
    ],
    [
      " child",
      "ren"
    ],
    [
      " nort",
      "heast"
    ],
    [
      " int",
      "ended"
    ],
    [
      " hig",
      "hest"
    ],
    [
      " Oper",
      "ation"
    ],
    [
      " Tru",
      "jillo"
    ],
    [
      " s",
      "at"
    ],
    [
      "il",
      "i"
    ],
    [
      "he",
      "ad"
    ],
    [
      " t",
      "ur"
    ],
    [
      " st",
      "ation"
    ],
    [
      " G",
      "ro"
    ],
    [
      " se",
      "x"
    ],
    [
      "um",
      "n"
    ],
    [
      "ate",
      "g"
    ],
    [
      " P",
      "res"
    ],
    [
      "l",
      "ish"
    ],
    [
      "ell",
      "ing"
    ],
    [
      " cl",
      "ub"
    ],
    [
      "ang",
      "u"
    ],
    [
      " end",
      "ed"
    ],
    [
      " f",
      "ield"
    ],
    [
      " fin",
      "ished"
    ],
    [
      " conc",
      "ern"
    ],
    [
      " var",
      "i"
    ],
    [
      " res",
      "pect"
    ],
    [
      "oci",
      "ety"
    ],
    [
      " dep",
      "ression"
    ],
    [
      "con",
      "om"
    ],
    [
      " Russ",
      "ian"
    ],
    [
      "b",
      "urg"
    ],
    [
      "on",
      "na"
    ],
    [
      " U",
      "nder"
    ],
    [
      " want",
      "ed"
    ],
    [
      " agre",
      "ed"
    ],
    [
      " Rh",
      "odes"
    ],
    [
      " im",
      "medi"
    ],
    [
      " N",
      "erva"
    ],
    [
      " S",
      "er"
    ],
    [
      " B",
      "ig"
    ],
    [
      " H",
      "ist"
    ],
    [
      "oc",
      "r"
    ],
    [
      " he",
      "av"
    ],
    [
      "ass",
      "ic"
    ],
    [
      "u",
      "ff"
    ],
    [
      "ic",
      "ted"
    ],
    [
      "ic",
      "les"
    ],
    [
      "id",
      "ents"
    ],
    [
      " gro",
      "w"
    ],
    [
      " pr",
      "act"
    ],
    [
      " sub",
      "ject"
    ],
    [
      " min",
      "ute"
    ],
    [
      " dire",
      "cted"
    ],
    [
      " S",
      "chool"
    ],
    [
      " del",
      "iver"
    ],
    [
      " event",
      "ually"
    ],
    [
      " Egypt",
      "ian"
    ],
    [
      " fav",
      "or"
    ],
    [
      "ral",
      "tar"
    ],
    [
      " w",
      "omen"
    ],
    [
      "g",
      "g"
    ],
    [
      "w",
      "in"
    ],
    [
      " s",
      "on"
    ],
    [
      "on",
      "ed"
    ],
    [
      "d",
      "ing"
    ],
    [
      " f",
      "ac"
    ],
    [
      "r",
      "ay"
    ],
    [
      "d",
      "ay"
    ],
    [
      " r",
      "d"
    ],
    [
      "ap",
      "er"
    ],
    [
      " v",
      "ot"
    ],
    [
      "ut",
      "ive"
    ],
    [
      " G",
      "ame"
    ],
    [
      " c",
      "ost"
    ],
    [
      " ad",
      "ap"
    ],
    [
      " man",
      "ag"
    ],
    [
      "qu",
      "are"
    ],
    [
      "as",
      "ons"
    ],
    [
      "um",
      "ents"
    ],
    [
      " de",
      "ep"
    ],
    [
      " inf",
      "antry"
    ],
    [
      "read",
      "y"
    ],
    [
      " l",
      "atter"
    ],
    [
      " sc",
      "ript"
    ],
    [
      " relig",
      "ious"
    ],
    [
      " ant",
      "i"
    ],
    [
      " flo",
      "or"
    ],
    [
      " sec",
      "urity"
    ],
    [
      " Miss",
      "iss"
    ],
    [
      " w",
      "ounded"
    ],
    [
      " avail",
      "able"
    ],
    [
      " Eng",
      "lish"
    ],
    [
      " Gib",
      "raltar"
    ],
    [
      " Mississ",
      "ipp"
    ],
    [
      " Mississipp",
      "i"
    ],
    [
      "ar",
      "ing"
    ],
    [
      " p",
      "en"
    ],
    [
      "p",
      "ly"
    ],
    [
      " in",
      "ch"
    ],
    [
      " de",
      "al"
    ],
    [
      " N",
      "ak"
    ],
    [
      "all",
      "ed"
    ],
    [
      " D",
      "av"
    ],
    [
      " p",
      "ast"
    ],
    [
      "og",
      "ue"
    ],
    [
      "h",
      "ile"
    ],
    [
      "ig",
      "ade"
    ],
    [
      " she",
      "ll"
    ],
    [
      " spe",
      "ed"
    ],
    [
      " reg",
      "ular"
    ],
    [
      " inf",
      "orm"
    ],
    [
      " dec",
      "ision"
    ],
    [
      " support",
      "ed"
    ],
    [
      "ch",
      "ange"
    ],
    [
      " win",
      "ning"
    ],
    [
      "ck",
      "ham"
    ],
    [
      "por",
      "ary"
    ],
    [
      " defe",
      "at"
    ],
    [
      " ironcl",
      "ad"
    ],
    [
      " prim",
      "ary"
    ],
    [
      " stri",
      "ke"
    ],
    [
      " st",
      "aff"
    ],
    [
      " Des",
      "pite"
    ],
    [
      " doll",
      "ar"
    ],
    [
      " pra",
      "ised"
    ],
    [
      "ellig",
      "ence"
    ],
    [
      " l",
      "angu"
    ],
    [
      "on",
      "a"
    ],
    [
      " o",
      "x"
    ],
    [
      " S",
      "y"
    ],
    [
      "om",
      "ing"
    ],
    [
      " b",
      "ur"
    ],
    [
      "ir",
      "ing"
    ],
    [
      " A",
      "ct"
    ],
    [
      " L",
      "at"
    ],
    [
      "ri",
      "an"
    ],
    [
      "ag",
      "o"
    ],
    [
      " L",
      "ong"
    ],
    [
      " l",
      "if"
    ],
    [
      " dis",
      "s"
    ],
    [
      " ne",
      "g"
    ],
    [
      " t",
      "ons"
    ],
    [
      " bet",
      "ter"
    ],
    [
      " At",
      "t"
    ],
    [
      " An",
      "other"
    ],
    [
      "ven",
      "ue"
    ],
    [
      " ch",
      "ange"
    ],
    [
      " t",
      "aking"
    ],
    [
      " rem",
      "ains"
    ],
    [
      " attempt",
      "ed"
    ],
    [
      " incre",
      "ased"
    ],
    [
      " Char",
      "les"
    ],
    [
      " w",
      "estern"
    ],
    [
      " cas",
      "ual"
    ],
    [
      " R",
      "oman"
    ],
    [
      " p",
      "rior"
    ],
    [
      " Dep",
      "artment"
    ],
    [
      " Do",
      "ctor"
    ],
    [
      " prob",
      "ably"
    ],
    [
      " invest",
      "ig"
    ],
    [
      " appoin",
      "ted"
    ],
    [
      "b",
      "s"
    ],
    [
      "s",
      "en"
    ],
    [
      "d",
      "en"
    ],
    [
      " S",
      "w"
    ],
    [
      " M",
      "il"
    ],
    [
      " f",
      "em"
    ],
    [
      " l",
      "os"
    ],
    [
      " c",
      "op"
    ],
    [
      "ant",
      "a"
    ],
    [
      "t",
      "own"
    ],
    [
      " n",
      "ames"
    ],
    [
      " pol",
      "ic"
    ],
    [
      " dire",
      "ctor"
    ],
    [
      " pass",
      "ed"
    ],
    [
      " Car",
      "ol"
    ],
    [
      " Te",
      "am"
    ],
    [
      " particular",
      "ly"
    ],
    [
      " K",
      "ershaw"
    ],
    [
      " pl",
      "anned"
    ],
    [
      " Mich",
      "ael"
    ],
    [
      " a",
      "w"
    ],
    [
      "w",
      "er"
    ],
    [
      " d",
      "on"
    ],
    [
      " s",
      "il"
    ],
    [
      " D",
      "on"
    ],
    [
      " C",
      "ap"
    ],
    [
      "ill",
      "s"
    ],
    [
      " H",
      "all"
    ],
    [
      " se",
      "qu"
    ],
    [
      " T",
      "our"
    ],
    [
      "er",
      "ous"
    ],
    [
      " h",
      "ous"
    ],
    [
      "oun",
      "ted"
    ],
    [
      "ib",
      "r"
    ],
    [
      " off",
      "ice"
    ],
    [
      " G",
      "old"
    ],
    [
      " r",
      "ail"
    ],
    [
      " def",
      "end"
    ],
    [
      " ass",
      "ass"
    ],
    [
      " so",
      "on"
    ],
    [
      " M",
      "ajor"
    ],
    [
      " run",
      "s"
    ],
    [
      " Char",
      "l"
    ],
    [
      " W",
      "estern"
    ],
    [
      " Y",
      "oung"
    ],
    [
      " min",
      "utes"
    ],
    [
      " E",
      "arly"
    ],
    [
      " quick",
      "ly"
    ],
    [
      " Be",
      "auty"
    ],
    [
      " c",
      "emeter"
    ],
    [
      " arch",
      "itect"
    ],
    [
      " mater",
      "ial"
    ],
    [
      " e",
      "conom"
    ],
    [
      "b",
      "on"
    ],
    [
      "es",
      "h"
    ],
    [
      " m",
      "er"
    ],
    [
      " A",
      "D"
    ],
    [
      " R",
      "ed"
    ],
    [
      " P",
      "al"
    ],
    [
      " com",
      "e"
    ],
    [
      "ber",
      "g"
    ],
    [
      " G",
      "ore"
    ],
    [
      " K",
      "n"
    ],
    [
      "st",
      "ant"
    ],
    [
      " ar",
      "g"
    ],
    [
      " m",
      "ach"
    ],
    [
      " ",
      "ult"
    ],
    [
      " most",
      "ly"
    ],
    [
      " team",
      "s"
    ],
    [
      " ele",
      "ments"
    ],
    [
      "ab",
      "ility"
    ],
    [
      " acc",
      "ording"
    ],
    [
      " th",
      "ink"
    ],
    [
      " ey",
      "e"
    ],
    [
      " Sec",
      "ond"
    ],
    [
      " c",
      "ounter"
    ],
    [
      "ap",
      "rang"
    ],
    [
      " So",
      "vi"
    ],
    [
      " mor",
      "ning"
    ],
    [
      " ty",
      "phoon"
    ],
    [
      " Intern",
      "ational"
    ],
    [
      "z",
      "o"
    ],
    [
      "A",
      "s"
    ],
    [
      "it",
      "z"
    ],
    [
      " d",
      "i"
    ],
    [
      " h",
      "or"
    ],
    [
      "le",
      "x"
    ],
    [
      " S",
      "ar"
    ],
    [
      " C",
      "R"
    ],
    [
      " H",
      "M"
    ],
    [
      " to",
      "ld"
    ],
    [
      "in",
      "ated"
    ],
    [
      " ",
      "ens"
    ],
    [
      " over",
      "all"
    ],
    [
      " n",
      "ove"
    ],
    [
      "at",
      "ory"
    ],
    [
      " st",
      "ates"
    ],
    [
      " arm",
      "or"
    ],
    [
      " bro",
      "ther"
    ],
    [
      " s",
      "ides"
    ],
    [
      " person",
      "al"
    ],
    [
      " Fran",
      "ce"
    ],
    [
      " school",
      "s"
    ],
    [
      " Q",
      "u"
    ],
    [
      " to",
      "get"
    ],
    [
      " red",
      "u"
    ],
    [
      " D",
      "istr"
    ],
    [
      " al",
      "ready"
    ],
    [
      " toget",
      "her"
    ],
    [
      " Distr",
      "ict"
    ],
    [
      " p",
      "al"
    ],
    [
      "ro",
      "g"
    ],
    [
      " A",
      "p"
    ],
    [
      "in",
      "ent"
    ],
    [
      "et",
      "t"
    ],
    [
      " H",
      "it"
    ],
    [
      "e",
      "ch"
    ],
    [
      " G",
      "o"
    ],
    [
      " D",
      "od"
    ],
    [
      "ill",
      "a"
    ],
    [
      " In",
      "t"
    ],
    [
      " sh",
      "own"
    ],
    [
      " L",
      "ater"
    ],
    [
      " r",
      "ace"
    ],
    [
      " R",
      "ick"
    ],
    [
      " film",
      "s"
    ],
    [
      " sup",
      "er"
    ],
    [
      " p",
      "red"
    ],
    [
      "ped",
      "o"
    ],
    [
      " inc",
      "hes"
    ],
    [
      " attack",
      "s"
    ],
    [
      " k",
      "ey"
    ],
    [
      " m",
      "other"
    ],
    [
      " ter",
      "m"
    ],
    [
      " p",
      "urch"
    ],
    [
      " w",
      "ife"
    ],
    [
      " St",
      "arr"
    ],
    [
      " Ang",
      "el"
    ],
    [
      " activ",
      "ities"
    ],
    [
      " fig",
      "ure"
    ],
    [
      " sub",
      "mar"
    ],
    [
      "yn",
      "ast"
    ],
    [
      "x",
      "imately"
    ],
    [
      " discover",
      "ed"
    ],
    [
      " Geor",
      "ge"
    ],
    [
      " Care",
      "y"
    ],
    [
      "S",
      "t"
    ],
    [
      " a",
      "er"
    ],
    [
      "h",
      "ing"
    ],
    [
      "c",
      "il"
    ],
    [
      " b",
      "ad"
    ],
    [
      "l",
      "am"
    ],
    [
      " S",
      "im"
    ],
    [
      " con",
      "v"
    ],
    [
      " L",
      "a"
    ],
    [
      "im",
      "um"
    ],
    [
      "ag",
      "an"
    ],
    [
      "if",
      "y"
    ],
    [
      " K",
      "r"
    ],
    [
      " l",
      "ab"
    ],
    [
      " V",
      "al"
    ],
    [
      "te",
      "en"
    ],
    [
      " ab",
      "and"
    ],
    [
      " ad",
      "op"
    ],
    [
      " en",
      "ough"
    ],
    [
      "an",
      "ced"
    ],
    [
      " Se",
      "a"
    ],
    [
      " th",
      "ick"
    ],
    [
      " we",
      "ap"
    ],
    [
      " me",
      "as"
    ],
    [
      " ele",
      "ct"
    ],
    [
      " min",
      "or"
    ],
    [
      " s",
      "elf"
    ],
    [
      " offic",
      "er"
    ],
    [
      "oss",
      "al"
    ],
    [
      " inter",
      "view"
    ],
    [
      " H",
      "ung"
    ],
    [
      " n",
      "omin"
    ],
    [
      " ter",
      "ms"
    ],
    [
      " iss",
      "ue"
    ],
    [
      " pat",
      "ro"
    ],
    [
      " equ",
      "ip"
    ],
    [
      " trans",
      "ferred"
    ],
    [
      " foot",
      "ball"
    ],
    [
      " to",
      "mb"
    ],
    [
      "vol",
      "ution"
    ],
    [
      " gu",
      "itar"
    ],
    [
      " S",
      "onic"
    ],
    [
      " inv",
      "asion"
    ],
    [
      " Associ",
      "ation"
    ],
    [
      " con",
      "nect"
    ],
    [
      " tor",
      "pedo"
    ],
    [
      "N",
      "A"
    ],
    [
      "is",
      "l"
    ],
    [
      "t",
      "ic"
    ],
    [
      " T",
      "ro"
    ],
    [
      "st",
      "e"
    ],
    [
      " T",
      "ur"
    ],
    [
      " b",
      "all"
    ],
    [
      "ul",
      "ated"
    ],
    [
      " v",
      "ess"
    ],
    [
      " le",
      "t"
    ],
    [
      "ime",
      "ter"
    ],
    [
      " cl",
      "os"
    ],
    [
      "D",
      "uring"
    ],
    [
      " en",
      "v"
    ],
    [
      " off",
      "ered"
    ],
    [
      " d",
      "rop"
    ],
    [
      " rel",
      "ations"
    ],
    [
      " acc",
      "ess"
    ],
    [
      " its",
      "elf"
    ],
    [
      " adv",
      "ance"
    ],
    [
      " ty",
      "p"
    ],
    [
      " lar",
      "ger"
    ],
    [
      " y",
      "ards"
    ],
    [
      " hel",
      "p"
    ],
    [
      " sl",
      "ight"
    ],
    [
      " batt",
      "alion"
    ],
    [
      " y",
      "oung"
    ],
    [
      " l",
      "yr"
    ],
    [
      " F",
      "ollowing"
    ],
    [
      " aver",
      "age"
    ],
    [
      " person",
      "nel"
    ],
    [
      " Raj",
      "ne"
    ],
    [
      " rap",
      "id"
    ],
    [
      " langu",
      "age"
    ],
    [
      " casual",
      "ties"
    ],
    [
      "k",
      "a"
    ],
    [
      "F",
      "C"
    ],
    [
      "u",
      "ing"
    ],
    [
      " T",
      "en"
    ],
    [
      " re",
      "in"
    ],
    [
      "ac",
      "on"
    ],
    [
      "am",
      "ar"
    ],
    [
      "s",
      "el"
    ],
    [
      "ce",
      "nd"
    ],
    [
      " P",
      "re"
    ],
    [
      " D",
      "r"
    ],
    [
      "and",
      "ing"
    ],
    [
      " J",
      "im"
    ],
    [
      "ers",
      "on"
    ],
    [
      " ",
      "ill"
    ],
    [
      "ak",
      "er"
    ],
    [
      "ud",
      "e"
    ],
    [
      " ex",
      "am"
    ],
    [
      "cl",
      "us"
    ],
    [
      " e",
      "mer"
    ],
    [
      "d",
      "ie"
    ],
    [
      " J",
      "ose"
    ],
    [
      " dep",
      "art"
    ],
    [
      " open",
      "ed"
    ],
    [
      " we",
      "aken"
    ],
    [
      " ste",
      "am"
    ],
    [
      "augh",
      "ter"
    ],
    [
      "re",
      "me"
    ],
    [
      " rad",
      "io"
    ],
    [
      " sc",
      "enes"
    ],
    [
      " Col",
      "umb"
    ],
    [
      " battles",
      "hips"
    ],
    [
      " Sen",
      "ate"
    ],
    [
      " incre",
      "asing"
    ],
    [
      " Im",
      "perial"
    ],
    [
      " priv",
      "ate"
    ],
    [
      " Dav",
      "id"
    ],
    [
      " Be",
      "ckham"
    ],
    [
      "en",
      "a"
    ],
    [
      " S",
      "u"
    ],
    [
      " M",
      "a"
    ],
    [
      "un",
      "t"
    ],
    [
      " s",
      "ch"
    ],
    [
      "ul",
      "a"
    ],
    [
      " D",
      "em"
    ],
    [
      "th",
      "ing"
    ],
    [
      " F",
      "ort"
    ],
    [
      " d",
      "ate"
    ],
    [
      "o",
      "res"
    ],
    [
      "ar",
      "ian"
    ],
    [
      "ar",
      "ies"
    ],
    [
      " F",
      "our"
    ],
    [
      " m",
      "ight"
    ],
    [
      " d",
      "ark"
    ],
    [
      " c",
      "red"
    ],
    [
      " me",
      "an"
    ],
    [
      " met",
      "al"
    ],
    [
      "ative",
      "ly"
    ],
    [
      " S",
      "erv"
    ],
    [
      " ex",
      "tend"
    ],
    [
      "osp",
      "ital"
    ],
    [
      " iss",
      "ued"
    ],
    [
      " review",
      "s"
    ],
    [
      " claim",
      "ed"
    ],
    [
      " move",
      "ment"
    ],
    [
      " cl",
      "osed"
    ],
    [
      " l",
      "eng"
    ],
    [
      " s",
      "ize"
    ],
    [
      "os",
      "aur"
    ],
    [
      " N",
      "atives"
    ],
    [
      " struct",
      "ure"
    ],
    [
      " intens",
      "ity"
    ],
    [
      " L",
      "oren"
    ],
    [
      " h",
      "urricane"
    ],
    [
      "l",
      "in"
    ],
    [
      "an",
      "c"
    ],
    [
      "er",
      "ve"
    ],
    [
      "ot",
      "i"
    ],
    [
      " s",
      "us"
    ],
    [
      "and",
      "s"
    ],
    [
      "i",
      "est"
    ],
    [
      "ong",
      "s"
    ],
    [
      "ew",
      "ay"
    ],
    [
      "on",
      "se"
    ],
    [
      " M",
      "ost"
    ],
    [
      "ac",
      "ted"
    ],
    [
      "oun",
      "ts"
    ],
    [
      " j",
      "ud"
    ],
    [
      " Th",
      "at"
    ],
    [
      " for",
      "ward"
    ],
    [
      " wh",
      "ose"
    ],
    [
      " t",
      "rib"
    ],
    [
      " l",
      "ower"
    ],
    [
      " co",
      "ach"
    ],
    [
      " Cl",
      "ub"
    ],
    [
      " Comm",
      "on"
    ],
    [
      " op",
      "pos"
    ],
    [
      " st",
      "ep"
    ],
    [
      " near",
      "ly"
    ],
    [
      " comm",
      "ission"
    ],
    [
      " appro",
      "ach"
    ],
    [
      " Kore",
      "ans"
    ],
    [
      " ed",
      "uc"
    ],
    [
      " l",
      "iter"
    ],
    [
      " associ",
      "ated"
    ],
    [
      " f",
      "lying"
    ],
    [
      " Ital",
      "ian"
    ],
    [
      " sele",
      "cted"
    ],
    [
      "m",
      "iral"
    ],
    [
      " ask",
      "ed"
    ],
    [
      " resul",
      "ted"
    ],
    [
      " resp",
      "onse"
    ],
    [
      "A",
      "t"
    ],
    [
      "m",
      "p"
    ],
    [
      " t",
      "ar"
    ],
    [
      " p",
      "le"
    ],
    [
      " S",
      "ing"
    ],
    [
      "am",
      "a"
    ],
    [
      "ir",
      "id"
    ],
    [
      "r",
      "ain"
    ],
    [
      "ri",
      "al"
    ],
    [
      " r",
      "an"
    ],
    [
      "ch",
      "ie"
    ],
    [
      " comm",
      "it"
    ],
    [
      "one",
      "y"
    ],
    [
      " De",
      "f"
    ],
    [
      "it",
      "ors"
    ],
    [
      " C",
      "amp"
    ],
    [
      " sup",
      "pl"
    ],
    [
      " end",
      "ing"
    ],
    [
      " b",
      "ank"
    ],
    [
      " ent",
      "ered"
    ],
    [
      " rep",
      "air"
    ],
    [
      " R",
      "ober"
    ],
    [
      " show",
      "s"
    ],
    [
      " go",
      "ing"
    ],
    [
      " conc",
      "ert"
    ],
    [
      " Im",
      "ag"
    ],
    [
      " mat",
      "ches"
    ],
    [
      " sc",
      "reen"
    ],
    [
      " vict",
      "ory"
    ],
    [
      " f",
      "ailed"
    ],
    [
      " al",
      "ways"
    ],
    [
      " respons",
      "ible"
    ],
    [
      " intern",
      "ational"
    ],
    [
      " Tem",
      "ple"
    ],
    [
      "quar",
      "ters"
    ],
    [
      " bro",
      "ken"
    ],
    [
      " Th",
      "omas"
    ],
    [
      " Em",
      "pire"
    ],
    [
      " Rad",
      "cliffe"
    ],
    [
      "M",
      "an"
    ],
    [
      " re",
      "ar"
    ],
    [
      " M",
      "y"
    ],
    [
      " M",
      "ir"
    ],
    [
      " p",
      "ot"
    ],
    [
      " a",
      "ut"
    ],
    [
      " H",
      "or"
    ],
    [
      " con",
      "ve"
    ],
    [
      "and",
      "e"
    ],
    [
      " W",
      "il"
    ],
    [
      "c",
      "ip"
    ],
    [
      " h",
      "ard"
    ],
    [
      " g",
      "ra"
    ],
    [
      "ition",
      "s"
    ],
    [
      " ab",
      "s"
    ],
    [
      " tr",
      "ade"
    ],
    [
      " Ar",
      "j"
    ],
    [
      " loc",
      "ation"
    ],
    [
      " design",
      "ated"
    ],
    [
      " A",
      "wards"
    ],
    [
      " consid",
      "er"
    ],
    [
      " ex",
      "cept"
    ],
    [
      " cons",
      "isted"
    ],
    [
      " performan",
      "ces"
    ],
    [
      " Q",
      "ue"
    ],
    [
      " gener",
      "ally"
    ],
    [
      " cycl",
      "one"
    ],
    [
      "min",
      "istr"
    ],
    [
      " cle",
      "ar"
    ],
    [
      "rie",
      "f"
    ],
    [
      "urt",
      "ado"
    ],
    [
      " Ol",
      "m"
    ],
    [
      " ex",
      "hib"
    ],
    [
      "for",
      "ce"
    ],
    [
      "g",
      "raf"
    ],
    [
      " Bill",
      "board"
    ],
    [
      " J",
      "MA"
    ],
    [
      " Lat",
      "in"
    ],
    [
      "oun",
      "cil"
    ],
    [
      " leng",
      "th"
    ],
    [
      "he",
      "l"
    ],
    [
      "it",
      "or"
    ],
    [
      "m",
      "it"
    ],
    [
      "ou",
      "d"
    ],
    [
      " M",
      "id"
    ],
    [
      "ol",
      "ay"
    ],
    [
      " H",
      "am"
    ],
    [
      "os",
      "a"
    ],
    [
      " L",
      "l"
    ],
    [
      " N",
      "ort"
    ],
    [
      "oc",
      "ial"
    ],
    [
      " ch",
      "all"
    ],
    [
      " S",
      "out"
    ],
    [
      "ell",
      "ed"
    ],
    [
      " L",
      "ie"
    ],
    [
      " con",
      "clud"
    ],
    [
      "amp",
      "ion"
    ],
    [
      " fl",
      "ight"
    ],
    [
      " t",
      "reat"
    ],
    [
      " war",
      "s"
    ],
    [
      " am",
      "b"
    ],
    [
      " sur",
      "f"
    ],
    [
      " ob",
      "ject"
    ],
    [
      " Bl",
      "ue"
    ],
    [
      " f",
      "ired"
    ],
    [
      " l",
      "oad"
    ],
    [
      " conf",
      "l"
    ],
    [
      " d",
      "omin"
    ],
    [
      " ph",
      "ot"
    ],
    [
      " ne",
      "cess"
    ],
    [
      " cap",
      "ital"
    ],
    [
      " F",
      "leet"
    ],
    [
      " comb",
      "ined"
    ],
    [
      "m",
      "itted"
    ],
    [
      " influ",
      "ence"
    ],
    [
      " prote",
      "ct"
    ],
    [
      "ash",
      "ington"
    ],
    [
      " pos",
      "itive"
    ],
    [
      " occur",
      "red"
    ],
    [
      " laun",
      "ched"
    ],
    [
      " b",
      "order"
    ],
    [
      " Gro",
      "up"
    ],
    [
      " nove",
      "l"
    ],
    [
      " appro",
      "ximately"
    ],
    [
      "ste",
      "in"
    ],
    [
      " h",
      "ar"
    ],
    [
      "o",
      "ly"
    ],
    [
      " O",
      "s"
    ],
    [
      "r",
      "ated"
    ],
    [
      "ic",
      "ated"
    ],
    [
      " f",
      "und"
    ],
    [
      "d",
      "own"
    ],
    [
      " dis",
      "p"
    ],
    [
      " M",
      "att"
    ],
    [
      "is",
      "ions"
    ],
    [
      "oin",
      "t"
    ],
    [
      "ro",
      "wn"
    ],
    [
      "t",
      "ained"
    ],
    [
      " At",
      "l"
    ],
    [
      " govern",
      "or"
    ],
    [
      " along",
      "side"
    ],
    [
      " br",
      "idge"
    ],
    [
      " major",
      "ity"
    ],
    [
      "alk",
      "y"
    ],
    [
      " cover",
      "ed"
    ],
    [
      " stat",
      "us"
    ],
    [
      " ke",
      "ep"
    ],
    [
      " sculpt",
      "ure"
    ],
    [
      " wood",
      "en"
    ],
    [
      " somet",
      "imes"
    ],
    [
      " streng",
      "th"
    ],
    [
      " am",
      "phib"
    ],
    [
      " Pres",
      "ident"
    ],
    [
      " immedi",
      "ately"
    ],
    [
      " bec",
      "oming"
    ],
    [
      " a",
      "chie"
    ],
    [
      " Arj",
      "ona"
    ],
    [
      " Olm",
      "ec"
    ],
    [
      " W",
      "ashington"
    ],
    [
      "o",
      "f"
    ],
    [
      "A",
      "l"
    ],
    [
      " s",
      "en"
    ],
    [
      "at",
      "al"
    ],
    [
      " T",
      "or"
    ],
    [
      " P",
      "et"
    ],
    [
      " de",
      "v"
    ],
    [
      "b",
      "ers"
    ],
    [
      "ap",
      "ed"
    ],
    [
      " M",
      "art"
    ],
    [
      " pl",
      "ot"
    ],
    [
      " t",
      "ru"
    ],
    [
      " D",
      "ire"
    ],
    [
      "er",
      "ved"
    ],
    [
      " j",
      "our"
    ],
    [
      " p",
      "ound"
    ],
    [
      " B",
      "oy"
    ],
    [
      " reg",
      "ard"
    ],
    [
      " land",
      "ing"
    ],
    [
      " feat",
      "ure"
    ],
    [
      "ric",
      "a"
    ],
    [
      " Con",
      "f"
    ],
    [
      " prov",
      "ide"
    ],
    [
      " contin",
      "ues"
    ],
    [
      " gr",
      "ad"
    ],
    [
      " le",
      "ague"
    ],
    [
      " constru",
      "cted"
    ],
    [
      " ar",
      "rest"
    ],
    [
      " H",
      "ouse"
    ],
    [
      " organ",
      "ization"
    ],
    [
      " pur",
      "s"
    ],
    [
      " cour",
      "se"
    ],
    [
      " Sm",
      "ith"
    ],
    [
      " em",
      "peror"
    ],
    [
      " com",
      "edy"
    ],
    [
      " Ed",
      "die"
    ],
    [
      " Jose",
      "ph"
    ],
    [
      " Ad",
      "miral"
    ],
    [
      "er",
      "r"
    ],
    [
      "at",
      "on"
    ],
    [
      "ad",
      "or"
    ],
    [
      " B",
      "C"
    ],
    [
      " de",
      "g"
    ],
    [
      "um",
      "ed"
    ],
    [
      " le",
      "ar"
    ],
    [
      "un",
      "ction"
    ],
    [
      " cont",
      "em"
    ],
    [
      "us",
      "hed"
    ],
    [
      " pre",
      "m"
    ],
    [
      "ist",
      "ance"
    ],
    [
      "ning",
      "s"
    ],
    [
      " F",
      "inal"
    ],
    [
      " act",
      "ive"
    ],
    [
      " form",
      "s"
    ],
    [
      " Al",
      "i"
    ],
    [
      " qu",
      "ar"
    ],
    [
      " fin",
      "ally"
    ],
    [
      " All",
      "ied"
    ],
    [
      " run",
      "ning"
    ],
    [
      " le",
      "aving"
    ],
    [
      " Fran",
      "k"
    ],
    [
      " ste",
      "el"
    ],
    [
      " addition",
      "al"
    ],
    [
      "c",
      "hest"
    ],
    [
      " Europe",
      "an"
    ],
    [
      " suggest",
      "ed"
    ],
    [
      " Off",
      "ice"
    ],
    [
      " fig",
      "ures"
    ],
    [
      " h",
      "app"
    ],
    [
      " Cor",
      "ps"
    ],
    [
      " en",
      "emy"
    ],
    [
      " sc",
      "oring"
    ],
    [
      " Victor",
      "ia"
    ],
    [
      " vill",
      "age"
    ],
    [
      " ev",
      "idence"
    ],
    [
      " profess",
      "ional"
    ],
    [
      " mag",
      "azine"
    ],
    [
      " Sovi",
      "et"
    ],
    [
      " lyr",
      "ics"
    ],
    [
      " Rajne",
      "esh"
    ],
    [
      " Loren",
      "zo"
    ],
    [
      " b",
      "rief"
    ],
    [
      "I",
      "I"
    ],
    [
      "as",
      "es"
    ],
    [
      "ic",
      "le"
    ],
    [
      "am",
      "er"
    ],
    [
      " S",
      "ur"
    ],
    [
      " T",
      "im"
    ],
    [
      "ct",
      "s"
    ],
    [
      " B",
      "ul"
    ],
    [
      " D",
      "ar"
    ],
    [
      " L",
      "ou"
    ],
    [
      "od",
      "ies"
    ],
    [
      " s",
      "our"
    ],
    [
      " pro",
      "per"
    ],
    [
      "ff",
      "ic"
    ],
    [
      " sc",
      "hed"
    ],
    [
      " p",
      "ick"
    ],
    [
      " Ar",
      "t"
    ],
    [
      " high",
      "ly"
    ],
    [
      " He",
      "avy"
    ],
    [
      " small",
      "er"
    ],
    [
      "a",
      "rent"
    ],
    [
      " II",
      "I"
    ],
    [
      " pat",
      "tern"
    ],
    [
      " C",
      "ivil"
    ],
    [
      " represent",
      "ed"
    ],
    [
      " fre",
      "qu"
    ],
    [
      " re",
      "ferred"
    ],
    [
      " det",
      "ail"
    ],
    [
      " pit",
      "cher"
    ],
    [
      " rain",
      "fall"
    ],
    [
      " Republ",
      "ic"
    ],
    [
      " ass",
      "igned"
    ],
    [
      " rank",
      "ed"
    ],
    [
      " kil",
      "omet"
    ],
    [
      " A",
      "venue"
    ],
    [
      " U",
      "FC"
    ],
    [
      " sch",
      "ol"
    ],
    [
      " F",
      "urtado"
    ],
    [
      " V",
      "alky"
    ],
    [
      " num",
      "bers"
    ],
    [
      "h",
      "an"
    ],
    [
      "g",
      "ing"
    ],
    [
      "in",
      "ct"
    ],
    [
      " p",
      "ow"
    ],
    [
      " wh",
      "om"
    ],
    [
      " ",
      "ere"
    ],
    [
      "ant",
      "ic"
    ],
    [
      " g",
      "ive"
    ],
    [
      "av",
      "en"
    ],
    [
      " V",
      "ar"
    ],
    [
      "u",
      "ous"
    ],
    [
      "a",
      "ren"
    ],
    [
      " I",
      "ron"
    ],
    [
      " P",
      "ress"
    ],
    [
      " pre",
      "p"
    ],
    [
      " sp",
      "ent"
    ],
    [
      " f",
      "aced"
    ],
    [
      " Col",
      "le"
    ],
    [
      " like",
      "ly"
    ],
    [
      " Ste",
      "in"
    ],
    [
      " se",
      "arch"
    ],
    [
      "at",
      "ural"
    ],
    [
      " Cent",
      "ral"
    ],
    [
      " ref",
      "used"
    ],
    [
      " d",
      "raw"
    ],
    [
      " Canad",
      "a"
    ],
    [
      " mid",
      "dle"
    ],
    [
      " aud",
      "ience"
    ],
    [
      " M",
      "useum"
    ],
    [
      " B",
      "ulls"
    ],
    [
      " ult",
      "imately"
    ],
    [
      " Rick",
      "y"
    ],
    [
      " Af",
      "rica"
    ],
    [
      "O",
      "T"
    ],
    [
      " c",
      "m"
    ],
    [
      "ro",
      "s"
    ],
    [
      " B",
      "en"
    ],
    [
      " B",
      "h"
    ],
    [
      "id",
      "er"
    ],
    [
      " g",
      "re"
    ],
    [
      "ce",
      "an"
    ],
    [
      " P",
      "en"
    ],
    [
      "ul",
      "ly"
    ],
    [
      "em",
      "an"
    ],
    [
      "em",
      "ed"
    ],
    [
      " se",
      "a"
    ],
    [
      " B",
      "ost"
    ],
    [
      " B",
      "ond"
    ],
    [
      " V",
      "er"
    ],
    [
      " part",
      "s"
    ],
    [
      " part",
      "y"
    ],
    [
      " dis",
      "m"
    ],
    [
      " T",
      "urn"
    ],
    [
      " to",
      "ward"
    ],
    [
      "r",
      "ict"
    ],
    [
      "ers",
      "hip"
    ],
    [
      " f",
      "ans"
    ],
    [
      " record",
      "ing"
    ],
    [
      " ser",
      "ious"
    ],
    [
      " ele",
      "ction"
    ],
    [
      " gu",
      "ard"
    ],
    [
      " Christ",
      "ian"
    ],
    [
      " track",
      "s"
    ],
    [
      " tra",
      "vel"
    ],
    [
      " cross",
      "ing"
    ],
    [
      " comb",
      "at"
    ],
    [
      " press",
      "ure"
    ],
    [
      " under",
      "ground"
    ],
    [
      " north",
      "west"
    ],
    [
      "pecial",
      "ly"
    ],
    [
      " condition",
      "s"
    ],
    [
      " ra",
      "ised"
    ],
    [
      " Br",
      "igade"
    ],
    [
      " Carol",
      "ina"
    ],
    [
      " slight",
      "ly"
    ],
    [
      "sel",
      "ves"
    ],
    [
      "e",
      "an"
    ],
    [
      "g",
      "as"
    ],
    [
      " S",
      "al"
    ],
    [
      " con",
      "ver"
    ],
    [
      "and",
      "ed"
    ],
    [
      "ri",
      "z"
    ],
    [
      "ag",
      "ing"
    ],
    [
      "ap",
      "a"
    ],
    [
      "b",
      "our"
    ],
    [
      " ",
      "ess"
    ],
    [
      " T",
      "ra"
    ],
    [
      "l",
      "ight"
    ],
    [
      " ap",
      "pl"
    ],
    [
      " up",
      "per"
    ],
    [
      "vi",
      "ation"
    ],
    [
      " St",
      "one"
    ],
    [
      " st",
      "ating"
    ],
    [
      "l",
      "ike"
    ],
    [
      " can",
      "n"
    ],
    [
      " large",
      "ly"
    ],
    [
      " in",
      "side"
    ],
    [
      " crit",
      "ical"
    ],
    [
      "m",
      "ission"
    ],
    [
      " t",
      "ask"
    ],
    [
      " incre",
      "ase"
    ],
    [
      " D",
      "ream"
    ],
    [
      " d",
      "rum"
    ],
    [
      " pro",
      "posed"
    ],
    [
      " ch",
      "ampionship"
    ],
    [
      " Af",
      "rican"
    ],
    [
      " influ",
      "enced"
    ],
    [
      " D",
      "erry"
    ],
    [
      " on",
      "to"
    ],
    [
      " withd",
      "raw"
    ],
    [
      " Ac",
      "ad"
    ],
    [
      " fif",
      "th"
    ],
    [
      " B",
      "acon"
    ],
    [
      " es",
      "pecially"
    ],
    [
      "u",
      "f"
    ],
    [
      "n",
      "es"
    ],
    [
      "il",
      "es"
    ],
    [
      " A",
      "y"
    ],
    [
      "ol",
      "a"
    ],
    [
      " be",
      "at"
    ],
    [
      " M",
      "el"
    ],
    [
      " m",
      "us"
    ],
    [
      " H",
      "u"
    ],
    [
      " F",
      "I"
    ],
    [
      " F",
      "rom"
    ],
    [
      " M",
      "ag"
    ],
    [
      "g",
      "ers"
    ],
    [
      " R",
      "if"
    ],
    [
      " K",
      "ent"
    ],
    [
      "ut",
      "ure"
    ],
    [
      " f",
      "low"
    ],
    [
      "ork",
      "s"
    ],
    [
      "te",
      "e"
    ],
    [
      "ok",
      "e"
    ],
    [
      "we",
      "ight"
    ],
    [
      " Ar",
      "ch"
    ],
    [
      " de",
      "ck"
    ],
    [
      " fl",
      "ank"
    ],
    [
      "ans",
      "as"
    ],
    [
      " pl",
      "ans"
    ],
    [
      " B",
      "ob"
    ],
    [
      " Sh",
      "ik"
    ],
    [
      " pe",
      "ace"
    ],
    [
      " album",
      "s"
    ],
    [
      " B",
      "ook"
    ],
    [
      " contin",
      "ue"
    ],
    [
      " Cl",
      "ark"
    ],
    [
      " to",
      "uch"
    ],
    [
      " br",
      "ing"
    ],
    [
      " pass",
      "ing"
    ],
    [
      " port",
      "ion"
    ],
    [
      " se",
      "vent"
    ],
    [
      "row",
      "d"
    ],
    [
      " g",
      "iving"
    ],
    [
      " ar",
      "riv"
    ],
    [
      " pr",
      "ison"
    ],
    [
      " compan",
      "ies"
    ],
    [
      " div",
      "ine"
    ],
    [
      " tw",
      "ent"
    ],
    [
      " exper",
      "i"
    ],
    [
      " obs",
      "erv"
    ],
    [
      " Ind",
      "epend"
    ],
    [
      " Sup",
      "er"
    ],
    [
      " condu",
      "cted"
    ],
    [
      " m",
      "emorial"
    ],
    [
      " con",
      "sec"
    ],
    [
      " dou",
      "ble"
    ],
    [
      " proble",
      "ms"
    ],
    [
      " Hist",
      "or"
    ],
    [
      " heav",
      "ily"
    ],
    [
      " mon",
      "uments"
    ],
    [
      " Nak",
      "t"
    ],
    [
      " to",
      "wer"
    ],
    [
      " leg",
      "isl"
    ],
    [
      " env",
      "iron"
    ],
    [
      "amar",
      "u"
    ],
    [
      " Mark",
      "graf"
    ],
    [
      " tra",
      "ffic"
    ],
    [
      " Turn",
      "er"
    ],
    [
      " Nakt",
      "ong"
    ],
    [
      "e",
      "v"
    ],
    [
      "T",
      "h"
    ],
    [
      "g",
      "in"
    ],
    [
      " the",
      "at"
    ],
    [
      " s",
      "al"
    ],
    [
      "n",
      "al"
    ],
    [
      " d",
      "r"
    ],
    [
      "il",
      "s"
    ],
    [
      " a",
      "im"
    ],
    [
      " H",
      "ot"
    ],
    [
      " N",
      "or"
    ],
    [
      " s",
      "em"
    ],
    [
      "in",
      "th"
    ],
    [
      " L",
      "o"
    ],
    [
      " se",
      "g"
    ],
    [
      "is",
      "ers"
    ],
    [
      " E",
      "r"
    ],
    [
      " b",
      "ill"
    ],
    [
      " P",
      "op"
    ],
    [
      " pl",
      "ant"
    ],
    [
      " y",
      "oun"
    ],
    [
      " ro",
      "om"
    ],
    [
      "d",
      "ress"
    ],
    [
      "land",
      "s"
    ],
    [
      " C",
      "old"
    ],
    [
      " them",
      "e"
    ],
    [
      "em",
      "ents"
    ],
    [
      "olog",
      "ist"
    ],
    [
      " th",
      "ings"
    ],
    [
      " arm",
      "ed"
    ],
    [
      " ac",
      "qu"
    ],
    [
      "rap",
      "ped"
    ],
    [
      " po",
      "or"
    ],
    [
      " long",
      "er"
    ],
    [
      " pres",
      "ident"
    ],
    [
      " T",
      "ropical"
    ],
    [
      " disc",
      "uss"
    ],
    [
      " Br",
      "idge"
    ],
    [
      " Wh",
      "ite"
    ],
    [
      " ext",
      "r"
    ],
    [
      " dem",
      "on"
    ],
    [
      " establ",
      "ish"
    ],
    [
      " great",
      "est"
    ],
    [
      " decl",
      "ared"
    ],
    [
      "c",
      "ript"
    ],
    [
      " sit",
      "uation"
    ],
    [
      " h",
      "omes"
    ],
    [
      " cert",
      "ain"
    ],
    [
      " prot",
      "est"
    ],
    [
      " surround",
      "ing"
    ],
    [
      " anc",
      "ient"
    ],
    [
      " S",
      "aprang"
    ],
    [
      " Hit",
      "ler"
    ],
    [
      " P",
      "agan"
    ],
    [
      " weap",
      "ons"
    ],
    [
      " Common",
      "we"
    ],
    [
      " Rober",
      "t"
    ],
    [
      " Sh",
      "olay"
    ],
    [
      " Valky",
      "ria"
    ],
    [
      " Commonwe",
      "alth"
    ],
    [
      "i",
      "j"
    ],
    [
      "r",
      "or"
    ],
    [
      " p",
      "an"
    ],
    [
      " h",
      "om"
    ],
    [
      "ol",
      "is"
    ],
    [
      " g",
      "ot"
    ],
    [
      "ow",
      "s"
    ],
    [
      "it",
      "ation"
    ],
    [
      " P",
      "o"
    ],
    [
      "ch",
      "an"
    ],
    [
      "ar",
      "th"
    ],
    [
      " L",
      "os"
    ],
    [
      " W",
      "al"
    ],
    [
      "um",
      "e"
    ],
    [
      "ic",
      "op"
    ],
    [
      "r",
      "up"
    ],
    [
      " s",
      "ust"
    ],
    [
      " St",
      "ar"
    ],
    [
      "ve",
      "ment"
    ],
    [
      " In",
      "ter"
    ],
    [
      " L",
      "ight"
    ],
    [
      " w",
      "ord"
    ],
    [
      " v",
      "ia"
    ],
    [
      "ish",
      "op"
    ],
    [
      " Th",
      "rough"
    ],
    [
      " B",
      "oth"
    ],
    [
      " sever",
      "e"
    ],
    [
      " art",
      "ists"
    ],
    [
      " pres",
      "ence"
    ],
    [
      "stru",
      "ction"
    ],
    [
      " lead",
      "er"
    ],
    [
      " cre",
      "ate"
    ],
    [
      " Pol",
      "and"
    ],
    [
      " T",
      "imes"
    ],
    [
      " s",
      "ays"
    ],
    [
      " w",
      "alk"
    ],
    [
      " ph",
      "ys"
    ],
    [
      " sec",
      "ret"
    ],
    [
      " hel",
      "ped"
    ],
    [
      " allow",
      "ing"
    ],
    [
      " poss",
      "ess"
    ],
    [
      " ext",
      "ensive"
    ],
    [
      " b",
      "atter"
    ],
    [
      " Rich",
      "ard"
    ],
    [
      " b",
      "ott"
    ],
    [
      " n",
      "ature"
    ],
    [
      " comp",
      "osed"
    ],
    [
      "augh",
      "t"
    ],
    [
      " O",
      "reg"
    ],
    [
      " ind",
      "epend"
    ],
    [
      " foc",
      "us"
    ],
    [
      " Govern",
      "ment"
    ],
    [
      " col",
      "umn"
    ],
    [
      "w",
      "hile"
    ],
    [
      " fem",
      "ale"
    ],
    [
      " prom",
      "inent"
    ],
    [
      " d",
      "ynast"
    ],
    [
      " Dem",
      "ocr"
    ],
    [
      " them",
      "selves"
    ],
    [
      " c",
      "rowd"
    ],
    [
      " head",
      "dress"
    ],
    [
      " hel",
      "icop"
    ],
    [
      " Oreg",
      "on"
    ],
    [
      "an",
      "a"
    ],
    [
      " f",
      "an"
    ],
    [
      "as",
      "y"
    ],
    [
      " A",
      "k"
    ],
    [
      " A",
      "re"
    ],
    [
      " M",
      "ac"
    ],
    [
      "ter",
      "e"
    ],
    [
      "ut",
      "en"
    ],
    [
      "et",
      "on"
    ],
    [
      " d",
      "oc"
    ],
    [
      " St",
      "ud"
    ],
    [
      "en",
      "ge"
    ],
    [
      " f",
      "ast"
    ],
    [
      " un",
      "c"
    ],
    [
      " com",
      "pl"
    ],
    [
      " m",
      "outh"
    ],
    [
      "y",
      "les"
    ],
    [
      " cent",
      "re"
    ],
    [
      " fe",
      "el"
    ],
    [
      " re",
      "fer"
    ],
    [
      "is",
      "ters"
    ],
    [
      " R",
      "ob"
    ],
    [
      "t",
      "hes"
    ],
    [
      "ull",
      "en"
    ],
    [
      "an",
      "cial"
    ],
    [
      " art",
      "ist"
    ],
    [
      "ivers",
      "ary"
    ],
    [
      " ann",
      "ual"
    ],
    [
      " t",
      "alk"
    ],
    [
      " hand",
      "s"
    ],
    [
      " result",
      "ing"
    ],
    [
      " mark",
      "ed"
    ],
    [
      " div",
      "ided"
    ],
    [
      " pain",
      "t"
    ],
    [
      " m",
      "ention"
    ],
    [
      " er",
      "a"
    ],
    [
      " ide",
      "a"
    ],
    [
      " deploy",
      "ed"
    ],
    [
      " separ",
      "ate"
    ],
    [
      " los",
      "ing"
    ],
    [
      " Nort",
      "hern"
    ],
    [
      " E",
      "aton"
    ],
    [
      " kilomet",
      "res"
    ],
    [
      " consec",
      "utive"
    ],
    [
      "an",
      "es"
    ],
    [
      "is",
      "es"
    ],
    [
      "t",
      "ion"
    ],
    [
      "ro",
      "ad"
    ],
    [
      "om",
      "er"
    ],
    [
      " h",
      "ol"
    ],
    [
      "o",
      "id"
    ],
    [
      " p",
      "ay"
    ],
    [
      "ay",
      "ed"
    ],
    [
      " B",
      "ay"
    ],
    [
      " an",
      "al"
    ],
    [
      " G",
      "od"
    ],
    [
      "un",
      "ity"
    ],
    [
      "le",
      "ment"
    ],
    [
      " Ch",
      "an"
    ],
    [
      " y",
      "et"
    ],
    [
      "ran",
      "ce"
    ],
    [
      " I",
      "ts"
    ],
    [
      "ark",
      "ed"
    ],
    [
      " Ar",
      "m"
    ],
    [
      "ra",
      "wn"
    ],
    [
      " me",
      "ant"
    ],
    [
      " L",
      "ake"
    ],
    [
      "y",
      "ram"
    ],
    [
      " land",
      "s"
    ],
    [
      " comp",
      "ared"
    ],
    [
      " F",
      "ield"
    ],
    [
      " ter",
      "rit"
    ],
    [
      " us",
      "ually"
    ],
    [
      " w",
      "ides"
    ],
    [
      " turn",
      "s"
    ],
    [
      " build",
      "ings"
    ],
    [
      " l",
      "ink"
    ],
    [
      " l",
      "iving"
    ],
    [
      " Fran",
      "c"
    ],
    [
      " P",
      "eter"
    ],
    [
      " arch",
      "ae"
    ],
    [
      " promot",
      "ed"
    ],
    [
      " per",
      "cent"
    ],
    [
      "ograph",
      "y"
    ],
    [
      " Mount",
      "ain"
    ],
    [
      " chang",
      "es"
    ],
    [
      " Fil",
      "m"
    ],
    [
      " Ty",
      "pe"
    ],
    [
      " McC",
      "arty"
    ],
    [
      " exc",
      "av"
    ],
    [
      " deter",
      "m"
    ],
    [
      " vari",
      "ety"
    ],
    [
      "en",
      "burg"
    ],
    [
      "ag",
      "ogue"
    ],
    [
      "sen",
      "al"
    ],
    [
      " d",
      "aughter"
    ],
    [
      " contem",
      "porary"
    ],
    [
      " Bost",
      "on"
    ],
    [
      " f",
      "uture"
    ],
    [
      " Shik",
      "amaru"
    ],
    [
      "k",
      "y"
    ],
    [
      "H",
      "L"
    ],
    [
      "it",
      "a"
    ],
    [
      "g",
      "al"
    ],
    [
      " ",
      "ut"
    ],
    [
      "and",
      "er"
    ],
    [
      "am",
      "ber"
    ],
    [
      " O",
      "ver"
    ],
    [
      " G",
      "all"
    ],
    [
      " sh",
      "r"
    ],
    [
      "h",
      "ab"
    ],
    [
      "ell",
      "s"
    ],
    [
      " sc",
      "ore"
    ],
    [
      " us",
      "es"
    ],
    [
      " att",
      "r"
    ],
    [
      " K",
      "aw"
    ],
    [
      "ark",
      "er"
    ],
    [
      "ose",
      "k"
    ],
    [
      "ors",
      "hip"
    ],
    [
      "und",
      "red"
    ],
    [
      "az",
      "a"
    ],
    [
      " record",
      "s"
    ],
    [
      " oper",
      "ated"
    ],
    [
      " ass",
      "emb"
    ],
    [
      "ag",
      "uch"
    ],
    [
      "ful",
      "ly"
    ],
    [
      " Col",
      "on"
    ],
    [
      " appe",
      "ars"
    ],
    [
      " m",
      "ale"
    ],
    [
      " start",
      "ing"
    ],
    [
      "ac",
      "ement"
    ],
    [
      " ty",
      "pe"
    ],
    [
      "it",
      "ness"
    ],
    [
      " contr",
      "ast"
    ],
    [
      " def",
      "ense"
    ],
    [
      " init",
      "ial"
    ],
    [
      " High",
      "way"
    ],
    [
      " cult",
      "ure"
    ],
    [
      "et",
      "work"
    ],
    [
      " voc",
      "al"
    ],
    [
      " mix",
      "ed"
    ],
    [
      " mult",
      "ip"
    ],
    [
      " s",
      "quare"
    ],
    [
      " sup",
      "ply"
    ],
    [
      " strike",
      "out"
    ],
    [
      " int",
      "elligence"
    ],
    [
      " down",
      "town"
    ],
    [
      " polic",
      "y"
    ],
    [
      "ibr",
      "ary"
    ],
    [
      " Angel",
      "es"
    ],
    [
      " Lou",
      "is"
    ],
    [
      "aguch",
      "i"
    ],
    [
      "h",
      "a"
    ],
    [
      "y",
      "m"
    ],
    [
      "l",
      "or"
    ],
    [
      "it",
      "es"
    ],
    [
      " b",
      "re"
    ],
    [
      " s",
      "ac"
    ],
    [
      "n",
      "am"
    ],
    [
      "ot",
      "e"
    ],
    [
      "r",
      "ation"
    ],
    [
      "is",
      "ation"
    ],
    [
      " J",
      "ul"
    ],
    [
      "res",
      "h"
    ],
    [
      "iv",
      "ity"
    ],
    [
      "ack",
      "s"
    ],
    [
      " ch",
      "ap"
    ],
    [
      " not",
      "es"
    ],
    [
      "et",
      "te"
    ],
    [
      " rec",
      "over"
    ],
    [
      " re",
      "ally"
    ],
    [
      " St",
      "orm"
    ],
    [
      " includ",
      "es"
    ],
    [
      " B",
      "urn"
    ],
    [
      " f",
      "ail"
    ],
    [
      "ail",
      "y"
    ],
    [
      " un",
      "able"
    ],
    [
      " reg",
      "ime"
    ],
    [
      " l",
      "aid"
    ],
    [
      " Man",
      "y"
    ],
    [
      " As",
      "ia"
    ],
    [
      " met",
      "h"
    ],
    [
      " Le",
      "ad"
    ],
    [
      " Jan",
      "e"
    ],
    [
      "re",
      "ets"
    ],
    [
      " set",
      "ting"
    ],
    [
      "p",
      "ired"
    ],
    [
      "m",
      "itt"
    ],
    [
      " bo",
      "ard"
    ],
    [
      " ab",
      "ility"
    ],
    [
      " near",
      "by"
    ],
    [
      " w",
      "rest"
    ],
    [
      "p",
      "read"
    ],
    [
      " iss",
      "ues"
    ],
    [
      " m",
      "akes"
    ],
    [
      " med",
      "ia"
    ],
    [
      " s",
      "ought"
    ],
    [
      " surv",
      "iving"
    ],
    [
      " hig",
      "her"
    ],
    [
      " po",
      "ems"
    ],
    [
      " inj",
      "ury"
    ],
    [
      " poet",
      "ry"
    ],
    [
      " Canad",
      "ian"
    ],
    [
      " Sl",
      "ayer"
    ],
    [
      " pie",
      "ce"
    ],
    [
      " award",
      "ed"
    ],
    [
      "le",
      "br"
    ],
    [
      " comment",
      "ed"
    ],
    [
      " introdu",
      "ced"
    ],
    [
      " hon",
      "or"
    ],
    [
      " particip",
      "ated"
    ],
    [
      " Tetrarch",
      "s"
    ],
    [
      " Cro",
      "at"
    ],
    [
      " indust",
      "ry"
    ],
    [
      " accept",
      "ed"
    ],
    [
      " Rec",
      "ords"
    ],
    [
      " conspir",
      "acy"
    ],
    [
      " ex",
      "pected"
    ],
    [
      " hous",
      "es"
    ],
    [
      " cemeter",
      "ies"
    ],
    [
      " m",
      "ax"
    ],
    [
      " Tur",
      "k"
    ],
    [
      "az",
      "irid"
    ],
    [
      " suppl",
      "ies"
    ],
    [
      " wars",
      "hips"
    ],
    [
      " sust",
      "ained"
    ],
    [
      "uten",
      "ant"
    ],
    [
      " syn",
      "thes"
    ],
    [
      " max",
      "imum"
    ],
    [
      " w",
      "a"
    ],
    [
      "al",
      "le"
    ],
    [
      " o",
      "il"
    ],
    [
      " T",
      "om"
    ],
    [
      " o",
      "ur"
    ],
    [
      " B",
      "on"
    ],
    [
      "ol",
      "k"
    ],
    [
      "ut",
      "ing"
    ],
    [
      " H",
      "en"
    ],
    [
      " F",
      "er"
    ],
    [
      " J",
      "os"
    ],
    [
      " L",
      "ad"
    ],
    [
      " com",
      "ing"
    ],
    [
      "if",
      "t"
    ],
    [
      " U",
      "l"
    ],
    [
      "u",
      "ated"
    ],
    [
      " K",
      "ar"
    ],
    [
      " ex",
      "ist"
    ],
    [
      "ra",
      "ight"
    ],
    [
      " b",
      "ass"
    ],
    [
      " im",
      "m"
    ],
    [
      " p",
      "ark"
    ],
    [
      "re",
      "land"
    ],
    [
      " re",
      "act"
    ],
    [
      " r",
      "aid"
    ],
    [
      " form",
      "ation"
    ],
    [
      " second",
      "s"
    ],
    [
      " dec",
      "or"
    ],
    [
      " act",
      "ually"
    ],
    [
      " t",
      "ax"
    ],
    [
      " b",
      "ene"
    ],
    [
      " as",
      "pect"
    ],
    [
      " plan",
      "ning"
    ],
    [
      " right",
      "s"
    ],
    [
      " ter",
      "min"
    ],
    [
      " prog",
      "ress"
    ],
    [
      " f",
      "itted"
    ],
    [
      " direct",
      "ly"
    ],
    [
      "or",
      "ney"
    ],
    [
      " f",
      "ought"
    ],
    [
      " Island",
      "s"
    ],
    [
      " relig",
      "ion"
    ],
    [
      " compet",
      "ition"
    ],
    [
      " mov",
      "ing"
    ],
    [
      " enc",
      "ounter"
    ],
    [
      " shoot",
      "ing"
    ],
    [
      " prim",
      "arily"
    ],
    [
      " cop",
      "ies"
    ],
    [
      " assass",
      "ination"
    ],
    [
      " aband",
      "oned"
    ],
    [
      " per",
      "imeter"
    ],
    [
      " rel",
      "atively"
    ],
    [
      " fre",
      "eway"
    ],
    [
      " quar",
      "ter"
    ],
    [
      " app",
      "arent"
    ],
    [
      " dist",
      "inct"
    ],
    [
      " gre",
      "ater"
    ],
    [
      " twent",
      "y"
    ],
    [
      " syn",
      "agogue"
    ],
    [
      " N",
      "osek"
    ],
    [
      " Kaw",
      "aguchi"
    ],
    [
      "e",
      "x"
    ],
    [
      "k",
      "n"
    ],
    [
      "he",
      "w"
    ],
    [
      "re",
      "y"
    ],
    [
      " c",
      "er"
    ],
    [
      "ent",
      "ed"
    ],
    [
      "im",
      "a"
    ],
    [
      "id",
      "ay"
    ],
    [
      "ith",
      "ic"
    ],
    [
      " m",
      "el"
    ],
    [
      "ad",
      "el"
    ],
    [
      "and",
      "y"
    ],
    [
      "ir",
      "th"
    ],
    [
      "th",
      "ur"
    ],
    [
      "ri",
      "p"
    ],
    [
      " h",
      "op"
    ],
    [
      " U",
      "N"
    ],
    [
      " ro",
      "w"
    ],
    [
      "w",
      "ell"
    ],
    [
      " re",
      "ign"
    ],
    [
      " l",
      "ik"
    ],
    [
      "ach",
      "us"
    ],
    [
      "ens",
      "ion"
    ],
    [
      "ic",
      "ts"
    ],
    [
      "g",
      "ress"
    ],
    [
      "ict",
      "ion"
    ],
    [
      " act",
      "ing"
    ],
    [
      " T",
      "rans"
    ],
    [
      " S",
      "ince"
    ],
    [
      "b",
      "ury"
    ],
    [
      " d",
      "ram"
    ],
    [
      " F",
      "ern"
    ],
    [
      " d",
      "raft"
    ],
    [
      " tem",
      "ple"
    ],
    [
      " F",
      "oot"
    ],
    [
      " m",
      "ission"
    ],
    [
      " a",
      "ctions"
    ],
    [
      " c",
      "aves"
    ],
    [
      " def",
      "ensive"
    ],
    [
      " short",
      "ly"
    ],
    [
      " ear",
      "ned"
    ],
    [
      " star",
      "red"
    ],
    [
      " Off",
      "ic"
    ],
    [
      "bor",
      "ne"
    ],
    [
      " att",
      "ention"
    ],
    [
      " cult",
      "ural"
    ],
    [
      " official",
      "s"
    ],
    [
      " up",
      "gr"
    ],
    [
      " Con",
      "ference"
    ],
    [
      " meet",
      "ing"
    ],
    [
      " new",
      "sp"
    ],
    [
      " w",
      "aters"
    ],
    [
      " plat",
      "form"
    ],
    [
      " respect",
      "ively"
    ],
    [
      " Mad",
      "onna"
    ],
    [
      " inter",
      "change"
    ],
    [
      " redu",
      "ced"
    ],
    [
      " rapid",
      "ly"
    ],
    [
      "ass",
      "ador"
    ],
    [
      " Colle",
      "ge"
    ],
    [
      " demon",
      "str"
    ],
    [
      " fin",
      "ancial"
    ],
    [
      " wides",
      "pread"
    ],
    [
      " I",
      "reland"
    ],
    [
      "B",
      "C"
    ],
    [
      "y",
      "an"
    ],
    [
      "u",
      "an"
    ],
    [
      "as",
      "c"
    ],
    [
      " d",
      "ed"
    ],
    [
      " re",
      "v"
    ],
    [
      " S",
      "om"
    ],
    [
      "ir",
      "t"
    ],
    [
      "ic",
      "ation"
    ],
    [
      " R",
      "es"
    ],
    [
      "ain",
      "t"
    ],
    [
      "and",
      "a"
    ],
    [
      " S",
      "um"
    ],
    [
      "l",
      "ers"
    ],
    [
      " E",
      "nd"
    ]
  ],
  "vocab": {
    "<pad>": 0,
    "<bos>": 1,
    "<eos>": 2,
    "<unk>": 3,
    " ": 4,
    "A": 5,
    "B": 6,
    "C": 7,
    "D": 8,
    "E": 9,
    "F": 10,
    "G": 11,
    "H": 12,
    "I": 13,
    "J": 14,
    "K": 15,
    "L": 16,
    "M": 17,
    "N": 18,
    "O": 19,
    "P": 20,
    "Q": 21,
    "R": 22,
    "S": 23,
    "T": 24,
    "U": 25,
    "V": 26,
    "W": 27,
    "X": 28,
    "Y": 29,
    "Z": 30,
    "a": 31,
    "b": 32,
    "c": 33,
    "d": 34,
    "e": 35,
    "f": 36,
    "g": 37,
    "h": 38,
    "i": 39,
    "j": 40,
    "k": 41,
    "l": 42,
    "m": 43,
    "n": 44,
    "o": 45,
    "p": 46,
    "q": 47,
    "r": 48,
    "s": 49,
    "t": 50,
    "u": 51,
    "v": 52,
    "w": 53,
    "x": 54,
    "y": 55,
    "z": 56,
    " t": 57,
    "he": 58,
    " a": 59,
    "in": 60,
    " the": 61,
    "er": 62,
    "on": 63,
    " s": 64,
    "ed": 65,
    "re": 66,
    " w": 67,
    " o": 68,
    "nd": 69,
    "at": 70,
    "or": 71,
    "it": 72,
    "en": 73,
    " f": 74,
    " c": 75,
    "es": 76,
    "an": 77,
    "ar": 78,
    " of": 79,
    "is": 80,
    " in": 81,
    " b": 82,
    "al": 83,
    "ing": 84,
    " p": 85,
    "as": 86,
    " and": 87,
    " to": 88,
    "ro": 89,
    " m": 90,
    "ic": 91,
    " d": 92,
    " h": 93,
    "ion": 94,
    "ou": 95,
    "le": 96,
    " T": 97,
    " re": 98,
    "il": 99,
    " S": 100,
    " th": 101,
    " A": 102,
    "ent": 103,
    "st": 104,
    "ad": 105,
    " l": 106,
    " C": 107,
    " e": 108,
    "ac": 109,
    " n": 110,
    "am": 111,
    "om": 112,
    " was": 113,
    "ly": 114,
    "ur": 115,
    " M": 116,
    " on": 117,
    " B": 118,
    "ol": 119,
    " be": 120,
    "ir": 121,
    "id": 122,
    " g": 123,
    "ve": 124,
    "ig": 125,
    "im": 126,
    "ter": 127,
    " for": 128,
    "ct": 129,
    " The": 130,
    "ver": 131,
    "ot": 132,
    " I": 133,
    "ut": 134,
    " as": 135,
    "ow": 136,
    " st": 137,
    "ay": 138,
    "ith": 139,
    "el": 140,
    "et": 141,
    "us": 142,
    " H": 143,
    "ation": 144,
    " he": 145,
    " with": 146,
    "ce": 147,
    " R": 148,
    " N": 149,
    " that": 150,
    "un": 151,
    " P": 152,
    "ch": 153,
    "ul": 154,
    " at": 155,
    " al": 156,
    " by": 157,
    "em": 158,
    " D": 159,
    " con": 160,
    " wh": 161,
    " F": 162,
    "os": 163,
    "ain": 164,
    "and": 165,
    "th": 166,
    " J": 167,
    " is": 168,
    " L": 169,
    " de": 170,
    " W": 171,
    " G": 172,
    "ri": 173,
    "rom": 174,
    " an": 175,
    " se": 176,
    "um": 177,
    " it": 178,
    "ag": 179,
    "ist": 180,
    "ere": 181,
    "ers": 182,
    "her": 183,
    " r": 184,
    "est": 185,
    " were": 186,
    "ap": 187,
    " from": 188,
    "od": 189,
    " E": 190,
    " com": 191,
    "ort": 192,
    " his": 193,
    "ate": 194,
    "res": 195,
    "ill": 196,
    "op": 197,
    "igh": 198,
    "up": 199,
    "iv": 200,
    "ber": 201,
    " O": 202,
    "ld": 203,
    "ong": 204,
    "ore": 205,
    "if": 206,
    "ian": 207,
    " pro": 208,
    "ew": 209,
    "ies": 210,
    "ich": 211,
    "ak": 212,
    "ip": 213,
    "all": 214,
    " U": 215,
    "ated": 216,
    "ity": 217,
    " K": 218,
    "pe": 219,
    "se": 220,
    "art": 221,
    " v": 222,
    "qu": 223,
    " pl": 224,
    "ard": 225,
    " sh": 226,
    "oc": 227,
    "gh": 228,
    "ant": 229,
    "ive": 230,
    "ust": 231,
    " had": 232,
    "ab": 233,
    " St": 234,
    "our": 235,
    " or": 236,
    "ud": 237,
    "ack": 238,
    "ment": 239,
    "und": 240,
    " ex": 241,
    "av": 242,
    " k": 243,
    "ess": 244,
    "ame": 245,
    "ge": 246,
    "cl": 247,
    "ast": 248,
    " In": 249,
    " which": 250,
    "ra": 251,
    " su": 252,
    " are": 253,
    "ial": 254,
    " ch": 255,
    "ight": 256,
    "ost": 257,
    " Ch": 258,
    "out": 259,
    "ord": 260,
    "ary": 261,
    "ia": 262,
    " not": 263,
    "ish": 264,
    " ar": 265,
    "rit": 266,
    "pt": 267,
    "ine": 268,
    "ear": 269,
    "oun": 270,
    " le": 271,
    "ction": 272,
    " un": 273,
    " y": 274,
    "ide": 275,
    "ave": 276,
    "og": 277,
    " int": 278,
    "fter": 279,
    "ass": 280,
    "so": 281,
    "own": 282,
    " He": 283,
    "ru": 284,
    "ond": 285,
    " ro": 286,
    "ell": 287,
    "wo": 288,
    "ical": 289,
    " cont": 290,
    "ry": 291,
    "ign": 292,
    " their": 293,
    "per": 294,
    "pl": 295,
    "ther": 296,
    " V": 297,
    "irst": 298,
    "ould": 299,
    "port": 300,
    "mer": 301,
    " also": 302,
    "ff": 303,
    "cc": 304,
    "ie": 305,
    "The": 306,
    "ous": 307,
    "ition": 308,
    "ome": 309,
    " its": 310,
    "ure": 311,
    " but": 312,
    "ue": 313,
    " whe": 314,
    "low": 315,
    "ork": 316,
    "ime": 317,
    "man": 318,
    "ran": 319,
    " cl": 320,
    " first": 321,
    "ted": 322,
    " per": 323,
    "te": 324,
    "ire": 325,
    "uring": 326,
    "age": 327,
    "ree": 328,
    " ag": 329,
    " res": 330,
    " two": 331,
    " one": 332,
    "hed": 333,
    " ab": 334,
    " comp": 335,
    "ater": 336,
    "ok": 337,
    " ad": 338,
    "ved": 339,
    " been": 340,
    "ugh": 341,
    " sc": 342,
    "ik": 343,
    " have": 344,
    "ub": 345,
    "ach": 346,
    "ens": 347,
    " has": 348,
    "iz": 349,
    "ile": 350,
    " us": 351,
    "ts": 352,
    " te": 353,
    " j": 354,
    " ap": 355,
    " rec": 356,
    "ough": 357,
    " off": 358,
    "over": 359,
    " after": 360,
    "ral": 361,
    " part": 362,
    " im": 363,
    " over": 364,
    "ib": 365,
    "ence": 366,
    " this": 367,
    " Y": 368,
    "clud": 369,
    " Th": 370,
    "ally": 371,
    "ren": 372,
    " who": 373,
    "ound": 374,
    " des": 375,
    " att": 376,
    "aw": 377,
    " her": 378,
    "ace": 379,
    " bec": 380,
    " dis": 381,
    "ations": 382,
    "att": 383,
    "ron": 384,
    " en": 385,
    "orm": 386,
    "ect": 387,
    " up": 388,
    " play": 389,
    "ark": 390,
    "ress": 391,
    " they": 392,
    "ade": 393,
    " out": 394,
    " It": 395,
    "ult": 396,
    " includ": 397,
    "urn": 398,
    "ice": 399,
    " ser": 400,
    "ward": 401,
    " comm": 402,
    " into": 403,
    "ind": 404,
    "ces": 405,
    " year": 406,
    "orth": 407,
    "ced": 408,
    "ions": 409,
    "land": 410,
    "ied": 411,
    " time": 412,
    " man": 413,
    " Se": 414,
    "iss": 415,
    "act": 416,
    " ne": 417,
    "du": 418,
    "ican": 419,
    "rough": 420,
    " ev": 421,
    "ll": 422,
    "oin": 423,
    "ose": 424,
    "old": 425,
    "ited": 426,
    " other": 427,
    " Un": 428,
    "ph": 429,
    " fil": 430,
    " pre": 431,
    " rem": 432,
    " Aust": 433,
    "ove": 434,
    "ick": 435,
    "ite": 436,
    " und": 437,
    "we": 438,
    "ance": 439,
    "ount": 440,
    " tr": 441,
    "outh": 442,
    " during": 443,
    "round": 444,
    "ail": 445,
    "ft": 446,
    " would": 447,
    "les": 448,
    "vi": 449,
    " An": 450,
    " again": 451,
    " inter": 452,
    " more": 453,
    "one": 454,
    " we": 455,
    " Re": 456,
    "ased": 457,
    " all": 458,
    " him": 459,
    "ered": 460,
    "are": 461,
    " De": 462,
    "ors": 463,
    "gan": 464,
    "ict": 465,
    "way": 466,
    "ory": 467,
    "ates": 468,
    " Ar": 469,
    "ne": 470,
    " under": 471,
    " sec": 472,
    "hip": 473,
    "amp": 474,
    " film": 475,
    "iver": 476,
    "ons": 477,
    "ase": 478,
    " ear": 479,
    "oy": 480,
    "ines": 481,
    "end": 482,
    "ang": 483,
    " she": 484,
    "ck": 485,
    " spe": 486,
    " cons": 487,
    "ss": 488,
    "able": 489,
    "wn": 490,
    "uil": 491,
    " US": 492,
    "ollow": 493,
    "vel": 494,
    " work": 495,
    " them": 496,
    " ret": 497,
    "ents": 498,
    " def": 499,
    " Brit": 500,
    " only": 501,
    " Amer": 502,
    " most": 503,
    " three": 504,
    " Com": 505,
    " sup": 506,
    "ning": 507,
    "ision": 508,
    "ational": 509,
    " end": 510,
    " pos": 511,
    " cent": 512,
    " Austral": 513,
    " fl": 514,
    " bet": 515,
    " fe": 516,
    " ass": 517,
    " num": 518,
    "ason": 519,
    "rib": 520,
    " New": 521,
    "tern": 522,
    " through": 523,
    "reat": 524,
    "fer": 525,
    "ock": 526,
    " sp": 527,
    "red": 528,
    " air": 529,
    " new": 530,
    "ubl": 531,
    "ood": 532,
    "inal": 533,
    " sub": 534,
    "olog": 535,
    " when": 536,
    "oth": 537,
    "cted": 538,
    " head": 539,
    "ank": 540,
    " kn": 541,
    "rop": 542,
    "aus": 543,
    "ters": 544,
    " reg": 545,
    "fore": 546,
    " col": 547,
    "ix": 548,
    "ings": 549,
    "ans": 550,
    " four": 551,
    "ween": 552,
    "ual": 553,
    " war": 554,
    " about": 555,
    "az": 556,
    " me": 557,
    " Mar": 558,
    "mber": 559,
    "ug": 560,
    " while": 561,
    "aid": 562,
    " ship": 563,
    " day": 564,
    "bum": 565,
    "ake": 566,
    "ob": 567,
    " follow": 568,
    "ener": 569,
    " later": 570,
    " team": 571,
    " gro": 572,
    " where": 573,
    "ating": 574,
    " Ger": 575,
    " Z": 576,
    " lar": 577,
    " Sh": 578,
    " act": 579,
    " buil": 580,
    " between": 581,
    " some": 582,
    " pe": 583,
    " inv": 584,
    " song": 585,
    "ember": 586,
    "In": 587,
    " mon": 588,
    " On": 589,
    " made": 590,
    " album": 591,
    " am": 592,
    "ities": 593,
    " produ": 594,
    " than": 595,
    " arm": 596,
    "ained": 597,
    " high": 598,
    " record": 599,
    " British": 600,
    " op": 601,
    " form": 602,
    " Ind": 603,
    " War": 604,
    " second": 605,
    " American": 606,
    " sever": 607,
    " against": 608,
    " number": 609,
    " rel": 610,
    "ike": 611,
    "ped": 612,
    " German": 613,
    " Sc": 614,
    " game": 615,
    "aj": 616,
    " car": 617,
    " before": 618,
    " being": 619,
    " rele": 620,
    " season": 621,
    " inc": 622,
    "overn": 623,
    "orld": 624,
    " Al": 625,
    "ton": 626,
    "hes": 627,
    "ull": 628,
    " city": 629,
    "ient": 630,
    " sur": 631,
    "ook": 632,
    "ath": 633,
    " perf": 634,
    " em": 635,
    " char": 636,
    " app": 637,
    " loc": 638,
    "io": 639,
    " pr": 640,
    " there": 641,
    "ular": 642,
    " back": 643,
    " acc": 644,
    " Man": 645,
    "ever": 646,
    " inf": 647,
    " ac": 648,
    " contin": 649,
    "yl": 650,
    "rans": 651,
    "ific": 652,
    " oper": 653,
    "ames": 654,
    " May": 655,
    " so": 656,
    "iel": 657,
    "cial": 658,
    "ower": 659,
    " batt": 660,
    " several": 661,
    " Les": 662,
    " used": 663,
    "ek": 664,
    " co": 665,
    " mil": 666,
    "apan": 667,
    " attack": 668,
    " At": 669,
    " ent": 670,
    "ians": 671,
    "ross": 672,
    "ince": 673,
    "avy": 674,
    " Japan": 675,
    " ind": 676,
    "ics": 677,
    "ious": 678,
    " United": 679,
    " cap": 680,
    " dec": 681,
    " As": 682,
    " became": 683,
    "ey": 684,
    " met": 685,
    " along": 686,
    " design": 687,
    "ier": 688,
    " ver": 689,
    "ished": 690,
    " both": 691,
    " mat": 692,
    " gun": 693,
    "other": 694,
    " qu": 695,
    " including": 696,
    " then": 697,
    " sy": 698,
    " rep": 699,
    "though": 700,
    "ov": 701,
    " well": 702,
    "ised": 703,
    " Cl": 704,
    "air": 705,
    "son": 706,
    " Be": 707,
    " pol": 708,
    " such": 709,
    " publ": 710,
    "der": 711,
    " mill": 712,
    "velop": 713,
    "ero": 714,
    "ury": 715,
    "emb": 716,
    " main": 717,
    " appe": 718,
    " began": 719,
    "als": 720,
    " North": 721,
    "owever": 722,
    " call": 723,
    " sm": 724,
    " these": 725,
    "ert": 726,
    "usic": 727,
    "its": 728,
    "uch": 729,
    "une": 730,
    "ures": 731,
    " This": 732,
    " no": 733,
    " dep": 734,
    "ued": 735,
    "ident": 736,
    " Le": 737,
    " km": 738,
    " govern": 739,
    "rap": 740,
    "ative": 741,
    "pr": 742,
    " bl": 743,
    "ject": 744,
    " She": 745,
    " writ": 746,
    " could": 747,
    " found": 748,
    " trans": 749,
    "ute": 750,
    " many": 751,
    " po": 752,
    " ele": 753,
    " add": 754,
    "ten": 755,
    "ists": 756,
    "aced": 757,
    "ived": 758,
    " sign": 759,
    " years": 760,
    "ese": 761,
    "ram": 762,
    " return": 763,
    "ven": 764,
    "ting": 765,
    " min": 766,
    "elf": 767,
    " known": 768,
    " can": 769,
    "ful": 770,
    " did": 771,
    " down": 772,
    "ah": 773,
    " long": 774,
    " art": 775,
    " Col": 776,
    " Comm": 777,
    " develop": 778,
    " sing": 779,
    "ily": 780,
    " est": 781,
    " pres": 782,
    "ober": 783,
    " dire": 784,
    "ured": 785,
    " Sept": 786,
    "hen": 787,
    "ments": 788,
    "stru": 789,
    " September": 790,
    " comple": 791,
    "ern": 792,
    " do": 793,
    "pos": 794,
    " land": 795,
    " Jan": 796,
    "ared": 797,
    " offic": 798,
    " group": 799,
    " lead": 800,
    " like": 801,
    "ep": 802,
    " cre": 803,
    "ets": 804,
    "ield": 805,
    " hist": 806,
    " said": 807,
    " ter": 808,
    "ars": 809,
    "ale": 810,
    "nar": 811,
    "ise": 812,
    " rece": 813,
    " large": 814,
    " feat": 815,
    "ause": 816,
    "orn": 817,
    " north": 818,
    "oh": 819,
    "erv": 820,
    " near": 821,
    "urch": 822,
    " any": 823,
    " early": 824,
    " bro": 825,
    "pan": 826,
    "ool": 827,
    " pop": 828,
    "ized": 829,
    "ple": 830,
    " ob": 831,
    "ided": 832,
    "ivision": 833,
    "xt": 834,
    " set": 835,
    " small": 836,
    " show": 837,
    " support": 838,
    "ccess": 839,
    "raft": 840,
    " Aug": 841,
    " fin": 842,
    " Bl": 843,
    "ange": 844,
    " August": 845,
    " br": 846,
    " Pol": 847,
    " pers": 848,
    " start": 849,
    " orig": 850,
    " series": 851,
    " str": 852,
    " tem": 853,
    "osp": 854,
    " around": 855,
    "ired": 856,
    "oot": 857,
    "ople": 858,
    "aking": 859,
    "ball": 860,
    "ajor": 861,
    "til": 862,
    "ather": 863,
    "ke": 864,
    "oss": 865,
    " god": 866,
    " June": 867,
    "ivers": 868,
    "int": 869,
    " Ph": 870,
    " South": 871,
    " win": 872,
    "hern": 873,
    " state": 874,
    " disc": 875,
    " charac": 876,
    " area": 877,
    "iron": 878,
    "rist": 879,
    "side": 880,
    " Lesnar": 881,
    "ctor": 882,
    " pass": 883,
    "ible": 884,
    " position": 885,
    " ep": 886,
    "view": 887,
    " Oct": 888,
    " called": 889,
    " until": 890,
    "ann": 891,
    " go": 892,
    " After": 893,
    " following": 894,
    "eneral": 895,
    "aining": 896,
    "quad": 897,
    "ually": 898,
    " conc": 899,
    " prom": 900,
    " dif": 901,
    " All": 902,
    "eb": 903,
    "gest": 904,
    "ropical": 905,
    " gu": 906,
    " took": 907,
    "itt": 908,
    "ains": 909,
    "ric": 910,
    "led": 911,
    "ified": 912,
    "ats": 913,
    " crit": 914,
    "ung": 915,
    " Japanese": 916,
    " Con": 917,
    " En": 918,
    "ipp": 919,
    "oci": 920,
    " south": 921,
    "chool": 922,
    "ored": 923,
    "ism": 924,
    " inst": 925,
    " Nove": 926,
    " York": 927,
    " forces": 928,
    "ission": 929,
    " six": 930,
    " October": 931,
    "ina": 932,
    " own": 933,
    "oad": 934,
    " Batt": 935,
    " command": 936,
    "imes": 937,
    "wards": 938,
    " Australian": 939,
    " released": 940,
    " November": 941,
    "idge": 942,
    " bo": 943,
    "amed": 944,
    "uary": 945,
    " music": 946,
    " dam": 947,
    " success": 948,
    "ife": 949,
    "oved": 950,
    "crib": 951,
    "oon": 952,
    " dist": 953,
    " class": 954,
    " adv": 955,
    " eff": 956,
    "ask": 957,
    " For": 958,
    " Ju": 959,
    " prov": 960,
    "ordan": 961,
    " open": 962,
    " tro": 963,
    " kill": 964,
    " report": 965,
    "my": 966,
    " Is": 967,
    " port": 968,
    "ty": 969,
    " run": 970,
    " Ste": 971,
    " poin": 972,
    "ones": 973,
    " ri": 974,
    " included": 975,
    " occ": 976,
    "ology": 977,
    " million": 978,
    " Car": 979,
    " built": 980,
    " January": 981,
    "ler": 982,
    " five": 983,
    "rench": 984,
    " wind": 985,
    " top": 986,
    "quadron": 987,
    "ues": 988,
    " ref": 989,
    " each": 990,
    " place": 991,
    "ash": 992,
    " gr": 993,
    "ately": 994,
    " played": 995,
    " Nero": 996,
    " Ad": 997,
    " Me": 998,
    "ops": 999,
    " States": 1000,
    " World": 1001,
    " since": 1002,
    " government": 1003,
    " bel": 1004,
    "ird": 1005,
    "ode": 1006,
    " stud": 1007,
    " people": 1008,
    "ives": 1009,
    "urther": 1010,
    " French": 1011,
    "ax": 1012,
    "empt": 1013,
    " consid": 1014,
    "ai": 1015,
    "itary": 1016,
    " ships": 1017,
    " public": 1018,
    "ec": 1019,
    "ohn": 1020,
    "ional": 1021,
    "uss": 1022,
    " ann": 1023,
    " though": 1024,
    " match": 1025,
    " Br": 1026,
    " They": 1027,
    " Wh": 1028,
    " mod": 1029,
    "ility": 1030,
    " stru": 1031,
    " use": 1032,
    "ila": 1033,
    " dest": 1034,
    " same": 1035,
    " Scient": 1036,
    " because": 1037,
    " Christ": 1038,
    "ctions": 1039,
    " week": 1040,
    " describ": 1041,
    "ins": 1042,
    "arr": 1043,
    "ides": 1044,
    "aged": 1045,
    " Ed": 1046,
    " Jordan": 1047,
    "gy": 1048,
    "vent": 1049,
    "oute": 1050,
    "orman": 1051,
    " count": 1052,
    "ently": 1053,
    " spec": 1054,
    "uro": 1055,
    " No": 1056,
    " var": 1057,
    " vi": 1058,
    " July": 1059,
    "ined": 1060,
    " may": 1061,
    "arch": 1062,
    " conf": 1063,
    " appro": 1064,
    " single": 1065,
    " epis": 1066,
    "aving": 1067,
    " partic": 1068,
    " storm": 1069,
    " Dece": 1070,
    "craft": 1071,
    "ourt": 1072,
    " iron": 1073,
    " John": 1074,
    " December": 1075,
    " hal": 1076,
    " serv": 1077,
    " imp": 1078,
    " turn": 1079,
    " Ang": 1080,
    " final": 1081,
    " although": 1082,
    " received": 1083,
    " Phil": 1084,
    " contro": 1085,
    "ene": 1086,
    "stem": 1087,
    " tri": 1088,
    " attempt": 1089,
    " Gu": 1090,
    " ext": 1091,
    " left": 1092,
    "vious": 1093,
    " build": 1094,
    " major": 1095,
    " ed": 1096,
    " Te": 1097,
    "ement": 1098,
    " just": 1099,
    "ront": 1100,
    "ution": 1101,
    "cept": 1102,
    " repl": 1103,
    " power": 1104,
    " Route": 1105,
    " Am": 1106,
    "enn": 1107,
    " men": 1108,
    " held": 1109,
    " ever": 1110,
    " east": 1111,
    "ording": 1112,
    " resp": 1113,
    "ached": 1114,
    "embers": 1115,
    "ays": 1116,
    " line": 1117,
    " ty": 1118,
    "alk": 1119,
    "row": 1120,
    "omin": 1121,
    " Mc": 1122,
    " west": 1123,
    " due": 1124,
    " eng": 1125,
    " National": 1126,
    " Apr": 1127,
    " April": 1128,
    "ger": 1129,
    " rest": 1130,
    "uth": 1131,
    " band": 1132,
    " fire": 1133,
    " continued": 1134,
    "ument": 1135,
    "isted": 1136,
    "pect": 1137,
    " requ": 1138,
    "by": 1139,
    "ural": 1140,
    " post": 1141,
    " track": 1142,
    " led": 1143,
    "els": 1144,
    " tra": 1145,
    " another": 1146,
    "ys": 1147,
    "ild": 1148,
    "antry": 1149,
    " person": 1150,
    " Air": 1151,
    " within": 1152,
    "ague": 1153,
    " organ": 1154,
    " century": 1155,
    "ged": 1156,
    " invol": 1157,
    " However": 1158,
    " character": 1159,
    " ph": 1160,
    " fam": 1161,
    " came": 1162,
    " side": 1163,
    " sold": 1164,
    " ins": 1165,
    "roy": 1166,
    "ham": 1167,
    " hand": 1168,
    "ically": 1169,
    " even": 1170,
    " next": 1171,
    " military": 1172,
    " now": 1173,
    " further": 1174,
    " performan": 1175,
    "ner": 1176,
    "ret": 1177,
    " cr": 1178,
    " sim": 1179,
    " former": 1180,
    " episode": 1181,
    " constru": 1182,
    " named": 1183,
    " aircraft": 1184,
    "med": 1185,
    " home": 1186,
    " Australia": 1187,
    " Division": 1188,
    " troops": 1189,
    "ink": 1190,
    " Im": 1191,
    "iving": 1192,
    "aken": 1193,
    "ards": 1194,
    " much": 1195,
    " what": 1196,
    " Kore": 1197,
    " Manila": 1198,
    " previous": 1199,
    " members": 1200,
    "por": 1201,
    "riv": 1202,
    "iod": 1203,
    " incre": 1204,
    "aim": 1205,
    "uted": 1206,
    " River": 1207,
    " guns": 1208,
    " won": 1209,
    "ica": 1210,
    " dem": 1211,
    " last": 1212,
    "tend": 1213,
    " hel": 1214,
    "ially": 1215,
    " Town": 1216,
    " Fran": 1217,
    " school": 1218,
    " third": 1219,
    " half": 1220,
    "ae": 1221,
    "rest": 1222,
    "omet": 1223,
    "ius": 1224,
    "ouse": 1225,
    "ideo": 1226,
    " allow": 1227,
    "ittle": 1228,
    " ft": 1229,
    "read": 1230,
    " force": 1231,
    " nort": 1232,
    "cess": 1233,
    " care": 1234,
    "ms": 1235,
    " sl": 1236,
    "amb": 1237,
    " Mer": 1238,
    " name": 1239,
    "ery": 1240,
    "ison": 1241,
    "ling": 1242,
    "ble": 1243,
    " late": 1244,
    " belie": 1245,
    " join": 1246,
    " death": 1247,
    "ondyl": 1248,
    "rew": 1249,
    " plan": 1250,
    " based": 1251,
    " March": 1252,
    " Church": 1253,
    " tropical": 1254,
    " Eng": 1255,
    "ital": 1256,
    " ste": 1257,
    " iss": 1258,
    "resent": 1259,
    " Mich": 1260,
    " exp": 1261,
    "ploy": 1262,
    " defe": 1263,
    " world": 1264,
    "cy": 1265,
    "ulation": 1266,
    " cover": 1267,
    "rent": 1268,
    " poss": 1269,
    " II": 1270,
    " perform": 1271,
    " sent": 1272,
    " del": 1273,
    " system": 1274,
    "alion": 1275,
    " Pl": 1276,
    " role": 1277,
    "rote": 1278,
    " result": 1279,
    " Army": 1280,
    "abl": 1281,
    " ord": 1282,
    " month": 1283,
    " capt": 1284,
    " mid": 1285,
    " City": 1286,
    "ants": 1287,
    "aves": 1288,
    " light": 1289,
    " infl": 1290,
    " history": 1291,
    " General": 1292,
    "au": 1293,
    "ched": 1294,
    " event": 1295,
    "ads": 1296,
    " few": 1297,
    "sequ": 1298,
    " cross": 1299,
    " addition": 1300,
    " destroy": 1301,
    "ospondyl": 1302,
    " sk": 1303,
    " described": 1304,
    " period": 1305,
    " Feb": 1306,
    " Febru": 1307,
    " February": 1308,
    "ley": 1309,
    " way": 1310,
    " hum": 1311,
    "pite": 1312,
    " pat": 1313,
    "iment": 1314,
    "aval": 1315,
    "ensive": 1316,
    " games": 1317,
    "eder": 1318,
    "isc": 1319,
    " Can": 1320,
    "ots": 1321,
    " old": 1322,
    "ness": 1323,
    "ycl": 1324,
    " Scientology": 1325,
    "ont": 1326,
    " still": 1327,
    " right": 1328,
    " those": 1329,
    " gods": 1330,
    "iversity": 1331,
    " review": 1332,
    "ior": 1333,
    "pend": 1334,
    " differ": 1335,
    " life": 1336,
    " But": 1337,
    "ages": 1338,
    " King": 1339,
    "On": 1340,
    "iam": 1341,
    " beg": 1342,
    "etr": 1343,
    "ety": 1344,
    " killed": 1345,
    " Q": 1346,
    "atter": 1347,
    "lect": 1348,
    " battle": 1349,
    " order": 1350,
    "self": 1351,
    "eter": 1352,
    "ulu": 1353,
    " if": 1354,
    " short": 1355,
    " expl": 1356,
    "ls": 1357,
    "hest": 1358,
    " beh": 1359,
    " Em": 1360,
    " gener": 1361,
    "min": 1362,
    " cur": 1363,
    "iven": 1364,
    "ivil": 1365,
    " equ": 1366,
    " contr": 1367,
    "hips": 1368,
    " moved": 1369,
    " represent": 1370,
    "get": 1371,
    " These": 1372,
    " commun": 1373,
    " appear": 1374,
    " strong": 1375,
    " Road": 1376,
    " establ": 1377,
    "intulu": 1378,
    "ps": 1379,
    " Sp": 1380,
    "ried": 1381,
    "ense": 1382,
    " sout": 1383,
    "ampions": 1384,
    " great": 1385,
    " days": 1386,
    " local": 1387,
    "raph": 1388,
    "leet": 1389,
    " red": 1390,
    " compan": 1391,
    "ization": 1392,
    " mark": 1393,
    "ping": 1394,
    "atic": 1395,
    "ream": 1396,
    "aul": 1397,
    " comb": 1398,
    "idian": 1399,
    "akes": 1400,
    " make": 1401,
    " heavy": 1402,
    " front": 1403,
    "AA": 1404,
    "ales": 1405,
    " Rich": 1406,
    " camp": 1407,
    "uc": 1408,
    "reet": 1409,
    " div": 1410,
    " hour": 1411,
    " Inf": 1412,
    "oyal": 1413,
    "astern": 1414,
    " caus": 1415,
    " Philipp": 1416,
    " tit": 1417,
    " By": 1418,
    "use": 1419,
    " Bintulu": 1420,
    "bo": 1421,
    "the": 1422,
    "ody": 1423,
    " State": 1424,
    " Char": 1425,
    "gypt": 1426,
    " claim": 1427,
    " init": 1428,
    " tot": 1429,
    "ilar": 1430,
    " Pro": 1431,
    " Will": 1432,
    " prog": 1433,
    " water": 1434,
    "ression": 1435,
    "ches": 1436,
    " original": 1437,
    " considered": 1438,
    "oll": 1439,
    "ott": 1440,
    " deb": 1441,
    " fight": 1442,
    " move": 1443,
    " Reg": 1444,
    " often": 1445,
    " Euro": 1446,
    " Cent": 1447,
    "omb": 1448,
    " lim": 1449,
    "elt": 1450,
    "reak": 1451,
    " night": 1452,
    " arch": 1453,
    " wrote": 1454,
    "irc": 1455,
    "used": 1456,
    " operations": 1457,
    " returned": 1458,
    " Egypt": 1459,
    " Europe": 1460,
    " es": 1461,
    "par": 1462,
    "ature": 1463,
    " ironcl": 1464,
    " cycl": 1465,
    " There": 1466,
    "vers": 1467,
    " fore": 1468,
    " suff": 1469,
    "estern": 1470,
    " tank": 1471,
    " book": 1472,
    "nospondyl": 1473,
    "aut": 1474,
    "emor": 1475,
    " We": 1476,
    " lost": 1477,
    "itted": 1478,
    " produced": 1479,
    " video": 1480,
    " influ": 1481,
    "ned": 1482,
    " par": 1483,
    "ille": 1484,
    " Ge": 1485,
    "iers": 1486,
    " best": 1487,
    "vision": 1488,
    " Indian": 1489,
    " located": 1490,
    " tw": 1491,
    " mm": 1492,
    "ium": 1493,
    " vis": 1494,
    "ikal": 1495,
    " away": 1496,
    " however": 1497,
    "field": 1498,
    " Polish": 1499,
    "osed": 1500,
    "augh": 1501,
    " site": 1502,
    " Count": 1503,
    " across": 1504,
    " metres": 1505,
    " polit": 1506,
    " child": 1507,
    "ox": 1508,
    " leg": 1509,
    " never": 1510,
    " remained": 1511,
    " project": 1512,
    " career": 1513,
    "cing": 1514,
    " prim": 1515,
    " vers": 1516,
    " having": 1517,
    "eng": 1518,
    " bas": 1519,
    " mar": 1520,
    "ush": 1521,
    " stand": 1522,
    " will": 1523,
    "send": 1524,
    "que": 1525,
    " sug": 1526,
    "ize": 1527,
    "inally": 1528,
    " special": 1529,
    " present": 1530,
    " University": 1531,
    "ering": 1532,
    "rum": 1533,
    "heast": 1534,
    " without": 1535,
    "ences": 1536,
    " town": 1537,
    " direct": 1538,
    " effect": 1539,
    " Meridian": 1540,
    " total": 1541,
    "me": 1542,
    " sit": 1543,
    " fre": 1544,
    " bar": 1545,
    " med": 1546,
    " pur": 1547,
    " low": 1548,
    " decl": 1549,
    " import": 1550,
    " miles": 1551,
    " Tikal": 1552,
    "con": 1553,
    "ead": 1554,
    "istr": 1555,
    " shot": 1556,
    " developed": 1557,
    "pany": 1558,
    " reported": 1559,
    " Squadron": 1560,
    " performance": 1561,
    " suggest": 1562,
    " real": 1563,
    " exper": 1564,
    "ney": 1565,
    " very": 1566,
    " reached": 1567,
    "reen": 1568,
    "mas": 1569,
    " star": 1570,
    "aying": 1571,
    "ination": 1572,
    " stated": 1573,
    "ably": 1574,
    " road": 1575,
    "ificant": 1576,
    " Navy": 1577,
    "ator": 1578,
    "ane": 1579,
    " my": 1580,
    " San": 1581,
    " stat": 1582,
    " activ": 1583,
    " histor": 1584,
    " Co": 1585,
    " Bur": 1586,
    " pain": 1587,
    " stri": 1588,
    " round": 1589,
    " During": 1590,
    "vens": 1591,
    " press": 1592,
    "posed": 1593,
    " view": 1594,
    " given": 1595,
    "sh": 1596,
    "stit": 1597,
    " His": 1598,
    " seen": 1599,
    " Or": 1600,
    " served": 1601,
    " national": 1602,
    "ferred": 1603,
    " emb": 1604,
    " different": 1605,
    "ampionship": 1606,
    "AS": 1607,
    " fr": 1608,
    " And": 1609,
    "ister": 1610,
    " Par": 1611,
    " Fl": 1612,
    "alth": 1613,
    " Jack": 1614,
    " Off": 1615,
    "ended": 1616,
    " release": 1617,
    " significant": 1618,
    "reg": 1619,
    " Pr": 1620,
    "oung": 1621,
    "rican": 1622,
    " highway": 1623,
    " Battle": 1624,
    " particular": 1625,
    " every": 1626,
    "ices": 1627,
    " fig": 1628,
    "ither": 1629,
    "ought": 1630,
    "action": 1631,
    " Ass": 1632,
    " Russ": 1633,
    "fe": 1634,
    "bor": 1635,
    "mar": 1636,
    " pit": 1637,
    " la": 1638,
    "ape": 1639,
    " vict": 1640,
    " level": 1641,
    " among": 1642,
    " formed": 1643,
    " country": 1644,
    " Ag": 1645,
    "ention": 1646,
    "urg": 1647,
    " Rh": 1648,
    " High": 1649,
    " Infantry": 1650,
    " Townsend": 1651,
    "yn": 1652,
    " er": 1653,
    " mi": 1654,
    " Af": 1655,
    " island": 1656,
    " surv": 1657,
    " estim": 1658,
    " When": 1659,
    " making": 1660,
    "imately": 1661,
    "urt": 1662,
    " put": 1663,
    " player": 1664,
    " ground": 1665,
    " units": 1666,
    " similar": 1667,
    " Cal": 1668,
    "iness": 1669,
    " tele": 1670,
    "enced": 1671,
    " placed": 1672,
    " foot": 1673,
    " building": 1674,
    " himself": 1675,
    " cas": 1676,
    "oman": 1677,
    "aur": 1678,
    "bert": 1679,
    " prof": 1680,
    " successful": 1681,
    " Island": 1682,
    "let": 1683,
    " Tr": 1684,
    "ript": 1685,
    "aign": 1686,
    " close": 1687,
    " base": 1688,
    " range": 1689,
    " family": 1690,
    " av": 1691,
    "iter": 1692,
    "ves": 1693,
    " Per": 1694,
    "ively": 1695,
    "dition": 1696,
    " trad": 1697,
    " take": 1698,
    " Germany": 1699,
    " times": 1700,
    " damage": 1701,
    " auth": 1702,
    " circ": 1703,
    " County": 1704,
    " ve": 1705,
    " Gr": 1706,
    " fav": 1707,
    "less": 1708,
    "reek": 1709,
    " using": 1710,
    " miss": 1711,
    " relig": 1712,
    "ccording": 1713,
    " construction": 1714,
    " behind": 1715,
    "na": 1716,
    " Bro": 1717,
    "ela": 1718,
    " NY": 1719,
    " colle": 1720,
    " production": 1721,
    " promot": 1722,
    " William": 1723,
    " nd": 1724,
    " cle": 1725,
    " cut": 1726,
    "eth": 1727,
    " With": 1728,
    " rul": 1729,
    " El": 1730,
    " Hill": 1731,
    " gave": 1732,
    " prote": 1733,
    " compet": 1734,
    " temnospondyl": 1735,
    " Company": 1736,
    "yr": 1737,
    " too": 1738,
    "fic": 1739,
    " went": 1740,
    " ey": 1741,
    "aces": 1742,
    " hig": 1743,
    " Rep": 1744,
    " throughout": 1745,
    " modern": 1746,
    " subsequ": 1747,
    " Christmas": 1748,
    " Stevens": 1749,
    "dom": 1750,
    " det": 1751,
    " action": 1752,
    " you": 1753,
    "aff": 1754,
    "ground": 1755,
    "riend": 1756,
    " followed": 1757,
    " point": 1758,
    " announ": 1759,
    "nder": 1760,
    " Mad": 1761,
    " Har": 1762,
    "raw": 1763,
    "haw": 1764,
    " Sec": 1765,
    " story": 1766,
    " One": 1767,
    " route": 1768,
    " Street": 1769,
    " Royal": 1770,
    "ges": 1771,
    "app": 1772,
    " eight": 1773,
    "ience": 1774,
    " gold": 1775,
    " earl": 1776,
    " syn": 1777,
    " obs": 1778,
    "ederal": 1779,
    "yle": 1780,
    "acy": 1781,
    " rad": 1782,
    " want": 1783,
    " wide": 1784,
    " Head": 1785,
    "erry": 1786,
    " cult": 1787,
    " feet": 1788,
    " official": 1789,
    " winds": 1790,
    " human": 1791,
    "enes": 1792,
    " el": 1793,
    " Mal": 1794,
    " gl": 1795,
    " Des": 1796,
    "umb": 1797,
    " law": 1798,
    "ailed": 1799,
    " recorded": 1800,
    "ington": 1801,
    " battles": 1802,
    " Although": 1803,
    " crew": 1804,
    " involved": 1805,
    " America": 1806,
    " tour": 1807,
    " Bo": 1808,
    "rie": 1809,
    "ounter": 1810,
    "ports": 1811,
    " Rock": 1812,
    " written": 1813,
    " started": 1814,
    " court": 1815,
    " Churchill": 1816,
    " Battalion": 1817,
    " Philippines": 1818,
    " soldiers": 1819,
    "mb": 1820,
    " hit": 1821,
    "cent": 1822,
    "atch": 1823,
    "ief": 1824,
    " region": 1825,
    " discover": 1826,
    "atives": 1827,
    "gr": 1828,
    " Sl": 1829,
    " bus": 1830,
    " Du": 1831,
    "tain": 1832,
    "rior": 1833,
    " aff": 1834,
    " agre": 1835,
    " face": 1836,
    " Park": 1837,
    " evac": 1838,
    " hold": 1839,
    " development": 1840,
    " NB": 1841,
    "line": 1842,
    "mond": 1843,
    " sound": 1844,
    " need": 1845,
    " Dep": 1846,
    " river": 1847,
    " control": 1848,
    " League": 1849,
    " naval": 1850,
    "ki": 1851,
    " cor": 1852,
    "ara": 1853,
    "uation": 1854,
    " East": 1855,
    "work": 1856,
    " stage": 1857,
    " Mark": 1858,
    " mph": 1859,
    " peak": 1860,
    " struct": 1861,
    "ograph": 1862,
    "ico": 1863,
    "igan": 1864,
    " Ne": 1865,
    " West": 1866,
    " less": 1867,
    " least": 1868,
    " should": 1869,
    "rang": 1870,
    " important": 1871,
    "to": 1872,
    "go": 1873,
    "tar": 1874,
    "ising": 1875,
    "ado": 1876,
    "vol": 1877,
    "pir": 1878,
    "chn": 1879,
    " Lond": 1880,
    " intens": 1881,
    " saw": 1882,
    " find": 1883,
    " ident": 1884,
    " appeared": 1885,
    "asket": 1886,
    "itar": 1887,
    "utes": 1888,
    "ford": 1889,
    " Year": 1890,
    " become": 1891,
    " include": 1892,
    "rodu": 1893,
    "ways": 1894,
    " case": 1895,
    " rock": 1896,
    " Britain": 1897,
    "ference": 1898,
    " heads": 1899,
    " decided": 1900,
    " felt": 1901,
    "ga": 1902,
    " reb": 1903,
    " Sen": 1904,
    "str": 1905,
    " get": 1906,
    "odes": 1907,
    "artment": 1908,
    " commer": 1909,
    " died": 1910,
    " critic": 1911,
    " respons": 1912,
    " McC": 1913,
    " population": 1914,
    " civil": 1915,
    " ten": 1916,
    " So": 1917,
    " Cor": 1918,
    "ems": 1919,
    " ant": 1920,
    "cher": 1921,
    " Jew": 1922,
    " cour": 1923,
    "ators": 1924,
    " father": 1925,
    " points": 1926,
    "ency": 1927,
    " ordered": 1928,
    "epend": 1929,
    " doll": 1930,
    " London": 1931,
    "vin": 1932,
    "acing": 1933,
    "omes": 1934,
    "omen": 1935,
    " Min": 1936,
    " Best": 1937,
    " Port": 1938,
    " Sup": 1939,
    "fall": 1940,
    " lack": 1941,
    "most": 1942,
    "ulpt": 1943,
    " Oper": 1944,
    " Fey": 1945,
    " popular": 1946,
    " squadron": 1947,
    " various": 1948,
    " title": 1949,
    "asketball": 1950,
    " ren": 1951,
    "arly": 1952,
    "emy": 1953,
    " test": 1954,
    "aps": 1955,
    " ke": 1956,
    " chart": 1957,
    " noted": 1958,
    " full": 1959,
    " police": 1960,
    " Span": 1961,
    " loss": 1962,
    " originally": 1963,
    " sculpt": 1964,
    " sw": 1965,
    " tre": 1966,
    " mor": 1967,
    " fun": 1968,
    " pra": 1969,
    " ide": 1970,
    "ressed": 1971,
    " central": 1972,
    " service": 1973,
    " monument": 1974,
    " northern": 1975,
    " campaign": 1976,
    " temnospondyls": 1977,
    " inj": 1978,
    "ying": 1979,
    "oring": 1980,
    "aster": 1981,
    " withd": 1982,
    "istic": 1983,
    "oph": 1984,
    " Mount": 1985,
    " flo": 1986,
    " songs": 1987,
    " Lester": 1988,
    "phoon": 1989,
    " thought": 1990,
    " species": 1991,
    " joined": 1992,
    " begin": 1993,
    " author": 1994,
    "yd": 1995,
    "ving": 1996,
    "aland": 1997,
    " rain": 1998,
    " Some": 1999,
    "endes": 2000,
    " member": 2001,
    " James": 2002,
    " designed": 2003,
    " mov": 2004,
    " block": 2005,
    " poet": 2006,
    " completed": 2007,
    " associ": 2008,
    "medi": 2009,
    " Canad": 2010,
    " bomb": 2011,
    " friend": 2012,
    " Michigan": 2013,
    " Sm": 2014,
    " mur": 2015,
    "ries": 2016,
    "ivid": 2017,
    " vol": 2018,
    "itive": 2019,
    " areas": 2020,
    "rought": 2021,
    " wood": 2022,
    " entire": 2023,
    " Black": 2024,
    " Force": 2025,
    " Korean": 2026,
    " caused": 2027,
    " announced": 2028,
    "ershaw": 2029,
    "ald": 2030,
    "iting": 2031,
    "ayer": 2032,
    " once": 2033,
    "urity": 2034,
    "ords": 2035,
    " complete": 2036,
    " features": 2037,
    " division": 2038,
    " towards": 2039,
    " Mex": 2040,
    " somet": 2041,
    " performed": 2042,
    "ville": 2043,
    " political": 2044,
    "RA": 2045,
    "lying": 2046,
    " see": 2047,
    " list": 2048,
    " Ex": 2049,
    " Ol": 2050,
    " arri": 2051,
    " pie": 2052,
    " award": 2053,
    " intern": 2054,
    " Vict": 2055,
    " chang": 2056,
    "ollowing": 2057,
    " deities": 2058,
    "anned": 2059,
    " fleet": 2060,
    "lythe": 2061,
    " Spanish": 2062,
    "ny": 2063,
    "br": 2064,
    "ades": 2065,
    "ids": 2066,
    " Tem": 2067,
    "ances": 2068,
    " coll": 2069,
    " Command": 2070,
    " created": 2071,
    " featured": 2072,
    " broad": 2073,
    " effort": 2074,
    " established": 2075,
    " company": 2076,
    " Geor": 2077,
    " According": 2078,
    "here": 2079,
    " far": 2080,
    "ring": 2081,
    "onic": 2082,
    "asion": 2083,
    " fort": 2084,
    "ael": 2085,
    " host": 2086,
    "off": 2087,
    " players": 2088,
    "ship": 2089,
    " center": 2090,
    " published": 2091,
    " transport": 2092,
    " Commission": 2093,
    " house": 2094,
    " destroyed": 2095,
    " southern": 2096,
    "ficult": 2097,
    " Republ": 2098,
    "ony": 2099,
    "men": 2100,
    "asing": 2101,
    " how": 2102,
    " Her": 2103,
    "ria": 2104,
    " mag": 2105,
    "abor": 2106,
    " comment": 2107,
    " Ital": 2108,
    "lled": 2109,
    "uck": 2110,
    " occup": 2111,
    " replaced": 2112,
    " version": 2113,
    " estimated": 2114,
    "cer": 2115,
    "ata": 2116,
    "ole": 2117,
    "com": 2118,
    "urb": 2119,
    "hib": 2120,
    " above": 2121,
    "inese": 2122,
    " scene": 2123,
    " style": 2124,
    "ividual": 2125,
    " difficult": 2126,
    "uz": 2127,
    "dle": 2128,
    " Do": 2129,
    " WW": 2130,
    " live": 2131,
    "wood": 2132,
    "igned": 2133,
    " Miss": 2134,
    " others": 2135,
    " mount": 2136,
    " works": 2137,
    " events": 2138,
    " rank": 2139,
    " coast": 2140,
    " signed": 2141,
    " occur": 2142,
    " While": 2143,
    " attend": 2144,
    " Richmond": 2145,
    " Mendes": 2146,
    " Chinese": 2147,
    "for": 2148,
    "ament": 2149,
    " aver": 2150,
    " Pe": 2151,
    "ulf": 2152,
    " wall": 2153,
    " aud": 2154,
    "peror": 2155,
    " slow": 2156,
    " able": 2157,
    "ounded": 2158,
    " meet": 2159,
    " look": 2160,
    " training": 2161,
    " taken": 2162,
    " Little": 2163,
    " months": 2164,
    " instead": 2165,
    " television": 2166,
    " Kingdom": 2167,
    " introdu": 2168,
    "ma": 2169,
    " X": 2170,
    "ened": 2171,
    " hon": 2172,
    " Ac": 2173,
    " Rad": 2174,
    " sele": 2175,
    "ories": 2176,
    "raf": 2177,
    " fell": 2178,
    "ples": 2179,
    "aching": 2180,
    " condu": 2181,
    " good": 2182,
    " army": 2183,
    " quick": 2184,
    " added": 2185,
    " general": 2186,
    " boats": 2187,
    " studio": 2188,
    " damaged": 2189,
    " process": 2190,
    " eastern": 2191,
    " Creek": 2192,
    " NBA": 2193,
    "co": 2194,
    "val": 2195,
    "ope": 2196,
    " prob": 2197,
    " voc": 2198,
    " Award": 2199,
    " fact": 2200,
    " coin": 2201,
    "ological": 2202,
    " mix": 2203,
    " Australians": 2204,
    " little": 2205,
    " program": 2206,
    " either": 2207,
    " tradition": 2208,
    " techn": 2209,
    " Victor": 2210,
    "ster": 2211,
    " Bar": 2212,
    " Fil": 2213,
    " sum": 2214,
    "west": 2215,
    " age": 2216,
    " cast": 2217,
    "ishing": 2218,
    "play": 2219,
    " Great": 2220,
    "ification": 2221,
    "pecial": 2222,
    " cert": 2223,
    " writing": 2224,
    " seven": 2225,
    " China": 2226,
    " particip": 2227,
    "board": 2228,
    "auty": 2229,
    " Ty": 2230,
    " Hol": 2231,
    " Fu": 2232,
    "iber": 2233,
    "ties": 2234,
    "arty": 2235,
    " val": 2236,
    " section": 2237,
    " Two": 2238,
    "perial": 2239,
    " invest": 2240,
    " outside": 2241,
    " employ": 2242,
    " defeated": 2243,
    " contract": 2244,
    "useum": 2245,
    " laun": 2246,
    " business": 2247,
    " commercial": 2248,
    " individual": 2249,
    "oul": 2250,
    "iral": 2251,
    " ask": 2252,
    "nel": 2253,
    " prot": 2254,
    " cru": 2255,
    " below": 2256,
    " image": 2257,
    " Union": 2258,
    " Care": 2259,
    " armour": 2260,
    " struck": 2261,
    " deploy": 2262,
    "emorial": 2263,
    " Blythe": 2264,
    " ce": 2265,
    " cal": 2266,
    " Mon": 2267,
    "iding": 2268,
    " Pac": 2269,
    " Gl": 2270,
    "illo": 2271,
    "quar": 2272,
    " unit": 2273,
    " enc": 2274,
    "form": 2275,
    " appoin": 2276,
    " goal": 2277,
    " opening": 2278,
    " hours": 2279,
    "ique": 2280,
    " subsequently": 2281,
    " almost": 2282,
    " basketball": 2283,
    " WWE": 2284,
    "ino": 2285,
    " che": 2286,
    " sol": 2287,
    " gen": 2288,
    " king": 2289,
    "ential": 2290,
    "ights": 2291,
    "reng": 2292,
    " upon": 2293,
    " fourth": 2294,
    "ulls": 2295,
    " surround": 2296,
    " indic": 2297,
    " Court": 2298,
    " believed": 2299,
    " carried": 2300,
    "AAF": 2301,
    " brought": 2302,
    "sp": 2303,
    "iser": 2304,
    "aded": 2305,
    " Bel": 2306,
    "unk": 2307,
    " Day": 2308,
    " UB": 2309,
    "ogn": 2310,
    "assy": 2311,
    " stone": 2312,
    " Naz": 2313,
    " impro": 2314,
    "emeter": 2315,
    " esc": 2316,
    " fif": 2317,
    " foc": 2318,
    "cast": 2319,
    " Tru": 2320,
    "itect": 2321,
    " Govern": 2322,
    " leading": 2323,
    " born": 2324,
    " previously": 2325,
    " England": 2326,
    " possible": 2327,
    "etrarch": 2328,
    " suffered": 2329,
    " RAAF": 2330,
    "af": 2331,
    "oo": 2332,
    "uk": 2333,
    " Ab": 2334,
    "ceed": 2335,
    " dead": 2336,
    " anc": 2337,
    " Bill": 2338,
    " vill": 2339,
    " kil": 2340,
    "ranch": 2341,
    "ault": 2342,
    " interest": 2343,
    " Ze": 2344,
    " complex": 2345,
    "erva": 2346,
    " exec": 2347,
    "illery": 2348,
    " Paul": 2349,
    " fighting": 2350,
    " Championship": 2351,
    " condition": 2352,
    " Tetrarch": 2353,
    "tr": 2354,
    " read": 2355,
    " Cro": 2356,
    " reve": 2357,
    " Met": 2358,
    " ra": 2359,
    "iva": 2360,
    "oren": 2361,
    " Ke": 2362,
    "sec": 2363,
    "abb": 2364,
    "aud": 2365,
    " exc": 2366,
    " Gib": 2367,
    "idence": 2368,
    " forced": 2369,
    " lines": 2370,
    " Raj": 2371,
    " indust": 2372,
    " shoot": 2373,
    " request": 2374,
    " Butler": 2375,
    " community": 2376,
    " appearance": 2377,
    " avail": 2378,
    " earlier": 2379,
    "oe": 2380,
    "enth": 2381,
    " GA": 2382,
    " dri": 2383,
    "aters": 2384,
    "rying": 2385,
    " resul": 2386,
    " You": 2387,
    " common": 2388,
    "ample": 2389,
    " threat": 2390,
    " operation": 2391,
    " qual": 2392,
    " critics": 2393,
    " provided": 2394,
    " accept": 2395,
    " allowed": 2396,
    " despite": 2397,
    " Wales": 2398,
    " limited": 2399,
    "urrican": 2400,
    " reaction": 2401,
    "iffe": 2402,
    " Jewish": 2403,
    " murder": 2404,
    " Mexico": 2405,
    " arrived": 2406,
    " streng": 2407,
    "ris": 2408,
    "ule": 2409,
    " Med": 2410,
    " Dan": 2411,
    "isting": 2412,
    " fall": 2413,
    " UK": 2414,
    " nine": 2415,
    " Other": 2416,
    " mult": 2417,
    " accom": 2418,
    " attacked": 2419,
    " officers": 2420,
    " characters": 2421,
    " largest": 2422,
    " prevent": 2423,
    " required": 2424,
    " priv": 2425,
    " Regiment": 2426,
    " break": 2427,
    " separ": 2428,
    " recogn": 2429,
    " embassy": 2430,
    " Shiva": 2431,
    "urricane": 2432,
    "AR": 2433,
    "ken": 2434,
    "ming": 2435,
    " cou": 2436,
    " dou": 2437,
    " Mor": 2438,
    "imb": 2439,
    " mot": 2440,
    "uel": 2441,
    " uns": 2442,
    "ellig": 2443,
    " Rec": 2444,
    "arily": 2445,
    " positions": 2446,
    " scored": 2447,
    "ibility": 2448,
    " viol": 2449,
    " Center": 2450,
    " saying": 2451,
    " conspir": 2452,
    " To": 2453,
    " lo": 2454,
    " non": 2455,
    "now": 2456,
    " Pat": 2457,
    " anim": 2458,
    " stop": 2459,
    " Mong": 2460,
    " plat": 2461,
    "After": 2462,
    " Vi": 2463,
    " First": 2464,
    " free": 2465,
    "oice": 2466,
    " flood": 2467,
    " prin": 2468,
    " does": 2469,
    " sett": 2470,
    " rather": 2471,
    " removed": 2472,
    " turned": 2473,
    " current": 2474,
    " initially": 2475,
    " ironclads": 2476,
    " tanks": 2477,
    " Associ": 2478,
    " profess": 2479,
    "jillo": 2480,
    " Zealand": 2481,
    "hu": 2482,
    " tor": 2483,
    "aled": 2484,
    "omas": 2485,
    " deter": 2486,
    " rap": 2487,
    "order": 2488,
    " mass": 2489,
    "pire": 2490,
    " mater": 2491,
    " playing": 2492,
    " working": 2493,
    " contrib": 2494,
    " creat": 2495,
    " colon": 2496,
    "azine": 2497,
    " Marine": 2498,
    " groups": 2499,
    " commander": 2500,
    " weeks": 2501,
    " captured": 2502,
    " beginning": 2503,
    " artillery": 2504,
    " example": 2505,
    " Mongol": 2506,
    " z": 2507,
    "leg": 2508,
    " pil": 2509,
    " Ball": 2510,
    "nect": 2511,
    "phib": 2512,
    " interse": 2513,
    " worked": 2514,
    " know": 2515,
    " pair": 2516,
    " proble": 2517,
    " body": 2518,
    " debut": 2519,
    " federal": 2520,
    " Pacific": 2521,
    "cliffe": 2522,
    "be": 2523,
    "MA": 2524,
    "edy": 2525,
    "can": 2526,
    "van": 2527,
    " den": 2528,
    " Sch": 2529,
    "ival": 2530,
    " prop": 2531,
    " Up": 2532,
    " remain": 2533,
    " white": 2534,
    " sail": 2535,
    " Intern": 2536,
    "pected": 2537,
    "ilities": 2538,
    " India": 2539,
    " Music": 2540,
    " black": 2541,
    "ologists": 2542,
    " remaining": 2543,
    " ridge": 2544,
    " Angle": 2545,
    " engine": 2546,
    " Scott": 2547,
    " children": 2548,
    " northeast": 2549,
    " intended": 2550,
    " highest": 2551,
    " Operation": 2552,
    " Trujillo": 2553,
    " sat": 2554,
    "ili": 2555,
    "head": 2556,
    " tur": 2557,
    " station": 2558,
    " Gro": 2559,
    " sex": 2560,
    "umn": 2561,
    "ateg": 2562,
    " Pres": 2563,
    "lish": 2564,
    "elling": 2565,
    " club": 2566,
    "angu": 2567,
    " ended": 2568,
    " field": 2569,
    " finished": 2570,
    " concern": 2571,
    " vari": 2572,
    " respect": 2573,
    "ociety": 2574,
    " depression": 2575,
    "conom": 2576,
    " Russian": 2577,
    "burg": 2578,
    "onna": 2579,
    " Under": 2580,
    " wanted": 2581,
    " agreed": 2582,
    " Rhodes": 2583,
    " immedi": 2584,
    " Nerva": 2585,
    " Ser": 2586,
    " Big": 2587,
    " Hist": 2588,
    "ocr": 2589,
    " heav": 2590,
    "assic": 2591,
    "uff": 2592,
    "icted": 2593,
    "icles": 2594,
    "idents": 2595,
    " grow": 2596,
    " pract": 2597,
    " subject": 2598,
    " minute": 2599,
    " directed": 2600,
    " School": 2601,
    " deliver": 2602,
    " eventually": 2603,
    " Egyptian": 2604,
    " favor": 2605,
    "raltar": 2606,
    " women": 2607,
    "gg": 2608,
    "win": 2609,
    " son": 2610,
    "oned": 2611,
    "ding": 2612,
    " fac": 2613,
    "ray": 2614,
    "day": 2615,
    " rd": 2616,
    "aper": 2617,
    " vot": 2618,
    "utive": 2619,
    " Game": 2620,
    " cost": 2621,
    " adap": 2622,
    " manag": 2623,
    "quare": 2624,
    "asons": 2625,
    "uments": 2626,
    " deep": 2627,
    " infantry": 2628,
    "ready": 2629,
    " latter": 2630,
    " script": 2631,
    " religious": 2632,
    " anti": 2633,
    " floor": 2634,
    " security": 2635,
    " Mississ": 2636,
    " wounded": 2637,
    " available": 2638,
    " English": 2639,
    " Gibraltar": 2640,
    " Mississipp": 2641,
    " Mississippi": 2642,
    "aring": 2643,
    " pen": 2644,
    "ply": 2645,
    " inch": 2646,
    " deal": 2647,
    " Nak": 2648,
    "alled": 2649,
    " Dav": 2650,
    " past": 2651,
    "ogue": 2652,
    "hile": 2653,
    "igade": 2654,
    " shell": 2655,
    " speed": 2656,
    " regular": 2657,
    " inform": 2658,
    " decision": 2659,
    " supported": 2660,
    "change": 2661,
    " winning": 2662,
    "ckham": 2663,
    "porary": 2664,
    " defeat": 2665,
    " ironclad": 2666,
    " primary": 2667,
    " strike": 2668,
    " staff": 2669,
    " Despite": 2670,
    " dollar": 2671,
    " praised": 2672,
    "elligence": 2673,
    " langu": 2674,
    "ona": 2675,
    " ox": 2676,
    " Sy": 2677,
    "oming": 2678,
    " bur": 2679,
    "iring": 2680,
    " Act": 2681,
    " Lat": 2682,
    "rian": 2683,
    "ago": 2684,
    " Long": 2685,
    " lif": 2686,
    " diss": 2687,
    " neg": 2688,
    " tons": 2689,
    " better": 2690,
    " Att": 2691,
    " Another": 2692,
    "venue": 2693,
    " change": 2694,
    " taking": 2695,
    " remains": 2696,
    " attempted": 2697,
    " increased": 2698,
    " Charles": 2699,
    " western": 2700,
    " casual": 2701,
    " Roman": 2702,
    " prior": 2703,
    " Department": 2704,
    " Doctor": 2705,
    " probably": 2706,
    " investig": 2707,
    " appointed": 2708,
    "bs": 2709,
    "sen": 2710,
    "den": 2711,
    " Sw": 2712,
    " Mil": 2713,
    " fem": 2714,
    " los": 2715,
    " cop": 2716,
    "anta": 2717,
    "town": 2718,
    " names": 2719,
    " polic": 2720,
    " director": 2721,
    " passed": 2722,
    " Carol": 2723,
    " Team": 2724,
    " particularly": 2725,
    " Kershaw": 2726,
    " planned": 2727,
    " Michael": 2728,
    " aw": 2729,
    "wer": 2730,
    " don": 2731,
    " sil": 2732,
    " Don": 2733,
    " Cap": 2734,
    "ills": 2735,
    " Hall": 2736,
    " sequ": 2737,
    " Tour": 2738,
    "erous": 2739,
    " hous": 2740,
    "ounted": 2741,
    "ibr": 2742,
    " office": 2743,
    " Gold": 2744,
    " rail": 2745,
    " defend": 2746,
    " assass": 2747,
    " soon": 2748,
    " Major": 2749,
    " runs": 2750,
    " Charl": 2751,
    " Western": 2752,
    " Young": 2753,
    " minutes": 2754,
    " Early": 2755,
    " quickly": 2756,
    " Beauty": 2757,
    " cemeter": 2758,
    " architect": 2759,
    " material": 2760,
    " econom": 2761,
    "bon": 2762,
    "esh": 2763,
    " mer": 2764,
    " AD": 2765,
    " Red": 2766,
    " Pal": 2767,
    " come": 2768,
    "berg": 2769,
    " Gore": 2770,
    " Kn": 2771,
    "stant": 2772,
    " arg": 2773,
    " mach": 2774,
    " ult": 2775,
    " mostly": 2776,
    " teams": 2777,
    " elements": 2778,
    "ability": 2779,
    " according": 2780,
    " think": 2781,
    " eye": 2782,
    " Second": 2783,
    " counter": 2784,
    "aprang": 2785,
    " Sovi": 2786,
    " morning": 2787,
    " typhoon": 2788,
    " International": 2789,
    "zo": 2790,
    "As": 2791,
    "itz": 2792,
    " di": 2793,
    " hor": 2794,
    "lex": 2795,
    " Sar": 2796,
    " CR": 2797,
    " HM": 2798,
    " told": 2799,
    "inated": 2800,
    " ens": 2801,
    " overall": 2802,
    " nove": 2803,
    "atory": 2804,
    " states": 2805,
    " armor": 2806,
    " brother": 2807,
    " sides": 2808,
    " personal": 2809,
    " France": 2810,
    " schools": 2811,
    " Qu": 2812,
    " toget": 2813,
    " redu": 2814,
    " Distr": 2815,
    " already": 2816,
    " together": 2817,
    " District": 2818,
    " pal": 2819,
    "rog": 2820,
    " Ap": 2821,
    "inent": 2822,
    "ett": 2823,
    " Hit": 2824,
    "ech": 2825,
    " Go": 2826,
    " Dod": 2827,
    "illa": 2828,
    " Int": 2829,
    " shown": 2830,
    " Later": 2831,
    " race": 2832,
    " Rick": 2833,
    " films": 2834,
    " super": 2835,
    " pred": 2836,
    "pedo": 2837,
    " inches": 2838,
    " attacks": 2839,
    " key": 2840,
    " mother": 2841,
    " term": 2842,
    " purch": 2843,
    " wife": 2844,
    " Starr": 2845,
    " Angel": 2846,
    " activities": 2847,
    " figure": 2848,
    " submar": 2849,
    "ynast": 2850,
    "ximately": 2851,
    " discovered": 2852,
    " George": 2853,
    " Carey": 2854,
    "St": 2855,
    " aer": 2856,
    "hing": 2857,
    "cil": 2858,
    " bad": 2859,
    "lam": 2860,
    " Sim": 2861,
    " conv": 2862,
    " La": 2863,
    "imum": 2864,
    "agan": 2865,
    "ify": 2866,
    " Kr": 2867,
    " lab": 2868,
    " Val": 2869,
    "teen": 2870,
    " aband": 2871,
    " adop": 2872,
    " enough": 2873,
    "anced": 2874,
    " Sea": 2875,
    " thick": 2876,
    " weap": 2877,
    " meas": 2878,
    " elect": 2879,
    " minor": 2880,
    " self": 2881,
    " officer": 2882,
[...]
