{
  "vocab_size": 4000,
  "special_tokens": [
    "<pad>",
    "<bos>",
    "<eos>",
    "<unk>"
  ],
  "split_pattern": "[ ]?[a-zA-Z]+|[ ]?[0-9]+|[^ a-zA-Z0-9]+|\\s+",
  "merges": [
    [
      " ",
      "t"
    ],
    [
      "h",
      "e"
    ],
    [
      " ",
      "a"
    ],
    [
      "i",
      "n"
    ],
    [
      " t",
      "he"
    ],
    [
      "e",
      "r"
    ],
    [
      "o",
      "n"
    ],
    [
      " ",
      "s"
    ],
    [
      "e",
      "d"
    ],
    [
      "r",
      "e"
    ],
    [
      " ",
      "w"
    ],
    [
      " ",
      "o"
    ],
    [
      "n",
      "d"
    ],
    [
      "a",
      "t"
    ],
    [
      "o",
      "r"
    ],
    [
      "e",
      "n"
    ],
    [
      "i",
      "t"
    ],
    [
      " ",
      "f"
    ],
    [
      "e",
      "s"
    ],
    [
      " ",
      "c"
    ],
    [
      "a",
      "n"
    ],
    [
      "a",
      "r"
    ],
    [
      " o",
      "f"
    ],
    [
      " ",
      "b"
    ],
    [
      " ",
      "in"
    ],
    [
      "i",
      "s"
    ],
    [
      "a",
      "l"
    ],
    [
      "in",
      "g"
    ],
    [
      "a",
      "s"
    ],
    [
      " ",
      "p"
    ],
    [
      " a",
      "nd"
    ],
    [
      " t",
      "o"
    ],
    [
      "o",
      "u"
    ],
    [
      " ",
      "m"
    ],
    [
      "i",
      "c"
    ],
    [
      " ",
      "d"
    ],
    [
      " ",
      "h"
    ],
    [
      "i",
      "on"
    ],
    [
      "r",
      "o"
    ],
    [
      "l",
      "e"
    ],
    [
      " ",
      "T"
    ],
    [
      "i",
      "l"
    ],
    [
      " ",
      "A"
    ],
    [
      " t",
      "h"
    ],
    [
      " ",
      "S"
    ],
    [
      " ",
      "re"
    ],
    [
      "en",
      "t"
    ],
    [
      "s",
      "t"
    ],
    [
      "a",
      "d"
    ],
    [
      " ",
      "C"
    ],
    [
      " ",
      "l"
    ],
    [
      " ",
      "e"
    ],
    [
      "a",
      "m"
    ],
    [
      "a",
      "c"
    ],
    [
      "o",
      "m"
    ],
    [
      " ",
      "n"
    ],
    [
      "l",
      "y"
    ],
    [
      " w",
      "as"
    ],
    [
      " ",
      "M"
    ],
    [
      "u",
      "r"
    ],
    [
      " ",
      "B"
    ],
    [
      " ",
      "on"
    ],
    [
      " b",
      "e"
    ],
    [
      "i",
      "d"
    ],
    [
      "i",
      "r"
    ],
    [
      "i",
      "g"
    ],
    [
      "v",
      "e"
    ],
    [
      "o",
      "l"
    ],
    [
      "t",
      "er"
    ],
    [
      "i",
      "m"
    ],
    [
      " f",
      "or"
    ],
    [
      " ",
      "g"
    ],
    [
      " T",
      "he"
    ],
    [
      "c",
      "t"
    ],
    [
      "v",
      "er"
    ],
    [
      " ",
      "I"
    ],
    [
      " s",
      "t"
    ],
    [
      "o",
      "t"
    ],
    [
      " ",
      "H"
    ],
    [
      "o",
      "w"
    ],
    [
      " a",
      "s"
    ],
    [
      "e",
      "l"
    ],
    [
      "a",
      "y"
    ],
    [
      "u",
      "s"
    ],
    [
      "u",
      "t"
    ],
    [
      "e",
      "t"
    ],
    [
      "it",
      "h"
    ],
    [
      " ",
      "N"
    ],
    [
      " ",
      "he"
    ],
    [
      "c",
      "e"
    ],
    [
      " ",
      "R"
    ],
    [
      "u",
      "n"
    ],
    [
      "at",
      "ion"
    ],
    [
      "c",
      "h"
    ],
    [
      " w",
      "ith"
    ],
    [
      " ",
      "P"
    ],
    [
      " a",
      "t"
    ],
    [
      " th",
      "at"
    ],
    [
      " ",
      "r"
    ],
    [
      " ",
      "D"
    ],
    [
      "u",
      "l"
    ],
    [
      "e",
      "m"
    ],
    [
      " b",
      "y"
    ],
    [
      " c",
      "on"
    ],
    [
      " a",
      "l"
    ],
    [
      "o",
      "s"
    ],
    [
      "t",
      "h"
    ],
    [
      " ",
      "F"
    ],
    [
      "a",
      "in"
    ],
    [
      " ",
      "L"
    ],
    [
      " w",
      "h"
    ],
    [
      "a",
      "nd"
    ],
    [
      " ",
      "W"
    ],
    [
      " ",
      "J"
    ],
    [
      " d",
      "e"
    ],
    [
      " a",
      "n"
    ],
    [
      " ",
      "is"
    ],
    [
      "ro",
      "m"
    ],
    [
      "r",
      "i"
    ],
    [
      " s",
      "e"
    ],
    [
      " ",
      "G"
    ],
    [
      "g",
      "e"
    ],
    [
      " ",
      "it"
    ],
    [
      "er",
      "s"
    ],
    [
      "er",
      "e"
    ],
    [
      "he",
      "r"
    ],
    [
      "is",
      "t"
    ],
    [
      "es",
      "t"
    ],
    [
      "a",
      "p"
    ],
    [
      "u",
      "m"
    ],
    [
      " w",
      "ere"
    ],
    [
      " f",
      "rom"
    ],
    [
      " c",
      "om"
    ],
    [
      "or",
      "t"
    ],
    [
      " h",
      "is"
    ],
    [
      "at",
      "e"
    ],
    [
      "o",
      "p"
    ],
    [
      "il",
      "l"
    ],
    [
      " ",
      "E"
    ],
    [
      "ig",
      "h"
    ],
    [
      "o",
      "d"
    ],
    [
      "re",
      "s"
    ],
    [
      " ",
      "O"
    ],
    [
      "i",
      "an"
    ],
    [
      "l",
      "d"
    ],
    [
      "i",
      "f"
    ],
    [
      "i",
      "v"
    ],
    [
      "i",
      "p"
    ],
    [
      "b",
      "er"
    ],
    [
      "o",
      "re"
    ],
    [
      "a",
      "k"
    ],
    [
      " ",
      "U"
    ],
    [
      " s",
      "u"
    ],
    [
      "on",
      "g"
    ],
    [
      "al",
      "l"
    ],
    [
      "ic",
      "h"
    ],
    [
      "q",
      "u"
    ],
    [
      "it",
      "y"
    ],
    [
      "e",
      "w"
    ],
    [
      "t",
      "e"
    ],
    [
      " ",
      "K"
    ],
    [
      "at",
      "ed"
    ],
    [
      " p",
      "ro"
    ],
    [
      "p",
      "e"
    ],
    [
      "ar",
      "t"
    ],
    [
      "i",
      "es"
    ],
    [
      "r",
      "a"
    ],
    [
      " p",
      "l"
    ],
    [
      "g",
      "h"
    ],
    [
      "ar",
      "d"
    ],
    [
      " ",
      "v"
    ],
    [
      "o",
      "c"
    ],
    [
      "ac",
      "k"
    ],
    [
      "r",
      "ou"
    ],
    [
      "s",
      "e"
    ],
    [
      "u",
      "st"
    ],
    [
      " h",
      "ad"
    ],
    [
      "an",
      "t"
    ],
    [
      " s",
      "h"
    ],
    [
      "ou",
      "r"
    ],
    [
      "i",
      "ve"
    ],
    [
      "m",
      "ent"
    ],
    [
      " ",
      "k"
    ],
    [
      "c",
      "l"
    ],
    [
      "u",
      "d"
    ],
    [
      "a",
      "b"
    ],
    [
      " o",
      "r"
    ],
    [
      "am",
      "e"
    ],
    [
      " e",
      "x"
    ],
    [
      "as",
      "t"
    ],
    [
      "a",
      "g"
    ],
    [
      "n",
      "t"
    ],
    [
      "es",
      "s"
    ],
    [
      "a",
      "v"
    ],
    [
      " S",
      "t"
    ],
    [
      "i",
      "al"
    ],
    [
      " C",
      "h"
    ],
    [
      "igh",
      "t"
    ],
    [
      " a",
      "re"
    ],
    [
      " I",
      "n"
    ],
    [
      " wh",
      "ich"
    ],
    [
      "o",
      "st"
    ],
    [
      "i",
      "a"
    ],
    [
      " c",
      "h"
    ],
    [
      " ",
      "u"
    ],
    [
      "ar",
      "y"
    ],
    [
      " a",
      "r"
    ],
    [
      " n",
      "ot"
    ],
    [
      "in",
      "e"
    ],
    [
      "p",
      "p"
    ],
    [
      "e",
      "ar"
    ],
    [
      "p",
      "t"
    ],
    [
      " ",
      "un"
    ],
    [
      "ou",
      "t"
    ],
    [
      "ct",
      "ion"
    ],
    [
      "on",
      "d"
    ],
    [
      "r",
      "y"
    ],
    [
      "r",
      "it"
    ],
    [
      " ",
      "y"
    ],
    [
      "o",
      "g"
    ],
    [
      "as",
      "s"
    ],
    [
      " H",
      "e"
    ],
    [
      " ",
      "le"
    ],
    [
      "is",
      "h"
    ],
    [
      "p",
      "er"
    ],
    [
      "id",
      "e"
    ],
    [
      "s",
      "o"
    ],
    [
      "T",
      "he"
    ],
    [
      "f",
      "ter"
    ],
    [
      "ic",
      "al"
    ],
    [
      "a",
      "ve"
    ],
    [
      "w",
      "o"
    ],
    [
      "ig",
      "n"
    ],
    [
      "m",
      "er"
    ],
    [
      " in",
      "t"
    ],
    [
      " ",
      "V"
    ],
    [
      "ir",
      "st"
    ],
    [
      "l",
      "ow"
    ],
    [
      "f",
      "f"
    ],
    [
      "i",
      "e"
    ],
    [
      "r",
      "u"
    ],
    [
      "ou",
      "ld"
    ],
    [
      " con",
      "t"
    ],
    [
      " b",
      "ut"
    ],
    [
      "ou",
      "s"
    ],
    [
      " w",
      "he"
    ],
    [
      " the",
      "ir"
    ],
    [
      "t",
      "her"
    ],
    [
      " it",
      "s"
    ],
    [
      "it",
      "ion"
    ],
    [
      "el",
      "l"
    ],
    [
      "p",
      "l"
    ],
    [
      "or",
      "d"
    ],
    [
      "u",
      "e"
    ],
    [
      " al",
      "so"
    ],
    [
      " a",
      "g"
    ],
    [
      "om",
      "e"
    ],
    [
      "c",
      "c"
    ],
    [
      "u",
      "re"
    ],
    [
      "re",
      "e"
    ],
    [
      "i",
      "re"
    ],
    [
      " f",
      "irst"
    ],
    [
      "or",
      "m"
    ],
    [
      "im",
      "e"
    ],
    [
      "ur",
      "ing"
    ],
    [
      "ow",
      "n"
    ],
    [
      " c",
      "l"
    ],
    [
      "i",
      "k"
    ],
    [
      "or",
      "k"
    ],
    [
      " re",
      "s"
    ],
    [
      "r",
      "al"
    ],
    [
      "ou",
      "nd"
    ],
    [
      "a",
      "ge"
    ],
    [
      " t",
      "wo"
    ],
    [
      "an",
      "s"
    ],
    [
      "o",
      "k"
    ],
    [
      " a",
      "d"
    ],
    [
      " com",
      "p"
    ],
    [
      "he",
      "d"
    ],
    [
      "v",
      "ed"
    ],
    [
      "en",
      "s"
    ],
    [
      "t",
      "ed"
    ],
    [
      " a",
      "b"
    ],
    [
      " p",
      "er"
    ],
    [
      " be",
      "en"
    ],
    [
      " t",
      "r"
    ],
    [
      "an",
      "ce"
    ],
    [
      "at",
      "er"
    ],
    [
      " on",
      "e"
    ],
    [
      "i",
      "le"
    ],
    [
      "i",
      "z"
    ],
    [
      "ac",
      "h"
    ],
    [
      "i",
      "b"
    ],
    [
      " t",
      "e"
    ],
    [
      "at",
      "t"
    ],
    [
      " ",
      "us"
    ],
    [
      " at",
      "t"
    ],
    [
      "n",
      "g"
    ],
    [
      "is",
      "s"
    ],
    [
      "a",
      "w"
    ],
    [
      "o",
      "ver"
    ],
    [
      " s",
      "c"
    ],
    [
      "ou",
      "gh"
    ],
    [
      " h",
      "ave"
    ],
    [
      " of",
      "f"
    ],
    [
      " ",
      "j"
    ],
    [
      " h",
      "as"
    ],
    [
      " ",
      "ro"
    ],
    [
      " p",
      "art"
    ],
    [
      "ou",
      "nt"
    ],
    [
      "ac",
      "e"
    ],
    [
      " o",
      "ver"
    ],
    [
      "r",
      "on"
    ],
    [
      " I",
      "t"
    ],
    [
      " a",
      "fter"
    ],
    [
      "i",
      "ver"
    ],
    [
      " d",
      "es"
    ],
    [
      "cl",
      "ud"
    ],
    [
      "u",
      "b"
    ],
    [
      "en",
      "ce"
    ],
    [
      " ",
      "en"
    ],
    [
      " ",
      "im"
    ],
    [
      "ur",
      "n"
    ],
    [
      " th",
      "is"
    ],
    [
      "al",
      "ly"
    ],
    [
      " be",
      "c"
    ],
    [
      "an",
      "y"
    ],
    [
      " T",
      "h"
    ],
    [
      " o",
      "ut"
    ],
    [
      "ad",
      "e"
    ],
    [
      " A",
      "ust"
    ],
    [
      "n",
      "e"
    ],
    [
      "a",
      "re"
    ],
    [
      "nd",
      "er"
    ],
    [
      " the",
      "y"
    ],
    [
      "or",
      "th"
    ],
    [
      " s",
      "er"
    ],
    [
      "ion",
      "s"
    ],
    [
      "c",
      "es"
    ],
    [
      " int",
      "o"
    ],
    [
      " com",
      "m"
    ],
    [
      " re",
      "c"
    ],
    [
      "res",
      "s"
    ],
    [
      "r",
      "ic"
    ],
    [
      "ation",
      "s"
    ],
    [
      " ",
      "Y"
    ],
    [
      "in",
      "d"
    ],
    [
      "it",
      "e"
    ],
    [
      "w",
      "ard"
    ],
    [
      "t",
      "s"
    ],
    [
      " pl",
      "ay"
    ],
    [
      " wh",
      "o"
    ],
    [
      "l",
      "and"
    ],
    [
      " n",
      "e"
    ],
    [
      "ar",
      "k"
    ],
    [
      " S",
      "e"
    ],
    [
      "l",
      "l"
    ],
    [
      "w",
      "e"
    ],
    [
      "p",
      "h"
    ],
    [
      " in",
      "clud"
    ],
    [
      "p",
      "ort"
    ],
    [
      "ic",
      "e"
    ],
    [
      " y",
      "ear"
    ],
    [
      "rou",
      "gh"
    ],
    [
      "ou",
      "th"
    ],
    [
      " u",
      "p"
    ],
    [
      "i",
      "ed"
    ],
    [
      " t",
      "ime"
    ],
    [
      " e",
      "v"
    ],
    [
      " w",
      "e"
    ],
    [
      " d",
      "is"
    ],
    [
      " U",
      "n"
    ],
    [
      "c",
      "ed"
    ],
    [
      "ul",
      "t"
    ],
    [
      " he",
      "r"
    ],
    [
      "an",
      "g"
    ],
    [
      "ac",
      "t"
    ],
    [
      "a",
      "il"
    ],
    [
      " p",
      "re"
    ],
    [
      " d",
      "uring"
    ],
    [
      " ag",
      "ain"
    ],
    [
      "d",
      "u"
    ],
    [
      "am",
      "p"
    ],
    [
      "os",
      "e"
    ],
    [
      " A",
      "r"
    ],
    [
      "o",
      "ve"
    ],
    [
      " w",
      "ould"
    ],
    [
      " U",
      "S"
    ],
    [
      " f",
      "il"
    ],
    [
      "l",
      "es"
    ],
    [
      "in",
      "es"
    ],
    [
      " h",
      "im"
    ],
    [
      "on",
      "e"
    ],
    [
      " re",
      "m"
    ],
    [
      "it",
      "ed"
    ],
    [
      "g",
      "an"
    ],
    [
      " p",
      "o"
    ],
    [
      "mer",
      "ic"
    ],
    [
      "on",
      "s"
    ],
    [
      "rou",
      "nd"
    ],
    [
      "an",
      "k"
    ],
    [
      "ct",
      "ed"
    ],
    [
      "at",
      "es"
    ],
    [
      "s",
      "s"
    ],
    [
      "u",
      "il"
    ],
    [
      "er",
      "m"
    ],
    [
      " de",
      "f"
    ],
    [
      " R",
      "e"
    ],
    [
      " Aust",
      "ral"
    ],
    [
      "o",
      "y"
    ],
    [
      "h",
      "ip"
    ],
    [
      " o",
      "ther"
    ],
    [
      " in",
      "ter"
    ],
    [
      "or",
      "s"
    ],
    [
      "ve",
      "l"
    ],
    [
      " al",
      "l"
    ],
    [
      "w",
      "ay"
    ],
    [
      "c",
      "k"
    ],
    [
      "er",
      "ed"
    ],
    [
      " e",
      "ar"
    ],
    [
      " C",
      "om"
    ],
    [
      " se",
      "c"
    ],
    [
      "as",
      "ed"
    ],
    [
      " A",
      "meric"
    ],
    [
      "f",
      "t"
    ],
    [
      "is",
      "ion"
    ],
    [
      "n",
      "ing"
    ],
    [
      " m",
      "ore"
    ],
    [
      "in",
      "t"
    ],
    [
      "or",
      "y"
    ],
    [
      "as",
      "e"
    ],
    [
      " s",
      "pe"
    ],
    [
      "ic",
      "k"
    ],
    [
      "ab",
      "le"
    ],
    [
      " D",
      "e"
    ],
    [
      "v",
      "i"
    ],
    [
      "ol",
      "low"
    ],
    [
      " con",
      "s"
    ],
    [
      " w",
      "ork"
    ],
    [
      " re",
      "t"
    ],
    [
      " he",
      "ad"
    ],
    [
      " p",
      "os"
    ],
    [
      "f",
      "orm"
    ],
    [
      " fil",
      "m"
    ],
    [
      "ol",
      "d"
    ],
    [
      " th",
      "ree"
    ],
    [
      " be",
      "t"
    ],
    [
      " on",
      "ly"
    ],
    [
      " the",
      "m"
    ],
    [
      " as",
      "s"
    ],
    [
      " u",
      "nder"
    ],
    [
      "ation",
      "al"
    ],
    [
      "ol",
      "og"
    ],
    [
      " c",
      "ent"
    ],
    [
      "oc",
      "k"
    ],
    [
      "o",
      "od"
    ],
    [
      " B",
      "rit"
    ],
    [
      " f",
      "l"
    ],
    [
      " e",
      "nd"
    ],
    [
      "r",
      "ed"
    ],
    [
      " m",
      "ost"
    ],
    [
      "w",
      "n"
    ],
    [
      " N",
      "ew"
    ],
    [
      " whe",
      "n"
    ],
    [
      " f",
      "e"
    ],
    [
      "at",
      "ing"
    ],
    [
      "ro",
      "p"
    ],
    [
      " s",
      "p"
    ],
    [
      "ent",
      "s"
    ],
    [
      " c",
      "ol"
    ],
    [
      "ter",
      "n"
    ],
    [
      "i",
      "o"
    ],
    [
      "a",
      "us"
    ],
    [
      " n",
      "um"
    ],
    [
      "ot",
      "h"
    ],
    [
      "f",
      "ore"
    ],
    [
      " s",
      "he"
    ],
    [
      " M",
      "ar"
    ],
    [
      " d",
      "ay"
    ],
    [
      " k",
      "n"
    ],
    [
      " th",
      "rough"
    ],
    [
      "e",
      "nd"
    ],
    [
      " f",
      "in"
    ],
    [
      "l",
      "ic"
    ],
    [
      "ak",
      "e"
    ],
    [
      "u",
      "g"
    ],
    [
      "ri",
      "b"
    ],
    [
      " c",
      "ity"
    ],
    [
      "we",
      "en"
    ],
    [
      "re",
      "n"
    ],
    [
      " w",
      "ar"
    ],
    [
      "e",
      "ct"
    ],
    [
      "as",
      "on"
    ],
    [
      " te",
      "am"
    ],
    [
      " su",
      "b"
    ],
    [
      "f",
      "er"
    ],
    [
      " b",
      "uil"
    ],
    [
      "o",
      "b"
    ],
    [
      " S",
      "c"
    ],
    [
      "ter",
      "s"
    ],
    [
      "i",
      "x"
    ],
    [
      "a",
      "id"
    ],
    [
      " ar",
      "m"
    ],
    [
      " in",
      "v"
    ],
    [
      "i",
      "ent"
    ],
    [
      " wh",
      "ile"
    ],
    [
      " L",
      "es"
    ],
    [
      " c",
      "o"
    ],
    [
      " l",
      "ar"
    ],
    [
      " J",
      "ap"
    ],
    [
      " ab",
      "out"
    ],
    [
      " W",
      "ar"
    ],
    [
      "a",
      "j"
    ],
    [
      " f",
      "our"
    ],
    [
      "em",
      "ber"
    ],
    [
      " m",
      "e"
    ],
    [
      " l",
      "ater"
    ],
    [
      " n",
      "ew"
    ],
    [
      " sh",
      "ip"
    ],
    [
      " Jap",
      "an"
    ],
    [
      " ",
      "Z"
    ],
    [
      " whe",
      "re"
    ],
    [
      " su",
      "pp"
    ],
    [
      " p",
      "e"
    ],
    [
      " g",
      "ame"
    ],
    [
      " again",
      "st"
    ],
    [
      "a",
      "z"
    ],
    [
      " f",
      "ollow"
    ],
    [
      "ing",
      "s"
    ],
    [
      "ain",
      "ed"
    ],
    [
      " m",
      "ade"
    ],
    [
      " bet",
      "ween"
    ],
    [
      "m",
      "ber"
    ],
    [
      "y",
      "l"
    ],
    [
      "re",
      "at"
    ],
    [
      " e",
      "m"
    ],
    [
      " O",
      "n"
    ],
    [
      " a",
      "m"
    ],
    [
      "u",
      "al"
    ],
    [
      "ic",
      "t"
    ],
    [
      " h",
      "igh"
    ],
    [
      "over",
      "n"
    ],
    [
      "ro",
      "ss"
    ],
    [
      "er",
      "al"
    ],
    [
      " se",
      "ver"
    ],
    [
      " be",
      "fore"
    ],
    [
      " att",
      "ack"
    ],
    [
      " in",
      "c"
    ],
    [
      " a",
      "pp"
    ],
    [
      " th",
      "an"
    ],
    [
      " Americ",
      "an"
    ],
    [
      "t",
      "he"
    ],
    [
      "he",
      "s"
    ],
    [
      " c",
      "ar"
    ],
    [
      " m",
      "on"
    ],
    [
      "or",
      "ld"
    ],
    [
      "I",
      "n"
    ],
    [
      " s",
      "ome"
    ],
    [
      " num",
      "ber"
    ],
    [
      "es",
      "e"
    ],
    [
      " a",
      "c"
    ],
    [
      " l",
      "oc"
    ],
    [
      " b",
      "o"
    ],
    [
      " M",
      "an"
    ],
    [
      " Brit",
      "ish"
    ],
    [
      " s",
      "ur"
    ],
    [
      " I",
      "nd"
    ],
    [
      " b",
      "att"
    ],
    [
      " a",
      "ct"
    ],
    [
      "av",
      "y"
    ],
    [
      "ik",
      "e"
    ],
    [
      " m",
      "il"
    ],
    [
      " re",
      "g"
    ],
    [
      "ul",
      "l"
    ],
    [
      " Austral",
      "ian"
    ],
    [
      " sec",
      "ond"
    ],
    [
      " cont",
      "in"
    ],
    [
      " for",
      "m"
    ],
    [
      "if",
      "ic"
    ],
    [
      " a",
      "p"
    ],
    [
      " M",
      "ay"
    ],
    [
      " b",
      "ack"
    ],
    [
      " the",
      "re"
    ],
    [
      " m",
      "at"
    ],
    [
      "in",
      "ce"
    ],
    [
      " re",
      "l"
    ],
    [
      " N",
      "er"
    ],
    [
      "at",
      "h"
    ],
    [
      " al",
      "ong"
    ],
    [
      " ch",
      "ar"
    ],
    [
      " s",
      "ong"
    ],
    [
      " be",
      "ing"
    ],
    [
      " g",
      "un"
    ],
    [
      "n",
      "ar"
    ],
    [
      " a",
      "ir"
    ],
    [
      "e",
      "ver"
    ],
    [
      " c",
      "ap"
    ],
    [
      "o",
      "v"
    ],
    [
      " s",
      "o"
    ],
    [
      " A",
      "t"
    ],
    [
      "am",
      "es"
    ],
    [
      " A",
      "s"
    ],
    [
      " k",
      "m"
    ],
    [
      " B",
      "e"
    ],
    [
      " us",
      "ed"
    ],
    [
      " sever",
      "al"
    ],
    [
      " pro",
      "du"
    ],
    [
      "vel",
      "op"
    ],
    [
      " se",
      "ason"
    ],
    [
      " ",
      "ent"
    ],
    [
      " ",
      "ver"
    ],
    [
      " C",
      "ol"
    ],
    [
      "un",
      "e"
    ],
    [
      "an",
      "n"
    ],
    [
      " A",
      "l"
    ],
    [
      "a",
      "ir"
    ],
    [
      "u",
      "ch"
    ],
    [
      "i",
      "er"
    ],
    [
      "k",
      "e"
    ],
    [
      "a",
      "u"
    ],
    [
      "i",
      "el"
    ],
    [
      " des",
      "ign"
    ],
    [
      " G",
      "erm"
    ],
    [
      " ",
      "qu"
    ],
    [
      " N",
      "orth"
    ],
    [
      "it",
      "s"
    ],
    [
      " a",
      "cc"
    ],
    [
      "e",
      "k"
    ],
    [
      "ur",
      "y"
    ],
    [
      " m",
      "et"
    ],
    [
      "rou",
      "p"
    ],
    [
      "d",
      "er"
    ],
    [
      " p",
      "r"
    ],
    [
      "os",
      "p"
    ],
    [
      "ou",
      "n"
    ],
    [
      " g",
      "overn"
    ],
    [
      "ow",
      "er"
    ],
    [
      " Un",
      "ited"
    ],
    [
      "r",
      "am"
    ],
    [
      "ac",
      "ed"
    ],
    [
      "ot",
      "her"
    ],
    [
      " o",
      "per"
    ],
    [
      " S",
      "h"
    ],
    [
      " m",
      "ill"
    ],
    [
      "v",
      "en"
    ],
    [
      " bec",
      "ame"
    ],
    [
      "it",
      "t"
    ],
    [
      "em",
      "b"
    ],
    [
      " spe",
      "c"
    ],
    [
      "ip",
      "p"
    ],
    [
      "t",
      "on"
    ],
    [
      "an",
      "e"
    ],
    [
      "al",
      "s"
    ],
    [
      "is",
      "hed"
    ],
    [
      "ur",
      "ch"
    ],
    [
      " de",
      "c"
    ],
    [
      " re",
      "p"
    ],
    [
      "at",
      "ive"
    ],
    [
      " in",
      "d"
    ],
    [
      "is",
      "ed"
    ],
    [
      " n",
      "o"
    ],
    [
      " includ",
      "ing"
    ],
    [
      " be",
      "gan"
    ],
    [
      " b",
      "oth"
    ],
    [
      "u",
      "ed"
    ],
    [
      " L",
      "e"
    ],
    [
      " ap",
      "pe"
    ],
    [
      "m",
      "an"
    ],
    [
      " S",
      "p"
    ],
    [
      "ow",
      "ever"
    ],
    [
      " b",
      "l"
    ],
    [
      " C",
      "l"
    ],
    [
      "os",
      "s"
    ],
    [
      " m",
      "ain"
    ],
    [
      " ad",
      "d"
    ],
    [
      " the",
      "n"
    ],
    [
      " f",
      "ound"
    ],
    [
      " rec",
      "ord"
    ],
    [
      " Se",
      "pt"
    ],
    [
      "iv",
      "ision"
    ],
    [
      " s",
      "m"
    ],
    [
      "i",
      "ous"
    ],
    [
      "all",
      "ed"
    ],
    [
      " Com",
      "m"
    ],
    [
      " A",
      "n"
    ],
    [
      " ret",
      "urn"
    ],
    [
      "in",
      "ed"
    ],
    [
      " re",
      "le"
    ],
    [
      "iv",
      "ed"
    ],
    [
      " de",
      "velop"
    ],
    [
      "er",
      "n"
    ],
    [
      " per",
      "form"
    ],
    [
      " Les",
      "nar"
    ],
    [
      "id",
      "ent"
    ],
    [
      "ou",
      "te"
    ],
    [
      "th",
      "ough"
    ],
    [
      " w",
      "ell"
    ],
    [
      " b",
      "r"
    ],
    [
      "x",
      "t"
    ],
    [
      "a",
      "h"
    ],
    [
      " d",
      "id"
    ],
    [
      "ul",
      "ar"
    ],
    [
      "f",
      "ul"
    ],
    [
      "p",
      "en"
    ],
    [
      " l",
      "and"
    ],
    [
      " Th",
      "is"
    ],
    [
      "et",
      "s"
    ],
    [
      " Sept",
      "ember"
    ],
    [
      " ",
      "est"
    ],
    [
      " c",
      "ould"
    ],
    [
      " d",
      "ire"
    ],
    [
      "rop",
      "ical"
    ],
    [
      "s",
      "on"
    ],
    [
      " in",
      "f"
    ],
    [
      " tr",
      "ans"
    ],
    [
      " p",
      "ub"
    ],
    [
      " n",
      "orth"
    ],
    [
      " c",
      "re"
    ],
    [
      "ir",
      "on"
    ],
    [
      " comp",
      "le"
    ],
    [
      " kn",
      "own"
    ],
    [
      " de",
      "p"
    ],
    [
      " im",
      "p"
    ],
    [
      " s",
      "y"
    ],
    [
      "u",
      "res"
    ],
    [
      " year",
      "s"
    ],
    [
      " m",
      "an"
    ],
    [
      "ment",
      "s"
    ],
    [
      " e",
      "le"
    ],
    [
      "an",
      "ge"
    ],
    [
      " A",
      "ug"
    ],
    [
      " ar",
      "t"
    ],
    [
      " Japan",
      "ese"
    ],
    [
      " S",
      "he"
    ],
    [
      " R",
      "o"
    ],
    [
      " the",
      "se"
    ],
    [
      " s",
      "ign"
    ],
    [
      " Aug",
      "ust"
    ],
    [
      "ur",
      "ed"
    ],
    [
      " B",
      "l"
    ],
    [
      "ig",
      "in"
    ],
    [
      "iver",
      "s"
    ],
    [
      " ear",
      "ly"
    ],
    [
      " g",
      "en"
    ],
    [
      " st",
      "r"
    ],
    [
      "el",
      "f"
    ],
    [
      " p",
      "ol"
    ],
    [
      "an",
      "c"
    ],
    [
      "ar",
      "ed"
    ],
    [
      "is",
      "e"
    ],
    [
      " l",
      "ong"
    ],
    [
      "er",
      "t"
    ],
    [
      " su",
      "ch"
    ],
    [
      "ic",
      "s"
    ],
    [
      " re",
      "ce"
    ],
    [
      "ist",
      "s"
    ],
    [
      " S",
      "te"
    ],
    [
      "t",
      "en"
    ],
    [
      " e",
      "p"
    ],
    [
      "id",
      "ge"
    ],
    [
      " lar",
      "ge"
    ],
    [
      " un",
      "t"
    ],
    [
      "st",
      "ru"
    ],
    [
      " J",
      "une"
    ],
    [
      "aj",
      "or"
    ],
    [
      " b",
      "ro"
    ],
    [
      " Ner",
      "o"
    ],
    [
      "e",
      "b"
    ],
    [
      " st",
      "art"
    ],
    [
      " n",
      "ear"
    ],
    [
      " off",
      "ic"
    ],
    [
      " a",
      "round"
    ],
    [
      " g",
      "roup"
    ],
    [
      " p",
      "res"
    ],
    [
      " S",
      "outh"
    ],
    [
      "il",
      "y"
    ],
    [
      " d",
      "o"
    ],
    [
      " s",
      "et"
    ],
    [
      " t",
      "em"
    ],
    [
      " p",
      "op"
    ],
    [
      " m",
      "any"
    ],
    [
      "aus",
      "e"
    ],
    [
      " B",
      "r"
    ],
    [
      " an",
      "y"
    ],
    [
      " s",
      "aid"
    ],
    [
      "iel",
      "d"
    ],
    [
      "o",
      "h"
    ],
    [
      "il",
      "a"
    ],
    [
      "ian",
      "s"
    ],
    [
      "at",
      "s"
    ],
    [
      " l",
      "ike"
    ],
    [
      " w",
      "rit"
    ],
    [
      " p",
      "ass"
    ],
    [
      "iz",
      "ed"
    ],
    [
      " B",
      "att"
    ],
    [
      " unt",
      "il"
    ],
    [
      " o",
      "b"
    ],
    [
      "olog",
      "y"
    ],
    [
      "l",
      "er"
    ],
    [
      "p",
      "le"
    ],
    [
      "op",
      "s"
    ],
    [
      " are",
      "a"
    ],
    [
      "s",
      "ide"
    ],
    [
      " ser",
      "ies"
    ],
    [
      " pos",
      "ition"
    ],
    [
      "e",
      "c"
    ],
    [
      "h",
      "il"
    ],
    [
      " d",
      "own"
    ],
    [
      "o",
      "ok"
    ],
    [
      " s",
      "outh"
    ],
    [
      "o",
      "on"
    ],
    [
      "ct",
      "or"
    ],
    [
      "ak",
      "ing"
    ],
    [
      " sm",
      "all"
    ],
    [
      "l",
      "ed"
    ],
    [
      "ar",
      "s"
    ],
    [
      "al",
      "e"
    ],
    [
      "id",
      "ed"
    ],
    [
      "it",
      "ies"
    ],
    [
      " comm",
      "and"
    ],
    [
      " Sc",
      "ient"
    ],
    [
      " supp",
      "ort"
    ],
    [
      "her",
      "n"
    ],
    [
      " for",
      "ces"
    ],
    [
      " s",
      "ing"
    ],
    [
      " m",
      "us"
    ],
    [
      " J",
      "u"
    ],
    [
      " sh",
      "ow"
    ],
    [
      "or",
      "n"
    ],
    [
      " h",
      "ist"
    ],
    [
      " le",
      "ad"
    ],
    [
      "iss",
      "ion"
    ],
    [
      " m",
      "in"
    ],
    [
      " J",
      "an"
    ],
    [
      "at",
      "her"
    ],
    [
      "o",
      "ol"
    ],
    [
      "ain",
      "s"
    ],
    [
      "cc",
      "ess"
    ],
    [
      " ",
      "iron"
    ],
    [
      "o",
      "ved"
    ],
    [
      "in",
      "a"
    ],
    [
      "t",
      "ing"
    ],
    [
      " p",
      "ers"
    ],
    [
      "u",
      "ary"
    ],
    [
      " to",
      "ok"
    ],
    [
      " s",
      "ix"
    ],
    [
      " o",
      "pen"
    ],
    [
      "e",
      "p"
    ],
    [
      "a",
      "x"
    ],
    [
      " r",
      "un"
    ],
    [
      " con",
      "c"
    ],
    [
      " st",
      "ate"
    ],
    [
      " A",
      "fter"
    ],
    [
      "ib",
      "le"
    ],
    [
      "he",
      "n"
    ],
    [
      " fe",
      "at"
    ],
    [
      "p",
      "ed"
    ],
    [
      " g",
      "u"
    ],
    [
      " O",
      "ct"
    ],
    [
      "if",
      "f"
    ],
    [
      "b",
      "all"
    ],
    [
      " w",
      "ind"
    ],
    [
      "v",
      "es"
    ],
    [
      "od",
      "e"
    ],
    [
      "qu",
      "ad"
    ],
    [
      " mat",
      "ch"
    ],
    [
      " E",
      "d"
    ],
    [
      "te",
      "nd"
    ],
    [
      " ad",
      "v"
    ],
    [
      "if",
      "ied"
    ],
    [
      " dis",
      "c"
    ],
    [
      " or",
      "igin"
    ],
    [
      " w",
      "in"
    ],
    [
      "b",
      "um"
    ],
    [
      "ial",
      "ly"
    ],
    [
      " follow",
      "ing"
    ],
    [
      "b",
      "y"
    ],
    [
      "u",
      "ally"
    ],
    [
      " t",
      "ro"
    ],
    [
      " k",
      "ill"
    ],
    [
      " buil",
      "t"
    ],
    [
      " char",
      "ac"
    ],
    [
      " c",
      "alled"
    ],
    [
      " Jan",
      "uary"
    ],
    [
      " C",
      "on"
    ],
    [
      "un",
      "g"
    ],
    [
      " A",
      "ng"
    ],
    [
      "op",
      "le"
    ],
    [
      " pro",
      "v"
    ],
    [
      " W",
      "orld"
    ],
    [
      " ep",
      "is"
    ],
    [
      "os",
      "ed"
    ],
    [
      "iv",
      "es"
    ],
    [
      "ain",
      "ing"
    ],
    [
      "if",
      "e"
    ],
    [
      " e",
      "ff"
    ],
    [
      "ren",
      "ch"
    ],
    [
      "p",
      "r"
    ],
    [
      "ir",
      "ed"
    ],
    [
      "r",
      "ap"
    ],
    [
      "am",
      "ed"
    ],
    [
      " c",
      "rit"
    ],
    [
      "j",
      "ect"
    ],
    [
      " d",
      "ist"
    ],
    [
      " A",
      "ll"
    ],
    [
      "vi",
      "ew"
    ],
    [
      "o",
      "ot"
    ],
    [
      "o",
      "ber"
    ],
    [
      "as",
      "k"
    ],
    [
      " C",
      "ar"
    ],
    [
      "em",
      "pt"
    ],
    [
      " s",
      "ince"
    ],
    [
      "ant",
      "ry"
    ],
    [
      " govern",
      "ment"
    ],
    [
      " F",
      "rench"
    ],
    [
      " F",
      "or"
    ],
    [
      "ate",
      "ly"
    ],
    [
      " Ar",
      "m"
    ],
    [
      "ro",
      "w"
    ],
    [
      " g",
      "o"
    ],
    [
      " p",
      "rom"
    ],
    [
      " w",
      "est"
    ],
    [
      " K",
      "ore"
    ],
    [
      "ur",
      "ther"
    ],
    [
      " Man",
      "ila"
    ],
    [
      "is",
      "m"
    ],
    [
      " in",
      "st"
    ],
    [
      " Ju",
      "ly"
    ],
    [
      " play",
      "ed"
    ],
    [
      " Oct",
      "ober"
    ],
    [
      " W",
      "h"
    ],
    [
      "it",
      "ary"
    ],
    [
      " N",
      "ove"
    ],
    [
      "i",
      "us"
    ],
    [
      " m",
      "od"
    ],
    [
      " G",
      "u"
    ],
    [
      " p",
      "ort"
    ],
    [
      "ir",
      "d"
    ],
    [
      " st",
      "re"
    ],
    [
      "our",
      "t"
    ],
    [
      " m",
      "en"
    ],
    [
      "ough",
      "t"
    ],
    [
      " t",
      "urn"
    ],
    [
      " Germ",
      "an"
    ],
    [
      "ch",
      "ool"
    ],
    [
      " su",
      "ccess"
    ],
    [
      "u",
      "es"
    ],
    [
      "as",
      "h"
    ],
    [
      " G",
      "en"
    ],
    [
      " re",
      "port"
    ],
    [
      " Nove",
      "mber"
    ],
    [
      "u",
      "p"
    ],
    [
      "oc",
      "i"
    ],
    [
      " st",
      "orm"
    ],
    [
      " us",
      "e"
    ],
    [
      "ward",
      "s"
    ],
    [
      "c",
      "rib"
    ],
    [
      " al",
      "bum"
    ],
    [
      "ar",
      "r"
    ],
    [
      " I",
      "m"
    ],
    [
      "us",
      "s"
    ],
    [
      " includ",
      "ed"
    ],
    [
      " t",
      "ri"
    ],
    [
      " c",
      "ount"
    ],
    [
      " pl",
      "ace"
    ],
    [
      " P",
      "hil"
    ],
    [
      "quad",
      "ron"
    ],
    [
      "d",
      "ing"
    ],
    [
      "st",
      "em"
    ],
    [
      "ond",
      "yl"
    ],
    [
      "in",
      "s"
    ],
    [
      "er",
      "y"
    ],
    [
      "er",
      "v"
    ],
    [
      "al",
      "k"
    ],
    [
      " m",
      "ay"
    ],
    [
      " t",
      "ra"
    ],
    [
      " o",
      "cc"
    ],
    [
      "ad",
      "s"
    ],
    [
      " d",
      "am"
    ],
    [
      " I",
      "s"
    ],
    [
      "ay",
      "s"
    ],
    [
      "ar",
      "ch"
    ],
    [
      " y",
      "ou"
    ],
    [
      " e",
      "ach"
    ],
    [
      "ra",
      "ft"
    ],
    [
      " N",
      "ational"
    ],
    [
      " tro",
      "ops"
    ],
    [
      " M",
      "e"
    ],
    [
      "em",
      "ent"
    ],
    [
      " cl",
      "ass"
    ],
    [
      "vi",
      "ous"
    ],
    [
      " cons",
      "id"
    ],
    [
      "oh",
      "n"
    ],
    [
      " epis",
      "ode"
    ],
    [
      "on",
      "n"
    ],
    [
      "or",
      "ed"
    ],
    [
      " st",
      "ru"
    ],
    [
      " d",
      "ue"
    ],
    [
      " St",
      "ates"
    ],
    [
      " ship",
      "s"
    ],
    [
      " D",
      "ivision"
    ],
    [
      "al",
      "ion"
    ],
    [
      " f",
      "ive"
    ],
    [
      " ex",
      "t"
    ],
    [
      "av",
      "ing"
    ],
    [
      "osp",
      "ondyl"
    ],
    [
      " ",
      "i"
    ],
    [
      "t",
      "y"
    ],
    [
      " The",
      "y"
    ],
    [
      " F",
      "r"
    ],
    [
      " f",
      "ire"
    ],
    [
      " R",
      "iver"
    ],
    [
      " mill",
      "ion"
    ],
    [
      " t",
      "y"
    ],
    [
      "on",
      "es"
    ],
    [
      " re",
      "f"
    ],
    [
      " g",
      "r"
    ],
    [
      "g",
      "est"
    ],
    [
      "e",
      "y"
    ],
    [
      " e",
      "ast"
    ],
    [
      " res",
      "p"
    ],
    [
      " o",
      "wn"
    ],
    [
      " Ch",
      "urch"
    ],
    [
      " att",
      "empt"
    ],
    [
      "im",
      "es"
    ],
    [
      " an",
      "n"
    ],
    [
      " s",
      "ame"
    ],
    [
      " m",
      "ajor"
    ],
    [
      " T",
      "e"
    ],
    [
      "id",
      "es"
    ],
    [
      " N",
      "o"
    ],
    [
      " d",
      "est"
    ],
    [
      " re",
      "pl"
    ],
    [
      "ron",
      "t"
    ],
    [
      " bec",
      "ause"
    ],
    [
      "b",
      "le"
    ],
    [
      "ent",
      "ly"
    ],
    [
      " n",
      "ort"
    ],
    [
      " st",
      "ud"
    ],
    [
      " c",
      "r"
    ],
    [
      " contin",
      "ued"
    ],
    [
      " M",
      "c"
    ],
    [
      "ur",
      "re"
    ],
    [
      " con",
      "f"
    ],
    [
      " re",
      "qu"
    ],
    [
      "on",
      "t"
    ],
    [
      " c",
      "an"
    ],
    [
      "h",
      "am"
    ],
    [
      "a",
      "ut"
    ],
    [
      " l",
      "ine"
    ],
    [
      " t",
      "ropical"
    ],
    [
      " M",
      "er"
    ],
    [
      " he",
      "ld"
    ],
    [
      " def",
      "e"
    ],
    [
      " we",
      "ek"
    ],
    [
      "a",
      "i"
    ],
    [
      "v",
      "ent"
    ],
    [
      "ul",
      "u"
    ],
    [
      "il",
      "ity"
    ],
    [
      " s",
      "ide"
    ],
    [
      " app",
      "ro"
    ],
    [
      " ne",
      "xt"
    ],
    [
      " rece",
      "ived"
    ],
    [
      " pe",
      "ople"
    ],
    [
      "re",
      "st"
    ],
    [
      "y",
      "cl"
    ],
    [
      " ex",
      "p"
    ],
    [
      " s",
      "old"
    ],
    [
      " cent",
      "ury"
    ],
    [
      " ",
      "ed"
    ],
    [
      "ction",
      "s"
    ],
    [
      "g",
      "ed"
    ],
    [
      "u",
      "ro"
    ],
    [
      " A",
      "d"
    ],
    [
      " be",
      "l"
    ],
    [
      " en",
      "g"
    ],
    [
      " Austral",
      "ia"
    ],
    [
      " gun",
      "s"
    ],
    [
      " rele",
      "ased"
    ],
    [
      " J",
      "ohn"
    ],
    [
      "ion",
      "al"
    ],
    [
      " v",
      "ar"
    ],
    [
      " part",
      "ic"
    ],
    [
      "int",
      "ulu"
    ],
    [
      " h",
      "al"
    ],
    [
      " st",
      "e"
    ],
    [
      " n",
      "ow"
    ],
    [
      " p",
      "ost"
    ],
    [
      " cont",
      "ro"
    ],
    [
      " or",
      "gan"
    ],
    [
      " De",
      "ce"
    ],
    [
      "emb",
      "ers"
    ],
    [
      " des",
      "crib"
    ],
    [
      " A",
      "m"
    ],
    [
      " l",
      "ed"
    ],
    [
      "el",
      "s"
    ],
    [
      "id",
      "ian"
    ],
    [
      "ac",
      "hed"
    ],
    [
      "u",
      "nd"
    ],
    [
      " e",
      "ver"
    ],
    [
      " v",
      "i"
    ],
    [
      " pub",
      "lic"
    ],
    [
      " f",
      "urther"
    ],
    [
      "ro",
      "y"
    ],
    [
      " j",
      "ust"
    ],
    [
      "am",
      "b"
    ],
    [
      " for",
      "ce"
    ],
    [
      " for",
      "mer"
    ],
    [
      " inv",
      "ol"
    ],
    [
      " c",
      "ross"
    ],
    [
      " Scient",
      "ology"
    ],
    [
      " mil",
      "itary"
    ],
    [
      "ak",
      "en"
    ],
    [
      "itt",
      "le"
    ],
    [
      " al",
      "though"
    ],
    [
      "ber",
      "t"
    ],
    [
      "ord",
      "ing"
    ],
    [
      " B",
      "intulu"
    ],
    [
      "is",
      "on"
    ],
    [
      " to",
      "p"
    ],
    [
      " re",
      "st"
    ],
    [
      " P",
      "l"
    ],
    [
      "ou",
      "se"
    ],
    [
      " ser",
      "v"
    ],
    [
      " m",
      "uch"
    ],
    [
      " mus",
      "ic"
    ],
    [
      " A",
      "pr"
    ],
    [
      " in",
      "s"
    ],
    [
      "ist",
      "ed"
    ],
    [
      " al",
      "low"
    ],
    [
      " j",
      "o"
    ],
    [
      " le",
      "ft"
    ],
    [
      " pre",
      "vious"
    ],
    [
      "il",
      "d"
    ],
    [
      " b",
      "and"
    ],
    [
      " l",
      "ate"
    ],
    [
      "iv",
      "ing"
    ],
    [
      " c",
      "ame"
    ],
    [
      "c",
      "hed"
    ],
    [
      " Dece",
      "mber"
    ],
    [
      " Apr",
      "il"
    ],
    [
      "en",
      "e"
    ],
    [
      "it",
      "al"
    ],
    [
      "im",
      "ent"
    ],
    [
      " with",
      "in"
    ],
    [
      " or",
      "d"
    ],
    [
      "ce",
      "pt"
    ],
    [
      " tr",
      "ack"
    ],
    [
      " sing",
      "le"
    ],
    [
      " n",
      "amed"
    ],
    [
      "m",
      "ed"
    ],
    [
      " w",
      "on"
    ],
    [
      "en",
      "n"
    ],
    [
      "en",
      "c"
    ],
    [
      "l",
      "ing"
    ],
    [
      " wh",
      "at"
    ],
    [
      "l",
      "ished"
    ],
    [
      " R",
      "oute"
    ],
    [
      " Phil",
      "ipp"
    ],
    [
      " s",
      "ent"
    ],
    [
      " f",
      "am"
    ],
    [
      "a",
      "im"
    ],
    [
      "ard",
      "s"
    ],
    [
      "n",
      "ess"
    ],
    [
      "ical",
      "ly"
    ],
    [
      " an",
      "other"
    ],
    [
      " H",
      "owever"
    ],
    [
      " iron",
      "cl"
    ],
    [
      "i",
      "am"
    ],
    [
      " l",
      "ast"
    ],
    [
      "av",
      "al"
    ],
    [
      " charac",
      "ter"
    ],
    [
      "O",
      "n"
    ],
    [
      "in",
      "k"
    ],
    [
      " s",
      "im"
    ],
    [
      "ut",
      "e"
    ],
    [
      "ul",
      "ation"
    ],
    [
      "um",
      "ent"
    ],
    [
      " M",
      "ich"
    ],
    [
      "s",
      "hip"
    ],
    [
      " fin",
      "al"
    ],
    [
      " cap",
      "t"
    ],
    [
      "t",
      "o"
    ],
    [
      "a",
      "e"
    ],
    [
      "n",
      "er"
    ],
    [
      " f",
      "t"
    ],
    [
      " B",
      "ut"
    ],
    [
      " th",
      "ird"
    ],
    [
      " s",
      "l"
    ],
    [
      "i",
      "or"
    ],
    [
      " m",
      "id"
    ],
    [
      "pe",
      "ct"
    ],
    [
      " Y",
      "ork"
    ],
    [
      " t",
      "ank"
    ],
    [
      " Mar",
      "ch"
    ],
    [
      " inc",
      "re"
    ],
    [
      "ivers",
      "ity"
    ],
    [
      "o",
      "f"
    ],
    [
      "h",
      "y"
    ],
    [
      "le",
      "y"
    ],
    [
      "et",
      "r"
    ],
    [
      "om",
      "et"
    ],
    [
      "ant",
      "s"
    ],
    [
      "ik",
      "al"
    ],
    [
      "pl",
      "oy"
    ],
    [
      " m",
      "embers"
    ],
    [
      " ",
      "Q"
    ],
    [
      "at",
      "ter"
    ],
    [
      " c",
      "are"
    ],
    [
      " ev",
      "en"
    ],
    [
      "m",
      "e"
    ],
    [
      "re",
      "w"
    ],
    [
      "r",
      "ist"
    ],
    [
      " ro",
      "le"
    ],
    [
      " b",
      "ased"
    ],
    [
      " pos",
      "s"
    ],
    [
      " de",
      "ath"
    ],
    [
      " d",
      "el"
    ],
    [
      "ut",
      "ion"
    ],
    [
      " o",
      "ld"
    ],
    [
      "se",
      "qu"
    ],
    [
      " ev",
      "ent"
    ],
    [
      " Com",
      "p"
    ],
    [
      "n",
      "ospondyl"
    ],
    [
      "p",
      "s"
    ],
    [
      " be",
      "g"
    ],
    [
      " w",
      "ay"
    ],
    [
      "a",
      "ul"
    ],
    [
      " f",
      "ew"
    ],
    [
      " n",
      "ame"
    ],
    [
      " sy",
      "stem"
    ],
    [
      "om",
      "in"
    ],
    [
      "ur",
      "al"
    ],
    [
      " h",
      "ome"
    ],
    [
      " mon",
      "th"
    ],
    [
      " p",
      "ower"
    ],
    [
      " Mer",
      "idian"
    ],
    [
      " S",
      "u"
    ],
    [
      " R",
      "ich"
    ],
    [
      "eb",
      "ru"
    ],
    [
      " T",
      "ikal"
    ],
    [
      " st",
      "ill"
    ],
    [
      "i",
      "od"
    ],
    [
      " E",
      "ng"
    ],
    [
      " con",
      "stru"
    ],
    [
      " Arm",
      "y"
    ],
    [
      "e",
      "ter"
    ],
    [
      " P",
      "ro"
    ],
    [
      " g",
      "ames"
    ],
    [
      " str",
      "ong"
    ],
    [
      "at",
      "ic"
    ],
    [
      " h",
      "and"
    ],
    [
      " W",
      "ill"
    ],
    [
      " St",
      "ate"
    ],
    [
      " f",
      "ight"
    ],
    [
      "amp",
      "ions"
    ],
    [
      " t",
      "erm"
    ],
    [
      " batt",
      "le"
    ],
    [
      " c",
      "ycl"
    ],
    [
      " F",
      "ebru"
    ],
    [
      "m",
      "p"
    ],
    [
      "re",
      "ad"
    ],
    [
      " C",
      "o"
    ],
    [
      " I",
      "I"
    ],
    [
      " M",
      "us"
    ],
    [
      "ut",
      "ed"
    ],
    [
      " c",
      "over"
    ],
    [
      " m",
      "ove"
    ],
    [
      " he",
      "avy"
    ],
    [
      " m",
      "oved"
    ],
    [
      " kill",
      "ed"
    ],
    [
      " hal",
      "f"
    ],
    [
      " p",
      "at"
    ],
    [
      "pe",
      "nd"
    ],
    [
      "ag",
      "ed"
    ],
    [
      " ar",
      "ri"
    ],
    [
      " s",
      "out"
    ],
    [
      "v",
      "ens"
    ],
    [
      " Re",
      "g"
    ],
    [
      " Ro",
      "ad"
    ],
    [
      "al",
      "es"
    ],
    [
      " a",
      "ut"
    ],
    [
      "em",
      "or"
    ],
    [
      " C",
      "ity"
    ],
    [
      " l",
      "ight"
    ],
    [
      " In",
      "f"
    ],
    [
      "iz",
      "ation"
    ],
    [
      "ress",
      "ion"
    ],
    [
      "s",
      "h"
    ],
    [
      " com",
      "b"
    ],
    [
      " St",
      "re"
    ],
    [
      " C",
      "ount"
    ],
    [
      "ne",
      "y"
    ],
    [
      " day",
      "s"
    ],
    [
      "iv",
      "il"
    ],
    [
      "p",
      "ite"
    ],
    [
      "p",
      "or"
    ],
    [
      " f",
      "r"
    ],
    [
      " A",
      "ir"
    ],
    [
      " pro",
      "g"
    ],
    [
      "en",
      "se"
    ],
    [
      " res",
      "ult"
    ],
    [
      " c",
      "aus"
    ],
    [
      "il",
      "le"
    ],
    [
      " ",
      "if"
    ],
    [
      "ak",
      "es"
    ],
    [
      " sh",
      "ot"
    ],
    [
      "b",
      "ass"
    ],
    [
      " car",
      "ri"
    ],
    [
      " f",
      "ront"
    ],
    [
      " Febru",
      "ary"
    ],
    [
      "is",
      "c"
    ],
    [
      " A",
      "f"
    ],
    [
      "ens",
      "ive"
    ],
    [
      " ro",
      "ad"
    ],
    [
      " s",
      "chool"
    ],
    [
      " Gen",
      "eral"
    ],
    [
      " dest",
      "roy"
    ],
    [
      "er",
      "r"
    ],
    [
      "ot",
      "t"
    ],
    [
      " r",
      "ed"
    ],
    [
      " l",
      "ost"
    ],
    [
      "ide",
      "o"
    ],
    [
      " ex",
      "pl"
    ],
    [
      " m",
      "ake"
    ],
    [
      " add",
      "ition"
    ],
    [
      "ampions",
      "hip"
    ],
    [
      "g",
      "er"
    ],
    [
      " p",
      "it"
    ],
    [
      " to",
      "t"
    ],
    [
      " B",
      "ur"
    ],
    [
      "el",
      "t"
    ],
    [
      "us",
      "ed"
    ],
    [
      " d",
      "em"
    ],
    [
      "c",
      "ess"
    ],
    [
      " c",
      "amp"
    ],
    [
      "oy",
      "al"
    ],
    [
      "re",
      "g"
    ],
    [
      " sh",
      "ort"
    ],
    [
      " n",
      "ight"
    ],
    [
      " met",
      "res"
    ],
    [
      " est",
      "ab"
    ],
    [
      "n",
      "ed"
    ],
    [
      " m",
      "i"
    ],
    [
      " S",
      "an"
    ],
    [
      " C",
      "ent"
    ],
    [
      " e",
      "qu"
    ],
    [
      "he",
      "ast"
    ],
    [
      " col",
      "le"
    ],
    [
      "c",
      "hes"
    ],
    [
      "s",
      "elf"
    ],
    [
      "o",
      "x"
    ],
    [
      " s",
      "k"
    ],
    [
      " m",
      "m"
    ],
    [
      " B",
      "y"
    ],
    [
      " The",
      "re"
    ],
    [
      "qu",
      "e"
    ],
    [
      "tend",
      "ed"
    ],
    [
      " l",
      "ife"
    ],
    [
      "l",
      "s"
    ],
    [
      " p",
      "ar"
    ],
    [
      "al",
      "th"
    ],
    [
      " p",
      "ri"
    ],
    [
      "i",
      "ers"
    ],
    [
      " m",
      "ount"
    ],
    [
      "an",
      "ces"
    ],
    [
      " per",
      "iod"
    ],
    [
      " Inf",
      "antry"
    ],
    [
      "a",
      "ur"
    ],
    [
      "ur",
      "g"
    ],
    [
      " N",
      "Y"
    ],
    [
      "od",
      "y"
    ],
    [
      " su",
      "ff"
    ],
    [
      " loc",
      "ated"
    ],
    [
      " t",
      "it"
    ],
    [
      " b",
      "ar"
    ],
    [
      " J",
      "ack"
    ],
    [
      "ag",
      "es"
    ],
    [
      "l",
      "ish"
    ],
    [
      " m",
      "ark"
    ],
    [
      " loc",
      "al"
    ],
    [
      "c",
      "raft"
    ],
    [
      " bel",
      "ie"
    ],
    [
      " Un",
      "iversity"
    ],
    [
      " m",
      "ar"
    ],
    [
      "el",
      "a"
    ],
    [
      " R",
      "A"
    ],
    [
      "ag",
      "ue"
    ],
    [
      " w",
      "orld"
    ],
    [
      " mil",
      "es"
    ],
    [
      " cl",
      "aim"
    ],
    [
      "re",
      "en"
    ],
    [
      " be",
      "h"
    ],
    [
      "h",
      "od"
    ],
    [
      " to",
      "wn"
    ],
    [
      " un",
      "its"
    ],
    [
      "l",
      "u"
    ],
    [
      "iv",
      "en"
    ],
    [
      " The",
      "se"
    ],
    [
      "er",
      "ry"
    ],
    [
      "h",
      "aw"
    ],
    [
      "au",
      "gh"
    ],
    [
      " or",
      "der"
    ],
    [
      " appe",
      "ar"
    ],
    [
      " ",
      "nd"
    ],
    [
      " in",
      "it"
    ],
    [
      " C",
      "an"
    ],
    [
      " C",
      "al"
    ],
    [
      "om",
      "b"
    ],
    [
      "g",
      "et"
    ],
    [
      " p",
      "ain"
    ],
    [
      " r",
      "ound"
    ],
    [
      " Ste",
      "vens"
    ],
    [
      "b",
      "or"
    ],
    [
      " l",
      "o"
    ],
    [
      "in",
      "ation"
    ],
    [
      " is",
      "s"
    ],
    [
      " w",
      "ater"
    ],
    [
      " th",
      "ose"
    ],
    [
      " tot",
      "al"
    ],
    [
      " G",
      "e"
    ],
    [
      " b",
      "est"
    ],
    [
      " h",
      "our"
    ],
    [
      " ser",
      "ved"
    ],
    [
      "if",
      "fer"
    ],
    [
      " v",
      "ict"
    ],
    [
      " re",
      "view"
    ],
    [
      " describ",
      "ed"
    ],
    [
      " Count",
      "y"
    ],
    [
      " v",
      "ideo"
    ],
    [
      "v",
      "ing"
    ],
    [
      "ver",
      "s"
    ],
    [
      " l",
      "ow"
    ],
    [
      "res",
      "ent"
    ],
    [
      " Ch",
      "ar"
    ],
    [
      " o",
      "pp"
    ],
    [
      " O",
      "ff"
    ],
    [
      " sign",
      "ific"
    ],
    [
      " Ch",
      "rist"
    ],
    [
      " ",
      "es"
    ],
    [
      " c",
      "as"
    ],
    [
      " T",
      "r"
    ],
    [
      "us",
      "h"
    ],
    [
      "i",
      "et"
    ],
    [
      "it",
      "ted"
    ],
    [
      " ver",
      "y"
    ],
    [
      " h",
      "owever"
    ],
    [
      " hist",
      "ory"
    ],
    [
      " h",
      "aving"
    ],
    [
      " Comp",
      "any"
    ],
    [
      " tem",
      "nospondyl"
    ],
    [
      "g",
      "es"
    ],
    [
      " b",
      "as"
    ],
    [
      " m",
      "ed"
    ],
    [
      "on",
      "ic"
    ],
    [
      "he",
      "st"
    ],
    [
      "ad",
      "ed"
    ],
    [
      "ig",
      "an"
    ],
    [
      " D",
      "u"
    ],
    [
      "ro",
      "te"
    ],
    [
      " r",
      "ight"
    ],
    [
      " rem",
      "ained"
    ],
    [
      " g",
      "reat"
    ],
    [
      " ac",
      "ross"
    ],
    [
      " consid",
      "ered"
    ],
    [
      "f",
      "or"
    ],
    [
      "p",
      "ar"
    ],
    [
      "il",
      "ar"
    ],
    [
      " he",
      "l"
    ],
    [
      " st",
      "ri"
    ],
    [
      " v",
      "is"
    ],
    [
      " cont",
      "r"
    ],
    [
      " ne",
      "ver"
    ],
    [
      "v",
      "ision"
    ],
    [
      "es",
      "tern"
    ],
    [
      "as",
      "tern"
    ],
    [
      " N",
      "avy"
    ],
    [
      " form",
      "ed"
    ],
    [
      " return",
      "ed"
    ],
    [
      " ",
      "ve"
    ],
    [
      " F",
      "l"
    ],
    [
      " H",
      "igh"
    ],
    [
      " He",
      "ad"
    ],
    [
      "ct",
      "ure"
    ],
    [
      "ree",
      "k"
    ],
    [
      " comm",
      "un"
    ],
    [
      " Church",
      "ill"
    ],
    [
      " Will",
      "iam"
    ],
    [
      " d",
      "iffer"
    ],
    [
      "g",
      "o"
    ],
    [
      "re",
      "ed"
    ],
    [
      " W",
      "e"
    ],
    [
      " de",
      "b"
    ],
    [
      " H",
      "ill"
    ],
    [
      " pl",
      "an"
    ],
    [
      "en",
      "ces"
    ],
    [
      " Batt",
      "alion"
    ],
    [
      " Philipp",
      "ines"
    ],
    [
      " care",
      "er"
    ],
    [
      " signific",
      "ant"
    ],
    [
      " H",
      "ar"
    ],
    [
      " de",
      "cl"
    ],
    [
      " ar",
      "ch"
    ],
    [
      "ri",
      "pt"
    ],
    [
      " le",
      "g"
    ],
    [
      "u",
      "c"
    ],
    [
      " t",
      "w"
    ],
    [
      "e",
      "ad"
    ],
    [
      " e",
      "y"
    ],
    [
      "at",
      "ure"
    ],
    [
      " M",
      "ount"
    ],
    [
      " high",
      "way"
    ],
    [
      " develop",
      "ed"
    ],
    [
      " Batt",
      "le"
    ],
    [
      "en",
      "g"
    ],
    [
      " A",
      "g"
    ],
    [
      " E",
      "l"
    ],
    [
      " f",
      "ore"
    ],
    [
      "a",
      "ign"
    ],
    [
      " P",
      "ark"
    ],
    [
      " ev",
      "ac"
    ],
    [
      " g",
      "round"
    ],
    [
      " pl",
      "aced"
    ],
    [
      " dire",
      "ct"
    ],
    [
      " gen",
      "er"
    ],
    [
      " W",
      "hen"
    ],
    [
      " air",
      "craft"
    ],
    [
      "ab",
      "ly"
    ],
    [
      "m",
      "ond"
    ],
    [
      " D",
      "uring"
    ],
    [
      " r",
      "iver"
    ],
    [
      " perform",
      "ance"
    ],
    [
      "m",
      "s"
    ],
    [
      "b",
      "o"
    ],
    [
      " l",
      "a"
    ],
    [
      " l",
      "im"
    ],
    [
      "it",
      "her"
    ],
    [
      "iz",
      "e"
    ],
    [
      "fer",
      "red"
    ],
    [
      " sur",
      "v"
    ],
    [
      " ver",
      "s"
    ],
    [
      "ph",
      "oon"
    ],
    [
      "at",
      "ives"
    ],
    [
      " eff",
      "ect"
    ],
    [
      " w",
      "rote"
    ],
    [
      "er",
      "ing"
    ],
    [
      " S",
      "y"
    ],
    [
      "ay",
      "ing"
    ],
    [
      " K",
      "ing"
    ],
    [
      " with",
      "out"
    ],
    [
      "ric",
      "t"
    ],
    [
      " m",
      "ph"
    ],
    [
      " est",
      "im"
    ],
    [
      " of",
      "ten"
    ],
    [
      " pres",
      "ent"
    ],
    [
      "im",
      "ately"
    ],
    [
      " R",
      "uss"
    ],
    [
      " ever",
      "y"
    ],
    [
      " vi",
      "ew"
    ],
    [
      " ch",
      "ild"
    ],
    [
      "at",
      "or"
    ],
    [
      " M",
      "al"
    ],
    [
      " B",
      "o"
    ],
    [
      " st",
      "at"
    ],
    [
      "ri",
      "e"
    ],
    [
      " st",
      "ated"
    ],
    [
      "pe",
      "c"
    ],
    [
      " ex",
      "per"
    ],
    [
      " st",
      "age"
    ],
    [
      "ri",
      "end"
    ],
    [
      " r",
      "oute"
    ],
    [
      " c",
      "ourt"
    ],
    [
      " buil",
      "ding"
    ],
    [
      " E",
      "uro"
    ],
    [
      "ers",
      "haw"
    ],
    [
      "i",
      "um"
    ],
    [
      " w",
      "ill"
    ],
    [
      " O",
      "r"
    ],
    [
      " pro",
      "te"
    ],
    [
      " n",
      "ational"
    ],
    [
      " oper",
      "ations"
    ],
    [
      " pol",
      "it"
    ],
    [
      " hist",
      "or"
    ],
    [
      " Kore",
      "an"
    ],
    [
      " Stre",
      "et"
    ],
    [
      "c",
      "on"
    ],
    [
      "ial",
      "s"
    ],
    [
      " int",
      "ens"
    ],
    [
      " s",
      "ite"
    ],
    [
      " head",
      "s"
    ],
    [
      "end",
      "es"
    ],
    [
      " t",
      "ake"
    ],
    [
      " Les",
      "ter"
    ],
    [
      "ed",
      "eral"
    ],
    [
      " m",
      "aking"
    ],
    [
      " origin",
      "al"
    ],
    [
      " mod",
      "ern"
    ],
    [
      " re",
      "ached"
    ],
    [
      "l",
      "m"
    ],
    [
      " to",
      "o"
    ],
    [
      "land",
      "s"
    ],
    [
      " cre",
      "w"
    ],
    [
      " r",
      "ange"
    ],
    [
      " Af",
      "ric"
    ],
    [
      " Euro",
      "pe"
    ],
    [
      "y",
      "n"
    ],
    [
      " a",
      "v"
    ],
    [
      "he",
      "re"
    ],
    [
      " c",
      "le"
    ],
    [
      " w",
      "ent"
    ],
    [
      " st",
      "ar"
    ],
    [
      " d",
      "et"
    ],
    [
      " W",
      "ith"
    ],
    [
      " play",
      "er"
    ],
    [
      " am",
      "ong"
    ],
    [
      " Ind",
      "ian"
    ],
    [
      "R",
      "A"
    ],
    [
      "in",
      "c"
    ],
    [
      " b",
      "re"
    ],
    [
      "r",
      "ing"
    ],
    [
      " A",
      "nd"
    ],
    [
      "ac",
      "y"
    ],
    [
      "ap",
      "e"
    ],
    [
      " pro",
      "p"
    ],
    [
      "a",
      "ff"
    ],
    [
      " us",
      "ing"
    ],
    [
      "ric",
      "k"
    ],
    [
      " cl",
      "ose"
    ],
    [
      " po",
      "et"
    ],
    [
      " pe",
      "ak"
    ],
    [
      " bo",
      "ok"
    ],
    [
      " wind",
      "s"
    ],
    [
      " Mc",
      "C"
    ],
    [
      " Mich",
      "igan"
    ],
    [
      "t",
      "ar"
    ],
    [
      " p",
      "ur"
    ],
    [
      "ir",
      "c"
    ],
    [
      " H",
      "is"
    ],
    [
      " p",
      "ut"
    ],
    [
      "um",
      "b"
    ],
    [
      " a",
      "ction"
    ],
    [
      "an",
      "ish"
    ],
    [
      " a",
      "ff"
    ],
    [
      " le",
      "vel"
    ],
    [
      "ub",
      "lic"
    ],
    [
      " success",
      "ful"
    ],
    [
      " count",
      "ry"
    ],
    [
      " you",
      "ng"
    ],
    [
      "cc",
      "ording"
    ],
    [
      " sold",
      "iers"
    ],
    [
      " inf",
      "lu"
    ],
    [
      " rep",
      "resent"
    ],
    [
      "m",
      "in"
    ],
    [
      " f",
      "le"
    ],
    [
      " re",
      "al"
    ],
    [
      "am",
      "m"
    ],
    [
      "re",
      "am"
    ],
    [
      " for",
      "t"
    ],
    [
      "ot",
      "s"
    ],
    [
      " g",
      "ra"
    ],
    [
      " g",
      "ave"
    ],
    [
      " te",
      "le"
    ],
    [
      " Y",
      "ou"
    ],
    [
      " produ",
      "ced"
    ],
    [
      " spec",
      "ial"
    ],
    [
      " pers",
      "on"
    ],
    [
      " report",
      "ed"
    ],
    [
      " R",
      "oyal"
    ],
    [
      " g",
      "iven"
    ],
    [
      "it",
      "ar"
    ],
    [
      "e",
      "al"
    ],
    [
      " S",
      "en"
    ],
    [
      "ent",
      "ion"
    ],
    [
      "et",
      "h"
    ],
    [
      " d",
      "ri"
    ],
    [
      "d",
      "ition"
    ],
    [
      " Germ",
      "any"
    ],
    [
      " pr",
      "im"
    ],
    [
      "oun",
      "ter"
    ],
    [
      " f",
      "oot"
    ],
    [
      " n",
      "aval"
    ],
    [
      " pop",
      "ulation"
    ],
    [
      "le",
      "t"
    ],
    [
      " r",
      "ul"
    ],
    [
      "t",
      "ain"
    ],
    [
      "ri",
      "a"
    ],
    [
      " se",
      "le"
    ],
    [
      "l",
      "ess"
    ],
    [
      " f",
      "av"
    ],
    [
      " f",
      "ace"
    ],
    [
      " st",
      "ory"
    ],
    [
      " b",
      "ase"
    ],
    [
      " fe",
      "et"
    ],
    [
      " d",
      "ivision"
    ],
    [
      " temnospondyl",
      "s"
    ],
    [
      "om",
      "an"
    ],
    [
      "u",
      "ation"
    ],
    [
      " h",
      "um"
    ],
    [
      " p",
      "ra"
    ],
    [
      "in",
      "ess"
    ],
    [
      "l",
      "ine"
    ],
    [
      " comp",
      "et"
    ],
    [
      " M",
      "iss"
    ],
    [
      "en",
      "ced"
    ],
    [
      "ro",
      "du"
    ],
    [
      "ines",
      "e"
    ],
    [
      " w",
      "ood"
    ],
    [
      " spec",
      "ies"
    ],
    [
      " develop",
      "ment"
    ],
    [
      " S",
      "quadron"
    ],
    [
      " ann",
      "oun"
    ],
    [
      "urre",
      "nt"
    ],
    [
      "g",
      "r"
    ],
    [
      "re",
      "t"
    ],
    [
      "h",
      "or"
    ],
    [
      " to",
      "ur"
    ],
    [
      "p",
      "ir"
    ],
    [
      "em",
      "s"
    ],
    [
      "all",
      "s"
    ],
    [
      " l",
      "aw"
    ],
    [
      "ail",
      "ed"
    ],
    [
      " po",
      "int"
    ],
    [
      " fl",
      "o"
    ],
    [
      "ly",
      "the"
    ],
    [
      " ob",
      "s"
    ],
    [
      " invol",
      "ved"
    ],
    [
      "sequ",
      "ently"
    ],
    [
      "v",
      "a"
    ],
    [
      "A",
      "S"
    ],
    [
      " m",
      "or"
    ],
    [
      "st",
      "it"
    ],
    [
      "at",
      "ch"
    ],
    [
      " P",
      "ar"
    ],
    [
      " su",
      "g"
    ],
    [
      " are",
      "as"
    ],
    [
      " w",
      "ide"
    ],
    [
      " O",
      "ne"
    ],
    [
      " p",
      "ress"
    ],
    [
      " sim",
      "ilar"
    ],
    [
      " M",
      "endes"
    ],
    [
      " Ch",
      "inese"
    ],
    [
      "n",
      "s"
    ],
    [
      "ed",
      "ed"
    ],
    [
      " s",
      "it"
    ],
    [
      "ad",
      "es"
    ],
    [
      "is",
      "ter"
    ],
    [
      "ct",
      "s"
    ],
    [
      " g",
      "et"
    ],
    [
      " D",
      "es"
    ],
    [
      " W",
      "W"
    ],
    [
      "f",
      "all"
    ],
    [
      "i",
      "ence"
    ],
    [
      " f",
      "ind"
    ],
    [
      " d",
      "ied"
    ],
    [
      " m",
      "ov"
    ],
    [
      " produ",
      "ction"
    ],
    [
      " Comm",
      "ission"
    ],
    [
      " ",
      "er"
    ],
    [
      "ic",
      "es"
    ],
    [
      "c",
      "ent"
    ],
    [
      " C",
      "or"
    ],
    [
      "ac",
      "es"
    ],
    [
      "om",
      "es"
    ],
    [
      " B",
      "ro"
    ],
    [
      " b",
      "us"
    ],
    [
      " F",
      "u"
    ],
    [
      " st",
      "and"
    ],
    [
      "c",
      "her"
    ],
    [
      " w",
      "ant"
    ],
    [
      " E",
      "ast"
    ],
    [
      "per",
      "or"
    ],
    [
      "w",
      "ork"
    ],
    [
      " batt",
      "les"
    ],
    [
      " start",
      "ed"
    ],
    [
      " c",
      "ivil"
    ],
    [
      " f",
      "elt"
    ],
    [
      " beh",
      "ind"
    ],
    [
      " Sp",
      "anish"
    ],
    [
      " in",
      "j"
    ],
    [
      "al",
      "y"
    ],
    [
      "p",
      "ing"
    ],
    [
      " p",
      "h"
    ],
    [
      " m",
      "ur"
    ],
    [
      " D",
      "o"
    ],
    [
      "it",
      "ive"
    ],
    [
      " L",
      "ond"
    ],
    [
      " a",
      "way"
    ],
    [
      " Americ",
      "a"
    ],
    [
      " R",
      "ock"
    ],
    [
      "f",
      "ield"
    ],
    [
      " Ch",
      "ina"
    ],
    [
      "og",
      "rap"
    ],
    [
      " t",
      "imes"
    ],
    [
      "enc",
      "y"
    ],
    [
      " B",
      "lythe"
    ],
    [
      " m",
      "y"
    ],
    [
      "y",
      "le"
    ],
    [
      " e",
      "l"
    ],
    [
      " h",
      "ig"
    ],
    [
      "r",
      "ation"
    ],
    [
      " with",
      "d"
    ],
    [
      "w",
      "est"
    ],
    [
      " U",
      "B"
    ],
    [
      "ur",
      "ity"
    ],
    [
      "art",
      "y"
    ],
    [
      " v",
      "ol"
    ],
    [
      " e",
      "ight"
    ],
    [
      " O",
      "per"
    ],
    [
      " m",
      "iss"
    ],
    [
      " s",
      "aw"
    ],
    [
      " im",
      "port"
    ],
    [
      " Re",
      "p"
    ],
    [
      " ear",
      "l"
    ],
    [
      " arm",
      "our"
    ],
    [
      " Bl",
      "ack"
    ],
    [
      " s",
      "quadron"
    ],
    [
      " dam",
      "age"
    ],
    [
      " resp",
      "ons"
    ],
    [
      " constru",
      "ction"
    ],
    [
      "e",
      "pend"
    ],
    [
      " him",
      "self"
    ],
    [
      " tit",
      "le"
    ],
    [
      " sug",
      "gest"
    ],
    [
      "g",
      "a"
    ],
    [
      " ",
      "X"
    ],
    [
      "g",
      "y"
    ],
    [
      " r",
      "ad"
    ],
    [
      "em",
      "y"
    ],
    [
      " T",
      "em"
    ],
    [
      " r",
      "ain"
    ],
    [
      "in",
      "ts"
    ],
    [
      "u",
      "ck"
    ],
    [
      " V",
      "ict"
    ],
    [
      " writ",
      "ten"
    ],
    [
      " disc",
      "over"
    ],
    [
      " partic",
      "ular"
    ],
    [
      " serv",
      "ice"
    ],
    [
      " C",
      "reek"
    ],
    [
      "e",
      "v"
    ],
    [
      "o",
      "le"
    ],
    [
      " pro",
      "f"
    ],
    [
      "ound",
      "ed"
    ],
    [
      " th",
      "ough"
    ],
    [
      "act",
      "ion"
    ],
    [
      " c",
      "ase"
    ],
    [
      " nort",
      "hern"
    ],
    [
      "aut",
      "y"
    ],
    [
      " Le",
      "ague"
    ],
    [
      " f",
      "riend"
    ],
    [
      " WW",
      "E"
    ],
    [
      " t",
      "en"
    ],
    [
      " h",
      "it"
    ],
    [
      "as",
      "ter"
    ],
    [
      " t",
      "est"
    ],
    [
      " P",
      "ort"
    ],
    [
      "m",
      "ost"
    ],
    [
      " is",
      "land"
    ],
    [
      " Se",
      "c"
    ],
    [
      "ic",
      "ult"
    ],
    [
      " A",
      "ss"
    ],
    [
      "way",
      "s"
    ],
    [
      " work",
      "s"
    ],
    [
      " col",
      "on"
    ],
    [
      " reg",
      "ion"
    ],
    [
      " ent",
      "ire"
    ],
    [
      "ann",
      "ed"
    ],
    [
      " crit",
      "ic"
    ],
    [
      " ord",
      "ered"
    ],
    [
      " fam",
      "ily"
    ],
    [
      "etr",
      "arch"
    ],
    [
      " differ",
      "ent"
    ],
    [
      " Rich",
      "mond"
    ],
    [
      "l",
      "o"
    ],
    [
      "m",
      "en"
    ],
    [
      " c",
      "or"
    ],
    [
      " re",
      "b"
    ],
    [
      " on",
      "ce"
    ],
    [
      "ch",
      "n"
    ],
    [
      "t",
      "ies"
    ],
    [
      "ra",
      "w"
    ],
    [
      " le",
      "ast"
    ],
    [
      "ign",
      "ed"
    ],
    [
      " sc",
      "ul"
    ],
    [
      " De",
      "p"
    ],
    [
      " cent",
      "er"
    ],
    [
      " follow",
      "ed"
    ],
    [
      " f",
      "ull"
    ],
    [
      " Australian",
      "s"
    ],
    [
      " rele",
      "ase"
    ],
    [
      " to",
      "wards"
    ],
    [
      " defe",
      "ated"
    ],
    [
      " L",
      "ittle"
    ],
    [
      " camp",
      "aign"
    ],
    [
      "u",
      "z"
    ],
    [
      "x",
      "ic"
    ],
    [
      "ur",
      "b"
    ],
    [
      "id",
      "s"
    ],
    [
      " d",
      "iv"
    ],
    [
      " l",
      "ess"
    ],
    [
      "per",
      "ial"
    ],
    [
      " G",
      "ib"
    ],
    [
      " comp",
      "any"
    ],
    [
      "ollow",
      "ing"
    ],
    [
      "fer",
      "ence"
    ],
    [
      "ing",
      "ton"
    ],
    [
      " add",
      "ed"
    ],
    [
      " Al",
      "though"
    ],
    [
      " bo",
      "ats"
    ],
    [
      " origin",
      "ally"
    ],
    [
      " contro",
      "l"
    ],
    [
      "em",
      "eter"
    ],
    [
      "v",
      "ille"
    ],
    [
      " em",
      "bass"
    ],
    [
      " Lond",
      "on"
    ],
    [
      "s",
      "u"
    ],
    [
      " w",
      "a"
    ],
    [
      " d",
      "r"
    ],
    [
      "ac",
      "ing"
    ],
    [
      " H",
      "ol"
    ],
    [
      " c",
      "ut"
    ],
    [
      "an",
      "ch"
    ],
    [
      " l",
      "ack"
    ],
    [
      "in",
      "ted"
    ],
    [
      " C",
      "are"
    ],
    [
      " Y",
      "ear"
    ],
    [
      " act",
      "iv"
    ],
    [
      " bl",
      "ock"
    ],
    [
      " l",
      "oss"
    ],
    [
      " appe",
      "ared"
    ],
    [
      " d",
      "iff"
    ],
    [
      " eff",
      "ort"
    ],
    [
      " pro",
      "ject"
    ],
    [
      " For",
      "ce"
    ],
    [
      " Wh",
      "ile"
    ],
    [
      " But",
      "ler"
    ],
    [
      " caus",
      "ed"
    ],
    [
      "m",
      "a"
    ],
    [
      "ar",
      "a"
    ],
    [
      "as",
      "ion"
    ],
    [
      " P",
      "ac"
    ],
    [
      "os",
      "ing"
    ],
    [
      " se",
      "e"
    ],
    [
      " k",
      "e"
    ],
    [
      " ab",
      "le"
    ],
    [
      " bec",
      "ome"
    ],
    [
      " includ",
      "e"
    ],
    [
      "at",
      "ors"
    ],
    [
      " R",
      "aj"
    ],
    [
      " ",
      "ident"
    ],
    [
      "iff",
      "e"
    ],
    [
      "onn",
      "a"
    ],
    [
      " jo",
      "ined"
    ],
    [
      "med",
      "i"
    ],
    [
      " beg",
      "in"
    ],
    [
      " Ch",
      "ampionship"
    ],
    [
      " scul",
      "pt"
    ],
    [
      "is",
      "ing"
    ],
    [
      "d",
      "le"
    ],
    [
      " T",
      "y"
    ],
    [
      "v",
      "ol"
    ],
    [
      " R",
      "ad"
    ],
    [
      " se",
      "en"
    ],
    [
      "f",
      "ord"
    ],
    [
      "port",
      "s"
    ],
    [
      "a",
      "ult"
    ],
    [
      " r",
      "ank"
    ],
    [
      " inv",
      "est"
    ],
    [
      "ill",
      "ery"
    ],
    [
      " ironcl",
      "ads"
    ],
    [
      " Ge",
      "or"
    ],
    [
      " T",
      "etrarch"
    ],
    [
      " embass",
      "y"
    ],
    [
      "b",
      "e"
    ],
    [
      " f",
      "re"
    ],
    [
      "y",
      "ing"
    ],
    [
      " S",
      "m"
    ],
    [
      "ot",
      "e"
    ],
    [
      " P",
      "er"
    ],
    [
      " r",
      "a"
    ],
    [
      " con",
      "v"
    ],
    [
      " c",
      "our"
    ],
    [
      " s",
      "low"
    ],
    [
      "ie",
      "f"
    ],
    [
      " en",
      "c"
    ],
    [
      " def",
      "end"
    ],
    [
      " buil",
      "d"
    ],
    [
      " m",
      "ember"
    ],
    [
      " design",
      "ed"
    ],
    [
      " comple",
      "te"
    ],
    [
      " bro",
      "ad"
    ],
    [
      " repl",
      "aced"
    ],
    [
      " Mus",
      "e"
    ],
    [
      "hod",
      "es"
    ],
    [
      " Z",
      "eal"
    ],
    [
      " s",
      "w"
    ],
    [
      "al",
      "d"
    ],
    [
      "d",
      "om"
    ],
    [
      "ar",
      "ly"
    ],
    [
      " B",
      "el"
    ],
    [
      " P",
      "o"
    ],
    [
      "art",
      "ment"
    ],
    [
      " k",
      "il"
    ],
    [
      " un",
      "it"
    ],
    [
      "rough",
      "t"
    ],
    [
      " arm",
      "y"
    ],
    [
      " G",
      "reat"
    ],
    [
      " rel",
      "ig"
    ],
    [
      " dec",
      "ided"
    ],
    [
      " ass",
      "oci"
    ],
    [
      " h",
      "ouse"
    ],
    [
      " month",
      "s"
    ],
    [
      " b",
      "omb"
    ],
    [
      " Me",
      "xic"
    ],
    [
      "o",
      "o"
    ],
    [
      " c",
      "e"
    ],
    [
      "st",
      "r"
    ],
    [
      " a",
      "ge"
    ],
    [
      "ap",
      "s"
    ],
    [
      " E",
      "m"
    ],
    [
      "iv",
      "al"
    ],
    [
      " se",
      "ction"
    ],
    [
      " co",
      "ach"
    ],
    [
      " comple",
      "ted"
    ],
    [
      " prog",
      "ram"
    ],
    [
      " destroy",
      "ed"
    ],
    [
      " announ",
      "ced"
    ],
    [
      " Vict",
      "or"
    ],
    [
      "h",
      "u"
    ],
    [
      "A",
      "F"
    ],
    [
      "M",
      "A"
    ],
    [
      "in",
      "o"
    ],
    [
      "c",
      "an"
    ],
    [
      "t",
      "ic"
    ],
    [
      "st",
      "er"
    ],
    [
      "c",
      "om"
    ],
    [
      " g",
      "l"
    ],
    [
      " P",
      "r"
    ],
    [
      " D",
      "ay"
    ],
    [
      " L",
      "a"
    ],
    [
      " s",
      "um"
    ],
    [
      " c",
      "ast"
    ],
    [
      "ll",
      "ed"
    ],
    [
      " ch",
      "ang"
    ],
    [
      " ab",
      "ove"
    ],
    [
      " l",
      "ook"
    ],
    [
      " th",
      "ought"
    ],
    [
      " var",
      "ious"
    ],
    [
      " Can",
      "ad"
    ],
    [
      " estim",
      "ated"
    ],
    [
      " R",
      "hodes"
    ],
    [
      " Zeal",
      "and"
    ],
    [
      "g",
      "g"
    ],
    [
      " t",
      "re"
    ],
    [
      "en",
      "es"
    ],
    [
      "as",
      "ing"
    ],
    [
      "ou",
      "l"
    ],
    [
      " f",
      "ig"
    ],
    [
      " h",
      "ow"
    ],
    [
      "n",
      "ow"
    ],
    [
      "ay",
      "ed"
    ],
    [
      " M",
      "ong"
    ],
    [
      "qu",
      "ar"
    ],
    [
      "ive",
      "ly"
    ],
    [
      " m",
      "ag"
    ],
    [
      " A",
      "ward"
    ],
    [
      "ph",
      "ib"
    ],
    [
      " h",
      "old"
    ],
    [
      " Mar",
      "ine"
    ],
    [
      " J",
      "ames"
    ],
    [
      " qu",
      "ick"
    ],
    [
      " Ang",
      "le"
    ],
    [
      " partic",
      "ip"
    ],
    [
      " tank",
      "s"
    ],
    [
      " fight",
      "ing"
    ],
    [
      " arri",
      "ved"
    ],
    [
      "i",
      "que"
    ],
    [
      " Ner",
      "va"
    ],
    [
      " B",
      "ig"
    ],
    [
      " D",
      "an"
    ],
    [
      "ore",
      "n"
    ],
    [
      " B",
      "all"
    ],
    [
      "c",
      "ast"
    ],
    [
      "ass",
      "ic"
    ],
    [
      " sh",
      "ould"
    ],
    [
      "ress",
      "ed"
    ],
    [
      " cent",
      "ral"
    ],
    [
      "ific",
      "ation"
    ],
    [
      " W",
      "ales"
    ],
    [
      " estab",
      "lished"
    ],
    [
      " c",
      "irc"
    ],
    [
      "cl",
      "iffe"
    ],
    [
      " art",
      "illery"
    ],
    [
      " Mong",
      "ol"
    ],
    [
      "b",
      "s"
    ],
    [
      " f",
      "ar"
    ],
    [
      " h",
      "on"
    ],
    [
      " re",
      "n"
    ],
    [
      "om",
      "en"
    ],
    [
      " M",
      "ad"
    ],
    [
      " M",
      "in"
    ],
    [
      "ap",
      "p"
    ],
    [
      " a",
      "ud"
    ],
    [
      "pp",
      "er"
    ],
    [
      " play",
      "ers"
    ],
    [
      " through",
      "out"
    ],
    [
      " co",
      "ast"
    ],
    [
      " pop",
      "ular"
    ],
    [
      "ck",
      "ham"
    ],
    [
      " previous",
      "ly"
    ],
    [
      " de",
      "ploy"
    ],
    [
      " Miss",
      "iss"
    ],
    [
      " te",
      "chn"
    ],
    [
      "a",
      "f"
    ],
    [
      " c",
      "al"
    ],
    [
      " T",
      "o"
    ],
    [
      " A",
      "c"
    ],
    [
      " M",
      "or"
    ],
    [
      " an",
      "c"
    ],
    [
      " Brit",
      "ain"
    ],
    [
      " me",
      "et"
    ],
    [
      "ipp",
      "i"
    ],
    [
      " r",
      "idge"
    ],
    [
      " occ",
      "ur"
    ],
    [
      " lar",
      "gest"
    ],
    [
      " sc",
      "ene"
    ],
    [
      " pub",
      "lished"
    ],
    [
      " ironcl",
      "ad"
    ],
    [
      " P",
      "aul"
    ],
    [
      " Reg",
      "iment"
    ],
    [
      "b",
      "urg"
    ],
    [
      " la",
      "un"
    ],
    [
      " e",
      "ither"
    ],
    [
      " K",
      "ershaw"
    ],
    [
      "ral",
      "tar"
    ],
    [
      " c",
      "urrent"
    ],
    [
      "on",
      "a"
    ],
    [
      "v",
      "al"
    ],
    [
      " as",
      "k"
    ],
    [
      " P",
      "e"
    ],
    [
      " G",
      "r"
    ],
    [
      "ist",
      "ing"
    ],
    [
      "og",
      "n"
    ],
    [
      " S",
      "ome"
    ],
    [
      "h",
      "ile"
    ],
    [
      " f",
      "act"
    ],
    [
      " inter",
      "n"
    ],
    [
      " g",
      "ood"
    ],
    [
      " se",
      "ven"
    ],
    [
      " record",
      "ed"
    ],
    [
      " comple",
      "x"
    ],
    [
      " b",
      "orn"
    ],
    [
      " f",
      "ather"
    ],
    [
      " stre",
      "ng"
    ],
    [
      " C",
      "ourt"
    ],
    [
      " s",
      "omet"
    ],
    [
      " sout",
      "hern"
    ],
    [
      " carri",
      "ed"
    ],
    [
      " polit",
      "ical"
    ],
    [
      " A",
      "ccording"
    ],
    [
      "z",
      "o"
    ],
    [
      "m",
      "ar"
    ],
    [
      "c",
      "ing"
    ],
    [
      " S",
      "l"
    ],
    [
      "im",
      "in"
    ],
    [
      "u",
      "el"
    ],
    [
      "ri",
      "es"
    ],
    [
      "iv",
      "id"
    ],
    [
      " N",
      "ak"
    ],
    [
      " com",
      "ment"
    ],
    [
      " F",
      "irst"
    ],
    [
      " p",
      "ie"
    ],
    [
      "ig",
      "ade"
    ],
    [
      " wh",
      "ite"
    ],
    [
      " At",
      "t"
    ],
    [
      " bl",
      "ack"
    ],
    [
      " imp",
      "ro"
    ],
    [
      " gen",
      "eral"
    ],
    [
      " set",
      "t"
    ],
    [
      " position",
      "s"
    ],
    [
      " feat",
      "ures"
    ],
    [
      "ask",
      "et"
    ],
    [
      " inf",
      "antry"
    ],
    [
      " allow",
      "ed"
    ],
    [
      " cons",
      "pir"
    ],
    [
      " mur",
      "der"
    ],
    [
      " Do",
      "ctor"
    ],
    [
      " al",
      "most"
    ],
    [
      " Mississ",
      "ippi"
    ],
    [
      " M",
      "on"
    ],
    [
      " B",
      "est"
    ],
    [
      " k",
      "ing"
    ],
    [
      " ",
      "ide"
    ],
    [
      "wo",
      "od"
    ],
    [
      " be",
      "low"
    ],
    [
      " a",
      "ward"
    ],
    [
      " up",
      "on"
    ],
    [
      " cre",
      "ated"
    ],
    [
      " open",
      "ing"
    ],
    [
      " requ",
      "est"
    ],
    [
      " l",
      "ittle"
    ],
    [
      " cas",
      "ual"
    ],
    [
      " st",
      "yle"
    ],
    [
      " po",
      "ints"
    ],
    [
      " Pac",
      "ific"
    ],
    [
      " Gib",
      "raltar"
    ],
    [
      "asket",
      "ball"
    ],
    [
      " H",
      "er"
    ],
    [
      " M",
      "et"
    ],
    [
      " H",
      "ist"
    ],
    [
      " A",
      "nt"
    ],
    [
      "ry",
      "ing"
    ],
    [
      " w",
      "ord"
    ],
    [
      "o",
      "ice"
    ],
    [
      " Un",
      "ion"
    ],
    [
      " col",
      "l"
    ],
    [
      " sur",
      "round"
    ],
    [
      " qu",
      "al"
    ],
    [
      " Comm",
      "and"
    ],
    [
      " feat",
      "ured"
    ],
    [
      " tr",
      "aining"
    ],
    [
      " stud",
      "io"
    ],
    [
      " l",
      "atter"
    ],
    [
      " dep",
      "ression"
    ],
    [
      " Sc",
      "ott"
    ],
    [
      " nort",
      "heast"
    ],
    [
      " ag",
      "reed"
    ],
    [
      " ty",
      "phoon"
    ],
    [
      " aut",
      "hor"
    ],
    [
      " bus",
      "iness"
    ],
    [
      " import",
      "ant"
    ],
    [
      " Be",
      "auty"
    ],
    [
      "S",
      "t"
    ],
    [
      "u",
      "k"
    ],
    [
      "w",
      "er"
    ],
    [
      "it",
      "er"
    ],
    [
      "it",
      "ing"
    ],
    [
      "am",
      "ent"
    ],
    [
      "ot",
      "ed"
    ],
    [
      "un",
      "k"
    ],
    [
      " D",
      "od"
    ],
    [
      "i",
      "ber"
    ],
    [
      " G",
      "ore"
    ],
    [
      "or",
      "ies"
    ],
    [
      "ab",
      "or"
    ],
    [
      " ex",
      "h"
    ],
    [
      " su",
      "per"
    ],
    [
      " T",
      "wo"
    ],
    [
      " con",
      "ne"
    ],
    [
      "are",
      "nt"
    ],
    [
      " U",
      "nder"
    ],
    [
      " s",
      "ail"
    ],
    [
      " con",
      "du"
    ],
    [
      "ic",
      "les"
    ],
    [
      " l",
      "ines"
    ],
    [
      "e",
      "cted"
    ],
    [
      " other",
      "s"
    ],
    [
      " inter",
      "se"
    ],
    [
      " attack",
      "ed"
    ],
    [
      "ven",
      "ue"
    ],
    [
      " run",
      "s"
    ],
    [
      " em",
      "ploy"
    ],
    [
      " hour",
      "s"
    ],
    [
      " hum",
      "an"
    ],
    [
      " int",
      "rodu"
    ],
    [
      "c",
      "o"
    ],
    [
      "o",
      "e"
    ],
    [
      " p",
      "al"
    ],
    [
      " d",
      "ro"
    ],
    [
      " S",
      "ch"
    ],
    [
      " r",
      "u"
    ],
    [
      " D",
      "ist"
    ],
    [
      " E",
      "x"
    ],
    [
      " h",
      "ost"
    ],
    [
      " not",
      "ed"
    ],
    [
      "olog",
      "ical"
    ],
    [
      " In",
      "tern"
    ],
    [
      " m",
      "ix"
    ],
    [
      " pol",
      "ice"
    ],
    [
      " out",
      "side"
    ],
    [
      " r",
      "ather"
    ],
    [
      " prov",
      "ided"
    ],
    [
      " turn",
      "ed"
    ],
    [
      " Cent",
      "er"
    ],
    [
      " suff",
      "ered"
    ],
    [
      " se",
      "par"
    ],
    [
      " inst",
      "ead"
    ],
    [
      " av",
      "ail"
    ],
    [
      " battles",
      "hip"
    ],
    [
      " Oper",
      "ation"
    ],
    [
      " diff",
      "icult"
    ],
    [
      " rec",
      "ogn"
    ],
    [
      " C",
      "R"
    ],
    [
      "ur",
      "t"
    ],
    [
      " m",
      "ot"
    ],
    [
      "ut",
      "es"
    ],
    [
      "et",
      "y"
    ],
    [
      " D",
      "on"
    ],
    [
      "ist",
      "ic"
    ],
    [
      " W",
      "est"
    ],
    [
      " r",
      "ap"
    ],
    [
      " pl",
      "at"
    ],
    [
      " f",
      "oc"
    ],
    [
      "A",
      "fter"
    ],
    [
      "ord",
      "er"
    ],
    [
      "um",
      "ents"
    ],
    [
      " four",
      "th"
    ],
    [
      "oss",
      "al"
    ],
    [
      " perform",
      "ed"
    ],
    [
      " trans",
      "port"
    ],
    [
      " t",
      "aken"
    ],
    [
      " y",
      "ards"
    ],
    [
      " init",
      "ially"
    ],
    [
      " es",
      "c"
    ],
    [
      " tele",
      "vision"
    ],
    [
      " pra",
      "ised"
    ],
    [
      "ivid",
      "ual"
    ],
    [
      "d",
      "e"
    ],
    [
      "am",
      "ar"
    ],
    [
      " a",
      "ver"
    ],
    [
      "d",
      "ay"
    ],
    [
      "un",
      "n"
    ],
    [
      " F",
      "il"
    ],
    [
      "at",
      "ers"
    ],
    [
      "op",
      "e"
    ],
    [
      "ill",
      "a"
    ],
    [
      " H",
      "all"
    ],
    [
      "se",
      "c"
    ],
    [
      " r",
      "out"
    ],
    [
      "o",
      "ff"
    ],
    [
      " h",
      "ous"
    ],
    [
      " re",
      "ach"
    ],
    [
      "ne",
      "es"
    ],
    [
      "ur",
      "ric"
    ],
    [
      " r",
      "ail"
    ],
    [
      " dire",
      "cted"
    ],
    [
      " rem",
      "oved"
    ],
    [
      " crit",
      "ics"
    ],
    [
      " pro",
      "ble"
    ],
    [
      " eng",
      "ine"
    ],
    [
      " mon",
      "ument"
    ],
    [
      " S",
      "onic"
    ],
    [
      " e",
      "astern"
    ],
    [
      " vers",
      "ion"
    ],
    [
      " Rep",
      "ublic"
    ],
    [
      " c",
      "emeter"
    ],
    [
      " invest",
      "ig"
    ],
    [
      " b",
      "rought"
    ],
    [
      " Mexic",
      "o"
    ],
    [
      "N",
      "A"
    ],
    [
      " t",
      "er"
    ],
    [
      "on",
      "y"
    ],
    [
      "s",
      "en"
    ],
    [
      " c",
      "he"
    ],
    [
      " d",
      "ou"
    ],
    [
      " h",
      "y"
    ],
    [
      "le",
      "g"
    ],
    [
      " T",
      "en"
    ],
    [
      " A",
      "b"
    ],
    [
      "he",
      "ad"
    ],
    [
      " re",
      "ad"
    ],
    [
      " l",
      "y"
    ],
    [
      "l",
      "am"
    ],
    [
      "om",
      "as"
    ],
    [
      "ir",
      "al"
    ],
    [
      " r",
      "d"
    ],
    [
      " J",
      "ew"
    ],
    [
      "te",
      "en"
    ],
    [
      " pro",
      "b"
    ],
    [
      " v",
      "al"
    ],
    [
      " ex",
      "c"
    ],
    [
      "ag",
      "an"
    ],
    [
      " I",
      "nt"
    ],
    [
      "ent",
      "ial"
    ],
    [
      "un",
      "ction"
    ],
    [
      "d",
      "ie"
    ],
    [
      " tr",
      "ad"
    ],
    [
      " d",
      "iss"
    ],
    [
      " r",
      "ace"
    ],
    [
      " ro",
      "ck"
    ],
    [
      " kn",
      "ow"
    ],
    [
      " N",
      "az"
    ],
    [
      " p",
      "air"
    ],
    [
      " ind",
      "ic"
    ],
    [
      " offic",
      "ial"
    ],
    [
      " f",
      "ield"
    ],
    [
      " pre",
      "vent"
    ],
    [
      " del",
      "iver"
    ],
    [
      " in",
      "tended"
    ],
    [
      "os",
      "aur"
    ],
    [
      " N",
      "atives"
    ],
    [
      " s",
      "aying"
    ],
    [
      " flo",
      "or"
    ],
    [
      " sub",
      "sequently"
    ],
    [
      " sec",
      "urity"
    ],
    [
      " w",
      "ounded"
    ],
    [
      " Raj",
      "nees"
    ],
    [
      "C",
      "A"
    ],
    [
      " o",
      "x"
    ],
    [
      "d",
      "en"
    ],
    [
      "en",
      "a"
    ],
    [
      "ro",
      "g"
    ],
    [
      " A",
      "D"
    ],
    [
      " n",
      "on"
    ],
    [
      " re",
      "ve"
    ],
    [
      " H",
      "M"
    ],
    [
      " J",
      "im"
    ],
    [
      " C",
      "ap"
    ],
    [
      " st",
      "op"
    ],
    [
      " se",
      "qu"
    ],
    [
      " T",
      "ra"
    ],
    [
      " T",
      "our"
    ],
    [
      "ime",
      "ter"
    ],
    [
      " for",
      "ced"
    ],
    [
      " inter",
      "est"
    ],
    [
      "az",
      "ine"
    ],
    [
      " St",
      "arr"
    ],
    [
      " pro",
      "cess"
    ],
    [
      " b",
      "ody"
    ],
    [
      " appear",
      "ance"
    ],
    [
      " sc",
      "ript"
    ],
    [
      " f",
      "ederal"
    ],
    [
      " mor",
      "ning"
    ],
    [
      " RA",
      "AF"
    ],
    [
      " Be",
      "ckham"
    ],
    [
      "m",
      "b"
    ],
    [
      "ar",
      "ing"
    ],
    [
      "il",
      "i"
    ],
    [
      " S",
      "w"
    ],
    [
      "st",
      "e"
    ],
    [
      " M",
      "a"
    ],
    [
      " H",
      "u"
    ],
    [
      "a",
      "el"
    ],
    [
      " P",
      "et"
    ],
    [
      " L",
      "at"
    ],
    [
      " de",
      "ter"
    ],
    [
      " de",
      "ad"
    ],
    [
      " f",
      "if"
    ],
    [
      "ra",
      "g"
    ],
    [
      "oc",
      "r"
    ],
    [
      " n",
      "ine"
    ],
    [
      " O",
      "ther"
    ],
    [
      " t",
      "ons"
    ],
    [
      " cont",
      "rib"
    ],
    [
      " th",
      "reat"
    ],
    [
      " M",
      "ajor"
    ],
    [
      " writ",
      "ing"
    ],
    [
      " command",
      "er"
    ],
    [
      " Kore",
      "ans"
    ],
    [
      " occ",
      "up"
    ],
    [
      "onn",
      "el"
    ],
    [
      " batt",
      "alion"
    ],
    [
      " requ",
      "ired"
    ],
    [
      " ac",
      "cept"
    ],
    [
      " Eng",
      "land"
    ],
    [
      "emor",
      "ial"
    ],
    [
      " stri",
      "ke"
    ],
    [
      " stru",
      "cture"
    ],
    [
      " Care",
      "y"
    ],
    [
      " im",
      "medi"
    ],
    [
      " L",
      "oren"
    ],
    [
      "t",
      "r"
    ],
    [
      "F",
      "C"
    ],
    [
      " a",
      "w"
    ],
    [
      "t",
      "ion"
    ],
    [
      "ac",
      "on"
    ],
    [
      "er",
      "ve"
    ],
    [
      "ol",
      "l"
    ],
    [
      "ol",
      "a"
    ],
    [
      "le",
      "ct"
    ],
    [
      "ay",
      "er"
    ],
    [
      "e",
      "ch"
    ],
    [
      " P",
      "re"
    ],
    [
      "and",
      "e"
    ],
    [
      "and",
      "on"
    ],
    [
      " F",
      "ort"
    ],
    [
      "ber",
      "g"
    ],
    [
      "ak",
      "er"
    ],
    [
      "le",
      "ment"
    ],
    [
      "ff",
      "ic"
    ],
    [
      " res",
      "ul"
    ],
    [
      " ad",
      "ap"
    ],
    [
      " off",
      "ice"
    ],
    [
      " dis",
      "p"
    ],
    [
      " dis",
      "pl"
    ],
    [
      "amp",
      "le"
    ],
    [
      " spe",
      "ed"
    ],
    [
      " R",
      "ick"
    ],
    [
      " bet",
      "ter"
    ],
    [
      " fl",
      "ood"
    ],
    [
      " app",
      "o"
    ],
    [
      "oun",
      "c"
    ],
    [
      " ind",
      "ust"
    ],
    [
      "ch",
      "ange"
    ],
    [
      " sign",
      "ed"
    ],
    [
      " lead",
      "ing"
    ],
    [
      " Im",
      "ag"
    ],
    [
      " defe",
      "at"
    ],
    [
      " appro",
      "ach"
    ],
    [
      " capt",
      "ured"
    ],
    [
      " poss",
      "ible"
    ],
    [
      " E",
      "mp"
    ],
    [
      "read",
      "y"
    ],
    [
      " pat",
      "ro"
    ],
    [
      " pri",
      "or"
    ],
    [
      " bre",
      "ak"
    ],
    [
      " fle",
      "et"
    ],
    [
      " con",
      "dition"
    ],
    [
      " ind",
      "ividual"
    ],
    [
      " ",
      "z"
    ],
    [
      " s",
      "on"
    ],
    [
      " d",
      "i"
    ],
    [
      " h",
      "or"
    ],
    [
      " T",
      "re"
    ],
    [
      "om",
      "p"
    ],
    [
      " M",
      "il"
    ],
    [
      " B",
      "u"
    ],
    [
      "ri",
      "an"
    ],
    [
      " P",
      "res"
    ],
    [
      "l",
      "ant"
    ],
    [
      " c",
      "ost"
    ],
    [
      " s",
      "ound"
    ],
    [
      " we",
      "ap"
    ],
    [
      "amp",
      "ion"
    ],
    [
      " Ar",
      "j"
    ],
    [
      " st",
      "one"
    ],
    [
      "pe",
      "cted"
    ],
    [
      " end",
      "ed"
    ],
    [
      "id",
      "ents"
    ],
    [
      " fin",
      "ished"
    ],
    [
      " bro",
      "ther"
    ],
    [
      " Ang",
      "el"
    ],
    [
      " s",
      "ides"
    ],
    [
      " we",
      "aken"
    ],
    [
      " contr",
      "act"
    ],
    [
      " Russ",
      "ian"
    ],
    [
      " intens",
      "ity"
    ],
    [
      " J",
      "MA"
    ],
    [
      " Rad",
      "cliffe"
    ],
    [
      " casual",
      "ties"
    ],
    [
      " b",
      "asketball"
    ],
    [
      " Dist",
      "rict"
    ],
    [
      "urric",
      "ane"
    ],
    [
      "A",
      "s"
    ],
    [
      "at",
      "a"
    ],
    [
      "it",
      "z"
    ],
    [
      "r",
      "is"
    ],
    [
      "or",
      "ing"
    ],
    [
      " h",
      "a"
    ],
    [
      " S",
      "ar"
    ],
    [
      " B",
      "ar"
    ],
    [
      "ir",
      "ing"
    ],
    [
      " an",
      "t"
    ],
    [
      " an",
      "im"
    ],
    [
      "ill",
      "s"
    ],
    [
      "ong",
      "s"
    ],
    [
      " K",
      "e"
    ],
    [
      " l",
      "ive"
    ],
    [
      "ab",
      "y"
    ],
    [
      "ight",
      "s"
    ],
    [
      " com",
      "mer"
    ],
    [
      " play",
      "ing"
    ],
    [
      " m",
      "ult"
    ],
    [
      " J",
      "ose"
    ],
    [
      " arm",
      "or"
    ],
    [
      " Comm",
      "on"
    ],
    [
      "ar",
      "ily"
    ],
    [
      " ex",
      "ec"
    ],
    [
      " Q",
      "u"
    ],
    [
      " des",
      "pite"
    ],
    [
      " O",
      "lm"
    ],
    [
      " Im",
      "perial"
    ],
    [
      " pers",
      "onnel"
    ],
    [
      "s",
      "p"
    ],
    [
      " t",
      "or"
    ],
    [
      "h",
      "ing"
    ],
    [
      " c",
      "ou"
    ],
    [
      " b",
      "ad"
    ],
    [
      " H",
      "it"
    ],
    [
      " N",
      "e"
    ],
    [
      "ul",
      "a"
    ],
    [
      " l",
      "ist"
    ],
    [
      "all",
      "en"
    ],
    [
      "r",
      "ated"
    ],
    [
      "ud",
      "e"
    ],
    [
      " f",
      "ree"
    ],
    [
      "d",
      "own"
    ],
    [
      " over",
      "all"
    ],
    [
      " im",
      "age"
    ],
    [
      " rem",
      "ain"
    ],
    [
      " work",
      "ed"
    ],
    [
      " most",
      "ly"
    ],
    [
      "olog",
      "ists"
    ],
    [
      " group",
      "s"
    ],
    [
      " do",
      "es"
    ],
    [
      " de",
      "ep"
    ],
    [
      " sh",
      "oot"
    ],
    [
      "alk",
      "y"
    ],
    [
      " attempt",
      "ed"
    ],
    [
      "ib",
      "ility"
    ],
    [
      "osp",
      "ital"
    ],
    [
      "ship",
      "s"
    ],
    [
      " dam",
      "aged"
    ],
    [
      "por",
      "ary"
    ],
    [
      "bo",
      "ard"
    ],
    [
      "con",
      "om"
    ],
    [
      "yn",
      "ast"
    ],
    [
      " Col",
      "umb"
    ],
    [
      " quick",
      "ly"
    ],
    [
      " rap",
      "id"
    ],
    [
      " aver",
      "age"
    ],
    [
      " w",
      "it"
    ],
    [
      "ent",
      "h"
    ],
    [
      "ir",
      "id"
    ],
    [
      " in",
      "ch"
    ],
    [
      " D",
      "r"
    ],
    [
      " de",
      "al"
    ],
    [
      " G",
      "l"
    ],
    [
      " com",
      "e"
    ],
    [
      "ow",
      "nt"
    ],
    [
      "an",
      "ia"
    ],
    [
      "ig",
      "ence"
    ],
    [
      " M",
      "ark"
    ],
    [
      " work",
      "ing"
    ],
    [
      " ev",
      "ents"
    ],
    [
      " team",
      "s"
    ],
    [
      " song",
      "s"
    ],
    [
      " An",
      "other"
    ],
    [
      " ch",
      "ange"
    ],
    [
      " pass",
      "ed"
    ],
    [
      " charac",
      "ters"
    ],
    [
      " w",
      "ife"
    ],
    [
      " Eng",
      "lish"
    ],
    [
      " ey",
      "e"
    ],
    [
      " st",
      "aff"
    ],
    [
      " Sen",
      "ate"
    ],
    [
      " begin",
      "ning"
    ],
    [
      " Arj",
      "ona"
    ],
    [
      " V",
      "alky"
    ],
    [
      " S",
      "er"
    ],
    [
      "ct",
      "ing"
    ],
    [
      " st",
      "ation"
    ],
    [
      " P",
      "at"
    ],
    [
      " B",
      "ul"
    ],
    [
      " m",
      "ass"
    ],
    [
      "ish",
      "ing"
    ],
    [
      " V",
      "al"
    ],
    [
      "er",
      "ous"
    ],
    [
      "pl",
      "es"
    ],
    [
      "D",
      "uring"
    ],
    [
      " p",
      "ound"
    ],
    [
      " L",
      "ater"
    ],
    [
      " It",
      "al"
    ],
    [
      "id",
      "ence"
    ],
    [
      "qu",
      "are"
    ],
    [
      " d",
      "ark"
    ],
    [
      " attack",
      "s"
    ],
    [
      " p",
      "urch"
    ],
    [
      " S",
      "chool"
    ],
    [
      " t",
      "urre"
    ],
    [
      " ste",
      "am"
    ],
    [
      " res",
      "pect"
    ],
    [
      " move",
      "ment"
    ],
    [
      " deb",
      "ut"
    ],
    [
      "rie",
      "f"
    ],
    [
      " wood",
      "en"
    ],
    [
      " Des",
      "pite"
    ],
    [
      " earl",
      "ier"
    ],
    [
      " inv",
      "asion"
    ],
    [
      " A",
      "venue"
    ],
    [
      " Intern",
      "ational"
    ],
    [
      " avail",
      "able"
    ],
    [
      " Ed",
      "die"
    ],
    [
      " U",
      "FC"
    ],
    [
      " Olm",
      "ec"
    ],
    [
      "A",
      "t"
    ],
    [
      "w",
      "in"
    ],
    [
      "ed",
      "er"
    ],
    [
      " s",
      "en"
    ],
    [
      " f",
      "o"
    ],
    [
      " p",
      "en"
    ],
    [
      " d",
      "on"
    ],
    [
      "ad",
      "or"
    ],
    [
      "am",
      "s"
    ],
    [
      "im",
      "b"
    ],
    [
      " s",
      "us"
    ],
    [
      "im",
      "um"
    ],
    [
      "ate",
      "g"
    ],
    [
      " ",
      "ill"
    ],
    [
      "ar",
      "ian"
    ],
    [
      "all",
      "ing"
    ],
    [
      " v",
      "ill"
    ],
    [
      " L",
      "ie"
    ],
    [
      " th",
      "ick"
    ],
    [
      " p",
      "red"
    ],
    [
      " man",
      "ag"
    ],
    [
      " Bl",
      "ue"
    ],
    [
      " dire",
      "ctor"
    ],
    [
      " t",
      "aking"
    ],
    [
      " rem",
      "aining"
    ],
    [
      " incre",
      "ased"
    ],
    [
      " event",
      "ually"
    ],
    [
      " red",
      "u"
    ],
    [
      " child",
      "ren"
    ],
    [
      " foot",
      "ball"
    ],
    [
      " fav",
      "or"
    ],
    [
      " pos",
      "itive"
    ],
    [
      " King",
      "dom"
    ],
    [
      "quar",
      "ters"
    ],
    [
      " am",
      "phib"
    ],
    [
      " Rajnees",
      "h"
    ],
    [
      "ste",
      "in"
    ],
    [
      " Loren",
      "zo"
    ],
    [
      " ex",
      "ample"
    ],
    [
      " Emp",
      "ire"
    ],
    [
      "ownt",
      "own"
    ],
    [
      "ic",
      "a"
    ],
    [
      " re",
      "in"
    ],
    [
      " C",
      "ro"
    ],
    [
      "om",
      "m"
    ],
    [
      "id",
      "ing"
    ],
    [
      "ce",
      "nd"
    ],
    [
      "ers",
      "on"
    ],
    [
      "op",
      "h"
    ],
    [
      " l",
      "if"
    ],
    [
      " K",
      "n"
    ],
    [
      " pro",
      "t"
    ],
    [
      " v",
      "oc"
    ],
    [
      "st",
      "ant"
    ],
    [
      " he",
      "av"
    ],
    [
      "pp",
      "ed"
    ],
    [
      " le",
      "t"
    ],
    [
      " c",
      "ru"
    ],
    [
      " t",
      "ell"
    ],
    [
      " comp",
      "an"
    ],
    [
      " M",
      "att"
    ],
    [
      " comm",
      "on"
    ],
    [
      " ",
      "ult"
    ],
    [
      " C",
      "amp"
    ],
    [
      "g",
      "round"
    ],
    [
      " Re",
      "c"
    ],
    [
      " off",
      "ered"
    ],
    [
      " G",
      "old"
    ],
    [
      " t",
      "rib"
    ],
    [
      " me",
      "as"
    ],
    [
      " so",
      "on"
    ],
    [
      " n",
      "ames"
    ],
    [
      " m",
      "other"
    ],
    [
      " conc",
      "ert"
    ],
    [
      " sub",
      "ject"
    ],
    [
      " go",
      "al"
    ],
    [
      " Fr",
      "ance"
    ],
    [
      " k",
      "ey"
    ],
    [
      " Te",
      "am"
    ],
    [
      " sc",
      "reen"
    ],
    [
      " D",
      "erry"
    ],
    [
      " Char",
      "les"
    ],
    [
      " w",
      "estern"
    ],
    [
      " commun",
      "ity"
    ],
    [
      " l",
      "eng"
    ],
    [
      " c",
      "ounter"
    ],
    [
      " pit",
      "cher"
    ],
    [
      " want",
      "ed"
    ],
    [
      " Tem",
      "ple"
    ],
    [
      " pl",
      "anned"
    ],
    [
      " Geor",
      "ge"
    ],
    [
      " prob",
      "ably"
    ],
    [
      " ab",
      "andon"
    ],
    [
      " al",
      "ready"
    ],
    [
      " e",
      "conom"
    ],
    [
      "l",
      "in"
    ],
    [
      "is",
      "er"
    ],
    [
      "al",
      "ed"
    ],
    [
      "om",
      "ing"
    ],
    [
      " M",
      "y"
    ],
    [
      "ot",
      "es"
    ],
    [
      " P",
      "al"
    ],
    [
      " con",
      "ve"
    ],
    [
      "t",
      "ong"
    ],
    [
      " G",
      "ame"
    ],
    [
      " u",
      "nd"
    ],
    [
      " B",
      "ond"
    ],
    [
      "ans",
      "as"
    ],
    [
      "ib",
      "r"
    ],
    [
      " en",
      "ough"
    ],
    [
      " T",
      "urn"
    ],
    [
      " for",
      "ward"
    ],
    [
      " ne",
      "g"
    ],
    [
      " ne",
      "ed"
    ],
    [
      "ning",
      "s"
    ],
    [
      " in",
      "form"
    ],
    [
      " G",
      "overn"
    ],
    [
      " mon",
      "it"
    ],
    [
      " l",
      "ower"
    ],
    [
      " dec",
      "ision"
    ],
    [
      "ative",
      "ly"
    ],
    [
      " c",
      "ert"
    ],
    [
      " br",
      "idge"
    ],
    [
      " open",
      "ed"
    ],
    [
      " Is",
      "land"
    ],
    [
      " week",
      "s"
    ],
    [
      " ste",
      "el"
    ],
    [
      " n",
      "omin"
    ],
    [
      " vict",
      "ory"
    ],
    [
      " Afric",
      "a"
    ],
    [
      " gu",
      "itar"
    ],
    [
      " R",
      "oman"
    ],
    [
      " prof",
      "ess"
    ],
    [
      " Sec",
      "ond"
    ],
    [
      " Muse",
      "um"
    ],
    [
      " min",
      "utes"
    ],
    [
      "oci",
      "ety"
    ],
    [
      "ik",
      "amar"
    ],
    [
      "ounc",
      "il"
    ],
    [
      " b",
      "rief"
    ],
    [
      "s",
      "c"
    ],
    [
      "it",
      "a"
    ],
    [
      " p",
      "le"
    ],
    [
      " T",
      "or"
    ],
    [
      " S",
      "o"
    ],
    [
      "in",
      "ent"
    ],
    [
      " b",
      "ur"
    ],
    [
      " s",
      "ol"
    ],
    [
      "ot",
      "i"
    ],
    [
      " L",
      "ou"
    ],
    [
      "ri",
      "al"
    ],
    [
      "ut",
      "ive"
    ],
    [
      "a",
      "ud"
    ],
    [
      " ad",
      "op"
    ],
    [
      " m",
      "ach"
    ],
    [
      " I",
      "ron"
    ],
    [
      " Se",
      "a"
    ],
    [
      "an",
      "ced"
    ],
    [
      "ang",
      "u"
    ],
    [
      " she",
      "ll"
    ],
    [
      " oper",
      "ation"
    ],
    [
      " rep",
      "air"
    ],
    [
      " its",
      "elf"
    ],
    [
      " run",
      "ning"
    ],
    [
      " adv",
      "ance"
    ],
    [
      " Con",
      "f"
    ],
    [
      " S",
      "erv"
    ],
    [
      " stru",
      "ck"
    ],
    [
      " th",
      "ink"
    ],
    [
      " sl",
      "ight"
    ],
    [
      " Q",
      "ue"
    ],
    [
      "for",
      "ce"
    ],
    [
      " W",
      "estern"
    ],
    [
      "min",
      "ist"
    ],
    [
      " em",
      "peror"
    ],
    [
      " discover",
      "ed"
    ],
    [
      "ikamar",
      "u"
    ],
    [
      "I",
      "I"
    ],
    [
      " s",
      "at"
    ],
    [
      "k",
      "en"
    ],
    [
      "in",
      "al"
    ],
    [
      "u",
      "ing"
    ],
    [
      "ou",
      "d"
    ],
    [
      "ad",
      "o"
    ],
    [
      "o",
      "ly"
    ],
    [
      " P",
      "en"
    ],
    [
      "ri",
      "ed"
    ],
    [
      "um",
      "n"
    ],
    [
      " E",
      "n"
    ],
    [
      " to",
      "ld"
    ],
    [
      " M",
      "art"
    ],
    [
      " F",
      "our"
    ],
    [
      "av",
      "id"
    ],
    [
      " e",
      "mer"
    ],
    [
      " m",
      "ater"
    ],
    [
      " comm",
      "it"
    ],
    [
      " b",
      "ank"
    ],
    [
      " Ste",
      "in"
    ],
    [
      " offic",
      "er"
    ],
    [
      "il",
      "ities"
    ],
    [
      " cross",
      "ing"
    ],
    [
      " cycl",
      "one"
    ],
    [
      " pri",
      "v"
    ],
    [
      " stat",
      "us"
    ],
    [
      " sele",
      "cted"
    ],
    [
      " hig",
      "hest"
    ],
    [
      " F",
      "ollowing"
    ],
    [
      " sc",
      "enes"
    ],
    [
      " b",
      "order"
    ],
    [
      " Th",
      "omas"
    ],
    [
      " P",
      "agan"
    ],
    [
      " B",
      "acon"
    ],
    [
      " Rick",
      "y"
    ],
    [
      "ell",
      "igence"
    ],
    [
      " leng",
      "th"
    ],
    [
      "er",
      "o"
    ],
    [
      "en",
      "ed"
    ],
    [
      "as",
      "y"
    ],
    [
      " m",
      "er"
    ],
    [
      "il",
      "s"
    ],
    [
      " M",
      "ed"
    ],
    [
      " S",
      "im"
    ],
    [
      " r",
      "an"
    ],
    [
      " D",
      "em"
    ],
    [
      "g",
      "ers"
    ],
    [
      "i",
      "est"
    ],
    [
      "av",
      "es"
    ],
    [
      " ar",
      "g"
    ],
    [
      " S",
      "out"
    ],
    [
      "us",
      "hed"
    ],
    [
      " Th",
      "at"
    ],
    [
      " loc",
      "ation"
    ],
    [
      " sur",
      "f"
    ],
    [
      " He",
      "avy"
    ],
    [
      " design",
      "ated"
    ],
    [
      " pr",
      "act"
    ],
    [
      " govern",
      "or"
    ],
    [
      " ele",
      "ments"
    ],
    [
      " ele",
      "ct"
    ],
    [
      "ped",
      "o"
    ],
    [
      " W",
      "ash"
    ],
    [
      " appro",
      "x"
    ],
    [
      " d",
      "omin"
    ],
    [
      " comb",
      "at"
    ],
    [
      " O",
      "reg"
    ],
    [
      " belie",
      "ved"
    ],
    [
      "augh",
      "ter"
    ],
    [
      " Char",
      "l"
    ],
    [
      " trans",
      "ferred"
    ],
    [
      " cle",
      "ar"
    ],
    [
      " respons",
      "ible"
    ],
    [
      " ass",
      "igned"
    ],
    [
      " Br",
      "igade"
    ],
    [
      " At",
      "lant"
    ],
    [
      " Jose",
      "ph"
    ],
    [
      " Valky",
      "ria"
    ],
    [
      " Ital",
      "ian"
    ],
    [
      " Nak",
      "tong"
    ],
    [
      " Turn",
      "er"
    ],
    [
      "C",
      "h"
    ],
    [
      "n",
      "y"
    ],
    [
      "g",
      "ing"
    ],
    [
      "ro",
      "s"
    ],
    [
      "am",
      "a"
    ],
    [
      "ly",
      "ing"
    ],
    [
      " M",
      "id"
    ],
    [
      " M",
      "ir"
    ],
    [
      "ul",
      "f"
    ],
    [
      " ",
      "ere"
    ],
    [
      "if",
      "y"
    ],
    [
      "on",
      "se"
    ],
    [
      " s",
      "our"
    ],
    [
      "el",
      "low"
    ],
    [
      "ac",
      "ted"
    ],
    [
      " tr",
      "ade"
    ],
    [
      " Ar",
      "t"
    ],
    [
      " st",
      "ates"
    ],
    [
      " inc",
      "hes"
    ],
    [
      "ull",
      "en"
    ],
    [
      " Cl",
      "ub"
    ],
    [
      " T",
      "ropical"
    ],
    [
      " support",
      "ed"
    ],
    [
      " g",
      "row"
    ],
    [
      " min",
      "ute"
    ],
    [
      " mat",
      "ches"
    ],
    [
      " estab",
      "lish"
    ],
    [
      " hel",
      "p"
    ],
    [
      " arch",
      "ite"
    ],
    [
      " lim",
      "ited"
    ],
    [
      " north",
      "west"
    ],
    [
      " Dep",
      "artment"
    ],
    [
      " w",
      "omen"
    ],
    [
      " laun",
      "ched"
    ],
    [
      " streng",
      "th"
    ],
    [
      " to",
      "wer"
    ],
    [
      " trad",
      "ition"
    ],
    [
      " Lat",
      "in"
    ],
    [
      " Common",
      "we"
    ],
    [
      "T",
      "h"
    ],
    [
      "at",
      "re"
    ],
    [
      "is",
      "l"
    ],
    [
      " A",
      "y"
    ],
    [
      " re",
      "ar"
    ],
    [
      " B",
      "en"
    ],
    [
      "ol",
      "is"
    ],
    [
      "et",
      "on"
    ],
    [
      "un",
      "t"
    ],
    [
      "and",
      "s"
    ],
    [
      " G",
      "o"
    ],
    [
      "um",
      "ed"
    ],
    [
      " B",
      "ill"
    ],
    [
      " G",
      "ra"
    ],
    [
      " pl",
      "ot"
    ],
    [
      " h",
      "ard"
    ],
    [
      " ex",
      "am"
    ],
    [
      "c",
      "ial"
    ],
    [
      " ch",
      "art"
    ],
    [
      " K",
      "aw"
    ],
    [
      "is",
      "ions"
    ],
    [
      "we",
      "ight"
    ],
    [
      "ose",
      "k"
    ],
    [
      " ass",
      "ist"
    ],
    [
      " supp",
      "l"
    ],
    [
      "ag",
      "uch"
    ],
    [
      "y",
      "ram"
    ],
    [
      "itt",
      "ing"
    ],
    [
      " dep",
      "art"
    ],
    [
      " offic",
      "ers"
    ],
    [
      " conc",
      "ern"
    ],
    [
      " win",
      "ning"
    ],
    [
      " prov",
      "ide"
    ],
    [
      " contin",
      "ues"
    ],
    [
      " consid",
      "er"
    ],
    [
      " conf",
      "lic"
    ],
    [
      "ab",
      "ility"
    ],
    [
      " cap",
      "ital"
    ],
    [
      " comb",
      "ined"
    ],
    [
      " claim",
      "ed"
    ],
    [
      " to",
      "get"
    ],
    [
      "iet",
      "y"
    ],
    [
      " Afric",
      "an"
    ],
    [
      " en",
      "emy"
    ],
    [
      " rank",
      "ed"
    ],
    [
      " incre",
      "asing"
    ],
    [
      " ask",
      "ed"
    ],
    [
      "sen",
      "al"
    ],
    [
      " appo",
      "inted"
    ],
    [
      " Hit",
      "ler"
    ],
    [
      " d",
      "ynast"
    ],
    [
      " l",
      "angu"
    ],
    [
      " tor",
      "pedo"
    ],
    [
      " Wash",
      "ington"
    ],
    [
      " resp",
      "onse"
    ],
    [
      " Commonwe",
      "alth"
    ],
    [
      "aguch",
      "i"
    ],
    [
      " toget",
      "her"
    ],
    [
      "i",
      "j"
    ],
    [
      "H",
      "L"
    ],
    [
      "m",
      "ing"
    ],
    [
      "n",
      "am"
    ],
    [
      " A",
      "ct"
    ],
    [
      " H",
      "ow"
    ],
    [
      "in",
      "th"
    ],
    [
      " de",
      "g"
    ],
    [
      " P",
      "ap"
    ],
    [
      "b",
      "our"
    ],
    [
      "cl",
      "us"
    ],
    [
      "ag",
      "o"
    ],
    [
      " v",
      "ess"
    ],
    [
      " le",
      "ar"
    ],
    [
      "ish",
      "op"
    ],
    [
      "ition",
      "s"
    ],
    [
      " f",
      "ell"
    ],
    [
      " St",
      "orm"
    ],
    [
      " en",
      "v"
    ],
    [
      "ark",
      "er"
    ],
    [
      " c",
      "ult"
    ],
    [
      " wh",
      "ose"
    ],
    [
      "as",
      "ons"
    ],
    [
      " me",
      "an"
    ],
    [
      " h",
      "ull"
    ],
    [
      " Col",
      "le"
    ],
    [
      " f",
      "aced"
    ],
    [
      " Br",
      "idge"
    ],
    [
      " B",
      "ook"
    ],
    [
      " go",
      "ing"
    ],
    [
      " tra",
      "vel"
    ],
    [
      " vi",
      "ol"
    ],
    [
      " jo",
      "in"
    ],
    [
      " ex",
      "cept"
    ],
    [
      " ch",
      "ampionship"
    ],
    [
      " Cor",
      "ps"
    ],
    [
      " McC",
      "arty"
    ],
    [
      " particular",
      "ly"
    ],
    [
      " re",
      "action"
    ],
    [
      " Ass",
      "oci"
    ],
    [
      " E",
      "arly"
    ],
    [
      " associ",
      "ated"
    ],
    [
      " exh",
      "ib"
    ],
    [
      " resul",
      "ted"
    ],
    [
      " Sh",
      "ikamaru"
    ],
    [
      " Oreg",
      "on"
    ],
    [
      "e",
      "x"
    ],
    [
      "u",
      "f"
    ],
    [
      "l",
      "or"
    ],
    [
      "ad",
      "ing"
    ],
    [
      " f",
      "ac"
    ],
    [
      " c",
      "ur"
    ],
    [
      "ter",
      "e"
    ],
    [
      " H",
      "am"
    ],
    [
      " M",
      "el"
    ],
    [
      "s",
      "el"
    ],
    [
      " N",
      "or"
    ],
    [
      "o",
      "res"
    ],
    [
      "ip",
      "al"
    ],
    [
      " pl",
      "ant"
    ],
    [
      " p",
      "ast"
    ],
    [
      " In",
      "ter"
    ],
    [
      " M",
      "ost"
    ],
    [
      " V",
      "er"
    ],
    [
      " f",
      "ans"
    ],
    [
      " ",
      "ens"
    ],
    [
      " j",
      "ud"
    ],
    [
      " part",
      "y"
    ],
    [
      " to",
      "ward"
    ],
    [
      " sp",
      "ent"
    ],
    [
      "t",
      "ained"
    ],
    [
      " em",
      "b"
    ],
    [
      " c",
      "ann"
    ],
    [
      " to",
      "uch"
    ],
    [
      " F",
      "ield"
    ],
    [
      " inter",
      "view"
    ],
    [
      " w",
      "alk"
    ],
    [
      " le",
      "aving"
    ],
    [
      " acc",
      "ording"
    ],
    [
      " on",
      "to"
    ],
    [
      "re",
      "me"
    ],
    [
      "at",
      "ural"
    ],
    [
      " Su",
      "per"
    ],
    [
      " term",
      "s"
    ],
    [
      "or",
      "ney"
    ],
    [
      " Mount",
      "ain"
    ],
    [
      " po",
      "ems"
    ],
    [
      " f",
      "ailed"
    ],
    [
      " obs",
      "erv"
    ],
    [
      " ra",
      "ised"
    ],
    [
      " kil",
      "omet"
    ],
    [
      " relig",
      "ious"
    ],
    [
      " Victor",
      "ia"
    ],
    [
      " Hist",
      "or"
    ],
    [
      " battleship",
      "s"
    ],
    [
      " ly",
      "ric"
    ],
    [
      " Jew",
      "ish"
    ],
    [
      " mag",
      "azine"
    ],
    [
      " immedi",
      "ately"
    ],
    [
      " weap",
      "ons"
    ],
    [
      " ant",
      "i"
    ],
    [
      " N",
      "osek"
    ],
    [
      " c",
      "at"
    ],
    [
      " t",
      "ar"
    ],
    [
      " d",
      "en"
    ],
    [
      " s",
      "il"
    ],
    [
      " S",
      "al"
    ],
    [
      " h",
      "om"
    ],
    [
      " T",
      "im"
    ],
    [
      "in",
      "ct"
    ],
    [
      " p",
      "ot"
    ],
    [
      "r",
      "ay"
    ],
    [
      "ar",
      "us"
    ],
    [
      "th",
      "ing"
    ],
    [
      "ar",
      "th"
    ],
    [
      "and",
      "ing"
    ],
    [
      "and",
      "y"
    ],
    [
      " F",
      "rom"
    ],
    [
      " se",
      "x"
    ],
    [
      " d",
      "ate"
    ],
    [
      " ",
      "ess"
    ],
    [
      "ch",
      "ie"
    ],
    [
      "ork",
      "s"
    ],
    [
      "ok",
      "e"
    ],
    [
      "d",
      "ress"
    ],
    [
      "one",
      "y"
    ],
    [
      " po",
      "or"
    ],
    [
      " L",
      "ake"
    ],
    [
      " R",
      "ob"
    ],
    [
      "az",
      "a"
    ],
    [
      "m",
      "ese"
    ],
    [
      "l",
      "ike"
    ],
    [
      " As",
      "ia"
    ],
    [
      " acc",
      "ess"
    ],
    [
      " long",
      "er"
    ],
    [
      " near",
      "ly"
    ],
    [
      " H",
      "ung"
    ],
    [
      " turn",
      "s"
    ],
    [
      " ext",
      "r"
    ],
    [
      " w",
      "rest"
    ],
    [
      " Ro",
      "bert"
    ],
    [
      " H",
      "ouse"
    ],
    [
      " addition",
      "al"
    ],
    [
      " Off",
      "ice"
    ],
    [
      " High",
      "way"
    ],
    [
      " mid",
      "dle"
    ],
    [
      " Tetrarch",
      "s"
    ],
    [
      " fre",
      "qu"
    ],
    [
      " u",
      "pper"
    ],
    [
      " occur",
      "red"
    ],
    [
      "en",
      "burg"
    ],
    [
      "w",
      "hile"
    ],
    [
      "az",
      "irid"
    ],
    [
      " D",
      "avid"
    ],
    [
      " Kaw",
      "aguchi"
    ],
    [
      "he",
      "w"
    ],
    [
      "h",
      "at"
    ],
    [
      "n",
      "es"
    ],
    [
      " f",
      "an"
    ],
    [
      "ou",
      "g"
    ],
    [
      "le",
      "b"
    ],
    [
      " M",
      "ac"
    ],
    [
      " B",
      "on"
    ],
    [
      " g",
      "re"
    ],
    [
      " H",
      "y"
    ],
    [
      "ce",
      "an"
    ],
    [
      "and",
      "ed"
    ],
    [
      " O",
      "s"
    ],
    [
      "ic",
      "ated"
    ],
    [
      " d",
      "ra"
    ],
    [
      " S",
      "ant"
    ],
    [
      " f",
      "ast"
    ],
    [
      "out",
      "s"
    ],
    [
      " t",
      "ru"
    ],
    [
      "ic",
      "ted"
    ],
    [
      " P",
      "ress"
    ],
    [
      " p",
      "ick"
    ],
    [
      " end",
      "ing"
    ],
    [
      " c",
      "red"
    ],
    [
      " ac",
      "qu"
    ],
    [
      " J",
      "ane"
    ],
    [
      " br",
      "ing"
    ],
    [
      "ful",
      "ly"
    ],
    [
      " pass",
      "ing"
    ],
    [
      " along",
      "side"
    ],
    [
      " rem",
      "ains"
    ],
    [
      " All",
      "ied"
    ],
    [
      " port",
      "ion"
    ],
    [
      "uil",
      "ding"
    ],
    [
      " Fr",
      "ank"
    ],
    [
      " organ",
      "ization"
    ],
    [
      " Cent",
      "ral"
    ],
    [
      " sk",
      "ull"
    ],
    [
      " review",
      "s"
    ],
    [
      " Christ",
      "ian"
    ],
    [
      " s",
      "ize"
    ],
    [
      " poet",
      "ry"
    ],
    [
      " prim",
      "ary"
    ],
    [
      " rain",
      "fall"
    ],
    [
      " al",
      "ways"
    ],
    [
      " withd",
      "raw"
    ],
    [
      " l",
      "osing"
    ],
    [
      " build",
      "ings"
    ],
    [
      " anc",
      "ient"
    ],
    [
      " Mich",
      "ael"
    ],
    [
      " vill",
      "age"
    ],
    [
      " d",
      "owntown"
    ],
    [
      " compan",
      "ies"
    ],
    [
      " ult",
      "imately"
    ],
    [
      " slight",
      "ly"
    ],
    [
      " Dem",
      "ocr"
    ],
    [
      "c",
      "er"
    ],
    [
      "m",
      "it"
    ],
    [
      "ic",
      "le"
    ],
    [
      " T",
      "ur"
    ],
    [
      "th",
      "ur"
    ],
    [
      " W",
      "il"
    ],
    [
      " J",
      "e"
    ],
    [
      " se",
      "g"
    ],
    [
      "ap",
      "ed"
    ],
    [
      "um",
      "e"
    ],
    [
      " N",
      "ort"
    ],
    [
      " c",
      "op"
    ],
    [
      " E",
      "r"
    ],
    [
      " R",
      "if"
    ],
    [
      "ew",
      "ay"
    ],
    [
      "te",
      "e"
    ],
    [
      " I",
      "ra"
    ],
    [
      " B",
      "ost"
    ],
    [
      " cont",
      "em"
    ],
    [
      " com",
      "pl"
    ],
    [
      " ro",
      "w"
    ],
    [
      "al",
      "ions"
    ],
    [
      "r",
      "ang"
    ],
    [
      " B",
      "oy"
    ],
    [
      " B",
      "oth"
    ],
    [
      " May",
      "a"
    ],
    [
      " G",
      "roup"
    ],
    [
      " reg",
      "ular"
    ],
    [
      "ivers",
      "ary"
    ],
    [
      " t",
      "ask"
    ],
    [
      "row",
      "d"
    ],
    [
      " stru",
      "ct"
    ],
    [
      " ty",
      "p"
    ],
    [
      "hy",
      "s"
    ],
    [
      " cover",
      "ed"
    ],
    [
      " C",
      "ivil"
    ],
    [
      " def",
      "ense"
    ],
    [
      " lar",
      "ger"
    ],
    [
      "augh",
      "t"
    ],
    [
      " pain",
      "t"
    ],
    [
      "c",
      "hest"
    ],
    [
      " re",
      "ferred"
    ],
    [
      " Is",
      "lands"
    ],
    [
      " person",
      "al"
    ],
    [
      " sculpt",
      "ure"
    ],
    [
      " cour",
      "se"
    ],
    [
      " col",
      "ossal"
    ],
    [
      " proble",
      "ms"
    ],
    [
      " per",
      "imeter"
    ],
    [
      " deter",
      "m"
    ],
    [
      "ern",
      "ande"
    ],
    [
      " tra",
      "ffic"
    ],
    [
      " Pres",
      "ident"
    ],
    [
      " h",
      "urricane"
    ],
    [
      " ch",
      "allen"
    ],
    [
      "bass",
      "ador"
    ],
    [
      " bec",
      "oming"
    ],
    [
      " approx",
      "imately"
    ],
    [
      " p",
      "yram"
    ],
    [
      " Bur",
      "mese"
    ],
    [
      "k",
      "i"
    ],
    [
      "A",
      "l"
    ],
    [
      "g",
      "in"
    ],
    [
      "ed",
      "y"
    ],
    [
      "it",
      "or"
    ],
    [
      "an",
      "es"
    ],
    [
      " h",
      "ar"
    ],
    [
      "le",
      "x"
    ],
    [
      "im",
      "a"
    ],
    [
      "ut",
      "en"
    ],
    [
      " s",
      "ch"
    ],
    [
      "em",
      "ed"
    ],
    [
      " con",
      "ver"
    ],
    [
      " J",
      "os"
    ],
    [
      " G",
      "all"
    ],
    [
      "un",
      "te"
    ],
    [
      " st",
      "ra"
    ],
    [
      "rou",
      "t"
    ],
    [
      " g",
      "ive"
    ],
    [
      "ab",
      "b"
    ],
    [
      "um",
      "mer"
    ],
    [
      " V",
      "i"
    ],
    [
      " f",
      "low"
    ],
    [
      "ell",
      "ed"
    ],
    [
      "pl",
      "ay"
    ],
    [
      " D",
      "ire"
    ],
    [
      " sc",
      "ore"
    ],
    [
      " con",
      "clud"
    ],
    [
      " p",
      "ark"
    ],
    [
      " pre",
      "p"
    ],
    [
      " def",
      "ence"
    ],
    [
      " de",
      "ck"
    ],
    [
      " ass",
      "ass"
    ],
    [
      " cent",
      "re"
    ],
    [
      "ro",
      "wn"
    ],
    [
      " supp",
      "ly"
    ],
    [
      " rel",
      "ations"
    ],
    [
      " land",
      "ing"
    ],
    [
      " s",
      "elf"
    ],
    [
      " pol",
      "ic"
    ],
    [
      "r",
      "idge"
    ],
    [
      " like",
      "ly"
    ],
    [
      " m",
      "ission"
    ],
    [
      " feat",
      "ure"
    ],
    [
      " t",
      "alk"
    ],
    [
      " gr",
      "ad"
    ],
    [
      " W",
      "rest"
    ],
    [
      " ar",
      "rest"
    ],
    [
      " cons",
      "isted"
    ],
    [
      " P",
      "eter"
    ],
    [
      " pat",
      "tern"
    ],
    [
      " t",
      "err"
    ],
    [
      " b",
      "ott"
    ],
    [
      " Ang",
      "ela"
    ],
    [
      " det",
      "ail"
    ],
    [
      " influ",
      "ence"
    ],
    [
      "gr",
      "aded"
    ],
    [
      " er",
      "a"
    ],
    [
      " rad",
      "io"
    ],
    [
      " ke",
      "ep"
    ],
    [
      " Mad",
      "onna"
    ],
    [
      " intern",
      "ational"
    ],
    [
      " conspir",
      "acy"
    ],
    [
      " separ",
      "ate"
    ],
    [
      " cemeter",
      "ies"
    ],
    [
      " T",
      "NA"
    ],
    [
      " Lou",
      "is"
    ],
    [
      " langu",
      "age"
    ],
    [
      " a",
      "chie"
    ],
    [
      " Ira",
      "q"
    ],
    [
      "ernande",
      "z"
    ],
    [
      "t",
      "t"
    ],
    [
      "k",
      "n"
    ],
    [
      "u",
      "an"
    ],
    [
      "al",
      "le"
    ],
    [
      "il",
      "es"
    ],
    [
      " o",
      "il"
    ],
    [
      " M",
      "r"
    ],
    [
      " f",
      "ut"
    ],
    [
      " P",
      "ol"
    ],
    [
      "ul",
      "ly"
    ],
    [
      " F",
      "le"
    ],
    [
      " L",
      "os"
    ],
    [
      " J",
      "T"
    ],
    [
      " H",
      "ong"
    ],
    [
      " St",
      "ud"
    ],
    [
      " L",
      "ight"
    ],
    [
      " v",
      "ia"
    ],
    [
      "w",
      "ell"
    ],
    [
      " cl",
      "os"
    ],
    [
      " sc",
      "hed"
    ],
    [
      " It",
      "s"
    ],
    [
      " im",
      "m"
    ],
    [
      " im",
      "ag"
    ],
    [
      " Th",
      "rough"
    ],
    [
      " pre",
      "c"
    ],
    [
      " B",
      "ase"
    ],
    [
      " film",
      "s"
    ],
    [
      " st",
      "ating"
    ],
    [
      " num",
      "b"
    ],
    [
      " she",
      "ar"
    ],
    [
      " pe",
      "ace"
    ],
    [
      " act",
      "ive"
    ],
    [
      " reg",
      "ard"
    ],
    [
      " contin",
      "ue"
    ],
    [
      " ent",
      "ered"
    ],
    [
      " Col",
      "or"
    ],
    [
      "b",
      "ury"
    ],
    [
      " oper",
      "ated"
    ],
    [
      "ipp",
      "ed"
    ],
    [
      " small",
      "er"
    ],
    [
      " appe",
      "ars"
    ],
    [
      " comp",
      "osed"
    ],
    [
      " g",
      "iving"
    ],
    [
      " poss",
      "ess"
    ],
    [
      " ref",
      "used"
    ],
    [
      " Jack",
      "ets"
    ],
    [
      " iss",
      "ue"
    ],
    [
      " f",
      "itted"
    ],
    [
      " S",
      "pec"
    ],
    [
      " h",
      "omes"
    ],
    [
      " Ind",
      "epend"
    ],
    [
      " deploy",
      "ed"
    ],
    [
      "ron",
      "icles"
    ],
    [
      " hous",
      "es"
    ],
    [
      " war",
      "ships"
    ],
    [
      "ibr",
      "ary"
    ],
    [
      " ere",
      "cted"
    ],
    [
      " lyric",
      "s"
    ],
    [
      " head",
      "dress"
    ],
    [
      " JT",
      "W"
    ],
    [
      " JTW",
      "C"
    ],
    [
      "k",
      "a"
    ],
    [
      "B",
      "C"
    ],
    [
      "er",
      "a"
    ],
    [
      "m",
      "on"
    ],
    [
      "s",
      "es"
    ],
    [
      "as",
      "es"
    ],
    [
      " S",
      "om"
    ],
    [
      " B",
      "C"
    ],
    [
      "o",
      "id"
    ],
    [
      "ar",
      "ter"
    ],
    [
      " g",
      "ot"
    ],
    [
      " H",
      "or"
    ],
    [
      " ",
      "ut"
    ],
    [
      "et",
      "t"
    ],
    [
      "em",
      "an"
    ],
    [
      " F",
      "er"
    ],
    [
      "ri",
      "or"
    ],
    [
      " se",
      "a"
    ],
    [
      "l",
      "ers"
    ],
    [
      " O",
      "ver"
    ],
    [
      " su",
      "st"
    ],
    [
      "et",
      "te"
    ],
    [
      "ve",
      "ment"
    ],
    [
      " re",
      "ign"
    ],
    [
      " T",
      "own"
    ],
    [
      "ens",
      "ion"
    ],
    [
      " att",
      "r"
    ],
    [
      " St",
      "one"
    ],
    [
      " Americ",
      "ans"
    ],
    [
      " un",
      "able"
    ],
    [
      " them",
      "e"
    ],
    [
      " fl",
      "ank"
    ],
    [
      " fin",
      "ally"
    ],
    [
      " j",
      "ob"
    ],
    [
      " high",
      "ly"
    ],
    [
      " Col",
      "on"
    ],
    [
      "ah",
      "i"
    ],
    [
      " ele",
      "ction"
    ],
    [
      " pres",
      "ence"
    ],
    [
      " min",
      "or"
    ],
    [
      " tri",
      "al"
    ],
    [
      " s",
      "ays"
    ],
    [
      " Fr",
      "anc"
    ],
    [
      " major",
      "ity"
    ],
    [
      " pr",
      "ison"
    ],
    [
      " reg",
      "iment"
    ],
    [
      " II",
      "I"
    ],
    [
      " result",
      "ing"
    ],
    [
      " ne",
      "cess"
    ],
    [
      " F",
      "ox"
    ],
    [
      " perform",
      "ances"
    ],
    [
      "bor",
      "ne"
    ],
    [
      " iss",
      "ued"
    ],
    [
      "c",
      "ript"
    ],
    [
      " press",
      "ure"
    ],
    [
      " Sm",
      "ith"
    ],
    [
      " Rhodes",
      "ian"
    ],
    [
      " Cl",
      "assic"
    ],
    [
      " l",
      "iter"
    ],
    [
      " K",
      "urt"
    ],
    [
      " Angel",
      "es"
    ],
    [
      " conve",
      "ction"
    ],
    [
      " profess",
      "ional"
    ],
    [
      " kilomet",
      "res"
    ],
    [
      " batt",
      "alions"
    ],
    [
      " c",
      "rowd"
    ],
    [
      " Color",
      "ado"
    ],
    [
      "it",
      "es"
    ],
    [
      " A",
      "re"
    ],
    [
      " re",
      "v"
    ],
    [
      "ad",
      "al"
    ],
    [
      "ro",
      "ad"
    ],
    [
      " c",
      "am"
    ],
    [
      " T",
      "om"
    ],
    [
      " M",
      "o"
    ],
    [
      " I",
      "re"
    ],
    [
      "in",
      "us"
    ],
    [
      "ce",
      "ed"
    ],
    [
      " s",
      "em"
    ],
    [
      "and",
      "er"
    ],
    [
      " W",
      "al"
    ],
    [
      " de",
      "v"
    ],
    [
      "ap",
      "er"
    ],
    [
      " com",
      "ing"
    ],
    [
      " b",
      "all"
    ],
    [
      " K",
      "ent"
    ],
    [
      " f",
      "ant"
    ],
    [
      "h",
      "ab"
    ],
    [
      " Ch",
      "an"
    ],
    [
      "l",
      "ight"
    ],
    [
      " m",
      "ight"
    ],
    [
      "pt",
      "ed"
    ],
    [
      "os",
      "ition"
    ],
    [
      " l",
      "ik"
    ],
    [
      " ab",
      "s"
    ],
    [
      " part",
      "s"
    ],
    [
      " after",
      "n"
    ],
    [
      " cl",
      "ub"
    ],
    [
      " rec",
      "over"
    ],
    [
      " pre",
      "m"
    ],
    [
      "ers",
      "hip"
    ],
    [
      "at",
      "ory"
    ],
    [
      "em",
      "ents"
    ],
    [
      " re",
      "fer"
    ],
    [
      " l",
      "aid"
    ],
    [
      " arm",
      "ed"
    ],
    [
      " Be",
      "at"
    ],
    [
      "ke",
      "y"
    ],
    [
      " fin",
      "anc"
    ],
    [
      " lead",
      "er"
    ],
    [
      " comm",
      "ission"
    ],
    [
      " st",
      "ep"
    ],
    [
      " cl",
      "osed"
    ],
    [
      "und",
      "red"
    ],
    [
      " Rich",
      "ard"
    ],
    [
      " constru",
      "cted"
    ],
    [
      " mount",
      "ain"
    ],
    [
      " Har",
      "ry"
    ],
    [
      " es",
      "pec"
    ],
    [
      " F",
      "ederal"
    ],
    [
      " ne",
      "eded"
    ],
    [
      " mov",
      "ing"
    ],
    [
      "ograp",
      "h"
    ],
    [
      " ass",
      "ault"
    ],
    [
      " enc",
      "ounter"
    ],
    [
      " surround",
      "ing"
    ],
    [
      " plat",
      "form"
    ],
    [
      "m",
      "iral"
    ],
    [
      "ongs",
      "an"
    ],
    [
      " Columb",
      "us"
    ],
    [
      " Gra",
      "ves"
    ],
    [
      " dynast",
      "y"
    ],
    [
      " Bost",
      "on"
    ],
    [
      "uten",
      "ant"
    ],
    [
      "b",
      "on"
    ],
    [
      "at",
      "i"
    ],
    [
      "w",
      "as"
    ],
    [
      " A",
      "k"
    ],
    [
      " be",
      "at"
    ],
    [
      "ter",
      "ed"
    ],
    [
      " H",
      "ed"
    ],
    [
      " B",
      "ay"
    ],
    [
      " f",
      "un"
    ],
    [
      "it",
      "ation"
    ],
    [
      "os",
      "es"
    ],
    [
      "res",
      "h"
    ],
    [
      "if",
      "t"
    ],
    [
      "ip",
      "le"
    ],
    [
      "ul",
      "ated"
    ],
    [
      "ack",
      "s"
    ],
    [
      " un",
      "c"
    ],
    [
      " pro",
      "per"
    ],
    [
      " R",
      "ome"
    ],
    [
      " m",
      "outh"
    ],
    [
      " dis",
      "m"
    ],
    [
      "ail",
      "y"
    ],
    [
      " Ar",
      "ch"
    ],
    [
      " t",
      "reat"
    ],
    [
      " am",
      "ount"
    ],
    [
      "ac",
      "hes"
    ],
    [
      " form",
      "s"
    ],
    [
      " dec",
      "or"
    ],
    [
      " Le",
      "ad"
    ],
    [
      " bro",
      "ke"
    ],
    [
      "ple",
      "x"
    ],
    [
      " m",
      "ax"
    ],
    [
      " Ed",
      "son"
    ],
    [
      " f",
      "ought"
    ],
    [
      " disc",
      "uss"
    ],
    [
      " ed",
      "ge"
    ],
    [
      " f",
      "und"
    ],
    [
      " incre",
      "ase"
    ],
    [
      " mark",
      "ed"
    ],
    [
      " prote",
      "ct"
    ],
    [
      " prop",
      "osed"
    ],
    [
      " You",
      "ng"
    ],
    [
      " evac",
      "uation"
    ],
    [
      " sec",
      "ret"
    ],
    [
      " w",
      "alls"
    ],
    [
      " per",
      "cent"
    ],
    [
      " ind",
      "epend"
    ],
    [
      " Cl",
      "ara"
    ],
    [
      " re",
      "vol"
    ],
    [
      "can",
      "al"
    ],
    [
      " chang",
      "es"
    ],
    [
      " aud",
      "ience"
    ],
    [
      " mix",
      "ed"
    ],
    [
      " condition",
      "s"
    ],
    [
      " res",
      "idents"
    ],
    [
      " rapid",
      "ly"
    ],
    [
      " str",
      "ateg"
    ],
    [
      " head",
      "quarters"
    ],
    [
      " Heavy",
      "weight"
    ],
    [
      " Associ",
      "ation"
    ],
    [
      "uf",
      "act"
    ],
    [
      " vol",
      "unte"
    ],
    [
      " fut",
      "ure"
    ],
    [
      " numb",
      "ers"
    ],
    [
      "adal",
      "canal"
    ],
    [
      "g",
      "u"
    ],
    [
      "w",
      "a"
    ],
    [
      "f",
      "e"
    ],
    [
      "s",
      "y"
    ],
    [
      "k",
      "es"
    ],
    [
      "v",
      "is"
    ],
    [
      " S",
      "ing"
    ],
    [
      "ent",
      "ed"
    ],
    [
      " n",
      "ar"
    ],
    [
      " a",
      "id"
    ],
    [
      " H",
      "ot"
    ],
    [
      "us",
      "e"
    ],
    [
      " D",
      "om"
    ],
    [
      " b",
      "ul"
    ],
    [
      " P",
      "op"
    ],
    [
      "un",
      "ity"
    ],
    [
      " K",
      "ir"
    ],
    [
      "a",
      "ust"
    ],
    [
      "ord",
      "s"
    ],
    [
      "og",
      "ue"
    ],
    [
      " F",
      "ree"
    ],
    [
      " pl",
      "ans"
    ],
    [
      "er",
      "ved"
    ],
    [
      "iss",
      "ance"
    ],
    [
      "ace",
      "y"
    ],
    [
      " re",
      "ally"
    ],
    [
      "ll",
      "ing"
    ],
    [
      " Ch",
      "ang"
    ],
    [
      " Ar",
      "k"
    ],
    [
      " fl",
      "ight"
    ],
    [
      " bo",
      "ard"
    ],
    [
      " Ind",
      "ia"
    ],
    [
      "ar",
      "ov"
    ],
    [
      " ass",
      "emb"
    ],
    [
      " N",
      "ative"
    ],
    [
      " ser",
      "ious"
    ],
    [
      " l",
      "ived"
    ],
    [
      " cre",
      "ate"
    ],
    [
      " C",
      "ook"
    ],
    [
      " show",
      "s"
    ],
    [
      " adv",
      "ant"
    ],
    [
      " f",
      "ired"
    ],
    [
      "rap",
      "h"
    ],
    [
      " Wh",
      "ite"
    ],
    [
      "ac",
      "ement"
    ],
    [
      " sc",
      "ored"
    ],
    [
      " C",
      "amb"
    ],
    [
      " l",
      "iving"
    ],
    [
      " Mus",
      "ic"
    ],
    [
      "m",
      "itted"
    ],
    [
      " pre",
      "par"
    ],
    [
      " ve",
      "h"
    ],
    [
      " decl",
      "ared"
    ],
    [
      " evac",
      "u"
    ],
    [
      " gener",
      "ally"
    ],
    [
      " exper",
      "i"
    ],
    [
      " Se",
      "ga"
    ],
    [
      " Ty",
      "pe"
    ],
    [
      " fig",
      "ure"
    ],
    [
      " particip",
      "ated"
    ],
    [
      " hon",
      "or"
    ],
    [
      " hy",
      "d"
    ],
    [
      " M",
      "emorial"
    ],
    [
      " Scient",
      "ologists"
    ],
    [
      " des",
      "cend"
    ],
    [
      " heav",
      "ily"
    ],
    [
      " bro",
      "ken"
    ],
    [
      " priv",
      "ate"
    ],
    [
      " commer",
      "cial"
    ],
    [
      " N",
      "HL"
    ],
    [
      " Colle",
      "ge"
    ],
    [
      " s",
      "tere"
    ],
    [
      " espec",
      "ially"
    ],
    [
      " Y",
      "ongsan"
    ],
    [
      "c",
      "y"
    ],
    [
      "an",
      "a"
    ],
    [
      "as",
      "c"
    ],
    [
      " C",
      "he"
    ],
    [
      " t",
      "im"
    ],
    [
      "im",
      "s"
    ],
    [
      " p",
      "ow"
    ],
    [
      "ir",
      "th"
    ],
    [
      " M",
      "ain"
    ],
    [
      "is",
      "ers"
    ],
    [
      " U",
      "N"
    ],
    [
      " M",
      "ag"
    ],
    [
      " St",
      "ra"
    ],
    [
      "oc",
      "ial"
    ],
    [
      " s",
      "pl"
    ],
    [
      " j",
      "our"
    ],
    [
      " ro",
      "om"
    ],
    [
      " l",
      "ove"
    ],
    [
      " L",
      "ock"
    ],
    [
      " Mar",
      "ines"
    ],
    [
      " he",
      "lic"
    ],
    [
      " d",
      "ram"
    ],
    [
      " art",
      "ist"
    ],
    [
      " gen",
      "us"
    ],
    [
      " in",
      "stru"
    ],
    [
      " in",
      "side"
    ],
    [
      " gu",
      "ard"
    ],
    [
      " act",
      "ually"
    ],
    [
      " count",
      "y"
    ],
    [
      " T",
      "imes"
    ],
    [
      " ann",
      "ual"
    ],
    [
      " cross",
      "ed"
    ],
    [
      "arr",
      "ison"
    ],
    [
      " allow",
      "ing"
    ],
    [
      " Philipp",
      "ine"
    ],
    [
      " ro",
      "of"
    ],
    [
      " b",
      "atter"
    ],
    [
      " comm",
      "emor"
    ],
    [
      " m",
      "emor"
    ],
    [
      " off",
      "ensive"
    ],
    [
      " ext",
      "ensive"
    ],
    [
      " contro",
      "vers"
    ],
    [
      " V",
      "iet"
    ],
    [
      " right",
      "s"
    ],
    [
      " hel",
      "ped"
    ],
    [
      " ey",
      "es"
    ],
    [
      " Mount",
      "ains"
    ],
    [
      " surv",
      "iving"
    ],
    [
      " m",
      "ention"
    ],
    [
      " sit",
      "uation"
    ],
    [
      " colon",
      "ial"
    ],
    [
      " Em",
      "peror"
    ],
    [
      " Canad",
      "ian"
    ],
    [
      " Canad",
      "a"
    ],
    [
      " somet",
      "imes"
    ],
    [
      " award",
      "ed"
    ],
    [
      " w",
      "aters"
    ],
    [
      " dou",
      "ble"
    ],
    [
      " diss",
      "ip"
    ],
    [
      " acc",
      "omp"
    ],
    [
      " Aust",
      "rian"
    ],
    [
      " weaken",
      "ed"
    ],
    [
      " Sar",
      "aw"
    ],
    [
      " abandon",
      "ed"
    ],
    [
      " surf",
      "ace"
    ],
    [
      " suppl",
      "ies"
    ],
    [
      "sel",
      "ves"
    ],
    [
      "kn",
      "own"
    ],
    [
      " Ch",
      "ronicles"
    ],
    [
      " Ire",
      "land"
    ],
    [
      " aftern",
      "oon"
    ],
    [
      " Gu",
      "adalcanal"
    ],
    [
      " Saraw",
      "ak"
    ],
    [
      "t",
      "a"
    ],
    [
      "u",
      "x"
    ],
    [
      "it",
      "i"
    ],
    [
      "n",
      "al"
    ],
    [
      " s",
      "al"
    ],
    [
      "al",
      "a"
    ],
    [
      " p",
      "in"
    ],
    [
      " h",
      "i"
    ],
    [
      " m",
      "om"
    ],
    [
      " M",
      "en"
    ],
    [
      " d",
      "ig"
    ],
    [
      " p",
      "ay"
    ],
    [
      " R",
      "es"
    ],
    [
      "o",
      "ch"
    ],
    [
      " r",
      "ing"
    ],
    [
      " D",
      "el"
    ],
    [
      " D",
      "ar"
    ],
    [
      " wh",
      "om"
    ],
    [
      " T",
      "ri"
    ],
    [
      "et",
      "her"
    ],
    [
      "ap",
      "el"
    ],
    [
      " L",
      "ate"
    ],
    [
      " y",
      "et"
    ],
    [
      " M",
      "ass"
    ],
    [
      " le",
      "ave"
    ],
    [
      "ach",
      "us"
    ],
    [
      " us",
      "es"
    ],
    [
      " R",
      "aw"
    ],
    [
      " r",
      "ough"
    ],
    [
      "ub",
      "e"
    ],
    [
      "m",
      "ark"
    ],
    [
      " De",
      "f"
    ],
    [
      " st",
      "ock"
    ],
    [
      " fe",
      "el"
    ],
    [
      " r",
      "aid"
    ],
    [
      " G",
      "az"
    ],
    [
      " S",
      "ince"
    ],
    [
      " acc",
      "ount"
    ],
    [
      " record",
      "s"
    ],
    [
      " start",
      "ing"
    ],
    [
      "led",
      "ge"
    ],
    [
      "if",
      "orn"
    ],
    [
      " set",
      "ting"
    ],
    [
      " t",
      "ax"
    ],
    [
      " M",
      "ax"
    ],
    [
      "ug",
      "by"
    ],
    [
      " us",
      "ually"
    ],
    [
      " crit",
      "ical"
    ],
    [
      " m",
      "ask"
    ],
    [
      " Car",
      "ol"
    ],
    [
      " s",
      "ought"
    ],
    [
      " T",
      "ai"
    ],
    [
      "ram",
      "uro"
    ],
    [
      " cycl",
      "ization"
    ],
    [
      " fr",
      "ig"
    ],
    [
      " prog",
      "ress"
    ],
    [
      " m",
      "akes"
    ],
    [
      " school",
      "s"
    ],
    [
      " colle",
      "ge"
    ],
    [
      " he",
      "alth"
    ],
    [
      " Off",
      "ic"
    ],
    [
      " Mal",
      "ays"
    ],
    [
      " Europe",
      "an"
    ],
    [
      " star",
      "red"
    ],
    [
      " D",
      "ream"
    ],
    [
      "et",
      "work"
    ],
    [
      " sum",
      "mer"
    ],
    [
      " ide",
      "a"
    ],
    [
      " HM",
      "S"
    ],
    [
      " res",
      "erve"
    ],
    [
      " ex",
      "pected"
    ],
    [
      " redu",
      "ced"
    ],
    [
      " rel",
      "atively"
    ],
    [
      " prom",
      "inent"
    ],
    [
      " Cl",
      "aud"
    ],
    [
      " Dod",
      "gers"
    ],
    [
      " d",
      "aughter"
    ],
    [
      " C",
      "ullen"
    ],
    [
      " touch",
      "down"
    ],
    [
      "an",
      "while"
    ],
    [
      " ce",
      "leb"
    ],
    [
      " contem",
      "porary"
    ],
    [
      " F",
      "ernandez"
    ],
    [
      " Ad",
      "miral"
    ],
    [
      " Lie",
      "utenant"
    ],
    [
      " max",
      "imum"
    ],
    [
      " helic",
      "op"
    ],
    [
      "iforn",
      "ia"
    ],
    [
      "ramuro",
      "s"
    ],
    [
      "at",
      "r"
    ],
    [
      "m",
      "as"
    ],
    [
      " A",
      "I"
    ],
    [
      "ac",
      "an"
    ],
    [
      "id",
      "er"
    ],
    [
      "ot",
      "ter"
    ],
    [
      " l",
      "ay"
    ],
    [
      "is",
      "ation"
    ],
    [
      "os",
      "en"
    ],
    [
      " F",
      "it"
    ],
    [
      " se",
      "nd"
    ],
    [
      "ill",
      "ed"
    ],
    [
      " r",
      "if"
    ],
    [
      " t",
      "ip"
    ],
    [
      " su",
      "it"
    ],
    [
      " w",
      "all"
    ],
    [
      "te",
      "b"
    ],
    [
      " re",
      "pe"
    ],
    [
      " W",
      "ard"
    ],
    [
      " J",
      "ust"
    ],
    [
      " T",
      "ag"
    ],
    [
      "el",
      "ess"
    ],
    [
      " St",
      "ar"
    ],
    [
      "r",
      "ight"
    ],
    [
      " t",
      "ry"
    ],
    [
      " He",
      "nd"
    ],
    [
      "u",
      "ous"
    ],
    [
      " whe",
      "el"
    ],
    [
      "ue",
      "es"
    ],
    [
      " ag",
      "g"
    ],
    [
      " sh",
      "own"
    ],
    [
      " m",
      "ile"
    ],
    [
      " B",
      "urn"
    ],
    [
      "y",
      "les"
    ],
    [
      " rem",
      "ark"
    ],
    [
      " def",
      "ens"
    ],
    [
      "ient",
      "e"
    ],
    [
      " act",
      "ors"
    ],
    [
      " second",
      "s"
    ],
    [
      "m",
      "itt"
    ],
    [
      " Sp",
      "ain"
    ],
    [
      " inc",
      "ident"
    ],
    [
      " sy",
      "nt"
    ],
    [
      " ele",
      "v"
    ],
    [
      " comp",
      "ared"
    ],
    [
      " large",
      "ly"
    ],
    [
      " near",
      "by"
    ],
    [
      " ob",
      "ject"
    ],
    [
      " F",
      "urther"
    ],
    [
      " turn",
      "ing"
    ],
    [
      " se",
      "arch"
    ],
    [
      " arm",
      "ored"
    ],
    [
      " ty",
      "pe"
    ],
    [
      " resp",
      "ond"
    ],
    [
      " ab",
      "ility"
    ],
    [
      " se",
      "ctions"
    ],
    [
      "amb",
      "ia"
    ],
    [
      " ord",
      "ers"
    ],
    [
      " def",
      "ensive"
    ],
    [
      " ear",
      "ned"
    ],
    [
      " equ",
      "ip"
    ],
    [
      " pain",
      "ting"
    ],
    [
      " ed",
      "uc"
    ],
    [
      " effect",
      "s"
    ],
    [
      " E",
      "RA"
    ],
    [
      " pur",
      "p"
    ],
    [
      " inj",
      "ury"
    ],
    [
      "ograp",
      "hy"
    ],
    [
      " un",
      "su"
    ],
    [
      " effort",
      "s"
    ],
    [
      " s",
      "ports"
    ],
    [
      " Ac",
      "ad"
    ],
    [
      " Mon",
      "ument"
    ],
    [
      " condu",
      "cted"
    ],
    [
      " fif",
      "th"
    ]
  ],
  "vocab": {
    "<pad>": 0,
    "<bos>": 1,
    "<eos>": 2,
    "<unk>": 3,
    " ": 4,
    "A": 5,
    "B": 6,
    "C": 7,
    "D": 8,
    "E": 9,
    "F": 10,
    "G": 11,
    "H": 12,
    "I": 13,
    "J": 14,
    "K": 15,
    "L": 16,
    "M": 17,
    "N": 18,
    "O": 19,
    "P": 20,
    "Q": 21,
    "R": 22,
    "S": 23,
    "T": 24,
    "U": 25,
    "V": 26,
    "W": 27,
    "X": 28,
    "Y": 29,
    "Z": 30,
    "a": 31,
    "b": 32,
    "c": 33,
    "d": 34,
    "e": 35,
    "f": 36,
    "g": 37,
    "h": 38,
    "i": 39,
    "j": 40,
    "k": 41,
    "l": 42,
    "m": 43,
    "n": 44,
    "o": 45,
    "p": 46,
    "q": 47,
    "r": 48,
    "s": 49,
    "t": 50,
    "u": 51,
    "v": 52,
    "w": 53,
    "x": 54,
    "y": 55,
    "z": 56,
    " t": 57,
    "he": 58,
    " a": 59,
    "in": 60,
    " the": 61,
    "er": 62,
    "on": 63,
    " s": 64,
    "ed": 65,
    "re": 66,
    " w": 67,
    " o": 68,
    "nd": 69,
    "at": 70,
    "or": 71,
    "en": 72,
    "it": 73,
    " f": 74,
    "es": 75,
    " c": 76,
    "an": 77,
    "ar": 78,
    " of": 79,
    " b": 80,
    " in": 81,
    "is": 82,
    "al": 83,
    "ing": 84,
    "as": 85,
    " p": 86,
    " and": 87,
    " to": 88,
    "ou": 89,
    " m": 90,
    "ic": 91,
    " d": 92,
    " h": 93,
    "ion": 94,
    "ro": 95,
    "le": 96,
    " T": 97,
    "il": 98,
    " A": 99,
    " th": 100,
    " S": 101,
    " re": 102,
    "ent": 103,
    "st": 104,
    "ad": 105,
    " C": 106,
    " l": 107,
    " e": 108,
    "am": 109,
    "ac": 110,
    "om": 111,
    " n": 112,
    "ly": 113,
    " was": 114,
    " M": 115,
    "ur": 116,
    " B": 117,
    " on": 118,
    " be": 119,
    "id": 120,
    "ir": 121,
    "ig": 122,
    "ve": 123,
    "ol": 124,
    "ter": 125,
    "im": 126,
    " for": 127,
    " g": 128,
    " The": 129,
    "ct": 130,
    "ver": 131,
    " I": 132,
    " st": 133,
    "ot": 134,
    " H": 135,
    "ow": 136,
    " as": 137,
    "el": 138,
    "ay": 139,
    "us": 140,
    "ut": 141,
    "et": 142,
    "ith": 143,
    " N": 144,
    " he": 145,
    "ce": 146,
    " R": 147,
    "un": 148,
    "ation": 149,
    "ch": 150,
    " with": 151,
    " P": 152,
    " at": 153,
    " that": 154,
    " r": 155,
    " D": 156,
    "ul": 157,
    "em": 158,
    " by": 159,
    " con": 160,
    " al": 161,
    "os": 162,
    "th": 163,
    " F": 164,
    "ain": 165,
    " L": 166,
    " wh": 167,
    "and": 168,
    " W": 169,
    " J": 170,
    " de": 171,
    " an": 172,
    " is": 173,
    "rom": 174,
    "ri": 175,
    " se": 176,
    " G": 177,
    "ge": 178,
    " it": 179,
    "ers": 180,
    "ere": 181,
    "her": 182,
    "ist": 183,
    "est": 184,
    "ap": 185,
    "um": 186,
    " were": 187,
    " from": 188,
    " com": 189,
    "ort": 190,
    " his": 191,
    "ate": 192,
    "op": 193,
    "ill": 194,
    " E": 195,
    "igh": 196,
    "od": 197,
    "res": 198,
    " O": 199,
    "ian": 200,
    "ld": 201,
    "if": 202,
    "iv": 203,
    "ip": 204,
    "ber": 205,
    "ore": 206,
    "ak": 207,
    " U": 208,
    " su": 209,
    "ong": 210,
    "all": 211,
    "ich": 212,
    "qu": 213,
    "ity": 214,
    "ew": 215,
    "te": 216,
    " K": 217,
    "ated": 218,
    " pro": 219,
    "pe": 220,
    "art": 221,
    "ies": 222,
    "ra": 223,
    " pl": 224,
    "gh": 225,
    "ard": 226,
    " v": 227,
    "oc": 228,
    "ack": 229,
    "rou": 230,
    "se": 231,
    "ust": 232,
    " had": 233,
    "ant": 234,
    " sh": 235,
    "our": 236,
    "ive": 237,
    "ment": 238,
    " k": 239,
    "cl": 240,
    "ud": 241,
    "ab": 242,
    " or": 243,
    "ame": 244,
    " ex": 245,
    "ast": 246,
    "ag": 247,
    "nt": 248,
    "ess": 249,
    "av": 250,
    " St": 251,
    "ial": 252,
    " Ch": 253,
    "ight": 254,
    " are": 255,
    " In": 256,
    " which": 257,
    "ost": 258,
    "ia": 259,
    " ch": 260,
    " u": 261,
    "ary": 262,
    " ar": 263,
    " not": 264,
    "ine": 265,
    "pp": 266,
    "ear": 267,
    "pt": 268,
    " un": 269,
    "out": 270,
    "ction": 271,
    "ond": 272,
    "ry": 273,
    "rit": 274,
    " y": 275,
    "og": 276,
    "ass": 277,
    " He": 278,
    " le": 279,
    "ish": 280,
    "per": 281,
    "ide": 282,
    "so": 283,
    "The": 284,
    "fter": 285,
    "ical": 286,
    "ave": 287,
    "wo": 288,
    "ign": 289,
    "mer": 290,
    " int": 291,
    " V": 292,
    "irst": 293,
    "low": 294,
    "ff": 295,
    "ie": 296,
    "ru": 297,
    "ould": 298,
    " cont": 299,
    " but": 300,
    "ous": 301,
    " whe": 302,
    " their": 303,
    "ther": 304,
    " its": 305,
    "ition": 306,
    "ell": 307,
    "pl": 308,
    "ord": 309,
    "ue": 310,
    " also": 311,
    " ag": 312,
    "ome": 313,
    "cc": 314,
    "ure": 315,
    "ree": 316,
    "ire": 317,
    " first": 318,
    "orm": 319,
    "ime": 320,
    "uring": 321,
    "own": 322,
    " cl": 323,
    "ik": 324,
    "ork": 325,
    " res": 326,
    "ral": 327,
    "ound": 328,
    "age": 329,
    " two": 330,
    "ans": 331,
    "ok": 332,
    " ad": 333,
    " comp": 334,
    "hed": 335,
    "ved": 336,
    "ens": 337,
    "ted": 338,
    " ab": 339,
    " per": 340,
    " been": 341,
    " tr": 342,
    "ance": 343,
    "ater": 344,
    " one": 345,
    "ile": 346,
    "iz": 347,
    "ach": 348,
    "ib": 349,
    " te": 350,
    "att": 351,
    " us": 352,
    " att": 353,
    "ng": 354,
    "iss": 355,
    "aw": 356,
    "over": 357,
    " sc": 358,
    "ough": 359,
    " have": 360,
    " off": 361,
    " j": 362,
    " has": 363,
    " ro": 364,
    " part": 365,
    "ount": 366,
    "ace": 367,
    " over": 368,
    "ron": 369,
    " It": 370,
    " after": 371,
    "iver": 372,
    " des": 373,
    "clud": 374,
    "ub": 375,
    "ence": 376,
    " en": 377,
    " im": 378,
    "urn": 379,
    " this": 380,
    "ally": 381,
    " bec": 382,
    "any": 383,
    " Th": 384,
    " out": 385,
    "ade": 386,
    " Aust": 387,
    "ne": 388,
    "are": 389,
    "nder": 390,
    " they": 391,
    "orth": 392,
    " ser": 393,
    "ions": 394,
    "ces": 395,
    " into": 396,
    " comm": 397,
    " rec": 398,
    "ress": 399,
    "ric": 400,
    "ations": 401,
    " Y": 402,
    "ind": 403,
    "ite": 404,
    "ward": 405,
    "ts": 406,
    " play": 407,
    " who": 408,
    "land": 409,
    " ne": 410,
    "ark": 411,
    " Se": 412,
    "ll": 413,
    "we": 414,
    "ph": 415,
    " includ": 416,
    "port": 417,
    "ice": 418,
    " year": 419,
    "rough": 420,
    "outh": 421,
    " up": 422,
    "ied": 423,
    " time": 424,
    " ev": 425,
    " we": 426,
    " dis": 427,
    " Un": 428,
    "ced": 429,
    "ult": 430,
    " her": 431,
    "ang": 432,
    "act": 433,
    "ail": 434,
    " pre": 435,
    " during": 436,
    " again": 437,
    "du": 438,
    "amp": 439,
    "ose": 440,
    " Ar": 441,
    "ove": 442,
    " would": 443,
    " US": 444,
    " fil": 445,
    "les": 446,
    "ines": 447,
    " him": 448,
    "one": 449,
    " rem": 450,
    "ited": 451,
    "gan": 452,
    " po": 453,
    "meric": 454,
    "ons": 455,
    "round": 456,
    "ank": 457,
    "cted": 458,
    "ates": 459,
    "ss": 460,
    "uil": 461,
    "erm": 462,
    " def": 463,
    " Re": 464,
    " Austral": 465,
    "oy": 466,
    "hip": 467,
    " other": 468,
    " inter": 469,
    "ors": 470,
    "vel": 471,
    " all": 472,
    "way": 473,
    "ck": 474,
    "ered": 475,
    " ear": 476,
    " Com": 477,
    " sec": 478,
    "ased": 479,
    " Americ": 480,
    "ft": 481,
    "ision": 482,
    "ning": 483,
    " more": 484,
    "int": 485,
    "ory": 486,
    "ase": 487,
    " spe": 488,
    "ick": 489,
    "able": 490,
    " De": 491,
    "vi": 492,
    "ollow": 493,
    " cons": 494,
    " work": 495,
    " ret": 496,
    " head": 497,
    " pos": 498,
    "form": 499,
    " film": 500,
    "old": 501,
    " three": 502,
    " bet": 503,
    " only": 504,
    " them": 505,
    " ass": 506,
    " under": 507,
    "ational": 508,
    "olog": 509,
    " cent": 510,
    "ock": 511,
    "ood": 512,
    " Brit": 513,
    " fl": 514,
    " end": 515,
    "red": 516,
    " most": 517,
    "wn": 518,
    " New": 519,
    " when": 520,
    " fe": 521,
    "ating": 522,
    "rop": 523,
    " sp": 524,
    "ents": 525,
    " col": 526,
    "tern": 527,
    "io": 528,
    "aus": 529,
    " num": 530,
    "oth": 531,
    "fore": 532,
    " she": 533,
    " Mar": 534,
    " day": 535,
    " kn": 536,
    " through": 537,
    "end": 538,
    " fin": 539,
    "lic": 540,
    "ake": 541,
    "ug": 542,
    "rib": 543,
    " city": 544,
    "ween": 545,
    "ren": 546,
    " war": 547,
    "ect": 548,
    "ason": 549,
    " team": 550,
    " sub": 551,
    "fer": 552,
    " buil": 553,
    "ob": 554,
    " Sc": 555,
    "ters": 556,
    "ix": 557,
    "aid": 558,
    " arm": 559,
    " inv": 560,
    "ient": 561,
    " while": 562,
    " Les": 563,
    " co": 564,
    " lar": 565,
    " Jap": 566,
    " about": 567,
    " War": 568,
    "aj": 569,
    " four": 570,
    "ember": 571,
    " me": 572,
    " later": 573,
    " new": 574,
    " ship": 575,
    " Japan": 576,
    " Z": 577,
    " where": 578,
    " supp": 579,
    " pe": 580,
    " game": 581,
    " against": 582,
    "az": 583,
    " follow": 584,
    "ings": 585,
    "ained": 586,
    " made": 587,
    " between": 588,
    "mber": 589,
    "yl": 590,
    "reat": 591,
    " em": 592,
    " On": 593,
    " am": 594,
    "ual": 595,
    "ict": 596,
    " high": 597,
    "overn": 598,
    "ross": 599,
    "eral": 600,
    " sever": 601,
    " before": 602,
    " attack": 603,
    " inc": 604,
    " app": 605,
    " than": 606,
    " American": 607,
    "the": 608,
    "hes": 609,
    " car": 610,
    " mon": 611,
    "orld": 612,
    "In": 613,
    " some": 614,
    " number": 615,
    "ese": 616,
    " ac": 617,
    " loc": 618,
    " bo": 619,
    " Man": 620,
    " British": 621,
    " sur": 622,
    " Ind": 623,
    " batt": 624,
    " act": 625,
    "avy": 626,
    "ike": 627,
    " mil": 628,
    " reg": 629,
    "ull": 630,
    " Australian": 631,
    " second": 632,
    " contin": 633,
    " form": 634,
    "ific": 635,
    " ap": 636,
    " May": 637,
    " back": 638,
    " there": 639,
    " mat": 640,
    "ince": 641,
    " rel": 642,
    " Ner": 643,
    "ath": 644,
    " along": 645,
    " char": 646,
    " song": 647,
    " being": 648,
    " gun": 649,
    "nar": 650,
    " air": 651,
    "ever": 652,
    " cap": 653,
    "ov": 654,
    " so": 655,
    " At": 656,
    "ames": 657,
    " As": 658,
    " km": 659,
    " Be": 660,
    " used": 661,
    " several": 662,
    " produ": 663,
    "velop": 664,
    " season": 665,
    " ent": 666,
    " ver": 667,
    " Col": 668,
    "une": 669,
    "ann": 670,
    " Al": 671,
    "air": 672,
    "uch": 673,
    "ier": 674,
    "ke": 675,
    "au": 676,
    "iel": 677,
    " design": 678,
    " Germ": 679,
    " qu": 680,
    " North": 681,
    "its": 682,
    " acc": 683,
    "ek": 684,
    "ury": 685,
    " met": 686,
    "roup": 687,
    "der": 688,
    " pr": 689,
    "osp": 690,
    "oun": 691,
    " govern": 692,
    "ower": 693,
    " United": 694,
    "ram": 695,
    "aced": 696,
    "other": 697,
    " oper": 698,
    " Sh": 699,
    " mill": 700,
    "ven": 701,
    " became": 702,
    "itt": 703,
    "emb": 704,
    " spec": 705,
    "ipp": 706,
    "ton": 707,
    "ane": 708,
    "als": 709,
    "ished": 710,
    "urch": 711,
    " dec": 712,
    " rep": 713,
    "ative": 714,
    " ind": 715,
    "ised": 716,
    " no": 717,
    " including": 718,
    " began": 719,
    " both": 720,
    "ued": 721,
    " Le": 722,
    " appe": 723,
    "man": 724,
    " Sp": 725,
    "owever": 726,
    " bl": 727,
    " Cl": 728,
    "oss": 729,
    " main": 730,
    " add": 731,
    " then": 732,
    " found": 733,
    " record": 734,
    " Sept": 735,
    "ivision": 736,
    " sm": 737,
    "ious": 738,
    "alled": 739,
    " Comm": 740,
    " An": 741,
    " return": 742,
    "ined": 743,
    " rele": 744,
    "ived": 745,
    " develop": 746,
    "ern": 747,
    " perform": 748,
    " Lesnar": 749,
    "ident": 750,
    "oute": 751,
    "though": 752,
    " well": 753,
    " br": 754,
    "xt": 755,
    "ah": 756,
    " did": 757,
    "ular": 758,
    "ful": 759,
    "pen": 760,
    " land": 761,
    " This": 762,
    "ets": 763,
    " September": 764,
    " est": 765,
    " could": 766,
    " dire": 767,
    "ropical": 768,
    "son": 769,
    " inf": 770,
    " trans": 771,
    " pub": 772,
    " north": 773,
    " cre": 774,
    "iron": 775,
    " comple": 776,
    " known": 777,
    " dep": 778,
    " imp": 779,
    " sy": 780,
    "ures": 781,
    " years": 782,
    " man": 783,
    "ments": 784,
    " ele": 785,
    "ange": 786,
    " Aug": 787,
    " art": 788,
    " Japanese": 789,
    " She": 790,
    " Ro": 791,
    " these": 792,
    " sign": 793,
    " August": 794,
    "ured": 795,
    " Bl": 796,
    "igin": 797,
    "ivers": 798,
    " early": 799,
    " gen": 800,
    " str": 801,
    "elf": 802,
    " pol": 803,
    "anc": 804,
    "ared": 805,
    "ise": 806,
    " long": 807,
    "ert": 808,
    " such": 809,
    "ics": 810,
    " rece": 811,
    "ists": 812,
    " Ste": 813,
    "ten": 814,
    " ep": 815,
    "idge": 816,
    " large": 817,
    " unt": 818,
    "stru": 819,
    " June": 820,
    "ajor": 821,
    " bro": 822,
    " Nero": 823,
    "eb": 824,
    " start": 825,
    " near": 826,
    " offic": 827,
    " around": 828,
    " group": 829,
    " pres": 830,
    " South": 831,
    "ily": 832,
    " do": 833,
    " set": 834,
    " tem": 835,
    " pop": 836,
    " many": 837,
    "ause": 838,
    " Br": 839,
    " any": 840,
    " said": 841,
    "ield": 842,
    "oh": 843,
    "ila": 844,
    "ians": 845,
    "ats": 846,
    " like": 847,
    " writ": 848,
    " pass": 849,
    "ized": 850,
    " Batt": 851,
    " until": 852,
    " ob": 853,
    "ology": 854,
    "ler": 855,
    "ple": 856,
    "ops": 857,
    " area": 858,
    "side": 859,
    " series": 860,
    " position": 861,
    "ec": 862,
    "hil": 863,
    " down": 864,
    "ook": 865,
    " south": 866,
    "oon": 867,
    "ctor": 868,
    "aking": 869,
    " small": 870,
    "led": 871,
    "ars": 872,
    "ale": 873,
    "ided": 874,
    "ities": 875,
    " command": 876,
    " Scient": 877,
    " support": 878,
    "hern": 879,
    " forces": 880,
    " sing": 881,
    " mus": 882,
    " Ju": 883,
    " show": 884,
    "orn": 885,
    " hist": 886,
    " lead": 887,
    "ission": 888,
    " min": 889,
    " Jan": 890,
    "ather": 891,
    "ool": 892,
    "ains": 893,
    "ccess": 894,
    " iron": 895,
    "oved": 896,
    "ina": 897,
    "ting": 898,
    " pers": 899,
    "uary": 900,
    " took": 901,
    " six": 902,
    " open": 903,
    "ep": 904,
    "ax": 905,
    " run": 906,
    " conc": 907,
    " state": 908,
    " After": 909,
    "ible": 910,
    "hen": 911,
    " feat": 912,
    "ped": 913,
    " gu": 914,
    " Oct": 915,
    "iff": 916,
    "ball": 917,
    " wind": 918,
    "ves": 919,
    "ode": 920,
    "quad": 921,
    " match": 922,
    " Ed": 923,
    "tend": 924,
    " adv": 925,
    "ified": 926,
    " disc": 927,
    " origin": 928,
    " win": 929,
    "bum": 930,
    "ially": 931,
    " following": 932,
    "by": 933,
    "ually": 934,
    " tro": 935,
    " kill": 936,
    " built": 937,
    " charac": 938,
    " called": 939,
    " January": 940,
    " Con": 941,
    "ung": 942,
    " Ang": 943,
    "ople": 944,
    " prov": 945,
    " World": 946,
    " epis": 947,
    "osed": 948,
    "ives": 949,
    "aining": 950,
    "ife": 951,
    " eff": 952,
    "rench": 953,
    "pr": 954,
    "ired": 955,
    "rap": 956,
    "amed": 957,
    " crit": 958,
    "ject": 959,
    " dist": 960,
    " All": 961,
    "view": 962,
    "oot": 963,
    "ober": 964,
    "ask": 965,
    " Car": 966,
    "empt": 967,
    " since": 968,
    "antry": 969,
    " government": 970,
    " French": 971,
    " For": 972,
    "ately": 973,
    " Arm": 974,
    "row": 975,
    " go": 976,
    " prom": 977,
    " west": 978,
    " Kore": 979,
    "urther": 980,
    " Manila": 981,
    "ism": 982,
    " inst": 983,
    " July": 984,
    " played": 985,
    " October": 986,
    " Wh": 987,
    "itary": 988,
    " Nove": 989,
    "ius": 990,
    " mod": 991,
    " Gu": 992,
    " port": 993,
    "ird": 994,
    " stre": 995,
    "ourt": 996,
    " men": 997,
    "ought": 998,
    " turn": 999,
    " German": 1000,
    "chool": 1001,
    " success": 1002,
    "ues": 1003,
    "ash": 1004,
    " Gen": 1005,
    " report": 1006,
    " November": 1007,
    "up": 1008,
    "oci": 1009,
    " storm": 1010,
    " use": 1011,
    "wards": 1012,
    "crib": 1013,
    " album": 1014,
    "arr": 1015,
    " Im": 1016,
    "uss": 1017,
    " included": 1018,
    " tri": 1019,
    " count": 1020,
    " place": 1021,
    " Phil": 1022,
    "quadron": 1023,
    "ding": 1024,
    "stem": 1025,
    "ondyl": 1026,
    "ins": 1027,
    "ery": 1028,
    "erv": 1029,
    "alk": 1030,
    " may": 1031,
    " tra": 1032,
    " occ": 1033,
    "ads": 1034,
    " dam": 1035,
    " Is": 1036,
    "ays": 1037,
    "arch": 1038,
    " you": 1039,
    " each": 1040,
    "raft": 1041,
    " National": 1042,
    " troops": 1043,
    " Me": 1044,
    "ement": 1045,
    " class": 1046,
    "vious": 1047,
    " consid": 1048,
    "ohn": 1049,
    " episode": 1050,
    "onn": 1051,
    "ored": 1052,
    " stru": 1053,
    " due": 1054,
    " States": 1055,
    " ships": 1056,
    " Division": 1057,
    "alion": 1058,
    " five": 1059,
    " ext": 1060,
    "aving": 1061,
    "ospondyl": 1062,
    " i": 1063,
    "ty": 1064,
    " They": 1065,
    " Fr": 1066,
    " fire": 1067,
    " River": 1068,
    " million": 1069,
    " ty": 1070,
    "ones": 1071,
    " ref": 1072,
    " gr": 1073,
    "gest": 1074,
    "ey": 1075,
    " east": 1076,
    " resp": 1077,
    " own": 1078,
    " Church": 1079,
    " attempt": 1080,
    "imes": 1081,
    " ann": 1082,
    " same": 1083,
    " major": 1084,
    " Te": 1085,
    "ides": 1086,
    " No": 1087,
    " dest": 1088,
    " repl": 1089,
    "ront": 1090,
    " because": 1091,
    "ble": 1092,
    "ently": 1093,
    " nort": 1094,
    " stud": 1095,
    " cr": 1096,
    " continued": 1097,
    " Mc": 1098,
    "urre": 1099,
    " conf": 1100,
    " requ": 1101,
    "ont": 1102,
    " can": 1103,
    "ham": 1104,
    "aut": 1105,
    " line": 1106,
    " tropical": 1107,
    " Mer": 1108,
    " held": 1109,
    " defe": 1110,
    " week": 1111,
    "ai": 1112,
    "vent": 1113,
    "ulu": 1114,
    "ility": 1115,
    " side": 1116,
    " appro": 1117,
    " next": 1118,
    " received": 1119,
    " people": 1120,
    "rest": 1121,
    "ycl": 1122,
    " exp": 1123,
    " sold": 1124,
    " century": 1125,
    " ed": 1126,
    "ctions": 1127,
    "ged": 1128,
    "uro": 1129,
    " Ad": 1130,
    " bel": 1131,
    " eng": 1132,
    " Australia": 1133,
    " guns": 1134,
    " released": 1135,
    " John": 1136,
    "ional": 1137,
    " var": 1138,
    " partic": 1139,
    "intulu": 1140,
    " hal": 1141,
    " ste": 1142,
    " now": 1143,
    " post": 1144,
    " contro": 1145,
    " organ": 1146,
    " Dece": 1147,
    "embers": 1148,
    " describ": 1149,
    " Am": 1150,
    " led": 1151,
    "els": 1152,
    "idian": 1153,
    "ached": 1154,
    "und": 1155,
    " ever": 1156,
    " vi": 1157,
    " public": 1158,
    " further": 1159,
    "roy": 1160,
    " just": 1161,
    "amb": 1162,
    " force": 1163,
    " former": 1164,
    " invol": 1165,
    " cross": 1166,
    " Scientology": 1167,
    " military": 1168,
    "aken": 1169,
    "ittle": 1170,
    " although": 1171,
    "bert": 1172,
    "ording": 1173,
    " Bintulu": 1174,
    "ison": 1175,
    " top": 1176,
    " rest": 1177,
    " Pl": 1178,
    "ouse": 1179,
    " serv": 1180,
    " much": 1181,
    " music": 1182,
    " Apr": 1183,
    " ins": 1184,
    "isted": 1185,
    " allow": 1186,
    " jo": 1187,
    " left": 1188,
    " previous": 1189,
    "ild": 1190,
    " band": 1191,
    " late": 1192,
    "iving": 1193,
    " came": 1194,
    "ched": 1195,
    " December": 1196,
    " April": 1197,
    "ene": 1198,
    "ital": 1199,
    "iment": 1200,
    " within": 1201,
    " ord": 1202,
    "cept": 1203,
    " track": 1204,
    " single": 1205,
    " named": 1206,
    "med": 1207,
    " won": 1208,
    "enn": 1209,
    "enc": 1210,
    "ling": 1211,
    " what": 1212,
    "lished": 1213,
    " Route": 1214,
    " Philipp": 1215,
    " sent": 1216,
    " fam": 1217,
    "aim": 1218,
    "ards": 1219,
    "ness": 1220,
    "ically": 1221,
    " another": 1222,
    " However": 1223,
    " ironcl": 1224,
    "iam": 1225,
    " last": 1226,
    "aval": 1227,
    " character": 1228,
    "On": 1229,
    "ink": 1230,
    " sim": 1231,
    "ute": 1232,
    "ulation": 1233,
    "ument": 1234,
    " Mich": 1235,
    "ship": 1236,
    " final": 1237,
    " capt": 1238,
    "to": 1239,
    "ae": 1240,
    "ner": 1241,
    " ft": 1242,
    " But": 1243,
    " third": 1244,
    " sl": 1245,
    "ior": 1246,
    " mid": 1247,
    "pect": 1248,
    " York": 1249,
    " tank": 1250,
    " March": 1251,
    " incre": 1252,
    "iversity": 1253,
    "of": 1254,
    "hy": 1255,
    "ley": 1256,
    "etr": 1257,
    "omet": 1258,
    "ants": 1259,
    "ikal": 1260,
    "ploy": 1261,
    " members": 1262,
    " Q": 1263,
    "atter": 1264,
    " care": 1265,
    " even": 1266,
    "me": 1267,
    "rew": 1268,
    "rist": 1269,
    " role": 1270,
    " based": 1271,
    " poss": 1272,
    " death": 1273,
    " del": 1274,
    "ution": 1275,
    " old": 1276,
    "sequ": 1277,
    " event": 1278,
    " Comp": 1279,
    "nospondyl": 1280,
    "ps": 1281,
    " beg": 1282,
    " way": 1283,
    "aul": 1284,
    " few": 1285,
    " name": 1286,
    " system": 1287,
    "omin": 1288,
    "ural": 1289,
    " home": 1290,
    " month": 1291,
    " power": 1292,
    " Meridian": 1293,
    " Su": 1294,
    " Rich": 1295,
    "ebru": 1296,
    " Tikal": 1297,
    " still": 1298,
    "iod": 1299,
    " Eng": 1300,
    " constru": 1301,
    " Army": 1302,
    "eter": 1303,
    " Pro": 1304,
    " games": 1305,
    " strong": 1306,
    "atic": 1307,
    " hand": 1308,
    " Will": 1309,
    " State": 1310,
    " fight": 1311,
    "ampions": 1312,
    " term": 1313,
    " battle": 1314,
    " cycl": 1315,
    " Febru": 1316,
    "mp": 1317,
    "read": 1318,
    " Co": 1319,
    " II": 1320,
    " Mus": 1321,
    "uted": 1322,
    " cover": 1323,
    " move": 1324,
    " heavy": 1325,
    " moved": 1326,
    " killed": 1327,
    " half": 1328,
    " pat": 1329,
    "pend": 1330,
    "aged": 1331,
    " arri": 1332,
    " sout": 1333,
    "vens": 1334,
    " Reg": 1335,
    " Road": 1336,
    "ales": 1337,
    " aut": 1338,
    "emor": 1339,
    " City": 1340,
    " light": 1341,
    " Inf": 1342,
    "ization": 1343,
    "ression": 1344,
    "sh": 1345,
    " comb": 1346,
    " Stre": 1347,
    " Count": 1348,
    "ney": 1349,
    " days": 1350,
    "ivil": 1351,
    "pite": 1352,
    "por": 1353,
    " fr": 1354,
    " Air": 1355,
    " prog": 1356,
    "ense": 1357,
    " result": 1358,
    " caus": 1359,
    "ille": 1360,
    " if": 1361,
    "akes": 1362,
    " shot": 1363,
    "bass": 1364,
    " carri": 1365,
    " front": 1366,
    " February": 1367,
    "isc": 1368,
    " Af": 1369,
    "ensive": 1370,
    " road": 1371,
    " school": 1372,
    " General": 1373,
    " destroy": 1374,
    "err": 1375,
    "ott": 1376,
    " red": 1377,
    " lost": 1378,
    "ideo": 1379,
    " expl": 1380,
    " make": 1381,
    " addition": 1382,
    "ampionship": 1383,
    "ger": 1384,
    " pit": 1385,
    " tot": 1386,
    " Bur": 1387,
    "elt": 1388,
    "used": 1389,
    " dem": 1390,
    "cess": 1391,
    " camp": 1392,
    "oyal": 1393,
    "reg": 1394,
    " short": 1395,
    " night": 1396,
    " metres": 1397,
    " estab": 1398,
    "ned": 1399,
    " mi": 1400,
    " San": 1401,
    " Cent": 1402,
    " equ": 1403,
    "heast": 1404,
    " colle": 1405,
    "ches": 1406,
    "self": 1407,
    "ox": 1408,
    " sk": 1409,
    " mm": 1410,
    " By": 1411,
    " There": 1412,
    "que": 1413,
    "tended": 1414,
    " life": 1415,
    "ls": 1416,
    " par": 1417,
    "alth": 1418,
    " pri": 1419,
    "iers": 1420,
    " mount": 1421,
    "ances": 1422,
    " period": 1423,
    " Infantry": 1424,
    "aur": 1425,
    "urg": 1426,
    " NY": 1427,
    "ody": 1428,
    " suff": 1429,
    " located": 1430,
    " tit": 1431,
    " bar": 1432,
    " Jack": 1433,
    "ages": 1434,
    "lish": 1435,
    " mark": 1436,
    " local": 1437,
    "craft": 1438,
    " belie": 1439,
    " University": 1440,
    " mar": 1441,
    "ela": 1442,
    " RA": 1443,
    "ague": 1444,
    " world": 1445,
    " miles": 1446,
    " claim": 1447,
    "reen": 1448,
    " beh": 1449,
    "hod": 1450,
    " town": 1451,
    " units": 1452,
    "lu": 1453,
    "iven": 1454,
    " These": 1455,
    "erry": 1456,
    "haw": 1457,
    "augh": 1458,
    " order": 1459,
    " appear": 1460,
    " nd": 1461,
    " init": 1462,
    " Can": 1463,
    " Cal": 1464,
    "omb": 1465,
    "get": 1466,
    " pain": 1467,
    " round": 1468,
    " Stevens": 1469,
    "bor": 1470,
    " lo": 1471,
    "ination": 1472,
    " iss": 1473,
    " water": 1474,
    " those": 1475,
    " total": 1476,
    " Ge": 1477,
    " best": 1478,
    " hour": 1479,
    " served": 1480,
    "iffer": 1481,
    " vict": 1482,
    " review": 1483,
    " described": 1484,
    " County": 1485,
    " video": 1486,
    "ving": 1487,
    "vers": 1488,
    " low": 1489,
    "resent": 1490,
    " Char": 1491,
    " opp": 1492,
    " Off": 1493,
    " signific": 1494,
    " Christ": 1495,
    " es": 1496,
    " cas": 1497,
    " Tr": 1498,
    "ush": 1499,
    "iet": 1500,
    "itted": 1501,
    " very": 1502,
    " however": 1503,
    " history": 1504,
    " having": 1505,
    " Company": 1506,
    " temnospondyl": 1507,
    "ges": 1508,
    " bas": 1509,
    " med": 1510,
    "onic": 1511,
    "hest": 1512,
    "aded": 1513,
    "igan": 1514,
    " Du": 1515,
    "rote": 1516,
    " right": 1517,
    " remained": 1518,
    " great": 1519,
    " across": 1520,
    " considered": 1521,
    "for": 1522,
    "par": 1523,
    "ilar": 1524,
    " hel": 1525,
    " stri": 1526,
    " vis": 1527,
    " contr": 1528,
    " never": 1529,
    "vision": 1530,
    "estern": 1531,
    "astern": 1532,
    " Navy": 1533,
    " formed": 1534,
    " returned": 1535,
    " ve": 1536,
    " Fl": 1537,
    " High": 1538,
    " Head": 1539,
    "cture": 1540,
    "reek": 1541,
    " commun": 1542,
    " Churchill": 1543,
    " William": 1544,
    " differ": 1545,
    "go": 1546,
    "reed": 1547,
    " We": 1548,
    " deb": 1549,
    " Hill": 1550,
    " plan": 1551,
    "ences": 1552,
    " Battalion": 1553,
    " Philippines": 1554,
    " career": 1555,
    " significant": 1556,
    " Har": 1557,
    " decl": 1558,
    " arch": 1559,
    "ript": 1560,
    " leg": 1561,
    "uc": 1562,
    " tw": 1563,
    "ead": 1564,
    " ey": 1565,
    "ature": 1566,
    " Mount": 1567,
    " highway": 1568,
    " developed": 1569,
    " Battle": 1570,
    "eng": 1571,
    " Ag": 1572,
    " El": 1573,
    " fore": 1574,
    "aign": 1575,
    " Park": 1576,
    " evac": 1577,
    " ground": 1578,
    " placed": 1579,
    " direct": 1580,
    " gener": 1581,
    " When": 1582,
    " aircraft": 1583,
    "ably": 1584,
    "mond": 1585,
    " During": 1586,
    " river": 1587,
    " performance": 1588,
    "ms": 1589,
    "bo": 1590,
    " la": 1591,
    " lim": 1592,
    "ither": 1593,
    "ize": 1594,
    "ferred": 1595,
    " surv": 1596,
    " vers": 1597,
    "phoon": 1598,
    "atives": 1599,
    " effect": 1600,
    " wrote": 1601,
    "ering": 1602,
    " Sy": 1603,
    "aying": 1604,
    " King": 1605,
    " without": 1606,
    "rict": 1607,
    " mph": 1608,
    " estim": 1609,
    " often": 1610,
    " present": 1611,
    "imately": 1612,
    " Russ": 1613,
    " every": 1614,
    " view": 1615,
    " child": 1616,
    "ator": 1617,
    " Mal": 1618,
    " Bo": 1619,
    " stat": 1620,
    "rie": 1621,
    " stated": 1622,
    "pec": 1623,
    " exper": 1624,
    " stage": 1625,
    "riend": 1626,
    " route": 1627,
    " court": 1628,
    " building": 1629,
    " Euro": 1630,
    "ershaw": 1631,
    "ium": 1632,
    " will": 1633,
    " Or": 1634,
    " prote": 1635,
    " national": 1636,
    " operations": 1637,
    " polit": 1638,
    " histor": 1639,
    " Korean": 1640,
    " Street": 1641,
    "con": 1642,
    "ials": 1643,
    " intens": 1644,
    " site": 1645,
    " heads": 1646,
    "endes": 1647,
    " take": 1648,
    " Lester": 1649,
    "ederal": 1650,
    " making": 1651,
    " original": 1652,
    " modern": 1653,
    " reached": 1654,
    "lm": 1655,
    " too": 1656,
    "lands": 1657,
    " crew": 1658,
    " range": 1659,
    " Afric": 1660,
    " Europe": 1661,
    "yn": 1662,
    " av": 1663,
    "here": 1664,
    " cle": 1665,
    " went": 1666,
    " star": 1667,
    " det": 1668,
    " With": 1669,
    " player": 1670,
    " among": 1671,
    " Indian": 1672,
    "RA": 1673,
    "inc": 1674,
    " bre": 1675,
    "ring": 1676,
    " And": 1677,
    "acy": 1678,
    "ape": 1679,
    " prop": 1680,
    "aff": 1681,
    " using": 1682,
    "rick": 1683,
    " close": 1684,
    " poet": 1685,
    " peak": 1686,
    " book": 1687,
    " winds": 1688,
    " McC": 1689,
    " Michigan": 1690,
    "tar": 1691,
    " pur": 1692,
    "irc": 1693,
    " His": 1694,
    " put": 1695,
    "umb": 1696,
    " action": 1697,
    "anish": 1698,
    " aff": 1699,
    " level": 1700,
    "ublic": 1701,
    " successful": 1702,
    " country": 1703,
    " young": 1704,
    "ccording": 1705,
    " soldiers": 1706,
    " influ": 1707,
    " represent": 1708,
    "min": 1709,
    " fle": 1710,
    " real": 1711,
    "amm": 1712,
    "ream": 1713,
    " fort": 1714,
    "ots": 1715,
    " gra": 1716,
    " gave": 1717,
    " tele": 1718,
    " You": 1719,
    " produced": 1720,
    " special": 1721,
    " person": 1722,
    " reported": 1723,
    " Royal": 1724,
    " given": 1725,
    "itar": 1726,
    "eal": 1727,
    " Sen": 1728,
    "ention": 1729,
    "eth": 1730,
    " dri": 1731,
    "dition": 1732,
    " Germany": 1733,
    " prim": 1734,
    "ounter": 1735,
    " foot": 1736,
    " naval": 1737,
    " population": 1738,
    "let": 1739,
    " rul": 1740,
    "tain": 1741,
    "ria": 1742,
    " sele": 1743,
    "less": 1744,
    " fav": 1745,
    " face": 1746,
    " story": 1747,
    " base": 1748,
    " feet": 1749,
    " division": 1750,
    " temnospondyls": 1751,
    "oman": 1752,
    "uation": 1753,
    " hum": 1754,
    " pra": 1755,
    "iness": 1756,
    "line": 1757,
    " compet": 1758,
    " Miss": 1759,
    "enced": 1760,
    "rodu": 1761,
    "inese": 1762,
    " wood": 1763,
    " species": 1764,
    " development": 1765,
    " Squadron": 1766,
    " announ": 1767,
    "urrent": 1768,
    "gr": 1769,
    "ret": 1770,
    "hor": 1771,
    " tour": 1772,
    "pir": 1773,
    "ems": 1774,
    "alls": 1775,
    " law": 1776,
    "ailed": 1777,
    " point": 1778,
    " flo": 1779,
    "lythe": 1780,
    " obs": 1781,
    " involved": 1782,
    "sequently": 1783,
    "va": 1784,
    "AS": 1785,
    " mor": 1786,
    "stit": 1787,
    "atch": 1788,
    " Par": 1789,
    " sug": 1790,
    " areas": 1791,
    " wide": 1792,
    " One": 1793,
    " press": 1794,
    " similar": 1795,
    " Mendes": 1796,
    " Chinese": 1797,
    "ns": 1798,
    "eded": 1799,
    " sit": 1800,
    "ades": 1801,
    "ister": 1802,
    "cts": 1803,
    " get": 1804,
    " Des": 1805,
    " WW": 1806,
    "fall": 1807,
    "ience": 1808,
    " find": 1809,
    " died": 1810,
    " mov": 1811,
    " production": 1812,
    " Commission": 1813,
    " er": 1814,
    "ices": 1815,
    "cent": 1816,
    " Cor": 1817,
    "aces": 1818,
    "omes": 1819,
    " Bro": 1820,
    " bus": 1821,
    " Fu": 1822,
    " stand": 1823,
    "cher": 1824,
    " want": 1825,
    " East": 1826,
    "peror": 1827,
    "work": 1828,
    " battles": 1829,
    " started": 1830,
    " civil": 1831,
    " felt": 1832,
    " behind": 1833,
    " Spanish": 1834,
    " inj": 1835,
    "aly": 1836,
    "ping": 1837,
    " ph": 1838,
    " mur": 1839,
    " Do": 1840,
    "itive": 1841,
    " Lond": 1842,
    " away": 1843,
    " America": 1844,
    " Rock": 1845,
    "field": 1846,
    " China": 1847,
    "ograp": 1848,
    " times": 1849,
    "ency": 1850,
    " Blythe": 1851,
    " my": 1852,
    "yle": 1853,
    " el": 1854,
    " hig": 1855,
    "ration": 1856,
    " withd": 1857,
    "west": 1858,
    " UB": 1859,
    "urity": 1860,
    "arty": 1861,
    " vol": 1862,
    " eight": 1863,
    " Oper": 1864,
    " miss": 1865,
    " saw": 1866,
    " import": 1867,
    " Rep": 1868,
    " earl": 1869,
    " armour": 1870,
    " Black": 1871,
    " squadron": 1872,
    " damage": 1873,
    " respons": 1874,
    " construction": 1875,
    "epend": 1876,
    " himself": 1877,
    " title": 1878,
    " suggest": 1879,
    "ga": 1880,
    " X": 1881,
    "gy": 1882,
    " rad": 1883,
    "emy": 1884,
    " Tem": 1885,
    " rain": 1886,
    "ints": 1887,
    "uck": 1888,
    " Vict": 1889,
    " written": 1890,
    " discover": 1891,
    " particular": 1892,
    " service": 1893,
    " Creek": 1894,
    "ev": 1895,
    "ole": 1896,
    " prof": 1897,
    "ounded": 1898,
    " though": 1899,
    "action": 1900,
    " case": 1901,
    " northern": 1902,
    "auty": 1903,
    " League": 1904,
    " friend": 1905,
    " WWE": 1906,
    " ten": 1907,
    " hit": 1908,
    "aster": 1909,
    " test": 1910,
    " Port": 1911,
    "most": 1912,
    " island": 1913,
    " Sec": 1914,
    "icult": 1915,
    " Ass": 1916,
    "ways": 1917,
    " works": 1918,
    " colon": 1919,
    " region": 1920,
    " entire": 1921,
    "anned": 1922,
    " critic": 1923,
    " ordered": 1924,
    " family": 1925,
    "etrarch": 1926,
    " different": 1927,
    " Richmond": 1928,
    "lo": 1929,
    "men": 1930,
    " cor": 1931,
    " reb": 1932,
    " once": 1933,
    "chn": 1934,
    "ties": 1935,
    "raw": 1936,
    " least": 1937,
    "igned": 1938,
    " scul": 1939,
    " Dep": 1940,
    " center": 1941,
    " followed": 1942,
    " full": 1943,
    " Australians": 1944,
    " release": 1945,
    " towards": 1946,
    " defeated": 1947,
    " Little": 1948,
    " campaign": 1949,
    "uz": 1950,
    "xic": 1951,
    "urb": 1952,
    "ids": 1953,
    " div": 1954,
    " less": 1955,
    "perial": 1956,
    " Gib": 1957,
    " company": 1958,
    "ollowing": 1959,
    "ference": 1960,
    "ington": 1961,
    " added": 1962,
    " Although": 1963,
    " boats": 1964,
    " originally": 1965,
    " control": 1966,
    "emeter": 1967,
    "ville": 1968,
    " embass": 1969,
    " London": 1970,
    "su": 1971,
    " wa": 1972,
    " dr": 1973,
    "acing": 1974,
    " Hol": 1975,
    " cut": 1976,
    "anch": 1977,
    " lack": 1978,
    "inted": 1979,
    " Care": 1980,
    " Year": 1981,
    " activ": 1982,
    " block": 1983,
    " loss": 1984,
    " appeared": 1985,
    " diff": 1986,
    " effort": 1987,
    " project": 1988,
    " Force": 1989,
    " While": 1990,
    " Butler": 1991,
    " caused": 1992,
    "ma": 1993,
    "ara": 1994,
    "asion": 1995,
    " Pac": 1996,
    "osing": 1997,
    " see": 1998,
    " ke": 1999,
    " able": 2000,
    " become": 2001,
    " include": 2002,
    "ators": 2003,
    " Raj": 2004,
    " ident": 2005,
    "iffe": 2006,
    "onna": 2007,
    " joined": 2008,
    "medi": 2009,
    " begin": 2010,
    " Championship": 2011,
    " sculpt": 2012,
    "ising": 2013,
    "dle": 2014,
    " Ty": 2015,
    "vol": 2016,
    " Rad": 2017,
    " seen": 2018,
    "ford": 2019,
    "ports": 2020,
    "ault": 2021,
    " rank": 2022,
    " invest": 2023,
    "illery": 2024,
    " ironclads": 2025,
    " Geor": 2026,
    " Tetrarch": 2027,
    " embassy": 2028,
    "be": 2029,
    " fre": 2030,
    "ying": 2031,
    " Sm": 2032,
    "ote": 2033,
    " Per": 2034,
    " ra": 2035,
    " conv": 2036,
    " cour": 2037,
    " slow": 2038,
    "ief": 2039,
    " enc": 2040,
    " defend": 2041,
    " build": 2042,
    " member": 2043,
    " designed": 2044,
    " complete": 2045,
    " broad": 2046,
    " replaced": 2047,
    " Muse": 2048,
    "hodes": 2049,
    " Zeal": 2050,
    " sw": 2051,
    "ald": 2052,
    "dom": 2053,
    "arly": 2054,
    " Bel": 2055,
    " Po": 2056,
    "artment": 2057,
    " kil": 2058,
    " unit": 2059,
    "rought": 2060,
    " army": 2061,
    " Great": 2062,
    " relig": 2063,
    " decided": 2064,
    " associ": 2065,
    " house": 2066,
    " months": 2067,
    " bomb": 2068,
    " Mexic": 2069,
    "oo": 2070,
    " ce": 2071,
    "str": 2072,
    " age": 2073,
    "aps": 2074,
    " Em": 2075,
    "ival": 2076,
    " section": 2077,
    " coach": 2078,
    " completed": 2079,
    " program": 2080,
    " destroyed": 2081,
    " announced": 2082,
    " Victor": 2083,
    "hu": 2084,
    "AF": 2085,
    "MA": 2086,
    "ino": 2087,
    "can": 2088,
    "tic": 2089,
    "ster": 2090,
    "com": 2091,
    " gl": 2092,
    " Pr": 2093,
    " Day": 2094,
    " La": 2095,
    " sum": 2096,
    " cast": 2097,
    "lled": 2098,
    " chang": 2099,
    " above": 2100,
    " look": 2101,
    " thought": 2102,
    " various": 2103,
    " Canad": 2104,
    " estimated": 2105,
    " Rhodes": 2106,
    " Zealand": 2107,
    "gg": 2108,
    " tre": 2109,
    "enes": 2110,
    "asing": 2111,
    "oul": 2112,
    " fig": 2113,
    " how": 2114,
    "now": 2115,
    "ayed": 2116,
    " Mong": 2117,
    "quar": 2118,
    "ively": 2119,
    " mag": 2120,
    " Award": 2121,
    "phib": 2122,
    " hold": 2123,
    " Marine": 2124,
    " James": 2125,
    " quick": 2126,
    " Angle": 2127,
    " particip": 2128,
    " tanks": 2129,
    " fighting": 2130,
    " arrived": 2131,
    "ique": 2132,
    " Nerva": 2133,
    " Big": 2134,
    " Dan": 2135,
    "oren": 2136,
    " Ball": 2137,
    "cast": 2138,
    "assic": 2139,
    " should": 2140,
    "ressed": 2141,
    " central": 2142,
    "ification": 2143,
    " Wales": 2144,
    " established": 2145,
    " circ": 2146,
    "cliffe": 2147,
    " artillery": 2148,
    " Mongol": 2149,
    "bs": 2150,
    " far": 2151,
    " hon": 2152,
    " ren": 2153,
    "omen": 2154,
    " Mad": 2155,
    " Min": 2156,
    "app": 2157,
    " aud": 2158,
    "pper": 2159,
    " players": 2160,
    " throughout": 2161,
    " coast": 2162,
    " popular": 2163,
    "ckham": 2164,
    " previously": 2165,
    " deploy": 2166,
    " Mississ": 2167,
    " techn": 2168,
    "af": 2169,
    " cal": 2170,
    " To": 2171,
    " Ac": 2172,
    " Mor": 2173,
    " anc": 2174,
    " Britain": 2175,
    " meet": 2176,
    "ippi": 2177,
    " ridge": 2178,
    " occur": 2179,
    " largest": 2180,
    " scene": 2181,
    " published": 2182,
    " ironclad": 2183,
    " Paul": 2184,
    " Regiment": 2185,
    "burg": 2186,
    " laun": 2187,
    " either": 2188,
    " Kershaw": 2189,
    "raltar": 2190,
    " current": 2191,
    "ona": 2192,
    "val": 2193,
    " ask": 2194,
    " Pe": 2195,
    " Gr": 2196,
    "isting": 2197,
    "ogn": 2198,
    " Some": 2199,
    "hile": 2200,
    " fact": 2201,
    " intern": 2202,
    " good": 2203,
    " seven": 2204,
    " recorded": 2205,
    " complex": 2206,
    " born": 2207,
    " father": 2208,
    " streng": 2209,
    " Court": 2210,
    " somet": 2211,
    " southern": 2212,
    " carried": 2213,
    " political": 2214,
    " According": 2215,
    "zo": 2216,
    "mar": 2217,
    "cing": 2218,
    " Sl": 2219,
    "imin": 2220,
    "uel": 2221,
    "ries": 2222,
    "ivid": 2223,
    " Nak": 2224,
    " comment": 2225,
    " First": 2226,
    " pie": 2227,
    "igade": 2228,
    " white": 2229,
    " Att": 2230,
    " black": 2231,
    " impro": 2232,
    " general": 2233,
    " sett": 2234,
    " positions": 2235,
    " features": 2236,
    "asket": 2237,
    " infantry": 2238,
    " allowed": 2239,
    " conspir": 2240,
    " murder": 2241,
    " Doctor": 2242,
    " almost": 2243,
    " Mississippi": 2244,
    " Mon": 2245,
    " Best": 2246,
    " king": 2247,
    " ide": 2248,
    "wood": 2249,
    " below": 2250,
    " award": 2251,
    " upon": 2252,
    " created": 2253,
    " opening": 2254,
    " request": 2255,
    " little": 2256,
    " casual": 2257,
    " style": 2258,
    " points": 2259,
    " Pacific": 2260,
    " Gibraltar": 2261,
    "asketball": 2262,
    " Her": 2263,
    " Met": 2264,
    " Hist": 2265,
    " Ant": 2266,
    "rying": 2267,
    " word": 2268,
    "oice": 2269,
    " Union": 2270,
    " coll": 2271,
    " surround": 2272,
    " qual": 2273,
    " Command": 2274,
    " featured": 2275,
    " training": 2276,
    " studio": 2277,
    " latter": 2278,
    " depression": 2279,
    " Scott": 2280,
    " northeast": 2281,
    " agreed": 2282,
    " typhoon": 2283,
    " author": 2284,
    " business": 2285,
    " important": 2286,
    " Beauty": 2287,
    "St": 2288,
    "uk": 2289,
    "wer": 2290,
    "iter": 2291,
    "iting": 2292,
    "ament": 2293,
    "oted": 2294,
    "unk": 2295,
    " Dod": 2296,
    "iber": 2297,
    " Gore": 2298,
    "ories": 2299,
    "abor": 2300,
    " exh": 2301,
    " super": 2302,
    " Two": 2303,
    " conne": 2304,
    "arent": 2305,
    " Under": 2306,
    " sail": 2307,
    " condu": 2308,
    "icles": 2309,
    " lines": 2310,
    "ected": 2311,
    " others": 2312,
    " interse": 2313,
    " attacked": 2314,
    "venue": 2315,
    " runs": 2316,
    " employ": 2317,
    " hours": 2318,
    " human": 2319,
    " introdu": 2320,
    "co": 2321,
    "oe": 2322,
    " pal": 2323,
    " dro": 2324,
    " Sch": 2325,
    " ru": 2326,
    " Dist": 2327,
    " Ex": 2328,
    " host": 2329,
    " noted": 2330,
    "ological": 2331,
    " Intern": 2332,
    " mix": 2333,
    " police": 2334,
    " outside": 2335,
    " rather": 2336,
    " provided": 2337,
    " turned": 2338,
    " Center": 2339,
    " suffered": 2340,
    " separ": 2341,
    " instead": 2342,
    " avail": 2343,
    " battleship": 2344,
    " Operation": 2345,
    " difficult": 2346,
    " recogn": 2347,
    " CR": 2348,
    "urt": 2349,
    " mot": 2350,
    "utes": 2351,
    "ety": 2352,
    " Don": 2353,
    "istic": 2354,
    " West": 2355,
    " rap": 2356,
    " plat": 2357,
    " foc": 2358,
    "After": 2359,
    "order": 2360,
    "uments": 2361,
    " fourth": 2362,
    "ossal": 2363,
    " performed": 2364,
    " transport": 2365,
    " taken": 2366,
    " yards": 2367,
    " initially": 2368,
    " esc": 2369,
    " television": 2370,
    " praised": 2371,
    "ividual": 2372,
    "de": 2373,
    "amar": 2374,
    " aver": 2375,
    "day": 2376,
    "unn": 2377,
    " Fil": 2378,
    "aters": 2379,
    "ope": 2380,
    "illa": 2381,
    " Hall": 2382,
    "sec": 2383,
    " rout": 2384,
    "off": 2385,
    " hous": 2386,
    " reach": 2387,
    "nees": 2388,
    "urric": 2389,
    " rail": 2390,
    " directed": 2391,
    " removed": 2392,
    " critics": 2393,
    " proble": 2394,
    " engine": 2395,
    " monument": 2396,
    " Sonic": 2397,
    " eastern": 2398,
    " version": 2399,
    " Republic": 2400,
    " cemeter": 2401,
    " investig": 2402,
    " brought": 2403,
    " Mexico": 2404,
    "NA": 2405,
    " ter": 2406,
    "ony": 2407,
    "sen": 2408,
    " che": 2409,
    " dou": 2410,
    " hy": 2411,
    "leg": 2412,
    " Ten": 2413,
    " Ab": 2414,
    "head": 2415,
    " read": 2416,
    " ly": 2417,
    "lam": 2418,
    "omas": 2419,
    "iral": 2420,
    " rd": 2421,
    " Jew": 2422,
    "teen": 2423,
    " prob": 2424,
    " val": 2425,
    " exc": 2426,
    "agan": 2427,
    " Int": 2428,
    "ential": 2429,
    "unction": 2430,
    "die": 2431,
    " trad": 2432,
    " diss": 2433,
    " race": 2434,
    " rock": 2435,
    " know": 2436,
    " Naz": 2437,
    " pair": 2438,
    " indic": 2439,
    " official": 2440,
    " field": 2441,
    " prevent": 2442,
    " deliver": 2443,
    " intended": 2444,
    "osaur": 2445,
    " Natives": 2446,
    " saying": 2447,
    " floor": 2448,
    " subsequently": 2449,
    " security": 2450,
    " wounded": 2451,
    " Rajnees": 2452,
    "CA": 2453,
    " ox": 2454,
    "den": 2455,
    "ena": 2456,
    "rog": 2457,
    " AD": 2458,
    " non": 2459,
    " reve": 2460,
    " HM": 2461,
    " Jim": 2462,
    " Cap": 2463,
    " stop": 2464,
    " sequ": 2465,
    " Tra": 2466,
    " Tour": 2467,
    "imeter": 2468,
    " forced": 2469,
    " interest": 2470,
    "azine": 2471,
    " Starr": 2472,
    " process": 2473,
    " body": 2474,
    " appearance": 2475,
    " script": 2476,
    " federal": 2477,
    " morning": 2478,
    " RAAF": 2479,
    " Beckham": 2480,
    "mb": 2481,
    "aring": 2482,
    "ili": 2483,
    " Sw": 2484,
    "ste": 2485,
    " Ma": 2486,
    " Hu": 2487,
    "ael": 2488,
    " Pet": 2489,
    " Lat": 2490,
    " deter": 2491,
    " dead": 2492,
    " fif": 2493,
    "rag": 2494,
    "ocr": 2495,
    " nine": 2496,
    " Other": 2497,
    " tons": 2498,
    " contrib": 2499,
    " threat": 2500,
    " Major": 2501,
    " writing": 2502,
    " commander": 2503,
    " Koreans": 2504,
    " occup": 2505,
    "onnel": 2506,
    " battalion": 2507,
    " required": 2508,
    " accept": 2509,
    " England": 2510,
    "emorial": 2511,
    " strike": 2512,
    " structure": 2513,
    " Carey": 2514,
    " immedi": 2515,
    " Loren": 2516,
    "tr": 2517,
    "FC": 2518,
    " aw": 2519,
    "tion": 2520,
    "acon": 2521,
    "erve": 2522,
    "oll": 2523,
    "ola": 2524,
    "lect": 2525,
    "ayer": 2526,
    "ech": 2527,
    " Pre": 2528,
    "ande": 2529,
    "andon": 2530,
    " Fort": 2531,
    "berg": 2532,
    "aker": 2533,
    "lement": 2534,
    "ffic": 2535,
    " resul": 2536,
    " adap": 2537,
    " office": 2538,
    " disp": 2539,
    " displ": 2540,
    "ample": 2541,
    " speed": 2542,
    " Rick": 2543,
    " better": 2544,
    " flood": 2545,
    " appo": 2546,
    "ounc": 2547,
    " indust": 2548,
    "change": 2549,
    " signed": 2550,
    " leading": 2551,
    " Imag": 2552,
    " defeat": 2553,
    " approach": 2554,
    " captured": 2555,
    " possible": 2556,
    " Emp": 2557,
    "ready": 2558,
    " patro": 2559,
    " prior": 2560,
    " break": 2561,
    " fleet": 2562,
    " condition": 2563,
    " individual": 2564,
    " z": 2565,
    " son": 2566,
    " di": 2567,
    " hor": 2568,
    " Tre": 2569,
    "omp": 2570,
    " Mil": 2571,
    " Bu": 2572,
    "rian": 2573,
    " Pres": 2574,
    "lant": 2575,
    " cost": 2576,
    " sound": 2577,
    " weap": 2578,
    "ampion": 2579,
    " Arj": 2580,
    " stone": 2581,
    "pected": 2582,
    " ended": 2583,
    "idents": 2584,
    " finished": 2585,
    " brother": 2586,
    " Angel": 2587,
    " sides": 2588,
    " weaken": 2589,
    " contract": 2590,
    " Russian": 2591,
    " intensity": 2592,
    " JMA": 2593,
    " Radcliffe": 2594,
    " casualties": 2595,
    " basketball": 2596,
    " District": 2597,
    "urricane": 2598,
    "As": 2599,
    "ata": 2600,
    "itz": 2601,
    "ris": 2602,
    "oring": 2603,
    " ha": 2604,
    " Sar": 2605,
    " Bar": 2606,
    "iring": 2607,
    " ant": 2608,
    " anim": 2609,
    "ills": 2610,
    "ongs": 2611,
    " Ke": 2612,
    " live": 2613,
    "aby": 2614,
    "ights": 2615,
    " commer": 2616,
    " playing": 2617,
    " mult": 2618,
    " Jose": 2619,
    " armor": 2620,
    " Common": 2621,
    "arily": 2622,
    " exec": 2623,
    " Qu": 2624,
    " despite": 2625,
    " Olm": 2626,
    " Imperial": 2627,
    " personnel": 2628,
    "sp": 2629,
    " tor": 2630,
    "hing": 2631,
    " cou": 2632,
    " bad": 2633,
    " Hit": 2634,
    " Ne": 2635,
    "ula": 2636,
    " list": 2637,
    "allen": 2638,
    "rated": 2639,
    "ude": 2640,
    " free": 2641,
    "down": 2642,
    " overall": 2643,
    " image": 2644,
    " remain": 2645,
    " worked": 2646,
    " mostly": 2647,
    "ologists": 2648,
    " groups": 2649,
    " does": 2650,
    " deep": 2651,
    " shoot": 2652,
    "alky": 2653,
    " attempted": 2654,
    "ibility": 2655,
    "ospital": 2656,
    "ships": 2657,
    " damaged": 2658,
    "porary": 2659,
    "board": 2660,
    "conom": 2661,
    "ynast": 2662,
    " Columb": 2663,
    " quickly": 2664,
    " rapid": 2665,
    " average": 2666,
    " wit": 2667,
    "enth": 2668,
    "irid": 2669,
    " inch": 2670,
    " Dr": 2671,
    " deal": 2672,
    " Gl": 2673,
    " come": 2674,
    "ownt": 2675,
    "ania": 2676,
    "igence": 2677,
    " Mark": 2678,
    " working": 2679,
    " events": 2680,
    " teams": 2681,
    " songs": 2682,
    " Another": 2683,
    " change": 2684,
    " passed": 2685,
    " characters": 2686,
    " wife": 2687,
    " English": 2688,
    " eye": 2689,
    " staff": 2690,
    " Senate": 2691,
    " beginning": 2692,
    " Arjona": 2693,
    " Valky": 2694,
    " Ser": 2695,
    "cting": 2696,
    " station": 2697,
    " Pat": 2698,
    " Bul": 2699,
    " mass": 2700,
    "ishing": 2701,
    " Val": 2702,
    "erous": 2703,
    "ples": 2704,
    "During": 2705,
    " pound": 2706,
    " Later": 2707,
    " Ital": 2708,
    "idence": 2709,
    "quare": 2710,
    " dark": 2711,
    " attacks": 2712,
    " purch": 2713,
    " School": 2714,
    " turre": 2715,
    " steam": 2716,
    " respect": 2717,
    " movement": 2718,
    " debut": 2719,
    "rief": 2720,
    " wooden": 2721,
    " Despite": 2722,
    " earlier": 2723,
    " invasion": 2724,
    " Avenue": 2725,
    " International": 2726,
    " available": 2727,
    " Eddie": 2728,
    " UFC": 2729,
    " Olmec": 2730,
    "At": 2731,
    "win": 2732,
    "eder": 2733,
    " sen": 2734,
    " fo": 2735,
    " pen": 2736,
    " don": 2737,
    "ador": 2738,
    "ams": 2739,
    "imb": 2740,
    " sus": 2741,
    "imum": 2742,
    "ateg": 2743,
    " ill": 2744,
    "arian": 2745,
    "alling": 2746,
    " vill": 2747,
    " Lie": 2748,
    " thick": 2749,
    " pred": 2750,
    " manag": 2751,
    " Blue": 2752,
    " director": 2753,
    " taking": 2754,
    " remaining": 2755,
    " increased": 2756,
    " eventually": 2757,
    " redu": 2758,
    " children": 2759,
    " football": 2760,
    " favor": 2761,
    " positive": 2762,
    " Kingdom": 2763,
    "quarters": 2764,
    " amphib": 2765,
    " Rajneesh": 2766,
    "stein": 2767,
    " Lorenzo": 2768,
    " example": 2769,
    " Empire": 2770,
    "owntown": 2771,
    "ica": 2772,
    " rein": 2773,
    " Cro": 2774,
    "omm": 2775,
    "iding": 2776,
    "cend": 2777,
    "erson": 2778,
    "oph": 2779,
    " lif": 2780,
    " Kn": 2781,
    " prot": 2782,
    " voc": 2783,
    "stant": 2784,
    " heav": 2785,
    "pped": 2786,
    " let": 2787,
    " cru": 2788,
    " tell": 2789,
    " compan": 2790,
    " Matt": 2791,
    " common": 2792,
    " ult": 2793,
    " Camp": 2794,
    "ground": 2795,
    " Rec": 2796,
    " offered": 2797,
    " Gold": 2798,
    " trib": 2799,
    " meas": 2800,
    " soon": 2801,
    " names": 2802,
    " mother": 2803,
    " concert": 2804,
    " subject": 2805,
    " goal": 2806,
    " France": 2807,
    " key": 2808,
    " Team": 2809,
    " screen": 2810,
    " Derry": 2811,
    " Charles": 2812,
    " western": 2813,
    " community": 2814,
    " leng": 2815,
    " counter": 2816,
    " pitcher": 2817,
    " wanted": 2818,
    " Temple": 2819,
    " planned": 2820,
    " George": 2821,
    " probably": 2822,
    " abandon": 2823,
    " already": 2824,
    " econom": 2825,
    "lin": 2826,
    "iser": 2827,
    "aled": 2828,
    "oming": 2829,
    " My": 2830,
    "otes": 2831,
    " Pal": 2832,
    " conve": 2833,
    "tong": 2834,
    " Game": 2835,
    " und": 2836,
    " Bond": 2837,
    "ansas": 2838,
    "ibr": 2839,
    " enough": 2840,
    " Turn": 2841,
    " forward": 2842,
    " neg": 2843,
    " need": 2844,
    "nings": 2845,
    " inform": 2846,
    " Govern": 2847,
    " monit": 2848,
    " lower": 2849,
    " decision": 2850,
    "atively": 2851,
    " cert": 2852,
    " bridge": 2853,
    " opened": 2854,
    " Island": 2855,
    " weeks": 2856,
    " steel": 2857,
    " nomin": 2858,
    " victory": 2859,
    " Africa": 2860,
    " guitar": 2861,
    " Roman": 2862,
    " profess": 2863,
    " Second": 2864,
    " Museum": 2865,
    " minutes": 2866,
    "ociety": 2867,
    "ikamar": 2868,
    "ouncil": 2869,
    " brief": 2870,
    "sc": 2871,
    "ita": 2872,
    " ple": 2873,
    " Tor": 2874,
    " So": 2875,
    "inent": 2876,
    " bur": 2877,
    " sol": 2878,
    "oti": 2879,
    " Lou": 2880,
    "rial": 2881,
    "utive": 2882,
    "aud": 2883,
    " adop": 2884,
    " mach": 2885,
    " Iron": 2886,
    " Sea": 2887,
    "anced": 2888,
    "angu": 2889,
    " shell": 2890,
    " operation": 2891,
    " repair": 2892,
    " itself": 2893,
[...]
